#version: 0.2
ï ¼
ä ¸
ã Ģ
ï¼ Į
ç ļ
çļ Ħ
ä º
æ ľ
ãĢ Ĥ
å ħ
å ľ
å ı
å ¤
å ¹
ä »
æ ĸ
å ®
å¹ ´
å Ī
å Ĳ
ãĢ ģ
ç Ķ
ä ½
å į
å °
æ ĺ
å Ń
å Ľ
å ¾
æ Ĺ
ä ¹
æ Ī
ä¸ Ń
åľ ¨
ä¸ Ģ
ï¼ Ī
ï¼ ī
å ¸
é Ģ
äº º
å Ĭ
å¤ §
æ Ń
æĺ ¯
é ģ
å Į
è ¡
å ·
æ Ķ
é ĩ
ç ī
è ¿
æľ ī
æ ķ
è Ģ
å ±
â Ģ
å º
æ °
1 9
å Ĵ
ç Ĥ
è ĩ
æ ī
æ Ŀ
é Ļ
åĴ Į
é ĥ
å ¼
ç Ľ
é Ľ
ä ¼
æĹ ¥
æ ³
å ĩ
2 0
æľ Ī
åľ ĭ
çĤ º
åĽ ½
è Ī
ä» ¥
ç »
å Ĩ
å ¯
æ Ļ
ï¼ ļ
è ®
ç §
å ¥
ç «
æ ²
å ½
ç ¾
äº Ĩ
åľ °
è ¦
å ī
æĪ Ĳ
ä¸ į
å Ł
æ ł
ç İ
å İ
ç Ĳ
æ µ
æ Ľ
ä ¾
æ ĭ
è ¨
ä¸ Ĭ
ä¹ ĭ
å »
ç ķ
æ ¸
è ¯
å Ģ
ä¸ º
é Ŀ
ç ´
åĩ º
å ĵ
ãĢ Ĭ
ãĢ ĭ
ä¸ »
é ¦
æ İ
æ ´
å ĭ
ç Ļ
ä ¿
æ Ģ
è¡ Į
çĶ Ł
éĥ ¨
ç ¬
é «
é ĸ
ç ¨
ä» ĸ
ä½ ľ
ç º
åħ ¬
å® ¶
å ĳ
è ģ
è §
æĸ ¼
æ ¯
çĶ ¨
ç µ
æĸ ĩ
æ° ĳ
åħ ¶
æĸ ¯
å ¿
ç Ń
é ļ
åĪ Ĩ
æ³ ķ
æ ±
è ª
ç¬ ¬
è µ
æ ŀ
è ĥ
æĶ ¿
åŃ ¸
é ķ
æ Ĭ
é ĺ
åŃ ¦
æ ¬
èĢ Į
æľ ĥ
åĲ į
åı Ĭ
è ¢
æĻ Ĥ
åŃ Ĳ
åĪ °
è »
è ¥
å §
ãĢ Į
ãĢ į
é Ĺ
æĸ ¹
å¾ Į
æľ ¬
ç Ī
è ¾
è¥ ¿
å¤ ļ
è ³
åĲ Į
èĩ ª
Â ·
æ Į
è ·
è ĭ
è¢ «
å¸ Ĥ
ç ¶
ä¸ ĸ
åı ¯
ä» £
çĶ ±
å ł
æĸ °
åį Ĺ
ç ©
æ ¨
ä¸ ĭ
é »
å £
æľ Ģ
èĪ ĩ
é ł
é ¡
äº İ
20 0
âĢ ľ
âĢ Ŀ
åĮ Ĺ
é« ĺ
ç ľ
ä¸ ī
æī Ģ
ç« ĭ
çŃ ī
ä¹ Ł
æķ Ļ
çĲ Ĩ
ç ½
çī ¹
çī ©
å¤ ĸ
è¦ ģ
ä½ į
ç ¤
å ¦
åī į
ç¾ İ
ç ¥
æ Ħ
æ ¼
ç ģ
å¾ ·
åĽ ł
ç Ħ
å» º
è Ń
é Ł
æ ı
åĪ ©
äº ĭ
åĮ ĸ
è ī
ä¸ ª
è ´
åĲ İ
å± ±
é Ĥ
èĥ ½
æµ ·
å® ļ
æŃ ¤
åĬ ł
å¤ ©
ç ı
æľ Ł
è ©
å¾ Ĺ
åı °
ç Ł
ä» »
äº Į
éģ ĵ
èĢ ħ
æ ĵ
åĲ Ī
ä¼ ļ
åĢ ĭ
åħ ¨
è ½
å· ¥
éĢ ļ
è ¶
æĹ ¶
çİ ĭ
åħ ĭ
èĩ ³
å° ı
çĻ ¼
è £
è Ļ
ä½ ¿
è¡ ¨
æ¸ ¯
è· ¯
åį ģ
è ²
åħ ¥
ç ±
æĢ §
æ ¥
æ ĥ
e r
åº ¦
ä½ Ĩ
å Ŀ
é ¢
ç ³
è Ĳ
éĩ į
è Ĥ
å¹ ³
1 0
åħ ±
a n
æ¬ ¡
éĻ ¢
éĩ Į
è ĳ
ç ®
åĮ º
çĽ ¸
ç į
éĥ ½
é £
éĿ ¢
å ģ
ï¼ Ľ
ç ·
åİ Ł
åĬ Ľ
åį Ģ
å¼ ı
ä¾ Ĩ
éĽ »
å Ĥ
è» į
ç ¸
æĭ ī
ç ¦
æ º
è ¼
æĺ İ
å® ī
æ ©
å ¢
å° į
çĲ ĥ
åŁ º
å¦ Ĥ
è ı
åĭ ķ
åŁ İ
åħ ĥ
éĩ ĳ
ç³ »
èĭ ±
æ ®
æ Ł
ç§ ĳ
åı ĳ
å£ «
ï¼ī ï¼Į
æ² »
1 8
å ķ
åĪ ¶
å° Ķ
é¦ Ļ
ç ł
ä¸ ¦
i n
åĵ ¡
éķ ·
å· ŀ
æŃ £
æĪ ĸ
o n
ä¸ İ
æ° ´
åº ľ
åĨ Ľ
19 9
è Ĭ
é ©
éĩ ı
å½ ±
å¸ ¸
æ¯ Ķ
è «
è¿ Ļ
éĢ Ļ
åı ²
éĸ ĭ
åĽ Ľ
å ĸ
å¯ ¹
çķ Į
æ ¢
åı ¸
æĪ °
å¥ ³
1 2
ç¶ ĵ
èµ ·
åı £
å ¡
æ ģ
æ ¡
æĶ ¹
æł ¼
æĿ ±
æİ ¥
è Ĺ
é¦Ļ æ¸¯
æ¼ Ķ
éŁ ³
å Ķ
å ²
çĦ ¶
å¿ ĥ
æł ¡
æı Ĳ
0 0
éķ ¿
æĿ ¥
æŀ Ĺ
åĪ Ĺ
çı ¾
âĢ Ķ
å° ±
çĽ ®
è İ
æĦ ı
æ© Ł
çģ £
ç¨ ĭ
å¸ ĥ
çķ ¶
é ħ
ç¤ ¾
éĸ ĵ
ä¸Ń åĽ½
éģ İ
æ ·
äº ¤
ç« Ļ
é ľ
ç ¯
é« Ķ
1 1
æ Ĵ
ä¸ ľ
è ĺ
çĪ ¾
éĺ ¿
é¦ ĸ
å° ĩ
å¼ Ģ
åħ §
å° ¼
åŃ Ĺ
ä¿ Ŀ
e n
åĲ ĳ
å· ´
å½ ¢
åı Ĺ
å¤ ª
å¹ ¶
åł ´
åĬ ¨
å ĥ
å ŀ
åĵ ģ
æľ Ŀ
åı ¤
o r
æ į
æī ĭ
å§ ĭ
æķ ¸
äº Ľ
ç» ı
æĺ Ł
ç¨ ±
äº ŀ
æ ¶
ç© º
æĮ ĩ
æµ ģ
éĽ Ĩ
èī ²
a r
æĶ¿ åºľ
éĢ ²
å· ²
æĹ¥ æľ¬
a l
æĹ ı
è °
è» Ĭ
åĮ ħ
æ¥ Ń
æ ħ
å± ķ
æķ °
è ±
çĽ ´
åĨ ħ
ç¥ ŀ
å ¨
åĲ Ħ
æ £
äº Ķ
é ĵ
è º
èĳ Ĺ
å¸ Ŀ
èı ¯
åı į
æĮ ģ
ç ¿
é¦ ¬
ä¿ ¡
ã ĥ
æľ º
çľ ģ
19 8
æ² ³
ç Ŀ
å Ħ
è į
çī Ī
æĽ ´
æ± Ł
æ »
è¿ ĩ
ç ²
èĢ ĥ
ç® ¡
çµ ±
éĹ ľ
å§ Ķ
åĳ ĺ
äº ļ
çİ °
äº ¬
å° ĳ
èª ŀ
åŀ ĭ
å® ĺ
ä½ ĵ
ç¬¬ ä¸Ģ
ä¸ ļ
æĽ ¾
åı¯ ä»¥
ç± ³
é Ń
èº «
ç ¹
åĳ ½
æĪ ĺ
å ³
20 1
æ¸ ħ
ä½¿ çĶ¨
æ´ ²
è¨ Ń
e s
a t
é ¾
åħ ©
åħ ī
ç ĭ
å Ļ
éģ ĭ
æ ¹
éĢ ł
ä» ¶
é º
ç ¢
åķ Ĩ
éĿ ŀ
è§ £
è¿ Ľ
çł Ķ
Ġ (
æĥ ħ
ç§ °
éĹ ´
èģ ¯
çĶ µ
ç¨ ®
åı ĸ
åĽ ŀ
åİ ¿
è³ ½
ç¾ ©
ï¼ī ãĢĤ
ç¸ ½
ç· ļ
åħ¬ åı¸
éļ Ĭ
çµ Ĳ
è¦ ĸ
è Į
å° Ĩ
æĶ ¯
çĦ ¡
è¨ Ģ
ä¸ĸ çķĮ
çŁ ³
æ ĩ
æĿ İ
æŃ ¦
é ¤
åį ³
ç¤ º
å± Ģ
åį ¡
é© ¬
è¯ Ń
äº §
åı ª
ä¸Ń åľĭ
æ´ »
ç§ į
ç Ĺ
ç ĥ
èĩ º
åı ĥ
å¤ «
Ġ S
æ¨ Ĥ
ç» Ł
å® Ĺ
ç ĩ
ç© ¶
ç´ Ħ
èĻ Ł
Ġ -
éģ ¸
ç¾ ħ
æĶ ¾
æĽ ²
è¿ ĳ
å® ĥ
çĻ ½
èŃ °
åı Ĥ
i c
æ³ ¢
è Ĵ
èĤ ²
åĻ ¨
åī ĩ
çļ ĩ
æĽ ¸
æĢ »
åħ Ī
è® ¾
ç½ Ĺ
åĤ ³
çłĶ ç©¶
ç ĳ
æ ¿
æĻ ®
ä¸Ģ ä¸ª
æŀ ľ
å½ ĵ
æ´ ¾
è ħ
è¨ Ī
éģ Ķ
ç ¼
çµ Ħ
äºº æ°ĳ
åį İ
åı Ī
æĶ ¶
1 5
æº Ĳ
ä¸» è¦ģ
ä» Ĭ
ï¼ į
æŃ Į
h e
èª ª
é Į
èĺ Ń
i s
åħ ³
åħ Ń
çĶ ¢
1 6
æĭ ¬
èģ Ķ
è§ Ĵ
Ġ C
ä¾ ĭ
å¯ ¦
é Ħ
éĸ Ģ
19 7
1 7
åĪ Ŀ
åİ »
åľ Ł
ç ĸ
ä¸ ¤
è³ ĩ
ä¹ ī
i t
ç¾İ åľĭ
çŁ ¥
ä»¥ åıĬ
åĭ Ļ
å¾ ŀ
åĨ į
å® Į
æľ ª
åĮħ æĭ¬
éĢ £
éĻ ¤
åħ µ
çī ĩ
åĢ ĳ
åħ «
æł ¹
åħ¶ ä»ĸ
å¼ ķ
åı ·
äº ¦
åĳ ¨
ç¦ ı
æŃ »
ä» İ
æĪ ĳ
å¾ Ģ
éĥ¨ åĪĨ
èĪ ª
å® ŀ
ä¹ ¦
æĸ Ļ
l e
ä¸ Ķ
å¾ Ī
ä» ¤
ä¼ Ĭ
åŃ ĺ
ä¸Ģ åĢĭ
å± ħ
æľ į
ç´ Ģ
èª į
è¿ Ĳ
ç Į
è Ħ
å¤§ åŃ¸
19 4
ä» ¬
é Ĳ
ç» Ħ
å¨ ģ
æ® µ
ç ħ
æ ļ
å¤§ åŃ¦
ä¹ Ŀ
è¾ ¾
æ¯ ı
åı° çģ£
å» £
æ ¾
æİ ¨
èĬ ±
æ¬ Ĭ
çĶ °
æ ¦
æĸĩ åĮĸ
çº ¿
å¸ Į
åĬ Ł
å® £
19 6
19 5
é¡ ŀ
ä¿ ®
çĻ ¾
å¢ ŀ
åħ¶ ä¸Ń
æĬ Ģ
é» ¨
åľ ĺ
è® ¡
å¥ ½
Ġ A
Ġ M
è« ĸ
æĩ ī
è¶ ħ
Ġ P
æĶ¿ æ²»
ç Ĩ
åħ ·
éĢ Ł
çİ ĩ
ï¼ī ãĢģ
æī ĵ
è® Ĭ
æ ½
äºº åı£
å± ŀ
ç¬¬ äºĮ
åľ º
æ± Ĥ
æĹ ©
å® ¢
æ §
æĴ Ń
è¶ ³
ã Ĥ
å¼ µ
ç ĵ
çº ¦
ç¸ £
éĺ Ł
æ¯ į
åı ¦
é Ĭ
è© ²
å¢ ĥ
åħ °
æķ ħ
åĪ ¥
å¹ ¿
è® ®
å¤ ®
1 4
1 3
åĽł æŃ¤
åİ Ĩ
å¸ «
ä¸Ń çļĦ
æ¡ Ī
ä¼ ¯
ç½ ®
å° İ
ä¸ ĥ
èĻ ķ
ç ¡
æŃ ·
çģ «
å® ¹
èĩ ´
å³ ¶
o l
è¯ ´
åŁ Ł
éł ĺ
æĬ ķ
ä¼ ł
ç ª
åħ ļ
åĽ½ å®¶
èĲ ¬
ç± »
æĺ ĵ
è¶ Ĭ
è½ ¦
é Ķ
åĬ ĩ
ç Ĭ
éĿ ©
å¥ ¹
åĬ ¡
ä¸Ń å¤®
å± ¬
åĵ Ī
ä½ ķ
çķ «
æŁ ¥
ä¸ ĩ
çĤ ¹
æĶ »
çļĦ ä¸Ģ
åĲ ī
æķ ´
åŃ £
ãĢĭ ï¼Į
é» ŀ
åį °
çº §
çį İ
å· ±
3 0
æĻ ¯
ä¾ Ľ
è¡ ĵ
é¢ Ĩ
ãĢį ï¼Į
åº §
å¤ ±
çľ Ł
ã ģ
å¯ Ĩ
æ² Ļ
çĹ ħ
é ª
i on
æĹ ł
ç» ĵ
æĪĲ çĤº
s t
éĤ £
æ¹ ĸ
åĿ ĩ
å¿ Ĺ
è± ¡
çį ²
e l
çĶ ·
æ¨ ¡
z h
èĪ ī
é Ĩ
æĥ ³
ä»£ è¡¨
ç´ ł
ç¾İ åĽ½
åł ±
éĿ Ĵ
åį ļ
Ġ T
ç» ´
éĻ Ĳ
æ ĳ
ä» ½
r o
åħ ¸
åį Ĭ
ä¸į åĲĮ
åĸ ®
ç¾ ¤
åı¯ èĥ½
å¤ Ħ
ä¸Ń å¿ĥ
è¦ ĭ
çı Ń
åĬ ©
å¡ Ķ
åĥ ı
å¸ Ń
çº ª
è® º
èĢ ģ
ç´ ļ
è ¬
éĲ µ
åł Ĥ
è¿ ĺ
æĢ Ŀ
éļ Ľ
è¨ ĺ
é ²
åº Ķ
åħ± åĴĮ
éľ Ģ
æī į
å¾ ĭ
ç¶ Ń
ç¯ Ģ
éĹ ¨
æĵ Ĭ
2 2
æķĻ èĤ²
r e
o f
å ĺ
èĩª å·±
Ġ t
ç® Ĺ
å· Ŀ
é¾ į
æ´ Ľ
æľ ¯
è ĸ
ä¹ĭ ä¸Ģ
åĳ Ĭ
æĸ ½
é£ Ł
å° Ī
æ± ī
èĭ ı
å ´
æĿ ĳ
å® ¤
å¯ ¼
æİ Ĵ
æ² Ĵ
å¿ µ
é Ĵ
âĢĶ âĢĶ
å ©
2 1
ä» į
è® ¤
éł Ń
æ¢ Ŀ
æ Ĥ
éĽ» è¦ĸ
çĿ £
æĦ Ł
å° Ħ
è® °
âĢĿ ãĢĤ
çĽ Ł
æĿ ĥ
ä½ Ľ
åı ĺ
æľ ¨
æŃ ¥
ç Ĵ
èĲ ½
åı ĭ
é¢ ¨
ç« ł
éĸĭ å§ĭ
æĦ Ľ
åľ Ĵ
é» ĳ
ä½ ı
æĪĲ ç«ĭ
} -
æ¸ ¸
Ġ B
æį ®
ãĢĭ ï¼Ī
æ± º
è¡Į æĶ¿
ä¾ ¿
åľĭ å®¶
ç¶ ²
å·¥ ä½ľ
æĬ Ĭ
åĭ Ĵ
åľ ĸ
2 5
æī ¹
- {
æ° £
ãĢį ãĢĤ
ä»ĸ çļĦ
æ Ĳ
æĵ ļ
| |
a c
è£ ½
è¯ ¥
å¹´ ä»£
ä½ İ
çĪ ¶
åº ·
éħ į
éĺ ²
çĻ »
éĽ ·
è§ Ģ
çĪ Ń
æ° ı
æŃ ¢
å¼ ·
åĽ ¢
æ· ±
ä¹ Ĳ
è¡ Ĺ
æ¼ ¢
ç² ¾
19 3
çľ ĭ
é¡ Į
a m
éĤ Ħ
è½ ī
æī ¿
Ġ of
åĪ Ļ
åĽ ¾
éĻ ³
u s
çķ Ļ
éĵ ģ
åī µ
âĢĿ ï¼Į
éĻ į
å¸ ¶
å¡ ŀ
ä½ľ åĵģ
èµ Ħ
2 3
åĶ Ĳ
åį ĥ
æĽ ¼
åī ¯
èģ ĸ
éĢ ī
Ġ L
éģ Ĭ
æµ İ
èĩº çģ£
è¨ ±
i l
åŁİ å¸Ĥ
è³ ª
æ¨ Ļ
è¼ ĥ
å¥ ĩ
ä¸Ń èı¯
éĻ ¸
ç§ »
an d
e t
å¥ ¥
ä¸Ĭ çļĦ
æ´ ĭ
åį ł
Ġ I
æ£ ®
çĿ Ģ
éĻ ħ
æ³ ¨
å¯ Į
éĺ ³
åĶ ±
é ½
å¸ Ī
åĢ ¼
è¦ ª
åĵ ¥
æ¶ Ī
éĽ» å½±
å¹´ çļĦ
æķ Ī
ç °
éĽ ¢
å¤§ çļĦ
æİ §
i d
æĬ ¥
èµ Ľ
åĨ ł
a s
æīĢ æľī
ä¾ Ŀ
å¼ ł
æ²Ĵ æľī
æī ĺ
å»º ç«ĭ
èģ ·
éķ ĩ
c h
æ¾ ³
ä¿ Ħ
æĿ ¡
è¿ °
åľ° åĮº
éĩį è¦ģ
èĴ Ļ
äº ī
æŃ Ĳ
æŀ Ħ
åį ķ
åģ ļ
åį ĩ
ç· ¨
è¡¨ ç¤º
o m
å¥ §
åĮĹ äº¬
çĵ ¦
æĬ Ĺ
æĹ ħ
en t
åĩº çīĪ
ç®¡ çĲĨ
èªį çĤº
å¯ Ł
æ° Ķ
çº Į
å¿ ħ
Ġ R
å® Ī
èª ¿
i g
é §
æŃ£ å¼ı
å¤ ı
åĪ «
Ġ D
ä¸Ģ äºĽ
åķ ı
Ġ H
åĢ Ļ
åľ° åįĢ
éĮ Ħ
çī Ļ
u r
in g
èĪ ¬
æľ Ľ
å¤ĸ éĥ¨
äº ¡
åĪ Ĵ
2 4
è´ ¨
èĪ Ī
çħ §
æĪĲ ä¸º
æ° ¸
è Ķ
å·¥ ç¨ĭ
é» ĥ
æ§ ĭ
è§ Ĩ
åº ķ
äºº çļĦ
çĶ± æĸ¼
åĽł çĤº
èĹ ı
çº ³
åĲ «
é¤ ¨
èİ ·
å¤ į
æł ĩ
e d
èĺ ĩ
è§ ģ
å¼Ģ å§ĭ
ç¥ ĸ
æł ¸
é İ
çĶ ²
ç½ ĳ
å® ĭ
å§ Ĩ
éĩ İ
è¾ ¦
çĩ Ł
æ² ¡
æ ¤
èĹ Ŀ
éĻ Ħ
åİĨ åı²
è¦ ı
åģ ľ
çł ´
ä¸Ĭ æµ·
çŃ ĸ
éĽ Ħ
Ġ G
é ¬
å° ģ
æ³ °
ä¹Ł æĺ¯
ä¸ ĵ
æİ Ī
è ĵ
æĺ ¥
u n
è§ Ħ
ç¥ ¨
åŁ ĥ
ãĢĭ ãĢģ
çķ¶ æĻĤ
æ Ĩ
åŃ¦ éĻ¢
ç´ ¢
éĤ ¦
åº Ĺ
2 8
åĨ ³
éĢ² è¡Į
æŃ· åı²
è£ Ŀ
é£ Ľ
è¿ ª
å» ¶
äºĭ ä»¶
éģĭ åĭķ
çĻ¼ å±ķ
èģ ²
çľ ¾
èŃ ¦
æģ ©
åħ Ĵ
ä¾ĭ å¦Ĥ
çĳ ŀ
éĢ Ģ
å§Ķ åĳĺ
çµ ¦
ä½ ³
é£ İ
è© ±
ç´ į
å² Ľ
å· ¦
ä»ĸ åĢĳ
åĩ Ĩ
åį Ķ
æģ ¯
èĭ± åľĭ
åľĭ éļĽ
æıĲ ä¾Ľ
éŁ ¿
æĺ¯ ä¸Ģ
æĭ ¿
éļ ¨
æ¨ £
ä¸ ģ
çī Į
å¿ «
è¿Ľ è¡Į
çļĦ äºº
Ġ E
ç¬¬ ä¸ī
è¡ Ľ
æĸ¹ éĿ¢
5 0
éĻ ½
åº ı
çª ģ
çµ Ĥ
æĶ¯ æĮģ
é¢ ĺ
Ġ Ġ
å¸ ¦
2 7
æĪ ²
ï¼Ī ï¼ī
æ¿ Ł
Ġ F
2 6
èĩª çĶ±
èĬ Ĥ
åĺ ī
ä¼ ¼
ä¸» ä¹ī
é ¹
éĦ ī
ä¸ ¹
åħ¬ éĩĮ
ç»ı æµİ
éĹ ®
èĪ ¹
åĲ Ľ
åĩº çĶŁ
èĭ ¥
éļ Ĩ
ç £
éł ħ
ä½Ĩ æĺ¯
è° ĥ
âĢ ĵ
çį ¨
åł ¡
éĨ «
ä¸Ģ èĪ¬
ä¹ ħ
é ¼
åĬ ĥ
çĴ °
ãĢĭãĢģ ãĢĬ
å¯ «
æ²¡ æľī
ç³» çµ±
200 5
æ°ĳ åľĭ
åľ° æĸ¹
æĪ ¿
è®¤ ä¸º
ä¹ĭ å¾Į
å ª
å¼ º
æ¥ µ
çĮ ®
åıĤ èĢĥ
ç¤¾ æľĥ
éĢ Ŀ
æ¨ ĵ
è© ŀ
å°± æĺ¯
éĻ Ĩ
è¿ ŀ
åĪ ¤
æŀ ¶
é¾ Ļ
åĽ Ń
ç¹ ¼
åĤ Ļ
éĽ ħ
åĬ ī
ç¨± çĤº
ç´ ħ
è® ¸
Ġ W
äººæ°ĳ åħ±åĴĮ
è§ Ĥ
ç± į
åĪ ĩ
åŃĺ åľ¨
éħ Ĵ
é» Ħ
00 0
åĬ ŀ
åĪ Ľ
äºº çī©
æ¬ §
åı ³
æĻĤ æľŁ
æ® º
ä¸ ¾
çķ ¥
èĩ £
éĢļ è¿ĩ
å® ®
åī §
è© ķ
2 9
äº¤ éĢļ
æĿ ¾
ä¸ĸ çºª
æ¯ Ľ
å² ¸
å¾ ®
ä½į æĸ¼
é ³
æ² ¹
200 6
æľ «
ä¸Ń åįİ
è¡ Ģ
ç½ ²
æł ·
è® ĵ
æľĢ é«ĺ
è ŀ
å¼ Ł
æĹ Ĺ
ç¦ »
æ¢ ħ
éĽ Ļ
èĥ ¡
çĶ ļ
Ġt he
èŃ ī
ç¼ ĸ
ç¤¾ ä¼ļ
éŁ³ æ¨Ĥ
å¤ ´
çĶŁ æ´»
éĢ Ĳ
èŃ ·
ä¸» ç¾©
å§Ķ åĵ¡
h an
éľĢ è¦ģ
èī ¯
å¯ º
å¾ ©
æľ Ĺ
æķ Ĺ
ä» ĭ
èĤ ¡
éĿ© åĳ½
å¾ ģ
éĥ ¡
ä¸ĸ ç´Ģ
æĳ ©
éļ ı
è² »
200 4
éĢļ å¸¸
åĩ »
æĿ Ł
è¾ ĥ
200 0
åĿ ¦
åº Ń
ç³» åĪĹ
ç» Ļ
èĪª ç©º
ä»ĸ ä»¬
åħ¨ åĽ½
æīĢ ä»¥
åį ı
èµ °
å½± éŁ¿
åį «
ä½į äºİ
å± ¤
å¹ ²
i v
æ°ĳ ä¸»
é² ģ
a d
åĲĮ æĻĤ
åĽ½ éĻħ
èģ Į
åģ ĩ
è½ ¬
çļ ®
éģ Ń
æĸ¹ å¼ı
å½ ¹
è Ľ
ç¹ Ķ
ç§ ¯
Ġ N
å¥ ĸ
åĨ ľ
å½¢ æĪĲ
åıĳ å±ķ
åĸ Ħ
åıĹ åĪ°
ç§ Ģ
å· ®
çŁ Ń
èį ī
èĮ ĥ
åľ į
é ¥
éĢ ģ
é ¸
åĭ Ŀ
æĬ ¤
æıĲ åĩº
äº Ĵ
ç» ĩ
åħ į
çĶ± äºİ
æ ª
åĨ Ļ
ä¸» å¸Ń
æ°ĳ æĹı
ç³» ç»Ł
ä¹ ĺ
çĭ Ģ
ç« ¯
é¦ Ĩ
å© ļ
è Ĩ
æ¤ į
è¦ģ æ±Ĥ
å® ģ
ä¼ ģ
æĹ¶ æľŁ
åĢ «
çĪ Ĩ
çĥ Ī
éĤ Ĭ
æĻĤ éĸĵ
ä» ģ
èĲ ¨
ï¼ī ï¼ļ
4 0
æĪĲ åĬŁ
èĢ ¶
ï¼ļ âĢľ
at ion
éİ ®
æľĢ å¾Į
è¯ į
çį² å¾Ĺ
çļĦ å¤§
çĽ Ľ
ä¼ ¦
æĿ Ĳ
åıĥ èĢĥ
åľ £
æħ ĭ
ãĥ »
200 8
t h
åľĭ æ°ĳ
å¾ Ĵ
200 7
å¼ Ĺ
æķ £
éĢĿ ä¸ĸ
çº ¢
çŃ ĳ
çĽ® åīį
åĩº çı¾
åĭ ¢
èİ «
æĻ ļ
è¯ ģ
åĶ ®
åŃ¸ æł¡
è£ ¡
æŃ ²
èĭ± åĽ½
å° ļ
ç¶ĵ æ¿Ł
æ¢ ģ
ä½ľ ä¸º
é¡ ¹
é¡ ¯
æº ĸ
æľ ±
å° ¾
æĻ º
åĵ į
å¤§ åĪ©
åħ ´
è¯ Ŀ
çİ ī
çĨ ±
6 0
åĮ »
éŃ ¯
çĭ ¬
å¾Ĺ åĪ°
åį ·
æĵ Ķ
èµ «
20 10
åħ· æľī
éģ ł
è¿Ĳ åĬ¨
ç¬ ¦
æ¯ Ĵ
è³ĩ æĸĻ
å½ Ī
éĬ Ģ
éħ ¸
å®Į æĪĲ
çļĦ æĺ¯
ä½ľ çĤº
ãĢĤ âĢĿ
åĸ ľ
200 3
éĽ ĸ
ä¿ Ĥ
Ġ and
æ¸ ©
ä¸Ńèı¯ æ°ĳåľĭ
çİ ¯
å± Ĩ
å® ³
ãĢ Ģ
èĳĹ åĲį
u m
åŃ¦ å®¶
è¯ º
å¢ŀ åĬł
ç© į
æº «
Ġ d
a g
æİ§ åĪ¶
æĺ Į
è¾ ¹
è« ¾
åħ ¼
ï¼ļ ãĢĮ
å ļ
èī ¾
åį° åº¦
è° ·
éĢł æĪĲ
o s
è¨Ń è¨Ī
æľī ä¸Ģ
ç¦ ®
èĲ ¥
åĩ ł
èĩª çĦ¶
Ġ ||
è¼ ī
é£ ¾
o w
è¶³ çĲĥ
çī Ľ
åĥ ¹
åŃ¸ éĻ¢
19 0
ç§ ¦
ç° ¡
ç» Ń
æĸĩ çĮ®
ä½ Ļ
æ² ¿
éŁ ĵ
çĪ µ
èĥ Į
è¨ Ĭ
é» İ
è© ¦
æ» ¿
äº ²
éŃ Ķ
çĪ ±
è£ ħ
t er
é£ ŀ
å£ °
è¼ ¯
ç»Ħ ç»ĩ
èī º
è¨± å¤ļ
æº ª
å¹ ¾
ç» Ī
ç¯ ĩ
è¿Ļ ä¸ª
ç¢ º
ç¯ ī
éĵģ è·¯
ãĢĭ ãĢĤ
æ´ ¥
ç¦ ģ
è® Ģ
äº Ī
äºĮ åįģ
æŀ ģ
è¿ ½
æĸ¹ æ³ķ
éĥ½ æĺ¯
éĢĻ äºĽ
å¾Į ä¾Ĩ
èı ²
æİ ¡
çĦ¶ èĢĮ
åĥ ħ
çĽ Ĭ
çĶŁ çī©
ç½ ª
èį ·
åŃ¸ å®¶
æŁ Ĳ
èİ· å¾Ĺ
å¤ ĩ
è¾ ĸ
éĻ µ
ä¹ ¡
ãĢį ï¼Ī
200 9
æ¸ ¬
èģ ŀ
å§Ķåĳĺ ä¼ļ
o d
è² ł
å» ·
æ³ķ åĽ½
èĴ Ĥ
åŃ¦ æł¡
å± ĭ
åĲĮ å¹´
å¦Ĥ æŀľ
èŃ ¯
ä¸į æĺ¯
åª Ĵ
è ľ
æ¬ ¾
i r
èĸ ©
åĬł åħ¥
éĩ ĩ
åĦ ª
ä¸Ń åħ±
æ¦ Ĥ
i m
ä»» ä½ķ
èĪ ŀ
æ© ĭ
åį »
åıª æľī
éĢ£ çµĲ
åĲĮ æĹ¶
o p
çµĦ ç¹Ķ
8 0
éĽ ²
20 12
éĢĻ åĢĭ
Ġ p
ç» §
äºĨ ä¸Ģ
è· Ŀ
ç§° ä¸º
ä¼ Ĺ
è¾ ²
éĢ ı
ä» Ģ
åĦ ¿
200 2
çĻ¼ çı¾
å¯ ¶
çĻ¼ çĶŁ
åŁ ·
æĢ ģ
åĵ ²
æĮ ī
å¤ ľ
è« ĭ
åķı é¡Į
æĪ ¶
å»º çŃĳ
i a
åŃ «
æĪĺ äºī
ç¸½ çµ±
ï¼Į ãĢĬ
å½ ķ
u l
æ¦ ®
t e
éĽ £
åı¦ å¤ĸ
èŃ ĺ
å® ĩ
éĥ İ
ç« ¥
æĬĢ æľ¯
åĲĪ ä½ľ
éł Ĳ
éº Ĺ
c t
20 11
è¿Ļ äºĽ
æľī éĻĲ
æĭ ľ
éĹľ ä¿Ĥ
Ġ O
er s
éĿŀ å¸¸
æĺ¯ åľ¨
åĪ Ĭ
æ¡ ¥
è ķ
å³ °
äººæ°ĳåħ±åĴĮ åĽ½
éĩ ĭ
æı ´
éĻ¤ äºĨ
èİ ±
æľį åĭĻ
æľĢ ä½³
a y
éĻ Ī
åŁº æľ¬
åĲ ¦
æĸ¯ çī¹
æ³ķ åľĭ
çĶ »
æ³ ģ
ä¸» æķĻ
æĴ ¤
Ġ b
åĪ ĺ
å¾· åĽ½
åĲ ¸
å· ¨
åĿ Ģ
åĽ º
æĿ ¿
æİ ¢
ä¸Ģ çĽ´
ç§ ģ
éł ĵ
è² ¬
çį »
èī ¦
éģĬ æĪ²
ä¹Ł æľī
å± Ĭ
ç¡ ®
å½± åĵį
çķ °
Ġ f
éĵ ¾
200 1
çĶļ èĩ³
é ĭ
æļ ´
åħ¬ è·¯
èĳ ī
è¯ Ħ
ä½ ł
æĪ° çĪŃ
201 3
è´ Ŀ
æ¼ «
å»º ç¯ī
å¤§ éĩı
æİ¥ åıĹ
åĶ ¯
Ġ c
æĸ ·
å± Ĥ
åŁº çĿ£
æı ı
å§ ĵ
å®Ĺ æķĻ
æķ ĳ
ç« ¹
æĶ¿ çŃĸ
çļĩ å¸Ŀ
éĿ Ī
ç¯ Ħ
æ¿ Ģ
éĽ ª
æ¼Ķ åĵ¡
æ´» åĭķ
Ġ J
åĪ »
æĪ ı
èĪ Ĭ
å¿ ł
10 0
åĽł ä¸º
Ġ s
éŃ ı
è´ ¹
201 4
å½¢ å¼ı
å½ĵ æĹ¶
Ġ K
éª Į
ä¹ĭ åĲİ
åļ ´
å®ĺ æĸ¹
çĽ £
çĽ´ æİ¥
æľŁ éĸĵ
äº ĳ
ä¹ İ
çļ Ĩ
Ġ ï¼Ī
è² Ŀ
ä¸į èĥ½
åĪ° äºĨ
åĽ ´
èĩªå·± çļĦ
ä» ħ
éĹ® é¢ĺ
åĲ ³
æķ ¦
ä½ Ī
åıĤèĢĥ æĸĩçĮ®
æĢ§ çļĦ
æĵ į
ç¿ »
7 0
è»Ĭ ç«Ļ
æĿ ľ
æŃ¤ å¤ĸ
ä¸Ńåįİ äººæ°ĳåħ±åĴĮåĽ½
å®Į åħ¨
åĳ ¼
çµ ķ
a p
= "
æ³ ī
ç§ ĭ
ä¹ĭ éĸĵ
âĢ ¦
ä¸Ń æĸĩ
e m
æ½ ®
201 6
ç¯Ģ çĽ®
å¹ ķ
æ¥ ¼
å¤ĸéĥ¨ éĢ£çµĲ
ç¿ °
èĢ ³
ç§ ĺ
åı Į
åħ ħ
è¯ ķ
éĢ Ķ
ä½ Ķ
åŃ¸ çĶŁ
è· Ł
çĽ¸ éĹľ
ï ½
o t
| -
éł Ī
3 1
èĥ ŀ
æł¹ æĵļ
æ® ĸ
æĵ ģ
æ´ ª
ç¼ º
éĽĸ çĦ¶
è¿ ľ
æĪĲ åĵ¡
çī© çĲĨ
çĶµ å½±
ç¢ ¼
åįģ äºĮ
é© Ĺ
201 5
o g
æĻĤ ä»£
å£ ĵ
æĸ Ĺ
é¡ ¿
èģ ļ
Ġ in
u t
æĹ¶ éĹ´
æ· ·
18 9
åģ ¥
å®£ å¸ĥ
çĬ ¶
åı¦ ä¸Ģ
æĿ Ģ
è¿ «
æµ ĭ
ç´ °
å§Ķåĵ¡ æľĥ
199 9
åķ Ł
æĵĶ ä»»
åıĸ å¾Ĺ
ä¾ µ
å¹³ æĸ¹
èŀ į
20 20
éģ Ĺ
è© ©
ç§ĳ åŃ¦
è ¤
å° ¤
ä» ·
ä½ľ çĶ¨
éĽ ¨
æĥ ł
S B
çĥ Ń
å¾ Ĳ
å¾· åľĭ
æķħ äºĭ
æł¹ æį®
åº «
ä¹ Į
æĺ ¾
ãĢ ī
åº Ĩ
è§Ĵ èī²
æ° §
199 8
ãĢ Ī
ç¿ Ĵ
æ³ķ å¾ĭ
é ¨
æ¥ Ĭ
é¤ ĺ
ä¹ĭ åīį
åı ¬
çĬ ¯
é¦ĸ æ¬¡
æŃĲ æ´²
åĤ ·
åĪ© çĶ¨
æĽ ¹
éģ ĩ
ãĢĤ ãĢį
æ» ¡
é ®
å² ģ
ä¼ ĳ
åĿ ¡
ä¸» æĮģ
æĪ ·
æĺ ł
å®ļ çļĦ
è½ ½
çĤº äºĨ
åĪ¶ åº¦
æŁ ı
æŁ ĵ
çīĪ æľ¬
åĪ º
è¯Ń è¨Ģ
ä¹ĭ éĹ´
æĭ į
201 7
ç» Ĩ
ä¾ ¯
å¸Ŀ åľĭ
é¬ ¥
ï½ ŀ
20 19
ç© Ĩ
o c
å¾Ī å¤ļ
ä¸ĭ çļĦ
ç¬¬ åĽĽ
æŀ Ĳ
éĩį æĸ°
çľ ¼
æ³ Ľ
å¤§ å¤ļ
åĪ ĳ
å¦ »
åº ĵ
å·² ç¶ĵ
åĩº çİ°
20 18
çī¹ åĪ¥
äº ķ
åħ¨ çĲĥ
åĲį çĤº
199 0
åĨł è»į
å¤§ éĻ¸
ç«ĭ æ³ķ
is t
å «
è¿ Ķ
éº ¥
æĸ° çļĦ
éĵ ¶
é į
æŃĮ æīĭ
å¾ ħ
199 7
è² ¡
Ġ V
å¥ ī
è¯ Ĩ
ç® Ģ
é ĳ
éĢ ĥ
æĬ µ
æķĻ æİĪ
ig n
éľ ²
å¹´ èĩ³
æı Ľ
7 8
éĵ¾ æİ¥
åı° åĮĹ
å¥ ı
å·² ç»ı
èĹ ¥
å¹³ åĿĩ
è¼ ķ
åĪĨ åĪ¥
èĲ Ĭ
åıĳ çĶŁ
è¥¿ çıŃ
å½ Ĵ
è®¸ å¤ļ
è´ £
æŃ ¸
åĳ ³
3 5
å® ľ
æ® ¿
éľ į
è¥¿çıŃ çīĻ
è± Ĳ
èĢĮ ä¸Ķ
åīį å¾Ģ
æĹ© æľŁ
å¥³ æĢ§
èĻ İ
èĳ £
è¯ »
èĩª æ²»
éŁ ©
å°į æĸ¼
è®¾ è®¡
åĬŁ èĥ½
éģ ¿
åįĹ äº¬
å¸ ķ
æ± ½
èĥ½ åĬĽ
Ġ m
éĲµ è·¯
çĲ ´
èªŀ è¨Ģ
åħ³ ç³»
æħ ¶
åĩ ½
åıĳ çİ°
. .
) ï¼Į
è£½ ä½ľ
èģ¯ åĲĪ
è¡Į çļĦ
ä½¿ å¾Ĺ
åĨ µ
éŃ ļ
éĢļ éģİ
ç¶ «
èĤ ī
çĤ ¸
éļ İ
ä½ľ å®¶
å·¥ ä¸ļ
åŁ ¹
ä¼ļ è®®
9 0
çĶ¢ çĶŁ
â Ķ
è Ŀ
ç© ¿
åĦ Ħ
èģĶ åĲĪ
åĨ ·
çļĦ åľ°
åħ Ħ
è¿Ļ ä¸Ģ
æ¨ ¹
æĶ¹ éĿ©
æī ¾
åĬ ¿
å®ī åħ¨
åĨ °
æ¸ ¡
å® «
å· ¡
éģ¸ èĪī
æĸ Ń
æ±º å®ļ
es s
èĮ ¶
èĥ½ å¤
åį ±
çı ł
å° º
æį ķ
ä»ĸ åľ¨
ä¸į éģİ
éĿ ł
ä¿ Ĺ
æľĥ èŃ°
SB N
æĽ ¿
ä¸ ´
è³ ¼
å² ©
è¿ İ
çİĭ æľĿ
èĩ ¨
èĥ ľ
å¸Ŀ åĽ½
å° Ĭ
éª ¨
è£ ģ
å¤ĸéĥ¨ éĵ¾æİ¥
Ġ U
a v
çį¨ ç«ĭ
æ¥ ļ
éģ º
çĶ ³
å ¶
ä¸ ½
ä½į ç½®
èĴĻ åı¤
åĮĹ éĥ¨
çĽ´ åĪ°
è¼ ¸
åĩº çļĦ
éĻĦ è¿ĳ
æĭ ħ
éĩ Ĭ
ä¸įåĲĮ çļĦ
æĹ ĭ
çĸ ĳ
éĽ ľ
è¡ £
å» ł
r i
æĢĿ æĥ³
è¼ ª
éĦ Ń
åĮħ åĲ«
æĵģ æľī
åħ¬ åħ±
ä¿Ŀ æĬ¤
æŃ» äº¡
a b
åŃ Ķ
ãĢį ãĢģ
è´ Ł
èħ ¦
ï¼Ī ï¼īï¼Į
çĶµ è§Ĩ
æ¼ ¸
å» ī
æĢ» ç»Ł
æĪ ´
æ² ĥ
ç¹ ģ
å´ ĩ
çļĦ æĥħ
éŁ³ ä¹Ĳ
é¢Ĩ å¯¼
æľīéĻĲ åħ¬åı¸
c e
æĪĲ çļĦ
çĹ ĩ
ä¸¦ ä¸Ķ
æ¸ Ľ
æĪĸ èĢħ
éļ ¾
å® Ŀ
é ı
ç¬¬ä¸Ģ æ¬¡
é² ľ
éĢ² åħ¥
è¯ Ĺ
æ§ į
åħ± åĲĮ
199 6
çĥ ı
çĳ ª
han s
æ¤į çī©
ä¸¤ ä¸ª
æ´» åĬ¨
ï¼ Ł
åį Ī
è ¹
èĩº åĮĹ
åĭķ çķ«
åħ© åĢĭ
å¢ ĵ
æį ·
æ± ł
åħ± äº§
æĢ ¥
åľ° çļĦ
åıĥ èĪĩ
ï¼ ģ
æ³ ½
åĶ¯ ä¸Ģ
åįĹ éĥ¨
åħĥ ç´ł
20 21
åİ ĭ
åĤ ĳ
ä¸ ¥
åı ¥
æĿ± äº¬
äº ¿
ä» Ļ
åı «
èĹĿ è¡ĵ
ç· ´
; }-
åĪĹ è¡¨
å½ ©
è® ©
æľŁ éĹ´
éľ ĩ
æĸ° èģŀ
åı ¶
æĺ Ń
æĺ¯ çĶ±
åĦ Ģ
éĽ ¶
èĤ ¯
å¥ ª
éĥ Ń
åĲ ´
æĸ¯ åĿ¦
æĻ ī
æİ Į
æ¬§ æ´²
ç» Ŀ
ç§ĳ æĬĢ
ä¸Ģ èµ·
ä¹ ¾
å¤ĸ äº¤
4 5
éģ ·
åįļ çī©
ä½ Ĳ
å±ħ æ°ĳ
ç¬¬ åįģ
åº Ħ
éº »
éļ Ķ
ä¹ ł
æ¾³ éĸĢ
æ¶ ī
ä¸Ģ æ¬¡
æŃĮ æĽ²
æ´ ŀ
æŃ ¡
èĬ ¬
ç§ Ł
éĺ »
è´ ¥
æį ¢
å¥ Ĺ
åĨ ¬
åİŁ åĽł
åĤ³ çµ±
åŃ Ļ
éł »
éĿ¢ ç§¯
ä¼ Ĳ
å¾ µ
3 3
èı ľ
æ¹ ¾
199 4
èĪ į
ä» ĺ
é Ī
åŃĲ çļĦ
æ¶ ²
è² ¨
éĢ ±
çĦ¡ æ³ķ
198 0
a e
è¾ Ľ
å¨ ľ
å®¶ åºŃ
ĠS t
æĭ Ľ
èģ¯ çĽŁ
ï¼Ī ï¼Į
éº ¦
çİ ©
199 5
ä»¥ ä¸ĭ
al ign
äº ®
åĩºçīĪ ç¤¾
èµ ¤
T he
é ±
çĽ ĥ
ä¸Ģ ä¸ĸ
6 4
ç Ģ
å¢ ¨
è« ¸
èĭ± æĸĩ
æĭ ¥
éł Ĩ
è² ´
èĹ ¤
è®¡ åĪĴ
æĬĢ è¡ĵ
çĶŁ äº§
20 22
è¿Ļ ç§į
è®¡ ç®Ĺ
â Ĩ
ä»¥ ä¸Ĭ
çĲĥ åĵ¡
æ¼Ķ åĶ±
éĬ ·
å¦ ¹
è¨Ī åĬĥ
åŃ ©
çĶ ĺ
åľ° çĲĥ
åĲİ æĿ¥
% ï¼Į
åĽ½ çİĭ
åħ¬ åħĥ
ç½Ĺ æĸ¯
äº Ĥ
åħ¬ åľĴ
æĶ Ŀ
çł ģ
æĸĩ åŃ¸
æĦı å¤§åĪ©
ä»į çĦ¶
äºĮ ä¸ĸ
ä¹ ĥ
éĺ¿ æĭī
è§£ æĶ¾
é© »
é¤ Ĭ
å¸Į æľĽ
æī §
æĿ ¨
ç¾ ½
ç¿ ¼
åĬ ª
å» ³
é® ®
éĹ »
ç¥ Ń
æİ¨ åĩº
çĭ¬ ç«ĭ
éĥ¨ ä»½
éĺ ¶
è£ Ķ
å¤§ éĥ¨åĪĨ
199 3
å·´ å£«
æľĢ æĹ©
å¥ ´
èį ¯
ãĢ İ
ãĢ ı
ç§ĳ åŃ¸
åĨį æ¬¡
ç¾İ åħĥ
äº «
æľĢ çµĤ
çĽ¸ åĲĮ
æģ ¢
ï¼ļ ãĢĬ
åľ° çĲĨ
è´ µ
ĠI n
ä¸Ń åŃ¦
å°ı èªª
çļĦ åĲį
ï¼ ı
çĤ ®
çı¾ ä»£
ç¾ħ é¦¬
æļ Ĺ
ä½Ľ æķĻ
è Ł
u b
i e
Ġ zh
é§ Ĳ
æĻ ĭ
èĮ ¨
å®¶ æĹı
éļ ª
åĳ½ åĲį
ä¸ī å¹´
7 5
ä½ µ
éĻ ¶
Ġ 3
å°İ èĩ´
Ġ 9
% ãĢĤ
æĮ ¯
ä¼ ¸
éģ ©
çļĦ ä¸»
æ± Ĺ
âĶ Ģ
èĪī è¡Į
åĢ Ĵ
é«ĺ éĢŁ
è¯ ĳ
in e
æĹ §
åĢĭ äºº
åľ Ī
æľī çļĦ
6 5
æĪ ª
è¿ ·
æģ Ĳ
äºº å£«
é¼ ĵ
æ©Ł åł´
äºŀ æ´²
å¤ª å¹³
çĶ¨ äºİ
ĠT he
è£ Ĥ
ä¸Ń åŃ¸
å¯ §
ç½Ĺ é©¬
å¹ ¼
å»º è®¾
it y
æ¾ ¤
è¨ İ
éĩįè¦ģ çļĦ
è¿ ģ
å°Ī è¼¯
ä¸į å°ĳ
ä¸Ģ å¹´
ç»ĵ æŀĦ
æľĢ å¤§çļĦ
å¤§ éĻĨ
ãĢįãĢģ ãĢĮ
æ£ Ĵ
ç£ ģ
èª Į
è¾ ĳ
åĨĽ äºĭ
è£ ľ
èĳ ¡
æ» ħ
çĲĨ è®º
çĽ ĳ
æ¯Ķ è³½
199 2
è» Ł
åĬł æĭ¿
è¡ ¡
åŃ Ŀ
äº§ çĶŁ
é» ĺ
èĹ į
æĭ Ķ
o v
å¤ļ çļĦ
å¹´ åĩºçĶŁ
åĨ³ å®ļ
é½ Ĳ
çĩ ķ
è¿Ľ åħ¥
éĻ £
éģ į
ä¼ ĺ
èİ ī
åľ ĵ
åŃ¦ çĶŁ
çµĲ æĿŁ
æĨ ²
èª ²
å® ¿
åľ¨ æŃ¤
æĵ ´
æľĢ å¤§
å¥ Ī
éĢĻ ç¨®
æľī éĹľ
ç¾ħ æĸ¯
èĽ ĭ
èĭı èģĶ
åħĭ æĸ¯
18 8
èīº æľ¯
3 8
æĭ Ĵ
ä¸Ń å±±
å°¼ äºļ
åģ ı
el l
èĢħ çļĦ
ï¼Į âĢľ
åĭ ŀ
éĢŁ åº¦
4 8
Ġ w
å¹´ åº¦
æĿ °
ä½ ©
æµ ¦
ä¾Ĩ èĩª
å¹´ éĢĿä¸ĸ
h t
æ¸¸ æĪı
æıı è¿°
æ® Ĭ
åĪĨ æŀĲ
æĿ Ĥ
è¾ ĵ
å±¬ æĸ¼
éĽ» åŃĲ
è³ ĵ
äºº é¡ŀ
è¯ ·
é¢ ĳ
å¼ Ĥ
åĿ Ĳ
åĴĮ å¹³
ç¬¬äºĮ æ¬¡
èĩ³ ä»Ĭ
åŁ Ķ
è¦ º
ä¿¡ æģ¯
æĮĩ åĩº
åıĤ è§ģ
t w
çİ° ä»£
æľº æŀĦ
çĶ¨ çļĦ
h k
ar d
æ¡ ĥ
èİ İ
æĤ £
è¨ ª
é¢ Ħ
çĻ¼ è¡Į
åıĤ åĬł
æ³ķ éĻ¢
ä¸» ä»»
æ¦Ĥ å¿µ
çļĦ ä¸»è¦ģ
è« ĩ
åı¸ ä»¤
ç¤ ¼
çļĦ æĸ°
åħ± æľī
199 1
æ¼Ķ åĩº
çµĲ æŀľ
éĻ ·
Ġ 1
æī ©
åħ¨ éĥ¨
ä¸ ĺ
éļ ľ
èĶ ¡
äº ¨
æķ µ
å¹ »
âĢĿ ï¼Ī
æķ ı
éł Ĥ
èĻ ½
çģ µ
ç´ Ĳ
å¾ ½
åĪĨ åŃĲ
æľį åĬ¡
è¬ Ľ
éĶ Ģ
ç¡ ¬
ä¿ ĥ
å¤© ä¸»æķĻ
åĬ ³
ä» °
çŃī äºº
åįķ ä½į
éł Ĵ
è²ł è²¬
Ġ =
i f
åģ ¶
ä» Ķ
åĳ Ī
èĭ± æł¼
éĲ ĺ
èĪ °
å° ½
o b
æĴ Ĵ
âĨ Ĵ
è± ª
æĸ¹ åĲĳ
Ġ 2
å¾ ¡
è· ¨
å¼ķ èµ·
Â ł
å¯¹ äºİ
æ®ĸ æ°ĳ
åĢ Ł
ä¾Ĩ çļĦ
åľŁ åľ°
å¯ ©
è»į äºĭ
è¶ħ éģİ
åĽ °
è½ ¯
åħ¨ åľĭ
å¼ ±
ç´Ģ å¿µ
åĬł ä¸Ĭ
æ¸ħ æľĿ
åĪ© äºļ
èĶ £
åħ±äº§ åħļ
æŁ ¯
è¨ Ĥ
ä¸ °
æł¡ åıĭ
çī §
æħ Ī
å¼Ģ åıĳ
æĸĩ çį»
æķ° æį®
il l
ç³ ĸ
åģ ´
è¶Ĭ åįĹ
èĳ ¬
9 9
é ´
æĪ Ī
èį £
çĻ Ĥ
è¡ Ŀ
å» ¢
ï¼ī ï¼Ī
è» Į
ĠĠ ĠĠ
ç¬¬ äºĶ
ç° ½
5 5
åĸ® ä½į
åĭ ĩ
åĬłæĭ¿ å¤§
æľĢ ç»Ī
çĶŁ çĶ¢
3 6
æ¦ ľ
3 7
çķ ¢
198 9
æµģ è¡Į
æĸĩ åŃĹ
æ°ĳ åĽ½
r a
åľĭ ç«ĭ
çļĦ ä¸Ģä¸ª
4 7
ç² Ĵ
è¡Ĺ éģĵ
æµ ª
å¿ħ éłĪ
è´ ¢
åľ° ä½į
åİ Ĥ
é¡ §
è¯ ¸
ç´Ģ éĮĦ
åĽ½ æ°ĳ
è¨ ĵ
éĽĨ åľĺ
åħ »
o u
è¶ Ļ
æĹ ģ
çĲĨ è«ĸ
çĸ ¾
çı¾ åľ¨
æ¯ «
in d
é ŀ
è¥¿ æĸ¹
å¹ £
åİ» ä¸ĸ
æª ¢
èµ µ
é½ Ĭ
ç¥ ¥
ç²¾ ç¥ŀ
åħ ģ
éĸĭ çĻ¼
èĻķ çĲĨ
éŁĵ åľĭ
åĪĨ å¸ĥ
å¹´ åľ¨
å½ ¼
åĭķ çī©
èŃ° åĵ¡
ä¼ °
å¯¼ èĩ´
i an
æľĿ é²ľ
æľĢ åĲİ
ç« ¶
çİ Ľ
æ©Ł æ§ĭ
3 2
åįļ å£«
æĿ ¯
è½ Ħ
å¤ ¢
å·¥ æ¥Ń
ãĢĤ ï¼Ī
ç» ľ
é¡ º
åĪ© äºŀ
æľī äºĽ
æĸĩ åŃ¦
è¨ »
å±ŀ äºİ
æ² Ī
åĢ į
çĨ Ļ
âĢĿ ãĢģ
æ¢ °
åĩ ±
æİĴ åĲį
å» Ł
æĥ ¡
åħ³ äºİ
198 8
å·ŀ å¸Ĥ
g e
æĮ ¥
çĩ ĥ
åįģ åĪĨ
åł ħ
194 9
åĲĽ ä¸»
åŁºçĿ£ æķĻ
çĳ Ł
éĻ °
æ°§ åĮĸ
å°ĩ è»į
I I
è ¸
è¡Į çĤº
åĨ ²
å±ħ ä½ı
æµ Ļ
èĳĹ ä½ľ
a k
è¿ĩ ç¨ĭ
ç´ «
åıĸ ä»£
æĭ¥ æľī
ä¼ į
å·¦ åı³
çĽ¸ çķ¶
u d
åĩ ¡
æ¯ı å¹´
ent er
éĽĨ åĽ¢
Ġ l
çļĦ çī¹
æĻ® éĢļ
èı Į
åľĺ é«Ķ
åĬ¨ çī©
çĻ¼ è¡¨
çĲĥ éļĬ
es t
3 4
ĠC h
al l
ä¸į åı¯
åĮ ¹
åıĥ åĬł
æĹ¶ ä»£
é± ¼
æł ĳ
æ¨Ļ æºĸ
ä¹ĭ å¤ĸ
æħ ķ
ç»Ħ æĪĲ
åį ¢
è¤ ĩ
æ¨¡ å¼ı
åŃĹ æ¯į
éĻĲ åĪ¶
æĻ ¶
ä¸º äºĨ
ç² ī
è¿ĺ æľī
å¸Ĥ åł´
æ¡ ĳ
ãĥ ¼
æ» ĳ
ç¹¼ çºĮ
å¹ ħ
éĢı éģİ
æķ ¬
åıį å°į
ä½Ĩ åľ¨
N A
è¿ ħ
èģ ½
éĬĢ è¡Į
ä¹¦ è®°
æ¼« çķ«
ï¼Į ãĢĮ
3 9
æłĩ åĩĨ
åĮĸ çļĦ
r an
å¹ ¸
6 8
èĲ Ħ
èģ¯ è³½
é¤ Ĳ
è¦ Ĩ
é¡¯ ç¤º
èĳ¡ èĲĦ
å Ĺ
çŃ ¾
ar t
çı į
è¡ °
un d
äºº åĵ¡
å® ª
e w
åĪĨ åĪ«
å¥³ åŃĲ
éģĵ è·¯
è¢ ģ
197 0
ä¾ §
éĻ ©
æı ®
åħ§ å®¹
çŃ Ķ
é«ĺ çŃī
èĵ ĭ
æŁ ±
èĳ Ľ
e c
è¬ Ŀ
é ī
çº ½
å°¼ äºŀ
ç¢ ĳ
èĭ ¦
åĬ į
åı Ľ
é¡ ĺ
ä¿Ŀ æĮģ
çĹħ æ¯Ĵ
å¼ ¹
çµĦ æĪĲ
åĪ Ģ
æ¡ Ĥ
Ġ st
åıĬ åħ¶
æĶ¹ çĤº
åı¤ ä»£
å®ĥ çļĦ
çĤº ä¸»
åį ´
è¼ Ľ
åķĨ æ¥Ń
ä¹ Ī
æĬ ĺ
åİŁ åŃĲ
æİ¡ çĶ¨
çĤ İ
ä¼ł ç»Ł
å¤ļ æ¬¡
é¨ İ
éĥ½ æľī
æľĢ åĪĿ
æľº åľº
æ· ¡
æĭī æĸ¯
åĮ Ī
éĩı çļĦ
çĶµ åŃĲ
i p
ä¸ĸçķĮ å¤§
èĥĮ æĻ¯
çµ± æ²»
æĩ ·
å¤© æ´¥
å¹¶ ä¸Ķ
åĲ ĥ
åĩ ı
èĮ ²
åħ¬ åĽŃ
éĿĴ å¹´
çĽ ĸ
åĪĨ çĤº
æµ· è»į
ä¹ Ļ
æĪĳ ä»¬
çĽ® çļĦ
åŃ Ł
ç»Ł æ²»
åįģ å¹´
å®ĥ ä»¬
åĨĽ éĺŁ
å¤ª éĻ½
ä¸į ä¹ħ
ç¶ ł
çĽ¸ åħ³
ç¨ĭ åº¦
ç¨ĭ åºı
e b
çĴ° å¢ĥ
æ¹ĸ åįĹ
åī Ľ
æ¸ Ĳ
å¹´ èµ·
éĤ Ģ
é¬ ¼
è³ £
ç¡ Ģ
ä¼ ´
æĭħ ä»»
åŁº éĩĳ
æĿĲ æĸĻ
çĸ «
çĪ¶ è¦ª
198 5
å¨ģ å»ī
ç¸ ¾
å·´ é»İ
èŃ ½
åıª æĺ¯
éĽ» èħ¦
çĸ Ĩ
å¾ ĳ
è¡Į åĭķ
åĽĽ å¹´
çŃ Ĩ
åŁº ç¡Ģ
å½ Ń
æĪĲ åĳĺ
Ġ 4
éĿ¢ çļĦ
çµ ²
åŀĭ çļĦ
å® Ļ
æĶ» æĵĬ
å² ¡
195 0
åŁº åľ°
èµĦ æĸĻ
é¡ ¶
è¼ Ŀ
è¥ ²
èĬ ³
åıĥèĢĥ è³ĩæĸĻ
è® ²
çİ Ħ
é³ ¥
å¤§ èĩ£
å¡ ĺ
å¹ «
é¡ į
èĢĮ åľ¨
çĶ¨ æĸ¼
æ² ī
æĪ Ģ
åĬĽ çļĦ
o k
çĪ ²
æĺ¯ åĲ¦
çŁ ¿
è¡ĮæĶ¿ åĮº
èİ Ĭ
198 6
å»º éĢł
éı ¡
âĢĿãĢģ âĢľ
è· ĳ
å¤© æĸĩ
åıĥ è¦ĭ
åĮĸ åŃ¦
åĬł åĿ¡
è¨Ń æľī
' s
å¤© çļĩ
å»£ æĴŃ
ä¿ ±
198 7
èª ¤
å°ı åŃ¸
è¨ ´
ä¸Ģ æŃ¥
æ© «
ä¼ ¤
åĲį ä¸º
åĽ½ åĬ¡
åĪĹ è»Ĭ
è½ ¨
ç¶² ç«Ļ
åħĥ å¹´
æĪĳ åĢĳ
çİ° åľ¨
åİ ļ
ä¼Ĭ æĸ¯
èĳĹåĲį çļĦ
æĭ ĵ
å§ Ĳ
Ġ n
194 5
èĻ½ çĦ¶
éģİ ç¨ĭ
åľĭ çİĭ
196 0
éĮ ¢
éĽ»è¦ĸ åı°
çĨ Ł
åįĢ åŁŁ
åŁĥ åıĬ
èº« ä»½
é¦ĸ éĥ½
é¡ »
5 00
å®ŀ éªĮ
Ġ |
æĺ Ĩ
äºĭ åĭĻ
èŃ° æľĥ
æħ §
ä¼ģ ä¸ļ
æĸ¼ æĺ¯
èħ Ĭ
å»¶ ä¼¸
è¢ ĸ
çłĶç©¶ æīĢ
å¢ĥ åĨħ
ä¼ ı
6 7
æĸ° åĬłåĿ¡
ä¼ģ æ¥Ń
éĽĨ ä¸Ń
ä¿Ŀ èŃ·
æ£ Ģ
çĶ º
åĲ ¯
ä¿Ħ ç½Ĺæĸ¯
e v
æĿ¥ èĩª
æĿ¥ çļĦ
ãĢĤ ãĢĬ
é³ ³
åİŁ æľ¬
åįģ åħŃ
éĥ¨ çļĦ
ä¸ĩ äºº
åħ¶ å¾Į
ç¶ĵ éģİ
è¨Ī çķ«
5 8
ä¸» è§Ĵ
æĸĩ ä»¶
æŃ¦ åĻ¨
è½ »
198 2
- -
ĠI SBN
Ġ âĢĵ
å¹ ¹
Ġ 0
éģ Ĥ
æĵ ĩ
c enter
éģ £
ä¹ ±
åıį åºĶ
å°ı è¯´
åĪĨ ä¸º
æĸĩ çī©
è´ §
èĪī è¾¦
ç¾ Ĭ
éĢ Ĥ
éĸ £
èŃ¦ å¯Ł
4 4
äºº åľ¨
çİ¯ å¢ĥ
åĪĿ æľŁ
åªĴ é«Ķ
Ġ v
åĩº äºĨ
åħĦ å¼Ł
å¯¦ éļĽ
åħ¶ å®ĥ
è¥¿ åįĹ
å£ ½
ç¾İ æ´²
æ¹ ĺ
éģŃ åĪ°
ç ŀ
è½ ®
æĭ Ĩ
çļĦ é«ĺ
198 3
å° ĸ
ä¸į æľĥ
æĪĸ æĺ¯
åħ ¹
èĩ ĺ
åĲį çļĦ
è® ¿
å¥½ çļĦ
è¥¿ åĮĹ
çļĩ åĲİ
è®¾ ç«ĭ
ç»ĵ æĿŁ
å®ļ ä¹ī
5 7
æħ ¢
åĲĦ åľ°
å® ¡
ä¿¡ ä»°
åİ ħ
èĦ «
åĬĽ éĩı
åŁ· è¡Į
e p
è¾ ½
æĺ¯ æĮĩ
åħ§ çļĦ
å¥¹ çļĦ
ç¯Ħ åľį
ä»» åĳ½
æĸ¹ æ¡Ī
198 4
é¹ ¿
æ± ĩ
ä¸Ńåħ± ä¸Ńå¤®
æĽ Ĩ
çµĲ æ§ĭ
è´Ł è´£
äº¤ æĺĵ
iv e
åĽĽ å·Ŀ
ç¦ı å»º
åıį å¯¹
æ¯ ķ
è¬ Ģ
çĶŁ å¹³
èĵ ®
ç ĺ
å® ħ
éĩĮ æĸ¯
çī¹ åĪ«
éļ¨ èĳĹ
çķ¶ åľ°
åº Ł
çĶ· åŃĲ
æł¸ å¿ĥ
è¼ Ķ
ä½ľ æĽ²
ç½ĳ ç»ľ
åħ¬ ä¸»
è² ¿
å¾Į çļĦ
æģ Ĩ
å¦ ĥ
Ġ "
çºª å¿µ
ĠU n
çĽ §
é«ĺ éĽĦ
è¾ Ń
Ġ Y
å£ ģ
æĺ Ĥ
éļ ¶
5 9
çĬ ¹
çģ Ń
åįĹ åĮĹ
èĺĩ èģ¯
ç¬¬ åħŃ
Ġ a
æĭī åħĭ
åĦ Ĵ
s p
èĬ Ŀ
è£½ éĢł
åľ° ä¸ĭ
æĢ ª
åŃ¸ èĢħ
q u
å°¤ åħ¶
åģ ī
éĽ ķ
èĭ Ĺ
æĺ¯ ä¸Ģä¸ª
éĤĦ æľī
æľĿ é®®
é¸ Ł
éº ¼
çķ ª
ä¸į åĨį
éĥ¨ éļĬ
æĶ¶ åħ¥
ä½¿çĶ¨ çļĦ
äºº ç±»
18 7
çģ °
åį ĵ
æĽ¾ ç¶ĵ
è¥¿ äºŀ
ä¿Ŀ çķĻ
çļĦ æĦı
æľ ĭ
èĥ½å¤ ł
o ur
éĥ¨ éķ¿
6 6
ä¿Ħ ç¾ħæĸ¯
æī¹ åĩĨ
çĽ ¤
å°ĳ å¹´
æĸ¹ è¨Ģ
x t
éĮ ¦
æĮĩ æĮ¥
å° ĭ
ç§» æ°ĳ
éł ģ
å®ŀ éĻħ
æ¯ Ģ
ä¸ľ åĮĹ
äººæ°ĳåħ±åĴĮ åľĭ
è³ĩ è¨Ĭ
çĽ ¡
çķ¶ ä¸Ń
ac k
i k
äºĶ å¹´
éłĺ å°İ
äº¤ æµģ
å¸ ģ
çĶŁ åĳ½
è·¯ ç·ļ
197 9
æĻ® éģį
å® ¾
å´ İ
å± ¯
4 9
ä¸¦ åľ¨
è¡¨ æ¼Ķ
éĦ °
å± ı
çĹ Ľ
èĳ£ äºĭ
åľ Ĩ
ä¸Ģ ä½į
æĸ¯ çļĦ
è»į éļĬ
ï¼ī ï¼Ľ
ç©º éĹ´
åįĹ æĸ¹
èª¿ æŁ¥
èĪĪ å»º
éĽ»è¦ĸ åĬĩ
ä¹ Ķ
ç¸ ®
å² ³
éĩ Ŀ
åĸ ¬
äºº åĳĺ
åīµ ä½ľ
i b
æŁ ³
æľī æķĪ
å¤§ ä¼ļ
éĩĩ çĶ¨
ç® Ń
éĩĳ èŀį
æĲ Ń
æ²³ åįĹ
æ£ Ħ
Ġ /
ä¸Ńåľĭ å¤§éĻ¸
å£ ĩ
é«Ķ èĤ²
åĲĦ ç¨®
éĢĻ æĺ¯
éĴ Ł
æī İ
åħ¬ éĸĭ
ç¬¬ ä¸ĥ
æĲ į
åĽł èĢĮ
or d
æ£® æŀĹ
å®ļ ç¾©
20 23
æķĻ åłĤ
éĺ¿æĭī ä¼¯
æŁĲ äºĽ
I n
ä¹Ŀ é¾į
åĲĮ æĦı
åįĶ æľĥ
çĨ Ĭ
å¹³æĸ¹ åħ¬éĩĮ
S t
ä» ª
é£¾ æ¼Ķ
å£ ŀ
æ£ ĭ
æīĢ åľ¨
æ¶ ¯
ç»Ĩ èĥŀ
æĢ Ģ
èģĶ éĤ¦
é§ Ľ
f f
çī¹ æ®Ĭ
çļĦ ç¬¬ä¸Ģ
çļĦ çłĶç©¶
è¡Į æĺŁ
éĺ¿ å°Ķ
ä¸Ģ åĲį
on g
ä¸¦ ä¸į
åĶ± çīĩ
ä¹ ³
å°ı æĻĤ
æµĻ æ±Ł
åħ¬ æ°ĳ
Ġ ï¼Į
åľĭæ°ĳ é»¨
è¿Ļ æł·
å®ĩ å®Ļ
æĭ ³
èª ī
å¦Ĥ æŃ¤
çŃī çŃī
å¹¿ ä¸ľ
åĭ ¤
è¥¿ äºļ
éĵ¶ è¡Į
èĹ ī
éĨ« éĻ¢
è¡ ¥
åıĳ è¡¨
ãģ ®
åħĪ çĶŁ
ä»¥ å¤ĸ
ä»¥ åīį
å¤Ħ çĲĨ
å¯ ¬
éľ ¸
ç´ Ļ
çŁ¥ éģĵ
6 9
è³ ´
ic h
A T
åĩ½ æķ°
å¤§ åŀĭ
ç½ ķ
è³ ŀ
è§Ħ æ¨¡
æĶ¯ æı´
è¡¨ çı¾
éĿŀ æ´²
åĽŀ åĪ°
éģ¸ æĵĩ
æĹħ æ¸¸
ä¸į å¾Ĺ
ç©º éĸĵ
åº Ļ
éĥ ĳ
è¥¿ éĥ¨
éĿ¢ ç©į
éĢĲ æ¼¸
ç¢ ³
èµ ´
è¨Ń ç«ĭ
æµ ®
197 8
åļ´ éĩį
å¢ŀ éķ¿
æĪ° é¬¥
çĶ· æĢ§
an g
çļĩ å®¶
æļ «
éŁ© åĽ½
ä»¥ ä¾Ĩ
æĪĲ äºĨ
äºĮ å¹´
è¶ £
è´ ¡
åĽ½åĬ¡ éĻ¢
éĭ ¼
ä¸Ģ æ¨£
æĶ¿ æĿĥ
ç¤ İ
åıª èĥ½
8 8
åľ° åĪ©
ç»ĵ æŀľ
æĴ ŀ
åģľ æŃ¢
i o
è° Ī
y le
at e
çļĦ åīį
åĮº åŁŁ
è¶ħ è¿ĩ
æĳ Ħ
å¿ĥ çĲĨ
çº¦ ç¿°
åľ ³
a st
çļĦ å°ı
åºĶ çĶ¨
3 00
åŁº ç¤İ
èī ĺ
ç· Ĭ
å¡ ĳ
è² ·
198 1
åĲį ç¨±
åĭ ĥ
ç´ Ķ
å¸Į èħĬ
åĩ ¯
æĹ ¢
å¦ ®
ĠP r
ç´ ¹
æĺİ æľĿ
å¤« äºº
è· ³
æİ¥ è¿ĳ
æı Ĵ
åĨľ ä¸ļ
âĢ¦ âĢ¦
éĺ µ
æķĻ æľĥ
å¤ ·
æĵį ä½ľ
A M
ç© ©
èħ ³
è·¯ æĺĵ
çĮ ¶
å¹´ åı·
é¢ Ŀ
éĴ ±
è´ ¸
è² ¢
é«ĺ çļĦ
æ¯Ķ ä¾ĭ
ç¿ ł
åī ²
èĹ ©
æ· ®
èĦ ±
çİĭ åľĭ
è¦ ½
è° ¢
æľ¬ èº«
ä» ²
èĭ± éĽĦ
è° ĭ
T V
åĨ Ĭ
æĸ¹ ç¨ĭ
èĢĮ æĺ¯
éļ §
4 2
åıį æĩī
ãĥ ³
ä¸Ģ ç¨®
åĨħ å®¹
æĸĩ ç«ł
äº Ń
è£ ķ
ç§ Ĵ
è± Ĩ
éĿ ľ
éĬ ħ
åĩº ä»»
éĥ¨ éĺŁ
åīĩ æĺ¯
çİ »
æĭī ä¸ģ
or t
åħ±åĴĮ åĽ½
èĭ± èªŀ
u p
iv ers
é¡ŀ ä¼¼
çĵ ľ
æ¯ ģ
æĮ ĳ
äº¦ æľī
ä¸ī ä¸ĸ
éĮ ¯
ar y
C h
ç»ı è¿ĩ
ow s
ãĢģ ãĢģ
ä¸¾ è¡Į
å¸Į èĩĺ
è© ¹
æĶ¹ è®Ĭ
Â °
èµĦ æºĲ
çļĦ éĩįè¦ģ
" |
éĥ½ å¸Ĥ
æ¯Ķ è¼ĥ
å® ½
å¸Ĥ åľº
éģĭåĭķ åĵ¡
æıĲ é«ĺ
å» Ī
å¦» åŃĲ
éĶ ¡
éĩį å»º
èī² çļĦ
æİ ī
æķ° åŃ¦
éļı çĿĢ
åįģ ä¸Ģ
ç»§ ç»Ń
è§ ī
ä¸Ńèı¯ äººæ°ĳåħ±åĴĮåľĭ
r y
æ¼ĶåĶ± æľĥ
åıĤ ä¸İ
å¾ ª
èĢ Ģ
åħ¬ å°º
å® ı
æµ· åĨĽ
A R
å®ŀ çİ°
æĶ¹ ä¸º
id ae
ä¹ ı
ç¥ Ŀ
æ´ Ĺ
6 2
n e
çĩ Ī
æĺŁ æľŁ
çĲ ³
è¡Į ä¸º
å·¥ åħ·
åĲĪ çī©
éĩį çĤ¹
å¿« éĢŁ
åĭ ³
åĳ Ĥ
æģ Ĵ
çİĭ åĽ½
as s
å»£ æĿ±
çµ± ä¸Ģ
æĸ¯ ç§ĳ
å¹³ åİŁ
æ³¨ æĦı
æ± ¡
æĵĬ æķĹ
åĲĮ çĽŁ
é¡ ı
ç¬ ĳ
ç² µ
è¿Ķ åĽŀ
æĥħ åĨµ
è¦ĸ çĤº
æĹł æ³ķ
çļĦ ä¸ī
éĿ ĸ
or y
ä¸Ģ å®ļ
çķ¢ æ¥Ń
å¹´ åīį
æ½ ĺ
åĲĦ ç§į
å¸Ĥ æ°ĳ
æĨ ¶
è¿Ļ æĺ¯
ä½ľ èĢħ
åľĸ æĽ¸
Ġ ãĢĬ
ä¿ Ĭ
èģ¯ éĤ¦
éģ¿ åħį
æĹ ¦
ç»Ł ä¸Ģ
er t
å¾· éĩĮ
ä¹Ł è¢«
å°İ æ¼Ķ
æĴŃ åĩº
åĳ½ ä»¤
çĶŁ æ¶¯
è¡ĮæĶ¿ åįĢ
åħ± çĶ¢
èģĶ çĽŁ
å¤± åİ»
ç· £
åĴ ¸
æľī äºº
è³ ¢
ä¸Ģ ç§į
ç¦ģ æŃ¢
è¾¾ åĪ°
å¤© ä¸ĭ
æĴ °
é¥ °
å¥ ĳ
è¦ı æ¨¡
è¨ĺ è¼ī
ç² ¹
æı ļ
ç¹ ª
å®¹ æĺĵ
æĥħ æ³ģ
4 6
å¡ «
çĦ¡ ç¶«
åıĸ æ¶Ī
åķĨ ä¸ļ
åıĥèĢĥ æĸĩçį»
ç¶ ľ
çĩ Ĵ
äº§ åĵģ
ĠA n
) .
å¯¦ é©Ĺ
è® ¨
è ļ
å®£ ä½Ī
äºº å¤§
ä¸Ģ åº¦
ä¼¯ çī¹
æ¯Ķ èµĽ
æ¨¡ åŀĭ
å· §
9 8
æ¯Ķ å¦Ĥ
è® Ń
æº ¶
ä»¥ èī²
æī ¬
an t
ç´ ¯
æī¹ è©ķ
å¼ ĺ
æ¬ ²
é¡¹ çĽ®
äº¨ åĪ©
å¾ Ħ
çĶ¢ åĵģ
åĮĸ åŃ¸
ç¸½ çĿ£
éļ§ éģĵ
æģ¢ å¤į
åįģ åŃĹ
åĿ ļ
ä½ĵ èĤ²
è²¿ æĺĵ
åĪ¶ ä½ľ
h y
ä»¥èī² åĪĹ
èģ· æ¥Ń
éĽ¢ éĸĭ
Ġt o
ç¶ĵ å¸¸
æ¢ ¯
å© ¦
æµ ©
çļĦ æĸ¹å¼ı
éĵ ľ
è¨Ń æĸ½
4 1
æµ· æ´ĭ
i es
åįģ åħ«
äººæ°ĳ æĶ¿åºľ
è½¯ ä»¶
en s
æĸ¯ åŁº
åĲį åŃĹ
å¤ª ç©º
åĩº åı£
èī ĩ
å±± èĦ
æ½ Ń
7 7
åŁº åĽł
å¤ º
ä¹ĭ ä¸ĭ
å¿ į
å¿ħ é¡»
æ²³ æµģ
æĮĩ æı®
äºº ä»¬
æĿ Ń
æµ· å¤ĸ
æĹ¥ åľ¨
çĻ¼ åĭķ
æ³ ¥
æĮģ çºĮ
éĥ Ĭ
å±± ä¸ľ
åħ¥ ä¾µ
æĸ° éĹ»
è¿ ´
è¬ Ĥ
ä¹ĭéĸĵ çļĦ
èĮĥ åĽ´
èĤ ¥
æĹ¶ åĢĻ
èĦ ĳ
è·Ŀ éĽ¢
éĽ» åı°
æĻĤ åĢĻ
5 1
4 3
ä¸ĵ ä¸ļ
m an
é§ ķ
æĬķ ç¥¨
Ġf or
å½¢ è±¡
éļ »
éĩĳ å±¬
ç» ¿
åĲİ çļĦ
5 6
å°ĳ å¥³
å¾Ĺ ä¸»
å¹´ åºķ
æ¯į è¦ª
é£Ł åĵģ
Ã ©
äº§ ä¸ļ
ç´Ħ ç¿°
ä¾Ĩ æºĲ
æĺ¯ ä»¥
åĽł ç´ł
æĮī çħ§
18 0
è§ ¸
åĿ ĳ
åıĳ å¸ĥ
197 5
æª Ķ
ä¸į è¶³
æķ Į
å¾Ĺ ä»¥
åģ¥ åº·
è´ Ń
çļĦ åľ°æĸ¹
æĿ ī
çµ ¡
æĢ» çĲĨ
åı° æ¹¾
æĲ ľ
é£ ²
æŁ ´
ä» ¿
å¹´ éĸĵ
åĩ Į
åĮĹ æĸ¹
å¤ª åŃĲ
æĪ° å¾Į
çĽ´ èĩ³
å¹¿ å·ŀ
æ·± åľ³
çļĦ å¥³
åĢ ī
æİ ª
å¤§ æ¨ĵ
é«ĺ åº¦
Ġd e
ind ows
èĳ¡èĲĦ çīĻ
åı· çº¿
èĥ½ éĩı
ç¼ ©
åı¯èĥ½ æĺ¯
è¿ħ éĢŁ
å² Ń
ç¶² è·¯
åĿ Ĭ
èĭ±æł¼ èĺŃ
èį Ĵ
çļĦ äºĭ
çļĦ åİŁ
éĢĻ æ¨£
han t
æĦı å¿Ĺ
çĭ Ħ
æĪ Ĵ
èĽĭ çĻ½
åĪ¶ éĢł
éĢĲ æ¸Ĳ
éĢ£ çºĮ
å¼ ¦
æ «
å¯ Ĵ
195 8
ä¸º ä¸»
æĭ ¼
i al
æľª èĥ½
ä¸ŃåĽ½ äººæ°ĳ
æĵ İ
ä¸ŃåĽ½ åħ±äº§åħļ
E R
ç» ĥ
å µ
ä¸¦ æĸ¼
èĥ½å¤ Ł
åĿ Ĺ
çĪĨ çĻ¼
å¤§ æľĥ
çĬ¹ å¤ª
ä¸ĭ éĻį
è§Ħ å®ļ
c ol
æľĭ åıĭ
æ¶ ħ
æĿ¥ æºĲ
æľī åħ³
åĤ ħ
éĻ Ģ
åħ¨ éĿ¢
e ct
æĦ ¿
è¦ı å®ļ
æĴŃ æĶ¾
èį· èĺŃ
å¸Ĥ çļĦ
è ł
å»º æĪĲ
Ġ h
éĢī ä¸¾
éĸ ī
åĥ §
æĹ¥ èµ·
ä¸ĸçķĮ ä¸Ĭ
è®° è½½
åŃ¸ ç¿Ĵ
ä¹ĭéĹ´ çļĦ
çĸ¾ çĹħ
Ġ on
çĽ¸ ä¼¼
çĳŀ åħ¸
è´Ŀ å°Ķ
åŃ¦ ä¹ł
æ¯Ķ è¾ĥ
æ¬ ¢
éĸĭ æĶ¾
èĲ¬ äºº
å·ŀ çļĦ
æĬĹ æĹ¥
åī Ĥ
ä¸ī è§Ĵ
æ°´ å¹³
çĽ ĺ
æĭ ©
çº ¸
ä¸Ń æľī
å¹³ åı°
å¸ ®
B S
åĨħ çļĦ
) ãĢĤ
éĺ ´
çĽ Ĳ
å¦Ĥ ä½ķ
éļ ĭ
éĦ §
éłħ çĽ®
æīį èĥ½
æį Ł
æ¿ ±
çĽ ¾
åł± åĳĬ
A C
ä¾ į
5 2
è®¡ç®Ĺ æľº
åĨ Į
æĿ¡ ä»¶
ç¨ ¿
it h
éģ ľ
æĹ¥ èĩ³
èĢĮ è¨Ģ
é«ĺ ä¸Ń
ä¹Ł åı¯ä»¥
åį ¿
é£Ł çī©
é£Ľ æ©Ł
ä¸į è¿ĩ
å½ĵ åľ°
æĩī çĶ¨
å®ĥ åĢĳ
èĩ³ å°ĳ
æ¹ ¯
è®Ĭ åĮĸ
é¡ ¾
èµ ŀ
çŃī åľ°
æľĢ å¤ļ
è¡ į
éĥ½ æľĥ
èª ł
I S
æ¯Ľ æ³½
æĢ» äººåı£
é½ ¡
è¨Ī ç®Ĺ
ä¸ŃåĽ½ å¤§éĻĨ
åĲĮ ä¸Ģ
åĪ ļ
çļĦ åĪĨ
è® ¢
èĮ Ĥ
å½ °
çĪŃ èŃ°
ag e
åĮ ¯
å¦Ĥ ä¸ĭ
ç« ŀ
å»º èŃ°
p h
é µ
åľĭ çļĦ
å°¼ æĸ¯
åį ľ
åĨł åĨĽ
èĩª è¡Į
ç±» ä¼¼
A S
å¼ķ æĵİ
æ¨Ĥ åľĺ
åĶĲ æľĿ
æ¯Ľæ³½ ä¸ľ
æĽ °
A n
194 6
åįĶ åĬ©
5 3
ç½ĳ ç«Ļ
C D
éĢ Ĩ
éĢĻ ä¸Ģ
Ġ &
æ°Ķ åĢĻ
åľ¨ é¦Ļæ¸¯
æĶ¿ æ¬Ĭ
åĨį åº¦
on d
éĢ£ æİ¥
æĻ ¨
æľī æīĢ
æŃ£ åľ¨
éģİ åİ»
éŃ Ĥ
æ©Ł éĹľ
èĨ ľ
åħ¬åħĥ åīį
æ²³ åĮĹ
éĴ Ī
ig ht
çļĦ æĪĲ
æ³ Ĭ
åŃ ¤
çģ ½
æ±º è³½
Ġ ãĢĤ
ç¶ĵ çĩŁ
ä¸» é¡Į
éĢ Ĭ
å¹¿ æĴŃ
æŁı æŀĹ
åı Ķ
å± ł
ä¸ī åįģ
Ġ9 78
éĺ ħ
çĽ® æ¨Ļ
ç¶Ń æĮģ
éĹľ æĸ¼
æĺ¯ ä¸ĢåĢĭ
å»£ åĳĬ
éĻ¸ è»į
éħį éŁ³
ç¨ İ
å°½ ç®¡
åĩº èº«
u e
è¶ħ ç´ļ
en d
æĬķ åħ¥
Ġst yle
a in
ä¸ ²
åī ©
è¢« ç¨±çĤº
å¤ı åŃ£
åį³ ä½¿
ä¹ĭ ä¸Ń
çĦ ¦
on t
èĩºåĮĹ å¸Ĥ
åįļçī© é¦Ĩ
åħ¬ çĪµ
æ¶Ī æģ¯
è³½ äºĭ
æĽ¾ åľ¨
äºº åĴĮ
å¹´ è¢«
æĹ¥ çļĦ
è² Į
çĸ Ĺ
çĽ¸ å°į
è¢« ç§°ä¸º
åįĢ çļĦ
ç¨ ħ
æµ· å²¸
åħĴ åŃĲ
èĸ Ħ
6 1
197 6
èķ Ń
éį µ
ï¼ ħ
çį ¸
å¶ ¼
åıĳ åĬ¨
éĩį åºĨ
ä»¥ æĿ¥
çĩŁ éģĭ
ç´ §
åĲĮ æ¨£
åıĺ åĮĸ
æĪª èĩ³
ä¸ī åĢĭ
èµ· æºĲ
åĲĪ ä½µ
ç» į
ç» ¼
é«ĺ ç´ļ
å¼Ģ æĶ¾
â Ħ
éŁ ĭ
éĽľ èªĮ
åıĳ è¡Į
éĽĨ åĲĪ
æ» ¨
å° ī
çľĭ åĪ°
åĪ ¸
èĽ ĩ
å¨ Ľ
æĶ¿æ²» äººçī©
æ¨ ª
èģĶåĲĪ åĽ½
çľŁ æŃ£
åĲ ¾
éĥ µ
åŃ¦ èĢħ
åįı ä¼ļ
è§£æĶ¾ åĨĽ
197 3
ç´Ĳ ç´Ħ
5 4
éģ µ
éĥ¨ èĲ½
ä»¥ å¾Į
å¢ Ļ
çļĦ ä¸Ń
æķ´ åĢĭ
æ¸Ľ å°ĳ
e g
éģĶ åĪ°
A N
èĻ Ľ
éļı åĲİ
å°ı çļĦ
éĤ ¨
æī§ è¡Į
197 7
I SBN
åĦ ĺ
æ¾³ æ´²
æĹ º
ä¹Ł ä¸į
èĤ¡ ä»½
åĪ ·
æĪĺ å½¹
åĲ ¬
åı² ä¸Ĭ
ic al
å¹¶ ä¸į
e y
çĲ ī
è¡¨ éĿ¢
ä¹¾ éļĨ
åĤ ¨
åŃ© åŃĲ
è´¸ æĺĵ
å§ ¬
is h
èŁ ²
ä¸ª äºº
åªĴ ä½ĵ
è¿ŀ æİ¥
æĭī å¤«
åĲ¸ å¼ķ
è¯ ¯
éĢī æĭ©
O N
åĭ ĭ
O S
å ¬
è¿ ¹
éĤ »
æĺ¯ä¸Ģ ç¨®
æ½ Ľ
èĪ Ĵ
ç¹¼ æī¿
æ± ª
æ¯ķ ä¸ļ
o h
çī© è³ª
çį Ħ
å¤ªå¹³ æ´ĭ
åĲ Ĳ
æ¬ £
id e
197 2
é¢Ĩ åŁŁ
å½± çīĩ
å¯ ¿
æĽ´ åĬł
å¡ Ĭ
å·´ è¥¿
åı¤ åħ¸
éļ ±
å®Į æķ´
é«ĺéĢŁ åħ¬è·¯
æĸĩ æĺİ
é¡ Ĩ
ä¹Ł åľ¨
éľĢ æ±Ĥ
æĹ¥ è»į
ç¼º ä¹ı
é«Ķ çļĦ
ivers ity
éĸ ±
196 6
éŁ ¦
é£ŀ æľº
å¾Ģ å¾Ģ
çĽ¸ å¯¹
çī© è´¨
è¢ Ń
ä¼ ½
ä¸» å¼µ
éł» éģĵ
åĸ Ģ
å®ī æİĴ
or k
å±± å¤§
åįļçī© é¤¨
åĮ» éĻ¢
æĸ¯ åį¡
éĤ ĵ
å¹¶ åľ¨
è®® ä¼ļ
äºļ æ´²
å°Ĩ åĨĽ
193 7
å¹¾ ä¹İ
å¹´ éĹ´
âĦ ĥ
åĨ Ĵ
å§Ĩ æĸ¯
ä¹ĭ åŃĲ
éļ ¸
ĠP ro
ä¸ĭ è¾ĸ
194 8
æĬ ½
å£« åħµ
ç´° èĥŀ
éļİ æ®µ
çī¹ èī²
æı ¡
æ±½ è½¦
æ³ķ çļĦ
çĶ ¸
æ¯« ç±³
èĵ Ŀ
å¶ º
Ġ g
éª ĳ
æĢ Ĵ
ç¨ ³
196 7
æį Ĳ
Ġ 7
å§ »
èŃ ľ
ç¿ ģ
196 9
éķ ľ
è¯ ¾
çĽ¸ ä¿¡
é¦ĸ çĽ¸
é ·
å®¶ çļĦ
æĵ ¬
197 4
é©¬ æĿ¥
çĭĢ æħĭ
c n
a i
åħĴ ç«¥
é© ħ
æŀ ª
æŀĹ åĮ¹
çĽ¸ äºĴ
æķ´ ä¸ª
çļĦä¸Ģ éĥ¨åĪĨ
å»ºç«ĭ çļĦ
æ®ĸæ°ĳ åľ°
ç± Į
çĪĨ åıĳ
æĺ¾ ç¤º
æıĲ åįĩ
æī ®
çĸ ı
6 3
åĲĪ å¹¶
ç¸½ çĲĨ
çħ ¤
196 8
åįģ ä¸ī
é¢¨ æł¼
åĿ ı
æŃ£ å¸¸
ä¾ĭ åŃĲ
195 6
W indows
ä»» åĬ¡
æĤ ī
u st
ä¹ĺ å®¢
æ±Ł èĭı
çĴ ĥ
éĺ ģ
æķ¸ æĵļ
ä¹Ł å°±æĺ¯
195 2
åĵģ çīĮ
19 30
éķ· çļĦ
æķĪ æŀľ
ä¸¥ éĩį
è³ Ģ
éļ¨ å¾Į
æĿ¡ çº¦
ä¸Ģ æł·
çĪ¶ äº²
è£ ı
éĴ ¢
195 5
åº Ĭ
æĶ¿åºľ çļĦ
å¯ Ħ
æµ· æĭĶ
è§£ éĩĭ
åŀ Ĥ
ç¥ Ģ
äººåı£ ä¸º
éĭ Ĵ
u re
âĶĢ âĶĢ
å·¥ äºº
åľĸæĽ¸ é¤¨
å£ ¤
194 0
éĶ Ļ
æĶ¹ åĸĦ
åĽ¾ ä¹¦
æı Ń
éħĴ åºĹ
å¼ı çļĦ
om p
éķ· æľŁ
æĹ ¨
æģ ¶
æĺ¯ ä¸ŃåĽ½
ä»Ĭ å¤©
Ġ çļĦ
âĢ ł
é£Ľ è¡Į
åħ±åĴĮ åľĭ
éĻį ä½İ
éĶ ¦
ä¿Ŀ å®Ī
å±ķ éĸĭ
éĿ Ļ
194 7
ä¸Ń éĥ¨
èĢ Ĺ
çł ²
è² ĵ
è²Ŀ çĪ¾
å¨Ľ æ¨Ĥ
è¢« è¿«
çĲĥ åł´
åıĤèĢĥ èµĦæĸĻ
å¤§ ç´Ħ
éĸ ©
è² «
ro m
ä¸ī ä¸ª
å¤ļ å¹´
ç¬ Ķ
å¹¿ æ³Ľ
çĶŁ çļĦ
çĭ Ĥ
æ³ ³
æīĢæľī çļĦ
ä¸Ģ å¸¶
ä»¥ åĲİ
çŁ¥ åĲį
ä¿® æĶ¹
o ok
åıĪ ç¨±
åĭ ģ
çĽ¸ æ¯Ķ
é¼ ł
åİŁ ä½ı
éĺ¿ çĪ¾
æĦŁ åĪ°
éģ ķ
çĭ ¼
é ¯
å» Ĭ
ĠE n
æľĪ åı°
æĻĤ çļĦ
æĽ´ å¤ļ
èĴ ¸
ä½ĵ çļĦ
æķĻ å®Ĺ
ä»» åĭĻ
å¼ ĥ
ĠA r
è¾ ŀ
åįł é¢Ĩ
åŃ¦ ç§ĳ
åĴĮ åħ¶ä»ĸ
æĹħ éģĬ
ä¸»è¦ģ çļĦ
ä¸ Ī
æĽ¾ ä»»
è¡¨ æĺİ
è½¨ éģĵ
u c
åĽ½ åĨħ
f t
éħį åĲĪ
æ¢Ŀ ç´Ħ
è¨ĵ ç·´
é¦¬ ä¾Ĩ
å°ı æĹ¶
å¼ķ çĶ¨
èħ ¹
197 1
éĩį å¤§
æĪ° å½¹
èĢĮ ä¸į
è¯ģ æĺİ
19 20
æĲ ¬
åľ° éľĩ
åĲĪ æĪĲ
è¿ĳ ä»£
éĽĻ æĸ¹
ãĢĭ ï¼ļ
èŀ º
196 5
å»£ åł´
ac e
çª Ĺ
B C
æ©Ł æľĥ
æ¹ĸ åĮĹ
Ã Ĺ
ç¶ ±
åįı è®®
èĭ ĳ
åı¸ æ³ķ
æĬ¥ åĳĬ
åĪĨ éĲĺ
é¦ĸ åħĪ
ä¸Ģ åĪĩ
è¥¿ èĹı
æ® ĺ
è§Ħ åĪĴ
åº¦ çļĦ
åĦĺ ç®¡
èª² ç¨ĭ
çĭ Ĺ
æŃ¡ è¿İ
æŃ¤ åĲİ
çº½ çº¦
æľĪ åĪĿ
çļĦæĥħ æ³ģ
ç¤ ¦
195 4
éĶ ®
8 9
çī¹ çļĦ
åįģ å¤§
ç· Ĵ
èĩº ä¸Ń
è¡ĮæĶ¿åĮº åĪĴ
èħ Ĳ
æĤ ²
é¹ ½
ç¢ Ł
çĳŀ å£«
åĦ ²
è½¦ ç«Ļ
ä¸»è¦ģ æĺ¯
æŀ Ŀ
195 9
å»£ å·ŀ
éĮ «
åĢ« æķ¦
é¦ ®
åľ¨ åħ¶
196 4
èª ķ
åįģ äºĶ
A l
ä¿ ĺ
Ġ .
è¯ ī
e x
éŁ »
åĪĨ é¡ŀ
åħ¬ å®¤
196 1
çĦ¶ å¾Į
æĺŁ çļĦ
æŀĹåĮ¹ åħĭ
çĻ Į
å¦ Ļ
çļĦ å½±éŁ¿
ä¸ľ åįĹ
æ¾³ å¤§åĪ©
ä¸ Ŀ
ç¨ »
or m
ä½ľ æĪ°
åľ¨ å¤§
åŃ¸ è¡ĵ
éĤ ®
åįģ åĽĽ
ç»¼ åĲĪ
åĮº çļĦ
è¾ ħ
å¸¸ è¦ĭ
æī ¶
æĬķ éĻį
æ±½ è»Ĭ
I C
è¨ĺ èĢħ
i z
e ar
è¡Į åĬ¨
è³ĩ æºĲ
å¤§ ä½¿
çļĦ å¤ĸ
æĻ® æŁ¥
çı¾ è±¡
ç§ĺ å¯Ĩ
äº¿ åħĥ
æĭĴ çµķ
194 1
Ġ +
éĥ¨ éķ·
er n
æħ ®
éĻ ķ
çį ħ
çŁ³ æ²¹
æģ¢ å¾©
åĬ ĳ
è§£ æ±º
7 9
å®ª æ³ķ
åħ±çĶ¢ é»¨
I N
åĪ© çĽĬ
15 0
è¥¿ åĵ¥
æĭį æĶĿ
å½¼ å¾Ĺ
åħĪ åĲİ
è° ĵ
éłĺ åŁŁ
ä¼Ĭ æľĹ
çŁ ©
ä»ĸåĢĳ çļĦ
ä»£ çĲĨ
ä¸į æĸ·
è¥¿ æ´ĭ
ä¸Ĭ å¸Ŀ
åħ¬ å¸ĥ
èŃ° éĻ¢
4 00
åħ Ĩ
éĩı åŃĲ
ä¿Ŀ åŃĺ
å±± è¥¿
ä¸¦ æ²Ĵæľī
éĹ Ń
æģĲ æĢ
æ³¢ æĸ¯
ç°¡ ç¨±
èľ Ģ
èĦ Ĥ
å¥ ¶
ç¬¦ åĲĪ
è´ ı
åĤ ¾
èĩº åįĹ
çĶ¢ æ¥Ń
å¤§ äºĭ
éķ¿ æ±Ł
æŁ Ķ
ä¹ °
éĥ¨ éĹ¨
è© ³
åħ© äºº
m ent
çĶ¨ æĪ·
é¼ »
10 00
æĺ¯ä¸Ģ ç§į
åįģ ä¹Ŀ
å© Ĩ
P C
è¡ĮæĶ¿ éĻ¢
åĩº å¸Ń
åĥ¹ åĢ¼
è¨Ń ç½®
æī¿ èªį
æ¢Ŀ ä»¶
è¿ĳ å¹´
196 3
æİĪ äºĪ
ä¸ĥ å¹´
éłĴ çįİ
çļĦ ä½ľåĵģ
or e
éĤ£ äºĽ
å¤§å¤ļ æķ°
çº µ
Ġ X
åĨ ¯
æĥ Ł
åįĬ å³¶
çĬ¶ æĢģ
åº· çĨĻ
âĢ Ļ
éº Ł
æ¶ī åıĬ
äºº åĢĳ
çĲĨ äºĭ
éŃĶ æ³ķ
è¿ ¦
ä»ĸ æĺ¯
éģĭ è¼¸
çĮ¶ å¤ª
å¯ ¨
å¦ ĩ
çīĻ åĪ©
) ãĢģ
æ²» çĻĤ
196 2
åĮĪ çīĻåĪ©
éĢ »
æĬķ èµĦ
åĪĹ è½¦
è· ¡
èĭ± è¯Ń
ä¸Ģ åĲĮ
çĲĨ è§£
è¿Ļ éĩĮ
åĿ ª
éĩĳ æĽ²
æĿ± åĮĹ
åĪĨ è£Ĥ
it e
æĦŁ æŁĵ
å»º è¨Ń
a h
éĻ¢ å£«
195 7
æ¼Ķ åĳĺ
æľª ä¾Ĩ
l y
l d
b er
æ³¢ åħ°
èģĮ ä¸ļ
8 6
åľŁ èĢ³
åĵ² åŃ¦
çİ© å®¶
åĮĸ åĲĪçī©
è®Ĭ æĪĲ
æŃ §
æıĲ åĪ°
193 9
ĠUn iversity
æıĲ åĲį
ol og
) ,
è¦ı åĬĥ
ç® ±
é¼ İ
åĩ ¤
H K
é£İ æł¼
å°ĳ æķ°
èµ ĸ
æł¡ éķ·
åľŁèĢ³ åħ¶
B A
æľĪ çļĦ
è¨ĺ éĮĦ
u g
åĲ ķ
åĪĽ ä½ľ
ç¬¬äºĮæ¬¡ ä¸ĸçķĮå¤§
p t
æĩī è©²
çļĦ æĶ¿æ²»
ä¸Ģ èĩ´
ç´ Ľ
æĭ Ł
éĺ ª
æľĢ ä½İ
åĤ³ èªª
æ°ĳ éĸĵ
ä¸Ĭ è¿°
éĩĳ å±ŀ
å³ ½
åĽº å®ļ
ä¸ ¸
ä¸ĭ ä»¤
æľĥ åľ¨
è®° å½ķ
è°ĥ æŁ¥
æ¬Ĭ åĬĽ
çķ¶ éģ¸
è¥¿ å®ī
å¾Ī å¿«
ç»§ æī¿
ç©º ä¸Ń
ter n
é£ŀ è¡Į
è»Į éģĵ
P S
åī ĳ
æ¦® èŃ½
åīį çļĦ
çĶ¨ ä¾Ĩ
è¡¨ çİ°
è¿ĺ æĺ¯
æĨ ĳ
å¹´ åĪĿ
è§£ åĨ³
äºİ æĺ¯
æ³ ¡
å´ Ķ
åī¯ ä¸»å¸Ń
åĨ¬ åŃ£
éĢ² æĶ»
èĩª åĭķ
åľ¨ æĹ¥æľ¬
æķ¸ çļĦ
å¹´ å¾Į
éĤĦ æĺ¯
te xt
è¨İ è«ĸ
èģ ĺ
in t
èĻ ļ
å¨ ĺ
-{ }-
æŃ¦ å¸Ŀ
å¯¦ æĸ½
ä¸ĭ åįĪ
åĲ ¨
è¾ Ĩ
ation al
å¤ ķ
ar k
æ·· åĲĪ
æĪĲ ç¸¾
èĢĮ è¢«
å¤© çĦ¶
åĪ¶ çļĦ
M S
æ±Ł è¥¿
å¸Ĥ æĶ¿åºľ
æķ¸ åŃ¸
ç¸ ±
æĬķ è³ĩ
ãĢĬ ãĢĭ
ç»ı å¸¸
ç¤¾ä¼ļ ä¸»ä¹ī
Ġ 5
s on
Ġb y
å« ģ
m er
æ¶ Į
å¼ķ åħ¥
p l
sp an
ä¸» æ¼Ķ
ä¾Ŀ çĦ¶
æ¶ µ
èªª æ³ķ
åľĭ åħ§
åĭ¢ åĬĽ
ç¬¬ åħ«
çı Ĭ
å»ºç«ĭ äºĨ
åĩł ä¹İ
Ġ 10
195 3
åĵ² åŃ¸
ĠA l
çħ Ļ
å¥ Ķ
å¿ ½
çµ± è¨Ī
èĪŀ åı°
åİŁ å§ĭ
æ·¡ æ°´
æ¥Ń åĭĻ
8 5
æ¢ ¦
æĸ ľ
èĥ İ
åł Ĩ
æ°ĳ çľ¾
èĩª èº«
é¢ ľ
å¡ŀ å°Ķ
7 6
é© ±
çį µ
é£ ¯
åģ µ
å£ ĺ
éħ ¶
çĽ¸ å½ĵ
çķĻ ä¸ĭ
å°Ķ æĸ¯
æŃ¦ æ±ī
åĺī ç¾©
åŁİ åĮº
èı¯ äºº
çĬ ¬
åľĭ æľĥ
åı¸ é¦¬
æī¾ åĪ°
æģĲæĢ ĸ
çĪĨ çĤ¸
193 8
é¡ µ
å¯Ĩ åº¦
æĪ° å£«
9 5
æĶ¿ é»¨
ä¼¦ æķ¦
çł´ å£ŀ
å¢¨ è¥¿åĵ¥
åĸľ æŃ¡
ic e
æŀ ļ
åĲĮ æĢ§
ç¬¬ä¸Ģ åĢĭ
æĴ¤ éĶĢ
å¾· æĦıå¿Ĺ
çŁ¥ è¯Ĩ
æľī æĻĤ
åĩ Ŀ
å¹« åĬ©
æ³¨ éĩĬ
æĪĺ æĸĹ
çİĭ åŃĲ
è§£ éĩĬ
7 2
o st
ç¾© å¤§åĪ©
åİĨåı² ä¸Ĭ
æ· »
ä½ľ åĩº
æĸ° ç«¹
å¹³ éĿ¢
ç¡ «
å©ļ å§»
U N
æ£Ĵ çĲĥ
åħ¬åı¸ çļĦ
èħ Ķ
æķ¸ éĩı
çº ¯
çĻ½ èī²
ä¸¦ éĿŀ
é© ļ
Ġ é£¾
å»£ æ³Ľ
æľº åħ³
éĦ Ĥ
åķŁ çĶ¨
å¹ ½
ç©º è»į
çĪ¶ æ¯į
æľ¬ åľŁ
195 1
ç¾¤ å³¶
æĬ ¼
è´ Ĭ
ä»» æľŁ
æ¡ĥ åľĴ
éĢļ è»Ĭ
éģĹ åĿĢ
ä¸Ģ æ®µ
æ¯Ķ äºļ
èĹĿ äºº
éĽ Ģ
ç» ĺ
æĶ¹ éĢł
çļĦ ä¸į
çĮ Ľ
å´ ©
é ¶
åľ°åĮº çļĦ
è®¾ å¤ĩ
æķ° éĩı
çģ« ç®Ń
ä½Ķ éłĺ
æİª æĸ½
å§ ļ
æĺ¥ ç§ĭ
ç²Ĵ åŃĲ
çĲĨ å·¥
è² ŀ
çļĦ å·¥ä½ľ
åį ĳ
çĽ Ĩ
çģ ¾
åħ§ éĥ¨
è»Ł é«Ķ
è¡Ŀ çªģ
ç¿» èŃ¯
çŁ¥ èŃĺ
çŁ Ľ
å± Ī
éĢĢ åĩº
æĺİ æ²»
æĸ¹ çļĦ
åĪ¶ å®ļ
çĶ «
å®ŀ è¡Į
ä¸Ń æŃ£
æĸ° åŁİ
æºĸ åĤĻ
åĲ« æľī
åĦ¿ åŃĲ
çĦ¶ åĲİ
èĬĤ çĽ®
Ġ 8
è§ Ī
åĩı å°ĳ
çļĦ å½±åĵį
éį ¾
Ġ 6
æĸ° çĸĨ
çı¾ æĻĤ
éº µ
å¤§ å°ı
éģ ¼
æĹ¥ åĨĽ
äºĭ æķħ
ct ion
åĽ½ ä¼ļ
äºĭ æ¥Ń
å¸¸ å§Ķ
ä»¥ ä¸ĬçļĦ
åł± å°İ
çº¿ è·¯
éĢ ¼
éķ¿ æ²Ļ
èĢĥ åı¤
è¹ Ł
193 6
ä¼ Ł
åĽ½ çļĦ
æľ¬ åľ°
å³ ¡
ç»Ł è®¡
E S
æĽ¸ éĻ¢
åķĨ åĵģ
èĪª å¤©
U n
ç¬¬ä¸Ģ ä¸ª
éģĵ å¾·
æł¡ éķ¿
æĪĳ çļĦ
åħĭ éĩĮ
çĶ¨ éĢĶ
ä¾Ĩ èªª
çĦ¡ç¶« éĽ»è¦ĸ
æĨ² æ³ķ
ç¡® å®ļ
ç¨ĭ å¼ı
åĮĹäº¬ å¸Ĥ
å¾Ī å¤§
å°Ī æ¥Ń
å¥§ éģĭ
éĥ¨ éĸĢ
éĨ« åŃ¸
æį· éģĭ
æ¯ı ä¸ª
a w
åİ Ħ
éģĵ çļĦ
ç±» åŀĭ
å¤ª éĺ³
åĿ İ
çĥ §
194 4
çµĦ åĲĪ
å¤ļ ä¸ª
çĪµ å£«
æĶ¹ åıĺ
å¯ »
èħ ĵ
æĪĲ æľ¬
åħĪ å¾Į
çī¹ å®ļ
æľŁ çļĦ
çķ¶æĻĤ çļĦ
ä¸Ńåįİ æ°ĳåĽ½
æķ ¢
åħŃ å¹´
åľ°åįĢ çļĦ
è»Ĭ è¼Ľ
ç¢ İ
é¢ ģ
çĽ® æłĩ
å½ Į
ãĤ ¹
åĬĩ åł´
åĲ ŀ
æ± ¤
çĻ¾ ç§ĳ
æĿ± åįĹ
å¤ļ åĢĭ
p er
æ¢Ŀ çĽ®
æķĻèĤ² éĥ¨
E C
at h
åľ° éĵģ
â Ī
å§ Ĭ
é©¬ åħĭ
äººåı£ æĻ®æŁ¥
/ /
å°ĳ æķ¸
éļ Ĳ
193 5
å±ķ ç¤º
é« ®
åª ½
èŃī æĺİ
ä»ĸä»¬ çļĦ
è³ Ī
æĢ§ è´¨
è¾ °
çļĦ æĸ¹æ³ķ
è¿ Ī
åĢ ¡
æ½ ľ
è·Ŀ ç¦»
19 28
c om
äºĴ çĽ¸
åİŁä½ı æ°ĳ
éĢ» è¾ĳ
è° ±
A P
å®¢ å®¶
è©ķ è«ĸ
æģ Ń
å¥³ æ¼Ķåĵ¡
èĢĮ éĿŀ
è¾ ¨
é´ »
åĽ¾ä¹¦ é¦Ĩ
çļĦ æµ·
åľ¨ ä¸ŃåĽ½
æķ° åŃĹ
æĹħ å®¢
å°¤åħ¶ æĺ¯
æºĲ èĩª
æ³ķ æ¡Ī
ç½ °
æĮĩ å®ļ
ĠS p
èĩ¨ æĻĤ
çĪ¾ æĸ¯
en ce
èĤ º
çī Ĩ
æ° ¯
å¤ª åĲİ
èľ Ĥ
ĠN ew
ç§ģ äºº
ç©Ĩ æĸ¯
å¸Ī èĮĥ
i re
çļĦ ä¸ĢåĢĭ
æĽ¾ ç»ı
çİ» çĴĥ
æĹħ è¡Į
æ£ ī
åĬ «
éĺħ è¯»
å¸® åĬ©
äº¦ æĺ¯
æŁ¥ çĲĨ
åĮ» åŃ¦
èµ· ä¾Ĩ
çĶ± æŃ¤
å°ı åŃ¦
æ¿ ĥ
çļĦ é¦ĸ
åľ¨ ä¸Ģ
åĹ £
è¥¿ æĸ¯
æĹ© å¹´
æĹ ¬
ä¿® æŃ£
å®ī å¾½
ä½ı å®ħ
ç¶ľ åĲĪ
ä¸Ń åİŁ
çİ° è±¡
éĢ ¢
åħ¬ å¼Ģ
è½ Ł
ä¸į åĪ°
å®ī å¾·
çĥ Ł
æĪĲç«ĭ çļĦ
äºĨ è§£
s s
è®¾ ç½®
ç¦» å¼Ģ
7 4
éĽ ŀ
æ¸¯ éĲµ
ä¸Ĭ æľī
åĽĽ å¤§
åŁº æĸ¼
å¯ ®
åģ ·
åĬª åĬĽ
çļĦ æĶ¯æĮģ
çµĲ å©ļ
% ï¼Ľ
ç· ©
åįł æĢ»äººåı£
ä¹Ł æľĥ
ic s
æī¹ è¯Ħ
ç± ĥ
çļĦ ç¥ŀ
æ¯Ķ åĪ©
è¾² æ¥Ń
çĬ¯ ç½ª
i um
å· «
åŁº äºİ
è¿Ľè¡Į äºĨ
å°Ķ å¾·
åĲį ç§°
éĽ į
éĤ ª
ç©© å®ļ
c l
ä¸į æĸŃ
å¹´ è¼ķ
çļĦæĥħ åĨµ
çº ²
åı¯ä»¥ åľ¨
éĩĳ å±±
åį³ ä½į
è¿Ĳ è¡Į
åĲ¸ æĶ¶
æ³ķ å®ĺ
æľĿ å»·
ç² Ĺ
æļ ĸ
èĻ «
èĪ Ł
æł¡ åĮº
ç¢ §
éĨ Ĵ
åħģ è®¸
åľ¨ éĢĻ
çĲĨ æĥ³
éİ ĸ
èĢ ķ
éķ· å®ĺ
å®¢ éģĭ
ãĥ «
èģ¯åĲĪ åľĭ
èĸ Ľ
ä» ĩ
æ°£ åĢĻ
çļĦåĲį åŃĹ
åĸ® æĽ²
èĢĮ ä¸įæĺ¯
å¤§ çįİ
è» ¸
Ġ Ð
è¥ Ħ
èħ º
æłĩ å¿Ĺ
æī® æ¼Ķ
æĸ° åĮĹ
éĺ¶ çº§
å®ĺ åĵ¡
æĢ§ è³ª
ç» ©
è§£ æķ£
éĺ¶ æ®µ
å¤ļ æķ¸
æĶ¹ ç·¨
æĭĴ ç»Ŀ
æħ £
åĵĪ å°Ķ
èı² å¾ĭ
æ¼ ł
å¸Į çī¹
ç» ª
èĲ §
å®£ åĤ³
äºº æķ¸
æĹ¥ æ²»
æ® ĭ
æł¼ èĺŃ
ç¼ ĺ
çłĶç©¶ éĻ¢
æĪĲ éĥ½
å¤± æķĹ
ä¸Ĭ åįĩ
æ´¾ çļĦ
åľ° éĿ¢
æķĻ ä¼ļ
åı¬ å¼Ģ
æĬ ĳ
åł ª
åĿ Ľ
æĬ ±
æĮ ª
èĴ ĭ
1 20
è¿Ľ æĶ»
ç«ĭ åį³
åıª è¦ģ
éģĭåĭķ æľĥ
å¨ģ å°Ķ
éĢ ¸
w w
éĢļ ä¿¡
è¿Ĳ èĲ¥
ä¹ĭ æĪ°
åĪĨ ç±»
æĪĲ å°±
çģ Į
å¤ĸ çļĦ
è§Ĥ çĤ¹
7 3
å¤§ çº¦
ç¥ ¿
é¦¬ åħĭ
éłĺ è¢ĸ
ä¸¾ åĬŀ
194 2
ç£ ¨
å¹¿ åľº
un g
åĢĭ æľĪ
åįĬ å²Ľ
å¾Ĺ çŁ¥
æĺİ é¡¯
æĹ¥ åł±
å®Į å·¥
èªįçĤº æĺ¯
çı¾ ä»Ĭ
ä¸Ģ å®¶
ä¿® å»º
æĽ¹ æĵį
19 27
ac t
æİ¥ æĶ¶
å¤§ å»Ī
æŃ¤ æĻĤ
âĢ ĺ
ç¿ ¡
åĿ Ĥ
0 1
ç§ĳ åŃ¦éĻ¢
ç¹ ŀ
Ġ r
æ² ĸ
é¨İ å£«
ãĤ ¤
å¯ ¸
æ¯ ħ
çĶ¨ ä½ľ
éĤ ĳ
åĲ ¹
æĸ¹ ä¾¿
åħ© ç¨®
è§ ¦
èĻ ĳ
å¸¸ ä½ı
Ġ 18
èĢĮ æĪĲ
æīĭ æ®µ
ç¬¦ èĻŁ
è® ¯
å¹³æĸ¹ ç±³
åľ¨ ç¾İåľĭ
æµ ¸
ä»Ĭ æĹ¥
193 3
ac h
ĠPr ess
åĨħ éĥ¨
æ² Ł
åĳ¨ å¹´
æ¼Ķ å¥ı
çļĦ æ°´
194 3
å¤§ å¹ħ
èº« é«Ķ
èĭ±æł¼ åħ°
æ¸¯ åı£
çĶ³ è«ĭ
éĢļ éģĵ
O R
ç¨ į
èµ· æĿ¥
åĬ³ åĬ¨
I D
7 1
åıĳ å°Ħ
oh n
æİ¨ åĭķ
çµĲ åĲĪ
éĬ· åĶ®
æ´¾ åĩº
a z
H z
å¸ĥ æĭī
ic k
æĿĥ åĬĽ
éĩĿ å°į
ç®¡ è¾ĸ
çģ« å±±
èģĶ èµĽ
æ¡ ĵ
ç¿¡ ç¿ł
åĭĿ åĪ©
æĿ± æĸ¹
ç§Ł çķĮ
o y
ç¤ Ļ
å¥ª å¾Ĺ
åĽ½ ç«ĭ
èĨ ł
åīµ ç«ĭ
ç®Ģ ç§°
ä¸ľ éĥ¨
æ¡ £
æĸ Ĳ
å¤§ éģĵ
ç¿ Ķ
p e
éĺ¿ éĩĮ
åīµ éĢł
åķĨ äºº
è®¿ éĹ®
è¿Ĳ è¾ĵ
å°ļ æľª
è¢ ĭ
æļ Ĥ
ç®¡çĲĨ å±Ģ
èµ· ä¹ī
è¿ŀ ç»Ń
éĢ² ä¸ĢæŃ¥
å®ļ çĲĨ
å¾· å·Ŀ
åŃĲ å¥³
ä¿ ł
å¿ Į
åĪĨ éħį
ä¸ľ è¥¿
åıį æĺł
äºĮ äºº
æ° ¢
äºĨ ä¸Ģä¸ª
æľº è½¦
éłĺ åľŁ
æĮĩ ç¤º
é³ ´
9 2
r am
éĤĢ è«ĭ
çļĦ æķħäºĭ
çĭĢ æ³ģ
æ¼¢ åŃĹ
å°Ĩ åħ¶
è¨ Ĺ
9 6
äºº å·¥
æĮģ ç»Ń
ç·¨ èĻŁ
æī ģ
äºī è®®
åİ ¥
æŃ ĩ
æľĪ èĩ³
è®¾ æľī
åīµ è¾¦
ç¨ Ģ
å¸Ĥ åĮº
æķĻ å¸«
è§Ģ å¯Ł
è³ª éĩı
éķ¿ æľŁ
çªģ çĦ¶
æľ¬ äºº
ç² ®
åķĨ åł´
ä»İ èĢĮ
æľ ´
åį¡ å°Ķ
å¹¶ åħ¥
æ° ¨
ç¸½ éĥ¨
åĭ µ
æĻ¯ åĮº
æ°ĳä¸» é»¨
çĶ¨ æĿ¥
éĶ ĭ
åĨĽ åĮº
å² Ĺ
è¡¨ è¾¾
ä¿± ä¹Ĳ
ä½į çļĦ
æĹĹ ä¸ĭ
V D
ç¢¼ éłŃ
å¿ ĺ
è´¨ éĩı
i le
éĻĨ åĨĽ
å¿ Ĩ
æİ ĺ
é»ĳ èī²
193 2
ä¸ī åľĭ
ç¬¬ ä¹Ŀ
ç¶ĵ åħ¸
å»º è®®
åĴ ĸ
æ´¾ éģ£
å¥³ çİĭ
æĽ¸ ç±į
åį« æĺŁ
åı°åĮĹ å¸Ĥ
åĸ ª
å¤§å¤ļ æķ¸
å¼ķ çĻ¼
åľ¨ ä»ĸ
å¥ ł
ä¸ Ļ
å® °
æī¿ è®¤
è©ķ åĥ¹
ar e
ãĢĭ ï¼ī
or ld
8 3
æĿŃ å·ŀ
åĲĦ èĩª
åĲĮ æł·
åĲį äºº
çī¹ å¾ģ
å·² æľī
åħ¸ ç¦®
å°į æīĭ
æĿ¥ è¯´
æ¯Ķ äºŀ
éĬ ľ
çªģ çł´
çł Ĥ
å¯¹ è±¡
s e
æ· ĳ
æĢ ¡
éĤ ģ
æĦĽ çĪ¾
oc k
åĻ¨ çļĦ
å¤© ä½¿
æľº æ¢°
ä½ĵ ç³»
ç§» åĭķ
é¥ ®
é¢ĳ éģĵ
0 6
æ±Ł åįĹ
å·® çķ°
è¥¿ éĩĮ
æľĢæĹ© çļĦ
çĻ¼ å°Ħ
æĦ Ī
èĦ ļ
æ¶Ī å¤±
ic a
ç»ĵ åĲĪ
å¸ ¥
çĽ£ çĿ£
åı ī
ä¸ĸçķĮ çĽĥ
çī© çļĦ
éĻ¢ æł¡
193 1
é¾ Ħ
å¾ģ æľį
èľ ľ
er v
ä¿Ŀ éļľ
ç¼ ĵ
æ¼ ģ
åį° åĪ·
col or
çİ ²
æİ Ľ
èĥ½ æºĲ
å½ĵ éĢī
åħ§ éĸ£
å¥¥ åľ°åĪ©
åħ¨ å¸Ĥ
æ¬Ĭ åĪ©
åįĶ èŃ°
åħĭ çļĦ
ä¸Ń è¢«
çĶµè§Ĩ åı°
åįĹ éĿŀ
åı¦ä¸Ģ æĸ¹éĿ¢
é©¬æĿ¥ è¥¿äºļ
èĥ ¶
èĤ Į
è± «
æĹ¥ æľŁ
æĸ ĳ
åħ¥ åı£
éģĭ ä½ľ
æĶ¿æ²» å±Ģ
æ±¡ æŁĵ
ä¸ī å¤§
è³ĩ æł¼
ç¶ĵ æŃ·
çįİ éłħ
è¡Ľ æĺŁ
ä¸Ń æľŁ
ä»¥ æŃ¤
æĸ¯ æĭīå¤«
å°ĩ åħ¶
å¤į æĿĤ
è®¤ä¸º æĺ¯
éĢ ®
æ¢ µ
å¼· èª¿
éĢļ çĶ¨
å®ŀ æĸ½
o x
ã Ħ
åį ĸ
å®ĺ åĳĺ
è¿ĲåĬ¨ åĳĺ
æĻĤ ä»»
è¿Ľ ä¸ĢæŃ¥
æĶ¶ éĮĦ
å¾ ¹
åī Ĭ
åķ ¡
èĥ ¸
ä¸¦ æľª
æĦı æĢĿ
E T
ä¸Ģ åº§
è¡¨ éģĶ
æĿĤ å¿Ĺ
è¡Ľ çĶŁ
çļĦ æĹ¶åĢĻ
æ¯ı åĢĭ
è¨Ń åĤĻ
in a
M P
åĪĹ åħ¥
åħ¶ å¯¦
0 8
åĽĽ ä¸ĸ
åĦ¿ ç«¥
Ġ re
èģĶ ç³»
éĢ² é»¨
è£Ŀ çĶ²
å· ¢
æĶ¾ æ£Ħ
å®ļ å±ħ
æĹı ç¾¤
å¿ħ è¦ģ
æĸ ¤
åŃ¦ æľ¯
å¾Į æľŁ
åıĪ ç§°
. ,
æĻļ ä¸Ĭ
å¹´ éĸĭå§ĭ
è´ ¯
æ¯į äº²
æ²¿ æµ·
å¹³ è¡¡
æ©Ł æ¢°
èĤ ĥ
ä¸ŃåĽ½äººæ°ĳ è§£æĶ¾åĨĽ
å¸¸ è§ģ
å» ĸ
M A
æĬ¥ éģĵ
Ġ ,
ç¥ ł
ä¼¯ çĪµ
ç©Ĩæĸ¯ æŀĹ
6 00
èĢ Ĳ
19 29
ä¼Ĭ æĭīåħĭ
è±¡ å¾µ
èĦ ħ
èİ« æĸ¯ç§ĳ
ä¸Ń æľĢ
åħĭ æĭī
æĹı çļĦ
èį· åħ°
p r
è´ ¾
ç¢ ©
äºĭ å¯¦
æĵ ¾
193 4
å®ĥ æĺ¯
è´ı å¾Ĺ
âĢ §
è®¾ æĸ½
çĶŁ æĪĲ
æĸ¯ å¡Ķ
æķ¸ åŃĹ
èı ©
å¸Ĥ åįĢ
å¸¸ å¸¸
ä»£ çļĦ
æĤ ł
ç¢º å®ļ
å¹´ åĪ°
è¨ĺ æĨ¶
åľ¨ ä¸Ń
åĩº ä¾Ĩ
åİŁ åĲį
æĶ» åĩ»
åĺ ´
èĥľ åĪ©
æĸ ¥
åľĭ éĺ²
åºĶ è¯¥
çħ§ çīĩ
æļ ¨
ç» ķ
s h
æĦĽçĪ¾ èĺŃ
a x
å®ļ å¾ĭ
çĿ ¡
æ³ķ èĺŃ
æĢ ķ
æĲ ĸ
ä»ĭ ç´¹
ä¸Ģ çĻ¾
åİ ¦
æ· º
çĻ» åł´
åĩĨ å¤ĩ
19 12
åĭķ åĬĽ
åħ¼ ä»»
è§Ģ é»ŀ
ä½ľ æĪĺ
ç¿» è¯ĳ
åĵĪ åĪ©
ç·¨ è¼¯
åĮĹ ç¾İ
ç¶² çµ¡
9 7
æŃ¤ æĹ¶
æ±ī è¯Ń
ä¸»æĮģ äºº
æĺŃ åĴĮ
ç«¶ çĪŃ
S S
åİŁ çĲĨ
ä¿¡ åı·
å®£ ä¼ł
è¯Ħ ä»·
A r
æ» ¾
è¦ª çİĭ
ä¸Ĭ å¸Ĥ
æº Ŀ
9 3
è© ¢
æł Ĺ
éĤ ±
éĤ µ
ç²µ èªŀ
çļĦ åİŁåĽł
æ¹ ¿
8 00
æ· ĺ
æıĲä¾Ľ äºĨ
8 7
L E
æĬ ļ
å¤ĸ åĽ½
æ¬¡ å¹´
å¤§ èĩ´
æĦı ä¹ī
æŃ¥ åħµ
å¹´ çĶ±
åŃ ķ
è± ¬
æĽ´ æĸ°
ä¸¤ ç§į
ä¿±ä¹Ĳ éĥ¨
ä¹Ķ æ²»
å§ ĳ
ç¿ Į
ä¼Ĭæĸ¯ èĺŃ
Ð °
ĠT h
å±Ĭ åħ¨åĽ½
Ġ k
ä»· åĢ¼
Ġ [
å¹³ çŃī
ç¾¤ å²Ľ
æ½ Ķ
åĸ¬ æ²»
éĨ ĩ
å£ ®
çĲĥ éĺŁ
éģĹ äº§
åīį èº«
it ion
ç®Ģ åįķ
å¤§éĩı çļĦ
çļĦ åıĳå±ķ
å° ¿
è¨Ń å®ļ
Ġ Z
è´¢ æĶ¿
æº ¯
æ¸¯ åħĥ
od e
æł ª
I T
èµĽ åŃ£
c i
èģĸ ç¶ĵ
èĦ Ī
å¨ ĥ
çĶ· æ¼Ķåĵ¡
é§ķ é§Ľ
æ°ĳ éĢ²é»¨
æĦı åĳ³
æĪ¿ å±ĭ
åĬĽ åŃ¦
åŃ¸ æľĥ
ä¸° å¯Į
è©¹ å§Ĩæĸ¯
èĳ µ
ç¦ı å·ŀ
èĩªæ²» åĮº
é¦¬ä¾Ĩ è¥¿äºŀ
ç¦ §
è§Ģ çľ¾
l and
çļĦ åĲĮ
åľĭ èªŀ
æĿ± è¥¿
çĶ ľ
çĻ¼ æĺİ
éĺ² æŃ¢
ä¸Ĭ æĺł
ç»´ å¥ĩ
è²¡ æĶ¿
åĢ ¾
ç¬¦ åı·
è¨ª åķı
åħ¬ å®ī
æĸĩçī© ä¿ĿæĬ¤
åľ° å½¢
é«ĺ çº§
çļĦ æĻĤåĢĻ
ä»Ģ ä¹Ī
æķ ĺ
åĪ° è¾¾
åį Ĵ
æĽ ī
9 4
çŃ ¹
æĸ° æķĻ
çĭ ±
é¢Ĩ è¢ĸ
å¤§ éĺª
æİĮ æı¡
æľĢå¾Į ä¸Ģ
éĢĢ ä¼ĳ
çŁĽ çĽ¾
è¡ Ķ
19 18
åĤ ¬
åľĭæ°ĳ å°ıåŃ¸
å·¨ å¤§
æĹ¥æľ¬ çļĦ
åĬł å·ŀ
ub l
å¤§ åħ¬
æĢ§ èĥ½
u x
èĤ ĸ
ãĥ Ī
è°ĥ æķ´
çĲĥ æľĥ
èī¦ éļĬ
è´ Ī
èĻ ¹
çĨ± å¸¶
åŃ¸ ç³»
å¤§ éĿ©åĳ½
åı¦ æľī
èĿ ł
éĿ¢ å°į
8 4
i er
çĽ ľ
æ¢ ¨
e e
çī© ç¨®
æº« åº¦
æİ¨ è¡Į
äº ¥
çº ·
æ³¢ èĺŃ
åĵ Ģ
åŃ¦ ä½į
ç·ļ çļĦ
èŃ¦ æĸ¹
åĲĪ æ³ķ
å¤§åŃ¸ æł¡åıĭ
æ¡Ī ä»¶
æħķ å®¹
åħ¶ é¤ĺ
è§Ĵ åº¦
C l
éĺ» æŃ¢
ãĢĭ (
é· ¹
éĳ ĳ
å¾· çļĦ
åįģ ä¸ĥ
çļĦä¸Ģ äºĽ
ç¨± åĳ¼
ç¤¾ åįĢ
éĥ½ åľ¨
å¯¦éļĽ ä¸Ĭ
éħ ·
å¤ļ ç§į
èĲ½ æĪĲ
çªģ åİ¥
éĻĦè¿ĳ çļĦ
è®® åĳĺ
çł´ åĿı
éĢ® æįķ
ro w
æĻ ĵ
0 4
äº¬ éĥ½
é¾ Ĳ
8 2
åĬŀ äºĭ
éľ ŀ
è§Ħ åĪĻ
19 19
åºı åĪĹ
é¢Ĩå¯¼ äºº
æĤ£ èĢħ
Ġ âĨĴ
äºĳ åįĹ
å£ĵ åĬĽ
I P
æĹ¥ æĬ¥
ï¼Īï¼Į ï¼īï¼Į
æľī æĹ¶
i x
ä½ľæĽ² å®¶
èĩ³ æĸ¼
åģ¶ åĥı
ä¸į æ»¿
çĲ ª
è³ ľ
åį° å°¼
ĠS h
is s
é¸ ¡
åħ¬ å¼ı
ä¸Ĭæµ· å¸Ĥ
ç« Ł
èĢĥ æħ®
ä¼Ĭæĸ¯ åħ°
åľĭæ°ĳ æĶ¿åºľ
t on
æķĻ ç·´
å¥§ åľ°åĪ©
éĨ« çĻĤ
åī ª
æ¸ ł
åĪĨ æĶ¯
è¦ı åīĩ
æĭ ĸ
or g
æĶ¶ è³¼
å»º äºİ
re e
çļĦåľ° ä½į
ï¼ İ
æľĢ è¿ĳ
Ð ¾
èİ·å¾Ĺ äºĨ
è½ ´
us e
ç¦ ª
åį µ
éĽħ åħ¸
è¿ĩç¨ĭ ä¸Ń
éľ §
æ¸ħ ä»£
C C
çģ ¯
åĲĳ éĩı
å« Į
å½¢ å®¹
ä½¿çĶ¨ èĢħ
éģĶ æĪĲ
æ©Ł åĻ¨
åĵ ª
æķĻ å£«
æľĢé«ĺ çļĦ
ç§ĺ æĽ¸
å¹´ åĲİ
æľī èĳĹ
æķĻ åŃ¦
åıĪ åĲį
æĮª å¨ģ
å¥¥ æĸ¯
0 7
è¾ ¯
äºĭ åĬ¡
å¤Ħ äºİ
å¤ ł
æŃ¤ å¾Į
ç¿¡ç¿ł åı°
r u
çķ¶ å¹´
æħ İ
åĮĹ æµ·
ç©į æ¥µ
éŃ ģ
è¯ķ åĽ¾
o od
æĸ¹éĿ¢ çļĦ
åŃĺåľ¨ çļĦ
åĴĸ åķ¡
æ¼Ķ åĮĸ
æ¸¬ è©¦
æĦı èŃĺ
çĽ¸åĲĮ çļĦ
å¯¼ æ¼Ķ
0 3
åľ¨ ä¸Ģèµ·
å¸ ħ
ç¦ı éŁ³
èª ĵ
åĪ° çļĦ
ç¤º å¨ģ
æĸĩçī©ä¿ĿæĬ¤ åįķä½į
r ap
é¾ ľ
éĬ ĺ
æĺ¯ ä¸į
on e
æ¼¢ èªŀ
æĭ¿ çł´
ç«ĭæ³ķ æľĥ
.. ..
æīĢåľ¨ åľ°
åįĥ ç±³
é¦ĸ ä½į
è®¨ è®º
ç¬¬ä¸Ģ ä½į
le ft
å¸ ½
å°ı åŀĭ
0 5
æĦı ç¾©
å¿ Ļ
å¤ļ äºº
èĲ¨ åħĭ
æ³¢ éŁ³
çļĦ å½¢å¼ı
æĺİ æĺ¾
é¡ŀ åŀĭ
e f
ç§ģ ç«ĭ
C O
ul t
å®ĺæĸ¹ ç¶²ç«Ļ
çļĦ åıį
å®ŀéĻħ ä¸Ĭ
ar l
ç°¡ åĸ®
æĬµ æĬĹ
åľ¨ éĤ£
19 14
ol d
çļĦ éĹľä¿Ĥ
çĽ¸ åıį
åĻ ´
æģĨ æĺŁ
éĺ¿ æł¹
èģ² éŁ³
å¤ª éĥİ
çļĦ çĻ¼å±ķ
æł¼ å¼ı
æ° «
åĬł ä»¥
çļĦ æľī
ä¸ ŀ
I V
æŀ¶ æ§ĭ
å¤§äºĭ è®°
19 25
åŁ ĭ
æŀ ¢
æ¾ Ħ
åĽ½æ°ĳ åħļ
Ġ :
æıĲ åıĬ
ä¸Ī å¤«
Ġ å¹´
ç¾İ è»į
ä¸Ńåľĭ åľĭæ°ĳé»¨
äºŀ æŃ·
ä½Ĩ ä»ĸ
ç© Į
æĵ ħ
éĺ¿æł¹ å»·
æ¡ Į
åĤ³ æĴŃ
æĺ ĩ
åı¤ èĢģ
å°ĩ æľĥ
éĤ£ ä¹Ī
éĮ¦ æ¨Ļ
è³ ¦
ç¨³ å®ļ
çĤº æŃ¢
åĲĪ åĶ±
è§Ģ åħī
ä¾Ŀ æĵļ
è¾ĸ åĮº
ä»¥ åįĹ
ç»´ äºļ
t p
èĢ¶ ç©Į
ä¸´ æĹ¶
å¹´ æĻĤ
ic t
æİĴ è¡Į
ç«ĭ æĸ¹
åıĹ æŃ¡è¿İ
éĻ¢ éķ·
ĠĠĠĠ ĠĠĠĠ
åŁİ éķĩ
åĨ Ī
èĪªç©º åħ¬åı¸
å½ »
om m
å½ ¥
è´ ¤
ä¸» æ¬Ĭ
æĹ¥ å¸¸
å¾Ĺ åĲį
çĽ Ī
èº į
åĩł ä¸ª
å¤© åłĤ
æ°Ķ æ¸©
è¨ º
æķ° çļĦ
è± ¹
é¡§ åķı
æī¹ åĪ¤
8 1
å£« å°¼
éĻ· åħ¥
èķ ¾
19 22
éĢļ è¨Ĭ
æ°´ åĪ©
é¢Ĩ åľŁ
åħ¬ çľ¾
æŃ·åı² ä¸Ĭ
å® ´
å¼· çĥĪ
çŃĸ çķ¥
éĽ Į
å¥ İ
Ġ at
èĮ ħ
åĩ½ æķ¸
S h
åĸ ĩ
Q u
åľ¨ åĮĹäº¬
åĩº åĶ®
å§ ľ
èĩª æĪĳ
éģĵ æķĻ
å®ŀéªĮ å®¤
åİ ĺ
å° ¹
åĮĹ å®ĭ
æŃ¦ è£ħ
å»¢ éĻ¤
è²¢ çį»
åĪ° éģĶ
æĸ° çķĮ
åľ° åĲį
æļ´ åĬĽ
9 1
è§Ģ æ¸¬
ä»Ģ éº¼
è²´ æĹı
E E
çĻ¼ åĶ®
æ¯ı æĹ¥
ãĢĤ âĢľ
åĽ½ éĺ²
è¿ª å£«å°¼
åĨ² çªģ
åľ¨ ä½į
åĲį åĸ®
æł¹ æľ¬
ä¸ī åĽ½
éĩĳ çīĮ
é¦Ļæ¸¯ çļĦ
æĶ¯ ä»ĺ
è¯´ æ³ķ
éĢĢ å½¹
æ´Ľ æĿī
å·² è¢«
éī ´
ä¸į è¦ģ
çĲĨ çĶ±
åĽ½å®¶ çº§
åĲ ı
è¤ĩ éĽľ
èŃ ļ
ä»£è¡¨ å¤§ä¼ļ
çĲĥ åŃ£
ä¿Ŀ éĻ©
æĶĿ å½±
éĻķ è¥¿
è³½ åŃ£
èĬ± åľĴ
å½° åĮĸ
çļĦ æľĢ
å»ºç¯ī çī©
a u
åŁº éļĨ
åŁºéĩĳ æľĥ
åĬ¨ çĶ»
r it
çĤº ä¸Ģ
ä¸Ĭ ä¸ĭ
æł¼ åħ°
éĻ ª
åĭĭ ç«ł
æĦı å¤ĸ
0 2
éĺ ®
ãĢ ĳ
çī ²
éĽ» è©±
å¯ ĵ
éķ¿ çļĦ
ãĢ Ĳ
æ· ¨
å¢ĥ åħ§
åĦĢ å¼ı
ãĢĤ ï¼ī
åĨ ķ
æİ¥ è§¸
y st
æķĻ åŃ¸
éĪ ´
å¤± è´¥
å¸Įçī¹ åĭĴ
åŃ¸ ä½į
ä¸į ä¼ļ
æŃ» å¾Į
çļĦä¸Ģ ç§į
åĪĽ éĢł
è©¦ åľĸ
éģ¸ åįĢ
èĪª çıŃ
éĿĴ å²Ľ
çī¹ éĩĮ
åĭķ ä½ľ
ç»ı åİĨ
éŁ µ
å¾ĹåĪ° äºĨ
æĿĥ åĪ©
e le
æīĢ è¬Ĥ
å·² çŁ¥
ä¼° è¨Ī
éģ ŀ
æĻº æħ§
èĥ º
åĲ §
19 24
éĹ ½
æĶ¹ åĲį
ä¹Ŀ å¹´
æ¾³å¤§åĪ© äºļ
æĭ ĺ
æ³ķ åħ°
æĢ§ åĪ¥
æķ¸ ä½į
ĠS ch
å®£ è¨Ģ
I A
çļĦ æ¦Ĥå¿µ
åħ¨ ä¸ĸçķĮ
åĪº æ¿Ģ
åįģ æľĪ
æ¶ ¼
èĤ¡ä»½ æľīéĻĲåħ¬åı¸
åĨľ æ°ĳ
æ® ·
æŀĦ æĪĲ
æĬ «
å½± åĥı
æ³ķ åºŃ
é»ĥ éĩĳ
ç¾İ è¡ĵ
åİŁ åīĩ
æģ ¨
å¸ ĸ
æ¯ı å¤©
è«ĸ æĸĩ
ç¶ĵ é©Ĺ
éģ¸ æīĭ
èĺĩ æł¼èĺŃ
0 9
å¹¿ è¥¿
éļİ ç´ļ
æ½ ¤
19 26
æĮĩ ä»¤
å¸Ĥ éķ·
æł¼ çļĦ
æıĲåĩº äºĨ
Ġ åĴĮ
å¾ŀ äºĭ
åľ Ń
çļĦ éĥ¨åĪĨ
ç®Ĺ æ³ķ
æĭĨ éĻ¤
èĪ Į
èĺ ĭ
åħ© å²¸
å¾Ī å°ĳ
èº« åĪĨ
è¯Ħ è®º
æīĵ çł´
è®® éĻ¢
ä¸Ģ å¸¦
åį¡ æĭī
åĪĨ ä¹ĭä¸Ģ
å°ı çµĦ
ç¹ «
å¨ģ èĦħ
çī¹ å¾µ
ä»¤ äºº
èĢĥ è©¦
èĸ ª
åį« çĶŁ
T h
çķĻ åľ¨
æİ¡ åıĸ
ä¼ł æĴŃ
æ¬ ½
èĢĥ èĻĳ
æ´Ľ åħĭ
å¼Ĺ éĩĮ
åıĳ æĺİ
ä¿Ŀ ç¾ħ
åħ« å¹´
åı« åģļ
éĸ ĥ
å¹´ åĴĮ
å¹´ å»ºç«ĭçļĦ
ä»¥ åĮĹ
èĴ ²
æĹ© åľ¨
èı Ĭ
çĳ ľ
åı¯èĥ½ æľĥ
is c
è¾ Ł
çī ł
ä¿¡ å¾Ĵ
èģ² åĦª
æĮģ æľī
ĠC on
æ°ĳ éĹ´
ĠC l
åħĥ æľĿ
æĽ´ æĺ¯
at a
æĦı è¯Ĩ
ä»£ çłģ
åħ ½
æģ ĭ
æĸ¯ åł¡
å¤ĸ åľĭ
çĭ Ĳ
ä¸ĵ è¾ĳ
å¥³ æŃĮæīĭ
æİ¨ ç¿»
ä½¿ åħ¶
ĠC ol
æĶ¾ åľ¨
åĺ Ĺ
å¥¥ è¿Ĳ
åıĮ æĸ¹
çļĦ å¤©
åĬł åĪ©
è¯ ļ
è¯ ŀ
åį± æ©Ł
èį£ èªī
åį ¸
åĳ¨ æģ©
æªĶ æ¡Ī
æ©Ł åĭķ
ãĥ ©
èŀį åĲĪ
ä»£ æĽ¿
æĭ¼ éŁ³
æ² ª
å® Ľ
çĻ¾ å¹´
æĶ¿æ²» å®¶
am e
è¨» éĩĭ
ç¦ ¦
å°± æľī
çİĭ ä½į
A D
æ¢Ŀ ä¾ĭ
ãĤ ¢
è¼ĥ çĤº
ä¸Ģ äºº
è² ¼
å· ·
æĪĲä¸º äºĨ
å¹´ é¦Ļæ¸¯
æĪĺ çķ¥
å¸Ĥ æĶ¿
å°± è®Ģ
ä¸Ģ ç³»åĪĹ
èī² å½©
èŃī æĵļ
èķ ĥ
Ġ âĢĶ
éĢ Ĵ
å¦ ĸ
çłĶç©¶ ä¸Ńå¿ĥ
æ¨ ŀ
æĪ² åĬĩ
æīĵ æĵĬ
æľĪ çĲĥ
äºĶ æľĪ
19 21
å¥³ åħĴ
ä¸ĭ ä¸Ģ
åĳ½ åĲįçĤº
åĶ¯ä¸Ģ çļĦ
Ð ¸
19 00
19 17
è¾ ī
ä¾Ŀ çħ§
èĬ± èĵ®
åĩ °
æĸĩ éĿ©
åĢĻ éģ¸
çĶŁ æĢģ
èµ ĭ
: //
çĻ¼ åĩº
çļĦ éĩį
èĩª åĬ¨
ä¸ľ æĸ¹
åħģ è¨±
å±±èĦ ī
å¾ĭ å¸«
ä¸ĵ å®¶
ç´ħ èī²
ht tp
æīĵ ç®Ĺ
æī £
ä¸ļ åĬ¡
æĳ §
æİ ĥ
å§ ¿
ä¸Ģ è©ŀ
çĻ¼ èµ·
éĲµ éģĵ
çĩĥ æĸĻ
æĸ°åĮĹ å¸Ĥ
åĨ Ģ
é¢ Ĺ
åľ¨ ç¾İåĽ½
æľĥ éķ·
æ« »
; "|
åıĥ è³½
æķĻ å¸Ī
æģ °
è® ļ
è¯ ¦
åĮĹ éŃı
æł¼ æĭī
un t
çµ¦ äºĪ
åľ° éĲµ
é«ĺ æł¡
éĢ² æŃ¥
åĲĦ åľĭ
ãĥ ª
å´ Ļ
åħĭ æŀĹ
åº ¸
è¶ ¨
åħį è²»
Ġ åľ¨
çĶŁ æĸ¼
a il
åĬł å·¥
æ» ĭ
ç¥ĸ çĪ¶
åŃ¦ ä¼ļ
æĥ ľ
çĮ ľ
åı¦ ä¸ĢåĢĭ
èĻķ æĸ¼
å¯Į å£«
å¾© èĪĪ
æı´ åĬ©
éĢĲ æŃ¥
çī¹ æĢ§
ç´ ĭ
æİĴ åĪĹ
éĻ¸ çºĮ
ä¸»ç¾© èĢħ
ä¼¼ ä¹İ
å¹´ èĻŁ
æľ Ń
æ± Ģ
7 00
Î ±
å¤§ çľ¾
èĭ ¯
èª¿ æķ´
æĬ ĵ
åĬŀäºĭ å¤Ħ
åº ĩ
è¢« è¦ĸçĤº
åįłæĢ»äººåı£ çļĦ
æĺ¯ é¦Ļæ¸¯
çĶŁ æħĭ
è´¡ çĮ®
æĬµ éģĶ
æĬ Ħ
åįĹ å®ĭ
è¿ĩ åİ»
éĩĩ åıĸ
è¹ Ī
åĭ ¸
è² ©
ç§ ©
å®¶ äºº
äºº æĸĩ
çĵ ·
èĺĭ æŀľ
ãĢĭ ãĢĬ
çŁ ¢
åĪĨåĪ¥ çĤº
çľ ł
åĽ½å®¶ çļĦ
åı Ļ
æ¶ ¦
ç¼ĸ è¾ĳ
åľ° è´¨
åħ¬ ç¤¾
æĿ± äºŀ
ä¸į æĺİ
èªª æĺİ
or n
ä¸» å¼ł
èĤ Ŀ
èħ ¿
çĽ¸éĹľ æ¢ĿçĽ®
æĶ¶ èĹı
N HK
å£ ¯
çİĩ éłĺ
åł ¤
åĮĹ æ´ĭ
åĪĨ æł¡
æ¼ ı
èį ĥ
19 23
ç¦ı åĪ©
r on
19 13
ĠP h
åĭ Ł
å¹ķ åºľ
èĩ Ł
åıĭ å¥½
æ® ¼
ãĤ ¯
å¯¦ è¡Į
ĠP l
è¸ ı
) ï¼ļ
å½¢æĪĲ äºĨ
P l
ä¹ĭ åľ°
éĸĭ è¨Ń
éĸĵ çļĦ
çļĦä¸Ģ ç¨®
é½ Ĵ
ä¹Į æĸ¯
çĵ ¶
è¼¸ åħ¥
D NA
ãĢĮ ãĢį
åĮĹ å¹³
åĬ ±
å¸Ĥ ä¸Ńå¿ĥ
éĸ± è®Ģ
çİĭ å®¤
çļĦ åķıé¡Į
g color
æĴ «
åħ¬ ç½²
æľĢ å¤ļçļĦ
.. .
é£Ł çĶ¨
åŃĹ ç¬¦
æĺİ æĺŁ
åı° ä¸Ń
å¸ĥ å°Ķ
çĮ İ
æ°¸ ä¹ħ
ä¸ĵ éĹ¨
æĹ©æľŁ çļĦ
ä»į æľī
å¼Ł å¼Ł
ç¡ ķ
æĪ° åľĭ
åĪĨ éĴŁ
åĲī æŀĹ
èº« äº¡
D VD
y n
æĸ¯ å¤§
ç³» çļĦ
ç©º åĨĽ
è®Ń ç»ĥ
å¼ķ åıĳ
æĽ´ å¤ļçļĦ
åħ¶ä¸Ń åĮħæĭ¬
å¹¿ä¸ľ çľģ
åĭ³ ç«ł
æĮ ĸ
æľª æľī
å¡ŀ çĪ¾
ä¿Ħ åĽ½
çı¾ åł´
æ± °
å¹´ ä¸Ń
éł Ĺ
åĬł æĭī
åĽĽ åĢĭ
ç² ¤
è´µ æĹı
å¹¶ äºİ
åģļ åĩº
ä¼ł è¯´
çŃ¾ ç½²
éĦ° è¿ĳ
çĻ¾ åĪĨ
åĪĽ åĬŀ
éĽ£ ä»¥
å°± æľĥ
çĤ Ń
å¾· æĭī
å½ĵæĹ¶ çļĦ
æĪĲ åĪĨ
åľĭéļĽ æ©Łåł´
å±±èĦ Ī
ç§ĺ ä¹¦
1 10
S A
äºĭ å®ŀ
å°ı å¹³
æĻĤæľŁ çļĦ
è§Ĥ å¯Ł
åŁİ çļĦ
å¯¹ å¤ĸ
Ã ¼
ç§» åĬ¨
éĹľ æ³¨
çĮ ©
ç© ´
æµ· ä¸Ĭ
åĪĻ æĺ¯
æĮĳ æĪ°
äºº æīį
å°į æĬĹ
æĪĲ çĨŁ
æµģ åŁŁ
çħ Į
éģİç¨ĭ ä¸Ń
çļĦ å¤ļ
åľ° é»ŀ
æł¡ åľĴ
ç§ĳ åŃ¸å®¶
æĽ´ åĲįä¸º
çļĦ åŁİå¸Ĥ
åľ¨ è¥¿
è¯ķ éªĮ
å°Ī éĸĢ
è»į çļĦ
èĢģ å¸«
ä» ĳ
åı¬ éĸĭ
æ± Ŀ
å¹¶ æ²¡æľī
è· ĥ
èĪĩ åħ¶ä»ĸ
æ¨Ĥ å£ĩ
èģ² æĺİ
è¿ Ŀ
å¤§ å¸Ŀ
ä¸» åĬĽ
å±ı æĿ±
æ¡ Ĩ
è¶ħ è¶Ĭ
ç»ĵ å©ļ
æĤ Ł
åĩ» è´¥
çĻ¾ å§ĵ
ä¸Ģ éĥ¨åĪĨ
ãĢį ï¼Ľ
en g
æĶ¶ éĽĨ
åı¸ä»¤ éĥ¨
ä»ĭ çŁ³
çļĦ ä½įç½®
ä»» æĦı
åĸ »
çļĦ è§Ĵèī²
é¡Į æĿĲ
çļĦ åľĭå®¶
è®Ĭ å¾Ĺ
èĥ¡ åĲĮ
è³¼ è²·
å¥³ ç¥ŀ
å·¨ å¤§çļĦ
åħĥ éŁ³
äºĶ åįģ
an n
å¤§ æĪ°
è§Ĩ ä¸º
ç³ §
æĢ İ
å®¶ ä¸Ń
olog y
ç»ı èĲ¥
çļĦ æīĢæľī
åħĭ èĺŃ
è² §
çĥ ¯
èªį èŃĺ
l l
çļĦ æŃ£
åıĹ åĤ·
é² į
åĳ İ
å± į
å±± åĮº
åĽĽ ä¸ª
è¿ĲåĬ¨ ä¼ļ
å¤§ æ¡¥
19 11
äºĮ æ¬¡
å°į è±¡
éķ· åŃĲ
æīĺ åĭĴ
è¾ ©
åŁ· æĶ¿
æ³° åľĭ
èĤ ħ
èģļ éĽĨ
å¸¶ éłĺ
åįĹ æµ·
çķ¶ å±Ģ
ç»Ħ å»º
å·¡ è¿´
G B
ç®¡ åĪ¶
çĶŁ åŃĺ
è±¡ å¾ģ
æĹ¶æľŁ çļĦ
åĦĦ ç¾İåħĥ
èµ ı
ä¸ī äºº
æĶ¹ å»º
æ§ĭ æĪĲ
èģĮ åĬ¡
è·¯ æ®µ
æ²» çĸĹ
è¯º è´Ŀå°Ķ
æ²Ī éĺ³
åĽ ļ
æľ¬ ç§ĳ
éĳ ½
åħĭ åħ°
å¼Ĺ æľĹ
æ¿Ģ çĥĪ
ä¸¦ å°ĩ
æķĪ çİĩ
é¾Ļ æ±Ł
E N
æī ĩ
è³ĩ æľ¬
çµĤ æĸ¼
å§Ķ ä¹¦è®°
çŁ ®
ãĥ ĥ
æİ ł
å¯Ĩ åĪĩ
é¡ı èī²
ç¢ °
ä¼ Ļ
çķĮ çļĦ
éļĬ çļĦ
åĩ ī
åĲĦ åĽ½
é«ĺéĽĦ å¸Ĥ
ç¤¾ åĮº
åĽ¢ ä½ĵ
ab le
å¯ ĩ
èĬ Ĵ
æ±Ł æĪ¶
çº ¹
äºļ åİĨ
æĭ ±
ä¿Ŀ å®ī
å½¢æĪĲ çļĦ
åĢ¼ å¾Ĺ
åľ¨ æĸ¼
ä¿¡ èĻŁ
çģ« æĺŁ
æ¨Ļ èªĮ
o ut
å¹´ å¼Ģå§ĭ
èĮ µ
æ¸¸ æ³³
åĽ Ĭ
ç½ ·
he m
æµ· å³½
ation s
ran s
èİ ²
ist ory
ä»¥ çĤº
éĮ¯ èª¤
å¼ ¥
ä¸Ģ çº§
æĻ ´
E n
ä¸Ĭ åįĪ
ç¶Ń äºŀ
çļĦæĦı æĢĿ
ä¹ĭ æĦı
é© ¾
ä½ľ è©ŀ
è£Ŀ ç½®
å¹¹ ç·ļ
éĥ½ è¢«
åĪĨ æĪĲ
æľĢ éĩįè¦ģçļĦ
è· ĭ
éĻį æ°´
Ġf rom
åĪ© æĸ¯
æħ °
C P
åį¡ æĸ¯
o ol
èĥ ģ
åĬł éĢŁ
æĺ Ķ
çĶŁ äºİ
é«ĺ éģĶ
èĿ ¶
çĲī çĲĥ
çļĦ ç¬¬
é«ĺ åİŁ
èĩª æŃ¤
åı¯ è¦ĭ
ç±³ å°Ķ
æ²Ļ çĶ°
èĵ ¬
çĶŁ çĲĨ
è· Į
å°¼ åħĭ
å¨ ¶
çĦ ļ
åĽĽ æľĪ
åĬĩ æĥħ
åĪĽ å»º
ä¸ŃåĽ½ çļĦ
éĺ³ åİ¿
çĲĨ æŁ¥
å·¥ å»ł
èĦ Ĭ
åĮĪ å¥´
éģ ²
åķĨ åºĹ
æĴ¤ éĢĢ
ä¿± æ¨Ĥ
N BA
æŃ¦ è£Ŀ
å¤ļ æķ°
ä¸¦ ä»¥
ãģ Ħ
å±ħä½ı åľ¨
èĤ ĩ
æĢ» çĿ£
æĪĲçĤº äºĨ
æ¶Ī è²»
T S
åİ¿ çº§
èģ· æ£Ĵ
åĬł åĵ¥
åĮĸ çŁ³
å¸¶ ä¾Ĩ
çĸ Ĭ
èĬĿ åĬłåĵ¥
æľĥ åĵ¡
è¼ »
åĥ ļ
æĲ ¶
çĪ± å°Ķ
å¹³ æ°ĳ
å¤§ æī¹
äºĮ æľĪ
am b
æİ ©
èµ ¢
èº« ä¸Ĭ
ä»İ äºĭ
ç¶² éłģ
æ¼ ³
åħµ åĬĽ
æī© å¤§
ä¸ĥ æľĪ
æ¸¬ éĩı
æħĪ åĸĦ
æĹ¥ å¾Į
æĪ° çķ¥
e ch
èı²å¾ĭ è³ĵ
çī© ç§į
æ¡ Ĳ
æ»¡ è¶³
æĺİ ä»£
éĢ ¾
æĸ¯ åħĭ
éĢļ çŁ¥
æľī ä¸ī
ä¸» åĶ±
æ³¢ ç½Ĺ
æĵ´ å¤§
æĸ ¬
äºº æŃ»äº¡
çĶ¨ ä»¥
å¯¦ çı¾
ï¼ļ ï¼ī
é£Ľ å½Ī
åĤ³ åªĴ
ä¸ĭ äºĨ
èĬ Ļ
åħ© èĢħ
æķ´ åĲĪ
åŁºçĿ£ å¾Ĵ
åŁİ åł¡
èĪŀ è¹Ī
å¤ª ç¥ĸ
èĸ ĩ
æľĥ çļĦ
l ine
éĤ ı
èħ ¾
ç½Ĺé©¬ å¸ĿåĽ½
å¤§ æ©ĭ
é¦ĸ å¸Ń
ç®¡ è½Ħ
æĺ¯ æľī
è´ º
æµ· åįĹ
C H
æĿ± åįĢ
ç©º æ°£
æ¸ħ æ¥ļ
ç£ ¯
äºĶ ä¸ĸ
ç¥ŀ è©±
å¹» æĥ³
F F
äºĭ ä¸ļ
å±± åįĢ
Ã ¡
ä» ĵ
åŃ¸ çļĦ
åĸ ·
O M
çķ ľ
åĪĨ ä½Ī
r id
çĶ· å¥³
as h
åľ¨ ä¸Ńåľĭ
æŁ ¬
å¥§ æŀĹåĮ¹åħĭ
ç¥ĸ åħĪ
ç¼ĸ çłģ
éĢļ è¡Į
å¸« ç¯Ħ
å§ĵ æ°ı
å¯¹ åºĶ
æĶ¾ å°Ħ
ĠE d
æĺ¯ çĤº
åº ļ
æĹ¶ çļĦ
å°į å¤ĸ
ç¥ŀ ç»ı
é½ ¿
G o
Ġ align
è³ĩ çĶ¢
åħĭ éĩĮæĸ¯
as e
å»¶ä¼¸ éĺħè¯»
çļĦæĥħæ³ģ ä¸ĭ
åħĥ é¦ĸ
éĨ« çĶŁ
æ·ĺ æ±°
ä½¿çĶ¨ äºĨ
éĻĦ å±ŀ
æıĲåĩº çļĦ
æĥ ¯
æĩ ¸
æħķ å°¼
ç¯ ®
æĪĲç«ĭ äºĨ
åĶĲ ä»£
Ġ ed
åĲĮ å¿Ĺ
ç°½ è¨Ĥ
æ¬ Ħ
éĶĻ è¯¯
æ±Łèĭı çľģ
åİŁ åħĪ
D P
çı¾ ä»»
ç¥ŀ ç¤¾
äºº æīĢ
å¤© çļĦ
ç£ ·
Ġ al
ãĢĤ ãĢĮ
é§ ģ
æĶ¿ åħļ
æĵ ¦
çĶµ åı°
çĻ¾ èĲ¬
è¹ ¤
ç°½ ç½²
ro und
æī© å±ķ
æīĺåĭĴ å¯Ĩ
ç¥ŀ ç¶ĵ
æĿ± éĥ¨
èĦ ī
ro s
A L
Ġ 12
åı° åįĹ
ä¼Ĺ å¤ļ
ç¨® é¡ŀ
å³¶ å¶¼
æĲ ŀ
åľ¨ åı°çģ£
æľī çĿĢ
ç«ĭ åł´
åĪĴ å½Ĵ
çĪ±å°Ķ åħ°
éĢĶ ä¸Ń
çĴ ĭ
èĪ° éĺŁ
ol l
çĳŁ å¤«
éĢłæĪĲ çļĦ
åĦĦ åħĥ
å¸¸ä½ı äººåı£
u al
Ġ y
éĥ ģ
è¶ ķ
ç§ĳ åŃ¦å®¶
è±Ĳ å¯Į
p p
å¤ª å®Ĺ
å±ķ è¦½
éĻ¤ æŃ¤
è«¾ è²ĿçĪ¾
çļĦ çĶŁæ´»
å±± å¸Ĥ
oc i
èİİ çĻ½
å¤§ è§Ħæ¨¡
éĽ ĩ
èĩª æ®º
è¾½ å®ģ
èĩ³ æŃ¤
å®ľ èĺŃ
åĬ¿ åĬĽ
d er
å¹´ é½¡
ä¸ī æľĪ
is m
éģŃ åıĹ
éĸ© åįĹ
å¤© åľ°
äºĶ ä»£
è´§ å¸ģ
æ° ®
å²ģ çļĦ
ä¸» æµģ
èªŀ çļĦ
è¦Ĩ çĽĸ
ç¥ Ī
çĦ¡ ç·ļ
å´ĩ æĭľ
è¶ ģ
æĢ§ æł¼
è¿Ļ æ¬¡
æ· µ
çŃ¾ è®¢
å½¢ çļĦ
ç¿ ħ
ä¸į ä»ħ
åĭĴ æĸ¯
èµĦ äº§
19 10
åħ· ä½ĵ
èµ° åĲĳ
æµ ĵ
åħ« æľĪ
åľĭå®¶ çļĦ
M L
æĮ Ĥ
ä¿Ŀ åĬł
æħĭ åº¦
Ġt h
çļĦ æĹ¥
ä½Ĩ åĽł
ç«ŀ äºī
åĬł å¼·
åģļ æ³ķ
éģ ®
åĻ ¸
ç»´ å°Ķ
åıĥ éģ¸
Ð µ
äºĨ ä»ĸ
å°ı ç»Ħ
æĻ® åıĬ
Ġ *
P ro
ä¼ ª
æ¯ Ĺ
å¨ģ çĪ¾
æĽ¿ ä»£
åĬ© çĲĨ
è¿½ æ±Ĥ
å¤© åĲİ
ĠC omp
è´ «
çĶµè§Ĩ åī§
åĨ ¥
çĲĨ å¿µ
å±± åľ°
å¢ŀåĬł äºĨ
å¦ ¥
éĸĭ å¹ķ
å¤§ å¤«
éģĭ çĶ¨
èŃ¦ åĳĬ
æ¸© åº¦
çĥŃ å¸¦
è© ł
æĦı è¦ĭ
åį¡ çĪ¾
æŃ£ æľĪ
æĵ º
çĲĥ åĳĺ
è½ī æıĽ
é© ¶
èģ· åĭĻ
è¿½ æº¯
æĶ¾ å¼ĥ
æľį å½¹
ç¦ Ħ
å°į æĩī
i am
çļĦ ä»£è¡¨
åĲĪ ç´Ħ
åľĺ éļĬ
å¤§ å®¶
æĢ» éĥ¨
ç¼ ħ
å®ĭ æľĿ
èĪĪ è¶£
å¤§ åĲĮ
ç· ¬
op h
äº ©
éĢļ å¾Ģ
ç¢© å£«
å¤ ¸
å§Ķ ä»»
è© Ķ
ãĥ¼ ãĥ
éĴĪ å¯¹
æĸĩ èĹĿ
åĥ¹ æł¼
P h
æĢ§ åĴĮ
å°± åı¯ä»¥
éĺ¿ å¯Į
æ· ³
ä¸ĸçķĮ æĿ¯
æ°ĳä¸» åħļ
èİ·å¾Ĺ èĢħ
è¯Ĺ äºº
ç¾½ æ¯Ľ
æ³¨ éĩĭ
åı¯ä»¥ æĮĩ
ä¸ĺ éĻµ
) ;
ä¸ §
çļĦ åĽ½å®¶
ä¹Ł åı¯
I M
åĩ Ģ
éĺ¿å¯Į æ±Ĺ
ä¿±æ¨Ĥ éĥ¨
æĺ¯ æĹ¥æľ¬
ĠE x
åĪº åı²
åĬ £
æľĪ åºķ
å¹´ è½»
åĥ ĳ
ç¥ Ĳ
æ¿ ķ
ä¾Ľ æĩī
L in
à ½
ï¼Ī ï¼īãĢĤ
ä¹Ł åĽłæŃ¤
èħ °
Ġw ith
ä¸Ģ éĥ¨
ä¹ĭ æĪĺ
ä¸»ä¹ī èĢħ
le y
æĪı åī§
ç©º æ°Ķ
ä»ĭ ç»į
åĿ¦ åħĭ
åıį èĢĮ
åĩº æĿ¥
ic an
åĳĪ çı¾
æ¹ĸåįĹ çľģ
å®ī è£Ŀ
çľ¾ å¤ļ
éĩĮ äºļ
çĻ» ä¸Ĭ
åħį çĸ«
çļĦ æīĭ
æ» ©
èĹ¥ çī©
æŃ² çļĦ
å¤§ è¥¿æ´ĭ
ç¶ĵ çĲĨ
ç´Ħ çĤº
è²¨ å¹£
å¤§ éĥ¨ä»½
éĥ½ ä¼ļ
å¹¾ åĢĭ
æ± ¶
æķ£ æĸĩ
ç»ı éªĮ
ç»ı åħ¸
åıĤ è°ĭ
éĮ¦æ¨Ļ è³½
çĮ ´
çļĦ è¥¿
çµĦ æĪĲçļĦ
æ·± åħ¥
æĹ¥æ²» æĻĤæľŁ
im e
æĹ ±
æľĥ æľī
âĢĿ ï¼ī
å¤© çİĭ
å¦Ĥ åĲĮ
å¹´ æľ«
en n
g l
äºº æķ°
éĥ½ ä¸į
çºª å½ķ
å®¢ è¿Ĳ
A d
åĪĹ çĤº
ä¸¹ éº¦
æĹ¥ æŃ£å¼ı
ä½į ç´ł
æŃ¤ äºĭ
in s
æĸ° å»º
èĹī çĶ±
åĽĽ åįģ
è²¬ ä»»
å¼ Ħ
åıĬ åħ¶ä»ĸ
å®£ åĳĬ
åĨ³ è®®
O V
å¹´ å¹³åĿĩ
éĴ ¦
åŁĥ å°Ķ
è®° èĢħ
åħ§ åľ°
ç¹ ©
çĹħ éĢĿ
æīĢ éľĢ
æĶ¹ åĲįçĤº
è¿Ļæł· çļĦ
U S
yst em
å¾Į èĢħ
ç¦ ½
è¡į çĶŁ
ç³ ķ
éĥ½ åı¯ä»¥
å°ĳæķ° æ°ĳæĹı
! !
æĪĲ éķ·
æĹ¶ ä»»
åĵ¡ å·¥
é½ ĭ
çĽĨ åľ°
å¾ Ļ
ä¸ª éķĩ
éĻĦ å±¬
æĪ ļ
ç²¾ éĿĪ
çľŁ å¯¦
å·¥ åķĨ
èªį åĲĮ
ç¦ ¹
èĴĻ çī¹
èĵ Ħ
å±ķ å¼Ģ
å¨ģ èĥģ
æ²¿ å²¸
j ect
åĿ Ŀ
æĥħ åł±
éĩĮ çļĦ
æķĻ ç§ĳ
åħ³ æ³¨
æĶ» æīĵ
è¡ĮæĶ¿ éķ·å®ĺ
éĽ· æĸ¯
å±± çļĦ
çĥ ·
æħķå°¼ é»ĳ
è½Ł çĤ¸
åº ¶
éĻ¢ éķ¿
æİ¨ å»£
åı¦ ä¸Ģä¸ª
çĸ« æĥħ
ä»ĸ è¢«
ç½ ļ
åĲİ èĢħ
å®ļ æľŁ
åĦª åĭ¢
et h
æĸĹ äºī
à ¸
è´£ ä»»
åŃĶ åŃĲ
åĩº åľŁ
è½ °
å¦Ĥ ä»Ĭ
åħ¶ä»ĸ çļĦ
æĻº èĥ½
çī©çĲĨ åŃ¦
ä¹ĭ ä¸Ĭ
è¶ ĭ
ĠC o
æĬĢ å·§
æĸĩ èīº
ç¨® æĹı
åĬŀ åħ¬å®¤
åŁ¹ åħ»
ç¥Ń ç¥Ģ
æľ µ
å¼ ĵ
å½¼ æŃ¤
19 16
æĭį æĳĦ
éķ· åº¦
åīĩ çĤº
é»ĳ é¾Ļæ±Ł
ç¬¬ä¸ī æ¬¡
æĸĩåĮĸ çļĦ
ãĢģ ãĢĬ
å¾· èı¯
æł¼ éĩĮ
åĳ¨ æľŁ
æĸ¯å¤§ æŀĹ
æħ ĺ
è¾¦ åħ¬å®¤
ĠM ar
åĬł çĽŁ
ä¸Ńåľĭ åħ±çĶ¢é»¨
åħ¬ äº¤
çı Ģ
éĢĻ æ¬¡
å¾Ī å¤§çļĦ
çĻ¼ éĽ»
çº¢ èī²
éłĲ è¨Ī
ä¹ĭ çĤº
æ³¢ çī¹
è©© äºº
èī Ļ
ä¸ĵ åĮº
è£¡ çļĦ
o th
ï¼ī -
å¥³ ä¸»è§Ĵ
åįĢ åħ§
åĥı æĺ¯
å¼Ĺ éĽ·
è³ Ĭ
éĿŀ æ³ķ
æŃ£ éĿ¢
at t
é¶ ´
ï¼Ī ãĢĬ
ï¼īãĢģ ãĢĬ
åĭ ĺ
éĹ Ĭ
æıĲ çĲ´
æĮĩ æİ§
éº ĵ
çŁ³ åĻ¨
ed ia
i el
æĺ¯ æľĢ
çĶ¨ æĪ¶
190 5
çļĦ è©±
an s
ç¬¬ä¸Ģæ¬¡ ä¸ĸçķĮå¤§
ä½ľ æ¥Ń
æķ´ é«Ķ
æĥ³ æ³ķ
åħ¬ æĸ¤
åľĭ åĭĻ
æīĢ å±¬
å´ Ĺ
æĢ» éĿ¢ç§¯
è¥² æĵĬ
çĬ¹å¤ª äºº
çļĦ ç¬¬äºĮ
ï¼Ī ï¼Ľ
æĢ ¨
è¬ Ļ
èµĦ æľ¬
èª ¬
çİĽ ä¸½
åĨħ æĪĺ
åħŃ æľĪ
ä»¥ ä¾¿
çĽ® çļĦæĺ¯
ä¸į ä½Ĩ
å°ĩ éłĺ
am p
å¼Ł åŃĲ
æµĻæ±Ł çľģ
åľ¨ æĸ°
åľ¨ ä»ĸçļĦ
å±¯ éĸĢ
çª ®
åı¸ é©¬
é¦Ļæ¸¯ æĶ¿åºľ
å¹¿ åĳĬ
èŃī å¯¦
çī¹åĪ« æĺ¯
åĳ¼ åĲ¸
è¼» å°Ħ
çļĦ åİĨåı²
ãĢĤ ãĢĤ
çŁ £
æĭľ åįł
æĤ ¬
èĪ ±
ä¹Ĳ éĺŁ
ä¿ĥ éĢ²
å¡ Ĺ
æł¼ åĭĴ
éĩį è¦ĸ
åįģäºĮ æľĪ
ä¸į åĥħ
ç¬ Ľ
çº³ ç²¹
éĶ ģ
m m
çĪ ª
ä½Ĩ çĶ±æĸ¼
çļĦ åŁºæľ¬
çĤ ³
ä¹ĭ åĲį
åį° è±¡
ĠW orld
æ²¿ çĶ¨
ç¦ıå»º çľģ
éļ¨ åį³
æĬĹ èŃ°
ç§¯ æŀģ
äºŀæŃ· å±±å¤§
a ur
èĭ¥ å¹²
ä¸įå¾Ĺ ä¸į
è¾ £
æįŁ å¤±
æľī åı¯èĥ½
èĪĩ åħ¶
å»º åĪ¶
åŁºæľ¬ ä¸Ĭ
ä¹ĭ å¥³
çŃī çļĦ
çĭ ®
åĽŀ æĩī
il d
çº¢ åĨĽ
çī¹åĪ¥ è¡ĮæĶ¿åįĢ
åĩºçı¾ åľ¨
ä¸»é¡Į æĽ²
ä¸Ģ çĶŁ
çī¹ æĭī
äº¤æĺĵ æīĢ
é»ĳ æļĹ
æĿ±äº¬ éĥ½
å®¿ èĪį
å¤©æĸĩ åı°
ä½ ĳ
åģ ½
éģŃ éģĩ
æ¬¡ åħ¨åĽ½
å°± åľ¨
èĩ Ĥ
åŁ ł
æ°ĳ ä¼Ĺ
é¦Ļæ¸¯ éĽ»å½±
ãĢĢ ãĢĢ
åĦ Ł
æķ´ çĲĨ
æİ¢ ç´¢
ç¶ĵ çĶ±
æĹı èĩªæ²»
æ¸ħ åįİ
èĲ¬ åħĥ
éĨ ī
on s
é¦ĸ ä»»
å¹² éĥ¨
å¥¹ åľ¨
åİĺ ç±³
éĬ· éĩı
çļĦ ä¸ĸçķĮ
ä¸Ńèı¯æ°ĳåľĭ æĶ¿åºľ
èĭı å·ŀ
çĳª éºĹ
åıį æĬĹ
ç§° ä½ľ
ä¹¦ ç±į
25 0
ä¸ĭ ä¾Ĩ
æĶ ľ
åĺĹ è©¦
ä¸Ń æµ·
éĢļ è½¦
æĸĩ å¸Ŀ
éĵ º
ä¸¤ äºº
æĪĲ æŀľ
ä¸¦ çĦ¡
åı¯ æĺ¯
æĶ¹ åĪ¶
é¸ ¿
Ġc ol
èį Ĭ
æĤ ¼
é¤Ĳ å»³
èĩºä¸Ń å¸Ĥ
åĲ »
é¨ °
çĶ¢çĶŁ çļĦ
éģ© åĲĪ
å¤§ è¦ıæ¨¡
æĿ Ĩ
æ³ķ ä»¤
è·¯ å¾·
çļĦ æŃ·åı²
åĨ³ èµĽ
å¼Ģ éĢļ
çĮ «
å½¢ æĢģ
ï¼ļ ãĢĪ
çº ¬
åĻ ¶
æ²Ļ æ¼ł
æ¬ ł
åĪĨ è§£
éĢ± æľŁ
Ġ e
æĹ Ń
åĿ ¤
å½ Ĺ
èµ Ĳ
æĶ¹ ç¼ĸ
æİ¥ èĳĹ
am es
å¯« ä½ľ
äºĨ ä¸ĢäºĽ
è¯ ı
å¤ļ ç¨®
ç»´ æĮģ
èı² åĪ©
ç¹ģ æ®ĸ
åĢĻéģ¸ äºº
åħ¨ å¹´
æŃ» åĪĳ
åħ¶ä¸Ń ä¸Ģ
ç¨ ļ
ä¸Ńåľĭ çļĦ
çİĩ é¢Ĩ
å¸ Ĩ
åĨħ éĺģ
çľĭ æ³ķ
åľĭ è»į
æ£ ķ
è½¦ è¾Ĩ
æĥ³ è¦ģ
èį¯ çī©
åľ¨ ä¸Ĭæµ·
æľī ä¸Ģä¸ª
åĴ Ĵ
k y
å½ Ļ
åħ¬ æľĥ
æŃ¤ æ¬¡
ç»Ħ åĲĪ
çī¹åĪ¥ æĺ¯
åį± éļª
ä¸ī æ¬¡
ç³ Ĭ
éŀ ĭ
åĲİ æľŁ
é¢¨ éļª
è¦ª èĩª
ç§ĳ å¹»
ç»ıæµİ åŃ¦
æľĥèŃ° åĵ¡
ä¿ĥ è¿Ľ
åĤ¾ åĲĳ
èĩ´ åĬĽ
Ġ ä¸Ń
æ± ķ
éĩİ çĶŁ
åĽ° éĽ£
éļľ ç¤Ļ
å¹´ åĩºçīĪ
æ³¨ åĨĮ
æ¬¢ è¿İ
å» Ĥ
é©¬ å°Ķ
ç³»çµ± çļĦ
åĪĨåĪ¥ æĺ¯
è¢« æįķ
èĤ ©
c y
åı¤ å·´
v er
æľ¬ ç«Ļ
æĦŁ æĥħ
åĬł å¼º
çı¾ å¯¦
æ¸ħ æ°´
çļĦ èĥ½åĬĽ
æīĢ è°ĵ
éĢļå¸¸ æĺ¯
åĨ ¶
ä¸į çŁ¥
ç· ¯
æ²¿ éĿ©
èĤ¯ å®ļ
ä» ķ
åĴĮ å¤§
äº¤ æį¢
éĺ³ å¸Ĥ
åĽŀ æŃ¸
åĮħæĭ¬ äºĨ
è¯¾ ç¨ĭ
B l
è¢« èªįçĤºæĺ¯
æİĪ æ¬Ĭ
æĴĴ åĨ·
åľ° åŁŁ
re t
è¾ĥ ä¸º
æĶ¿ åįı
ç¬¬äºĮæ¬¡ä¸ĸçķĮå¤§ æĪ°
; "
èĢ¶ è·¯
å°į æŃ¤
ä¸ ĳ
ä¸į åıĹ
å¾ŀ èĢĮ
ä¸Ĭ éĿ¢
åĳ¨ éĤĬ
ç»Ħ æĪĲçļĦ
åĳ¨æģ© æĿ¥
å¾ŀ æŃ¤
ç¦» åŃĲ
èĢ¶è·¯ æĴĴåĨ·
åĭ ¾
é® ĳ
åŁĶ å¯¨
19 15
è» Ĵ
ç¾İ æľ¯
æĺİ ç¡®
å¦¹ å¦¹
å·¥ åİĤ
åµ Į
é °
æľī äºĨ
çĽ Ĺ
å°Ķ çī¹
ĠB l
ç¥¨ æĪ¿
æĪĲ äºº
å´ ĸ
è¦ı ç¯Ħ
æŁ¬ åŁĶå¯¨
ä»ĸ ä¹Ł
çĪ º
ç© ·
åĽł åħ¶
èģĶ ç½ĳ
çĹĩ çĭĢ
âĪ Ĵ
ç³»ç»Ł çļĦ
ä¹¦ éĻ¢
éĺ² ç¦¦
åĵĪå°Ķ æ»¨
æĺ ı
éģ Ļ
è¯´ æĺİ
åĤ µ
å¡ ļ
æĽ´ çĤº
çĦ¡ è«ĸ
è·ĳ éģĵ
é¢ľ èī²
ãĢį ï¼ī
çĪŃ åıĸ
åĪĳ äºĭ
æĸĩ çļĦ
èĤ ¢
æĿ± æµ·
èĸ ¦
çķ Ķ
åħ¬ ä½Ī
éģ¸ åĩº
éľ ĸ
åħī ç»ª
æµĭ è¯ķ
éĶĢ åĶ®
éģĬ è¡Į
å¤§ å¸«
å¸¸ çĶ¨
é«Ķ ç³»
æ¶ Ĥ
åłħ æĮģ
åĵ¥ ä¼¦
ä¸ĭ æ¸¸
é¥ Ń
äºĨ ä»ĸçļĦ
ä¾¿ æĺ¯
Ġ 11
çļĦ æľĢé«ĺ
åĨħ èĴĻåı¤
å°ĳ å°Ĩ
çĪ Ĳ
æ¸¯ å³¶
S c
Ġ æĺ¯
å½ ª
æķĻ å¾Ĵ
åı¤ è¹Ł
åıĳ è¾¾
åħ© æ¬¡
æĥ Ĭ
æİ¥ ä»»
éģĭ è¡Į
ç·¨ æĽ²
éĽ» è»Ĭ
çľ ī
æĻ® é²ģ
æ¯ı ä¸Ģ
åľĴ åįĢ
ä¼ļ åľ¨
å¼º è°ĥ
æľ« æľŁ
éĩĭ æĶ¾
ç¤ ģ
ç´į ç²¹
äºĮ æ°§åĮĸ
éĩĳ åĥı
Ġ ï½ŀ
åĩº èĩª
æ¸¯ æ¾³
äºº æ¬Ĭ
åī§ éĻ¢
çĢ ĳ
çļĦ äººåı£
ä»· æł¼
âĦĥ ï¼Į
ç¥ŀ çļĦ
è¢« è®¤ä¸ºæĺ¯
ç¦ ħ
ç¸½ è£ģ
ä¿¡ ä»»
æŃ¦ å£«
åĩł ä½ķ
è«ĩ åĪ¤
ç§© åºı
èħ ¸
ä¹Ŀ æľĪ
åħ Ķ
æĸĩåĮĸ å¤§éĿ©åĳ½
çįİ æľĢä½³
çļĦ ä½ľçĶ¨
çī© åĵģ
çĪ¾ çļĦ
æĸ¹ç¨ĭ å¼ı
åĲ Ĭ
ä¸Ĭ äºĨ
åį³ æĺ¯
éĵģ éģĵ
om e
æ¤ İ
ä¸» è¾¦
åĮĹ ä¼Ĳ
è´ ŀ
å§ĭ äºº
æ³¢ å£«
å¥½ åıĭ
Ġ ï¼ī
äº« æľī
æĮĩ å¯¼
åĳ¨ åĽ´
æľĢ æľī
æ¾ İ
æĸ¯ æ´Ľ
åĪ© çļĦ
âĢĿ ï¼Ľ
éĿ¢ åĲĳ
å¥¥ æŀĹåĮ¹åħĭ
è¡ĮæĶ¿åįĢ åĬĥ
og le
è¾ ±
10 1
åŀ £
åį± æľº
éłĴçįİ åħ¸ç¦®
è³ Ń
æľª æĿ¥
åĬŀ åħ¬
Ġp ro
æł¡ èĪį
èĢĥ å¯Ł
åĨľ æĿĳ
M ac
åº ŀ
å¤§åŃ¦ çļĦ
ç¨ £
çŃ Ĵ
å¢ŀ éķ·
å·´ åŁº
å¼º çĥĪ
èĻ Ĳ
åĲĦ ä¸ª
æĶ¶ è²»
ç¤¾æľĥ ä¸»ç¾©
çļĦ ä¸Ĭ
å°į æĸ¹
ur n
åĩºçĶŁ äºİ
M ar
å± ¥
ç¢ ±
èĢ¶ ç¨£
çļĦ æĻĤéĸĵ
æĻĤ åł±
å®ļ ä½į
è¿« ä½¿
ç¾ħé¦¬ å¸Ŀåľĭ
ä¸» ç®¡
å·´ ä¼Ĳ
ä¼ļ ä¸Ĭ
åıĳ èµ·
çİ° å®ŀ
æĪĺ åĲİ
æµĭ éĩı
åĽ½æ°ĳ æĶ¿åºľ
ä»¥ åħ¶
æĹ¥æľ¬ äºº
æ£Ģ æŁ¥
æī °
åĩºçİ° äºĨ
åĸ Ŀ
èĨ ¨
ä¸» é¢ĺ
é¢ ĩ
èĭ± è»į
åĪĽ ç«ĭ
ä»¥ è¥¿
æ´Ľ æĸ¯
èģ °
çĻ¼ å¸ĥ
åĨĽ å§Ķ
é»Ħ æ²³
èħĵ çī¹
å°± ä»»
å·´ èµ«
ĠY ork
äºº çĶŁ
å¤ĸäº¤ éĥ¨
å¸ĥ æľĹ
åħħ åĪĨ
èĹ »
éĽ¢ åŃĲ
æĺ¯ä¸Ģ ä½į
èµ¢ å¾Ĺ
çļĦ åħ¬
å®¹ éĩı
è³ª çĸĳ
çī ½
åħī ç·Ĵ
æ¼« çĶ»
äº¿ ç¾İåħĥ
æľĪ èµ·
çļĦ ç¾İ
èµ ł
æµģ äº¡
å° Ŀ
ç¨± ä½ľ
it ed
ãĤ ·
r ic
å¹³ å®ī
åİŁ åĪĻ
åĵĪ éĩĮ
è¾ĵ åħ¥
èĳĹ çļĦ
æĩ ¿
èĢ¶ åĴĮ
190 8
éĸ Ĵ
èĻ ŀ
g round
è¯Ń çļĦ
æİ§ èĤ¡
ĠR e
ç½ķ é»ĺ
åľ° ä¸Ĭ
æľº åĻ¨
æĽ¾ è¢«
çĶµ èĦĳ
D S
åĪĨ ç¦»
å±± åı£
éķ¿ åº¦
éĺ Ķ
éľ ľ
çľģ çļĦ
èħĵçī¹ çĥĪ
) ï¼Ī
ä¸ľ æ±ī
æĲį å¤±
åĩĮ æĻ¨
G N
æĭľåįł åºŃ
Ġ â
çķ ı
al e
æŃ» åĲİ
æŃ· ä»»
æĻļ æľŁ
ç¿Ĵ æħ£
åĪĨ éĽ¢
çĽ´ æĴŃ
ç¢º èªį
ç¶ł èī²
æĪĲ å¹´
æŃ£ æĺ¯
Ñ ģ
ä½Ĩ ä¸į
åĲī ä»ĸ
çµķ å°į
å©¦ å¥³
èĦ« éĽ¢
é¦ĸ åºľ
b ack
è»į å®ĺ
æĳ ĩ
è§Ħ èĮĥ
å°ĭ æī¾
ä¸Ń åŃĲ
éĺ ľ
åĬłåħ¥ äºĨ
å®ī å¨ľ
å¸ĥ éŃ¯
è¨Ģ è«ĸ
3 000
u k
Ñ Ģ
è¥¿ åħĥ
å£ ³
ä¸¤ æ¬¡
è¶ħ çº§
E M
ä¸Ń çĴ°
ä¼ļ çļĦ
èĩ ī
æ¬ º
åįĢ èŃ°æľĥ
å¥´ éļ¶
ä¸Ń çŃī
äº¤ çķĮ
Ġb gcolor
ä¼ĺ ç§Ģ
éĽį æŃ£
åįĹ æĬķ
çģ ĺ
æīĭ ä¸Ń
å°ı å§Ĳ
ç§į æĹı
æĥħåĨµ ä¸ĭ
æĸĩ æľ¬
å¤ļ åĲį
éĩį çļĦ
ãĤ ¸
ç¸½çĿ£ åºľ
Ġ ç¬¬
äº¤ æıĽ
ĠL e
åĪĹ ä¸º
çĽĳ çĿ£
éĻ¤æŃ¤ ä¹ĭå¤ĸ
çļĦæĥħåĨµ ä¸ĭ
åľ¨ åīį
æ¸ Ķ
æĻ® éŃ¯
190 7
å¯ µ
çľģ çº§
åľ£ ç»ı
å± ¿
190 6
å¸ĥ é²ģ
èĩºçģ£ çľģ
ä»ª å¼ı
1 12
ow er
åĦª ç§Ģ
çļĦ åħī
ä¸» åł´
éĮĦ éŁ³
ç©Ĩ ç½ķé»ĺ
ä¸ľ äº¬
æĨ Ĥ
ä¸ģ åł¡
åĲĮ æĹ¥
ĠI I
ä¼ĺ åĬ¿
è¨Ģ äºº
æ®º å®³
å¸ ³
éĿł è¿ĳ
å±± æĿ±
å±± åİ¿
ç¥ŀ è¯Ŀ
çį² çįİ
æ¬¡ åŃĲ
æ·» åĬł
ä¾ ¨
åĩº æ¼Ķ
éĹľ éĸī
åį³ åı¯
éģº çĶ¢
çī¹ åįĢ
èµ· åĪĿ
åĲį ç¾©
æ£ Ł
ç§» äº¤
S T
å·´ åĭĴ
f orm
æľī ç·ļ
æ½® å·ŀ
æĺ¯ åĢĭ
çĽ ²
æŃ¥ æ§į
æį· åħĭ
æ±ī æĹı
é«ĺçŃī æķĻèĤ²
æĶ¶ è¦ĸ
çª Ħ
åıĳåĬ¨ æľº
ä»ĸ äºº
åħ¬ æīĢ
ï¼ļ ï¼Ī
åľ° åĿĢ
æ¼ Ĥ
æĶ¹ ç§°
Ġ ãĢģ
æĮ º
ä¾Ŀ éĿł
æĵ´ å¼µ
èª °
å°Ķ çļĦ
æŃ£ ç¢º
åīĩ æľī
è½¬ ç§»
ä¸Ģ æ¢Ŀ
éŁ ¶
èį Ĩ
ä¸ĸçķĮ çļĦ
æ¶Ī éĺ²
åĿļ æĮģ
æ¼ Ĩ
æĺİ ç¢º
æĶ¹ èī¯
å¨ģ å°¼æĸ¯
tern ational
ä½ı åľ¨
äºĭå¯¦ ä¸Ĭ
a f
ä»¥ å¾Ģ
æĺİ çļĦ
å¥¥ å°Ķ
d e
åĽł æĩī
æķĪ æĩī
ä¾µ çķ¥
æ° Ł
èı¯ çĽĽ
ä¹Ĳ åĽ¢
é¹ ¤
åģĩ è¨Ń
å¼Ģ å±ķ
ãģ ¨
åĽĽå·Ŀ çľģ
èº« ä½ĵ
èĻķçĲĨ åĻ¨
å¸¸è¦ĭ çļĦ
H E
å¤ļ åħĥ
å¸Ĥ éķ¿
éĺ¿ å§Ĩ
å¥ ®
åįĹ æľĿ
æ» ķ
ãĢĭï¼Ī ï¼ī
é¬ Ĩ
éħ µ
è¶³çĲĥ éģĭåĭķåĵ¡
åŀĤ çĽ´
r es
ä¾Ĩ åĪ°
æ£ ²
åĽŀ çŃĶ
éħį ç½®
åįĹ è¶Ĭ
åĲĪ çĲĨ
çĻ» éĻ¸
çļĦ åŁºç¡Ģ
å¤ Ł
åº µ
çľŁæŃ£ çļĦ
èµĦ éĩĳ
èı¯çĽĽ éłĵ
é¢ ±
ä¿Ŀ ç½Ĺ
å¤ª åİŁ
çĮ ª
åİĭ åĬĽ
åħ§ æĪ°
èĢ³ æĽ¼
è»į åľĺ
è£ģ åĪ¤
é¼ĵ åĭµ
éķ· éģĶ
ĠM an
è¡Ģ æ¶²
åĳ¨ è¾¹
189 5
é£² é£Ł
å¹´ å¤ıåŃ£
æĸ° äºº
ä¿Ŀ éļª
çµĲæĿŁ å¾Į
ä¹ĭ çĪ¶
éģĵ å¤«
å¼ķ åĬĽ
ä¼ļ åĳĺ
é´ ī
Ð ½
190 9
å¤« æĸ¯åŁº
æĺ¯ åĽłçĤº
éĩį éĩı
æ¢ Ń
åħ© åľĭ
åĽŀ æĨ¶
ie w
UN D
èįĥ çģ£
æľĢ çĤº
çĻ¼ éŁ³
å·² æĸ¼
éģĩ åĪ°
ç«ĭæ³ķ éĻ¢
èĪª ç·ļ
çĶ· ä¸»è§Ĵ
æŃ² æĻĤ
æĿ ı
éĢĻæ¨£ çļĦ
æĻĤ æ®µ
çļĦ éĹ®é¢ĺ
ä¸Ģ æĹ¦
ä½Ļ äºº
çĳ °
éĢ£ ä»»
è®º æĸĩ
æľĢé«ĺ æ³ķéĻ¢
å« ©
å¯ ħ
éĽ» åĬĽ
çħ ®
190 2
ãĢ ľ
å®¶ åº·
åħĭ èİ±
ä½ĵ åĪ¶
S p
ç«Ļ çļĦ
çĹ ķ
æķĪ åĬĽ
ç«ĭæ³ķ å§Ķåĵ¡
m p
çĨ Ķ
è¾² æ°ĳ
æ©Ł çļĦ
éĢ£ è¼ī
åĽ¾ åĥı
çŁŃ ç¯ĩ
æ± ģ
èĭı æł¼åħ°
é§ ¿
æ®º æŃ»
ä¹Į åħĭåħ°
æī§ æĶ¿
åĭŀ åĭķ
æĮĩ å°İ
æĬķ æīĭ
å¸¦ æĿ¥
ç°¡ ä»ĭ
ĠO r
å¥ ¸
ãĢī ãĢĤ
av a
é«ĺ å®Ĺ
åħ¥ å¢ĥ
190 4
äºĴ èģĶç½ĳ
æİ¥ è§¦
å¹¶ éĿŀ
æľº ä¼ļ
og rap
å§Ĭ å¦¹
æĸ¯ æīĺ
åĮº åĪ«
å¤§ æ¥¼
æł¡ åįĢ
æĹł çº¿
åĸ® ä¸Ģ
å¥ ķ
è¡Į é§Ľ
æĸ¼ é¦Ļæ¸¯
å¸¸ åĬ¡
ä¸Ń éĸĵ
an ce
é©¬åħĭ æĢĿ
å·´åŁº æĸ¯åĿ¦
æĹ¥ èªŀ
åı¯ä»¥ çĶ¨
B M
æĮĩ çļĦæĺ¯
èģ¯ ç¹«
çĶµ è¯Ŀ
åĽłæŃ¤ åľ¨
ä»į åľ¨
190 1
åĬłåĪ© ç¦ı
S P
i us
æ³ķ å®ļ
çľ¾ èŃ°éĻ¢
ç¾İ çļĦ
éĹľ éįµ
åĬĩ éĽĨ
éĢ± å¹´
æª¢ æŁ¥
H T
èµ ¶
åįĹ æĺĮ
è´ ´
èĳ£äºĭ éķ·
U T
æľ Ķ
çĪ¾ å¾·
it t
æĬ¥ çº¸
è¯· æ±Ĥ
æ²³åĮĹ çľģ
al d
Ġ i
é¢± é¢¨
I R
åı¯ åľ¨
åīį èĢħ
ä¿Ŀ è¯ģ
èĭĹ æłĹ
æĲľ ç´¢
äºļåİĨ å±±å¤§
) :
åĴ Ģ
éĩĮ åħĭ
å¸¶ æľī
id th
è¿ Ł
éłĺå°İ äºº
s c
è°Ī åĪ¤
r ist
éĳ ¼
è´Ń ä¹°
ä¸Ĭ æ¸¸
å»º åľĭ
æį ī
åĸľ æ¬¢
æĴ ¥
æ¶Ī è´¹
æ°ĳ æĶ¿
çī¹ çĤ¹
æķ¸ ç¢¼
å±Ģ éķ·
æİ¨ åĬ¨
å®ģ æ³¢
å°ı è¡ĮæĺŁ
åįİ çĽĽ
çª Ł
Ġ 16
åįģäºĮ å¹´
c c
å¤§ å¤§
ä¹ĭ èĻķ
æľĥ è¢«
ç§ĳ çłĶ
åıĪ æľī
è¯ģ æį®
å°Ĭ éĩį
éı Ī
æĹı äºº
åĲĮ ä½įç´ł
ä¸ŃåĽ½ ç§ĳåŃ¦éĻ¢
æĶ¯ æµģ
åĤ³ å¥ĩ
åĿĩ æľī
åĩºçİ° åľ¨
å¾ª çĴ°
ç·¨ åĬĩ
éł» çİĩ
ä¸ĭ åįĬ
æ½ °
åŃ£ å¾Į
ä¸Ń éĹ´
åĩº åħµ
äºĭ çī©
çĶµ åĬĽ
R NA
èĩª ä¸»
å·¥ èīº
æ©Ł åĪ¶
åĽ½éĻħ æľºåľº
G P
å¸Ĥ è¾ĸåĮº
æĬµ è¾¾
éĽ¶ åĶ®
åĬł æĸ¯
er e
åĮ ł
ä¸ĸ çļĦ
II I
æ°£ é«Ķ
ä¸ĸ ä»£
åįİçĽĽ é¡¿
f ord
å¢ ¾
å°Ī å®¶
æ°£ æº«
è¿Ĳ æ²³
å±±ä¸ľ çľģ
I F
Ġ x
ä¸Ń æĹ¥
æī Ń
åįĹ ä¸ĭ
å½ĵ å¹´
ä¸Ńå¤® å§Ķåĳĺä¼ļ
è£Ŀ åĤĻ
ç½ ¢
å¾· åįİ
é¤ ħ
ov e
é¯ ¨
åĬĩåł´ çīĪ
Ġ 17
å½ ¦
è§Ĥ æµĭ
æ³ Į
is e
åºŁ éĻ¤
éģĵ åħī
æĪ° åł´
åĮħ åľį
ä»İ æŃ¤
æĦĽ æĥħ
ä¼Ĳ åħĭ
è¡Į äºº
å© ī
è¨» åĨĬ
é» ı
å¼Ĺ æĭī
åĲĮæĢ§ æĪĢ
åĩ Ń
æ¹ĸåĮĹ çľģ
å¤ ¾
ä¸Ģ è¯į
åĩº çĻ¼
çº ĸ
éĻĦ åĬł
æī ĳ
ç»´ åŁĥ
ä¸»ä¹ī çļĦ
ut ion
æĲĸ æ»¾
æİ¥ æĽ¿
d u
å®ļ äºĨ
ä½Ĩ åħ¶
æİ¥ ç®¡
æĹ© ä¸Ĭ
æ²³åįĹ çľģ
åľ° ä¸Ńæµ·
è² ª
å½± è¦ĸ
çī µ
è¾¦ äºĭ
æ¤ ħ
er m
çļĦ åŃĺåľ¨
åľ° å¤Ħ
åĻ¨ å®ĺ
ä¸Ń æīĢ
ä½ľ çļĦ
æ±ī åŃĹ
å·® å¼Ĥ
æº« æ³ī
çīĽ æ´¥
çī Ł
èµ ¦
åİŁ æľī
æĮĩ æķ¸
æĪĲåĬŁ çļĦ
èĬ Ń
æıĲ åĢ¡
å¢ŀ è¨Ń
é¢ĳ çİĩ
è¢Ń åĩ»
å¹¶ æľª
æĽ´ åĲįçĤº
éĽ»è¦ĸ ç¯ĢçĽ®
åī¯ ä¸»ä»»
æŃ¦ åĬĽ
éĬĢ æ²³
åı ±
æºĲ äºİ
æ±º èŃ°
éĢł åŀĭ
å¬ °
æĻ®é²ģ å£«
äºº åĿĩ
ç© Ĺ
é«ĺ åı¥
åĲĦ åĢĭ
ĠA mer
çĤº åħ¶
ç§Ģ åĲī
éĢģ åĪ°
æĹ¥ èĢ³æĽ¼
åı² æĸĻ
åĸ ī
çĿ Ľ
è§Ģ å¡ĺ
å®Įæķ´ çļĦ
æĶ Ģ
ç¶² çĲĥ
âĢĿï¼Į âĢľ
189 8
åĪĨ åįĢ
çķ« å®¶
é¹ °
å¥³ åĦ¿
èµ £
æĤł ä¹ħ
å¤§ è¡Ĺ
ç¢ į
çłĶç©¶ çĶŁ
ç¾İåľĭ çļĦ
åħ¬ ä¼Ĺ
äºĭåĭĻ æīĢ
U R
è¾¹ çķĮ
çĮ¶å¤ª äºº
æľī è¨±å¤ļ
æĦı ä¸º
es e
åĵ² åŃ¦å®¶
çĶŁ æĹ¥
çįİ å¾Ĺä¸»
çİ «
åı¤ æĭī
ä¸»ç¾© çļĦ
çĽ£ å¯Ł
éģķ åıį
åĨĽ çļĦ
å®ī è£ħ
åİ¿ åŁİ
ĠA d
èįī æ¡Ī
ç·Ĭ æĢ¥
æ² ¼
æ¯ı æ¬¡
ä¸į åĪ©
æ³ķ äºº
è½ī ç§»
åı¬ éĽĨ
å² Ĳ
ç¶Ń å¤ļ
ä¸¹ å°¼
å¤į åħ´
æµģ éĩı
äºĨ ä¸ĢåĢĭ
æĸ° å¢ŀ
æĿ¥ è¶Ĭ
è¯ ¢
åĵ º
æķ° åŃ¦å®¶
æľĢ ä¸º
çģ£ ä»Ķ
æĴ° å¯«
o und
è§£ éĻ¤
ä¾¿ åĪ©
ä¸¹ éº¥
ä¾ ¶
åĢ ª
æ« ĥ
æ¢ ĵ
æµİ åįĹ
ĠH e
æ³ī å·ŀ
J ohn
å¤© é«Ķ
ç¬¬ä¸Ģ éĥ¨
èŃ° é¡Į
è¨Ĭ èĻŁ
k m
Ġ an
æĸ° åįİ
è·¯æĺĵ æĸ¯
ä¸į å¦Ĥ
åįĥ äºº
æĺŁ ç³»
ãĢ ķ
çĪ ¬
ç½ ©
er y
èı¯ èªŀ
è«ĭ æ±Ĥ
æ£ ł
çīĪ çļĦ
éĤĢ è¯·
åŃ¸ å£«
é¸ £
é¡¾ éĹ®
æĥ ĳ
ä¸»è¦ģ æľī
å¹² æ¶ī
æĻļ å¹´
ä½µ åħ¥
ad e
åĩº éģĵ
è®¤ è¯Ĩ
åĪĽ æĸ°
ç¹Ķ çĶ°
ä¼° è®¡
é¦ĸ çļĦ
è¶Ĭ æĿ¥è¶Ĭ
ä¸ĩ åĲ¨
ç§» å±ħ
æķµ äºº
ãĢ Ķ
ä¸ª ä¹¡
çĻ¼ ä½Ī
çªģ åĩº
if e
éļĬ éķ·
çº¿ çļĦ
i i
æ°´ æīģ
å°ļ æĽ¸
éĽ¨ éĩı
åľ¨ è¿Ļ
æī «
çº Ĥ
çľŁ çĲĨ
Ñ Ĥ
çİĭ çļĦ
éĩį è¿Ķ
éĥ½ çĿ£
å¨ ±
ä¿¡ éķ·
æ´ ģ
åģ ¿
æ© ¡
èĭ± è¶ħ
ç¥ŀ ç§ĺ
ç§į æ¤į
é´ ¨
Ã ¶
ä¸Ģ å¤©
ç§į ç±»
ä¸ī ä½į
ç½ ¹
æĶ¶ åĪ°
le t
æĸ½ å·¥
å®ĮæĪĲ äºĨ
äººå¤§ å¸¸å§Ķ
å¹´ æĹ¥æľ¬
åįİ äºº
åĽ° éļ¾
ä¸Ģ æĶ¯
é¦ĸ åº¦
å¹´ æīį
äº« å¹´
æĩ· çĸĳ
æ¬¡åħ¨åĽ½ äººåı£æĻ®æŁ¥
çĢĳ å¸ĥ
æ°´ çļĦ
éĩĳ éĸĢ
æĿ¥ åĪ°
çļĦäºº çī©
æ¯Ľ æ¾¤
èĢ¶ å¾ĭ
èĸ© åħĭ
å·ŀ åĪºåı²
æİ¨ è¿Ľ
ĠH istory
èģ² ç¨±
;}- ï¼Ī
æµª æ¼«
å¯¹ æŃ¤
æĩ Ĥ
å±Ģ çļĦ
çİĭæľĿ çļĦ
æ´ĽæĿī ç£¯
æľī ä¸ĢåĢĭ
åĽŀ å¿Ĩ
å®ļ ä¸º
ä»» åħ§
å·´ æĸ¯
èĢĥ è¯ķ
åĳ½åĲį ä¸º
æĻĤä»£ çļĦ
æĪ°é¬¥ æ©Ł
æļ« æĻĤ
æĿ±åįĹ äºŀ
çī© é«Ķ
çĭ ¹
æ¤ Ĵ
å°ļ ä¹¦
å±ł æĿĢ
åıĳ çĶµ
re at
åĨĴ éļª
ä¸į åı¯èĥ½
å¡ Į
ç¤¾ ç¾¤
èĺ Ĩ
ç±³ çļĦ
æĪĺ åĽ½
å£° æĺİ
çĬ¶ åĨµ
å²© çŁ³
èĭ »
è¼ ©
ç¦ı çī¹
è¿Ĳ ç®Ĺ
äºº ä¹ĭ
å¤§åŃ¸ çļĦ
æľĪ ä»½
ä¸ĭ åĪĹ
çļĦ ä¸įåĲĮ
åľ¨ äºİ
ä¸Ģ ä»£
åľŁ å£¤
è«¸ èĳĽ
æ¯Ľæ¾¤ æĿ±
F C
å®£ ç¨±
ig h
åĬĩ æľ¬
Ã ¤
å¼µ å°Īè¼¯
of t
ï ¹
åľ¨ åĮĹ
çº ¤
è£ ´
å·´ æ¯Ķ
ç¡ķ å£«
ç¶ĵæ¿Ł åŃ¸
çĺ ¤
ç©Ĩç½ķé»ĺ å¾·
æ¨Ĥ éļĬ
åł± ç´Ļ
æŃ¤ ä¸Ģ
ç»´ æĬ¤
ro p
æº¶ æ¶²
å¤§ çĲĨ
åħ¶ ä½Ļ
çŃī æĸ¼
éĺ² å®Ī
o o
è· µ
åįĹ æĸ¯æĭīå¤«
éł Į
äº§çĶŁ çļĦ
ww w
æľī å¾Īå¤ļ
ç¿Į å¹´
æŃ ī
èª ĺ
çĦ °
é©¬ æĸ¯
æħ¶ ç¥Ŀ
åī ĸ
æĽ¸ å¯«
éĻį èĲ½
æıĲ äº¤
åĮ» çĸĹ
çĪ ½
èĬ¬ èĺŃ
éĽķ å¡ĳ
ĠSt ud
äº¤æµģ éģĵ
Go ogle
TV B
åıĥ è¬Ģ
çīł åĢĳ
åı ł
éĽ ģ
æĸ° çĶŁ
äººæ°ĳ å¸ģ
æ¹ĸ æ³Ĭ
åħ¨åĽ½ éĩįçĤ¹
çļĦ å¾Į
ç§ ī
æĩ ¼
ing s
J R
æľĪ ä¸Ń
æĦĽ çļĦ
è§Ĥ ä¼Ĺ
ä¿ĿæĬ¤ åĮº
æł¼ æŀĹ
æĻ¯ é»ŀ
ä¹Ł æĽ¾
é»Ħ éĩĳ
æĵ´ å±ķ
æ¡Ĥ æŀĹ
A A
ç¾ ļ
ä¹ĭ è·¯
é¦ĸ åĢĭ
ä¿ĥ ä½¿
æµ· åŁŁ
åħ³ éĶ®
ä½Ĩæĺ¯ åľ¨
ä»» æķĻ
er l
Ġ 2005
å®Į åĸĦ
190 3
-- --
å¤§ è³½
åŁİå¸Ĥ çļĦ
çĶ³ è¯·
åĲĮ æŃ¥
èī¯ å¥½
åģļ çĤº
ç» ¥
éĩĳ åīĽ
æ¼Ķ èĹĿ
åĵģ è³ª
è± ļ
å¹´ æĪĲç«ĭ
åĲĦ åľ°çļĦ
å°ĳ çļĦ
çħ ī
çľ¼ çĿĽ
ä¸į åĪĹ
åı¤èĢģ çļĦ
å¤§ è¿ŀ
èµ· äºĨ
åħ© ä½į
å¤§ åĬĽ
ç«ĭ éĻ¶
éĩĮ ç¨ĭ
çĽ¸ åºĶ
æł¡ åĽŃ
åŀĭ èĻŁ
éģ¸ çĤº
èı© èĸ©
çļĦ åĬŁèĥ½
äºĮ æĪ°
çķ¶ æĹ¥
è¿« å®³
S D
éĤĵ å°ıå¹³
æĹ¥ ç¿¡ç¿łåı°
åĵ Ń
ä¾Ĩ è¶Ĭ
åħ¶ä¸Ń çļĦ
æĢĿ èĢĥ
æĽ¼ èģ¯
ang u
äºĭ æĥħ
æ¡ ¿
ç´Ħ æľī
åıĺ å¾Ĺ
æł ĸ
å¸¦ æľī
é¾Ļ å±ŀ
å® ¦
çł ĸ
å§Ķ æľĥ
ãģ Ł
åĨĻ ä½ľ
ç« £
è¡Į ä½¿
in i
æ» ļ
ç¸½ æľĥ
æĿİ çĻ»
éĢı éľ²
æĪ İ
æĪĲ ç»©
ä½ľ çī©
éħ ®
æĽ´ ä¸º
åħļ åĳĺ
å®ĺæĸ¹ ç½ĳç«Ļ
çĽ¸éĹľ çļĦ
é¸Ł ç±»
ä»£ æķ°
èĦ ı
æ°¸ éģł
å»¶ å®ī
ç²® é£Ł
åįĥ å¹´
ç´¢ å°¼
æĸ¯ é¡¿
é» Ľ
åŃĺ çļĦ
ä¸Ńå¿ĥ çļĦ
éªĳ å£«
çī¹ å®ļçļĦ
ç¡ Ŀ
ä¸ª æľĪ
å½¢ æħĭ
éĵ Ń
A V
ä¸ĭ æĿ¥
æł¼ æĭīæĸ¯
åĭ ī
ar r
ãĤ ĭ
L e
on y
çľŁ çļĦ
åĲ« éĩı
çĽ Ĵ
æĶ¾ éĢģ
åħ¸ åŀĭçļĦ
å¹³ å®ļ
èĬ ½
æµģ åĤ³
æĸ½ è¡Į
è¡Į èµ°
ãĢĮ -{
å¯ ¡
çĦ¡ éĻĲ
èªª æĺ¯
éĩĬ æĶ¾
æĹ¥ çĽĬ
èĭı ç»´åŁĥ
æĬ ¢
ç¾İ éºĹ
æ® ī
å½¢ çĭĢ
èĨ ½
åĮħåĲ« äºĨ
å¹´ æĺ¥
é¦¬ æĭī
åı°çģ£ çļĦ
å¦ĩ å¥³
ç±ĥ çĲĥ
èĥ ĥ
è»Ĭ éļĬ
èĪī è¡ĮçļĦ
åĮ» åŃ¦éĻ¢
åĮĹéĥ¨ çļĦ
éŀ į
è¾ Ĳ
åº¦ ä½¿
åĲī æĸ¯
ä¿Ĺ ç¨±
æĿ¡ çĽ®
åĮ» çĶŁ
çļĦ ä½¿çĶ¨
æ¸ħ å»·
æķĳ æı´
ĠV ol
è¾¹ å¢ĥ
æĴ ²
æµģ éĢļ
çĲĥ è¿·
å¡ µ
çļĩ å®¤
æİ¨ çĲĨ
è¶Ĭ ä¾Ĩè¶Ĭ
åıĳçİ° äºĨ
ill iam
ãĥ ¬
è´µ å·ŀ
éĥ¨ ç½²
èĩª æĿĢ
ä»» å¤©åłĤ
äººåı£ çļĦ
æĲ º
ç¶Ńå¤ļ åĪ©äºŀ
åľ¨ è©²
åĴĮ ä»ĸçļĦ
è¥¿ èĺŃ
a ul
å±Ģ éĿ¢
è³ĩ éĩĳ
åİŁ ä½ľ
éķ¿ å®ī
å¹¶ å°Ĩ
âĢ »
ç¨± ä¹ĭçĤº
æ¨Ĥ åľĴ
ä»¥å¤ĸ çļĦ
åĭģ æŃĮ
åħ¶ åŃĲ
çłĶ çĻ¼
éĻ³ æ°´æīģ
æ© ĺ
ç§° åı·
ãģ ĭ
åĮ ª
ä¸» å°İ
ä¹Ł ä¼ļ
ãĢī ï¼ī
çº º
èĤ Ĩ
ç»´ ä¹Ł
æĥ ¨
å¹³ è¡Į
åı£ å²¸
èģ¯ è»į
æĽ¸ ä¸Ń
ç¾¤ ä¼Ĺ
R e
çļĦ ä¿¡
å¤§ è¡Ľ
å¢ ľ
æĬĳ åĪ¶
çļĦ æĹ¥æľ¬
å° ¸
æ¬¡ æĸ¼
éĢĻ éłħ
åįģä¸Ģ æľĪ
- >
äºº èĪĩ
æŃĮ åĬĩ
åıĺ ä¸º
åĢ Ń
å®ī å¦®
æ» ´
éĤ£ éº¼
éķĩ åİĭ
IS O
åħĭ åĪ©
éļĬ ä¼į
s ch
å·¦ ç¿¼
çĥı åħĭèĺŃ
éļ¶ å±ŀ
å¾ª çİ¯
å¹´ ä»¥
åįĢ åĪĨ
æĺİ æ¸ħ
æľĿ æĹ¥
åįĩ æł¼
ç¢º ä¿Ŀ
æ»¡ æ´²
éłĨ åĪ©
å¤§ åŁĶ
æľ¬ éĥ¨
åħĭ èĲĬ
ä¸¦ èĪĩ
ç«ĭéĻ¶ å®Ľ
çļĦ åħ³ç³»
è¿ Ħ
éĢļ è®¯
åĬĽ åŃ¸
æ§ĭ éĢł
çº¿ æĢ§
åĳĬ è¨´
èŀ ¢
å¸ĪèĮĥ å¤§åŃ¦
éħ ĭ
æĽ¸ åºĹ
å¹´ä»£ åĪĿ
ç¬¬äºĮæ¬¡ä¸ĸçķĮå¤§ æĪĺ
p en
u te
åīį ä»»
å£« åĿ¦
æĽ¸ è¨ĺ
å¾® è»Ł
è®Ĭ çĤº
çļĦ é¦Ļæ¸¯
G e
c o
å·´ æĭī
Ġ 15
æľī æľº
çī©çĲĨ åŃ¦å®¶
çļĦ åĽĽ
å¦ ¾
ä¸¤ åĽ½
å¥¥è¿Ĳ ä¼ļ
çļĦ åħ¨
è¥¿ æ±ī
é«ĺ å³°
é©¬ æĭī
èĪª æµ·
èĹį èī²
å¼Ģåıĳ åĮº
å½Ĺ æĺŁ
çĶŁ ç´ł
ãģ ª
åıĸå¾Ĺ äºĨ
æĿ° åħĭ
èĪ ľ
ä¸į åľ¨
çĶŁ èĤ²
çĥ ¤
æ¨¡ ä»¿
ç«¶ éģ¸
æ£®æŀĹ åħ¬åĽŃ
M ic
åıĬ å¾Į
é¦ĸ æī¹
èį Ķ
ç¦ı å¾·
åİĨ ä»»
çĶŁ æķĪ
Ð¾ Ð
è¡Ģ ç®¡
æ²» çĲĨ
ĠT r
å·¥ä½ľ çļĦ
åĩºçĶŁ æĸ¼
å£° ç§°
æ°´ åºĵ
æ¨Ĥ åĻ¨
æŃĮ åĶ±
éĿĴ å°ĳå¹´
çĥĪ å£«
Ġ is
ä½Ĩ ä»į
åıį å°Ħ
13 0
èĤ¡ ç¥¨
ä»ĸ è¿ĺ
åĲį è©ŀ
éģº åĿĢ
çļĦ èĢģ
åŁİ åİ¿
å·´ å¡ŀ
æĽ¾ æĸ¼
è¶³ å¤ł
è¨Ĭ æģ¯
éĤı è¼¯
æĺ¯ ä¸Ńåľĭ
åĢ º
åħ© å¹´
æĨ ¤
éĬħ éĳ¼
æ³ķ è¯Ń
ä¹Ł èĥ½
ot t
å¼ §
æ¶ Ľ
èº« çĤº
ä¿® è¨Ĥ
åķ ¤
å°Ĩ é¢Ĩ
åĵĪ æĭī
éĤĬ çķĮ
è¡Į ä¸ļ
ãĥ³ ãĥ
åıĺ æĪĲ
ç° §
ĠCol le
ä¸Ģ æĹ¥
åķ ¦
åĵ¥ åĢ«
é¸ Ń
çļĦ ä¸Ńå¿ĥ
åĥ ķ
èĽĭçĻ½ è´¨
ä¸ŀ çĽ¸
y l
ä¸į å¤ļ
åŁº çĻ¾ç§ĳ
åĪĹ ä¼ł
æ¾³å¤§åĪ© äºŀ
åľ¨ åįĹ
ãĢĬ ãĢĭï¼Ī
}- ï¼Į
åĵ¥ åĵ¥
éĽ² æŀĹ
Ġ ch
ä»» èģ·
æĪ Ĭ
çĤº äºº
åĪĨ è¡Į
æŃ¤ åľ°
ç¶Ń èŃ·
å¯¦é©Ĺ å®¤
çķ¶ ä»£
åħµ åĽ¢
æ»ħ äº¡
æİĴè¡Į æ¦ľ
æĸ¯ æĭī
èĬ¬ åħ°
è« ¡
æŃĲ çĽŁ
åĲĽ å£«åĿ¦
è©¦ é©Ĺ
ä¸Ńæĸĩ å¤§åŃ¸
æĭ¿çł´ ä»ĳ
å·¦ æ´¾
ä¸Ģ æĸ¹éĿ¢
å°± åĥı
åħ¸ åŀĭ
åħĭ å°Ķ
å¤ª å®Ī
le x
åĬ Ŀ
æĵ ĭ
æŀ¢ çº½
9 00
çļĦ éĺ¿
å¹´ ä»ĸ
çĶĺ èĤĥ
æĶ¿åºľ åľ¨
ä¼Ĭ åĪ©
èĤ¡ æ¬Ĭ
c es
Ã Ń
ä»¥ èĩ³
y s
ä¸ Ľ
çļĦ å¿ĥ
åī ¿
æµ ´
çļĦå¤§ åŀĭ
çĶ» å®¶
äºĪ ä»¥
èĹ¤ åİŁ
æ¸ Ĭ
h o
ç· ł
æīĭ è¡ĵ
èĮ Ħ
æĻ®éŃ¯ å£«
UND AM
ç¦ į
Lin ux
ä¾ Ħ
èĤ ª
åħĥ å¸ħ
çĻ» è¨ĺ
äº² çİĭ
åĦĴ å®¶
å¨± ä¹Ĳ
æ² Ľ
ç±³ èĺŃ
èŀº æĹĭ
åł´ åľ°
çĤº é¦Ļæ¸¯
åľ° åľĸ
åħ¬ åĳĬ
èĩª ç¨±
è·¯ çº¿
éĺŁ ä¼į
ãģ Ĺ
æŀĦ éĢł
åģľ è»Ĭ
åįĶ å®ļ
è¸ ª
èĦĤ èĤª
çĤ Ĵ
æķ´ ä½ĵ
é¡ĺ æĦı
åİ Ŀ
å»º æľī
åĵĪ ä½Ľ
ç© Ģ
è« ®
éĽĨ çļĦ
æĦŁ è¦º
ç»ĵæĿŁ åĲİ
ä¼ļ éķ¿
ç«¯ çļĦ
Ä ģ
æ· ļ
Ġ( )
å·´åĭĴ æĸ¯åĿ¦
åħ¬ ç«ĭ
æľŁ åĪĬ
ar a
åħī æĺİ
æ´Ľ ä¼Ĭ
ç§¯ åĪĨ
In t
èı²åĪ© æĻ®
æķĻ åįĢ
è£ħ å¤ĩ
ç»´ä¹Ł çº³
Ã ³
çļĦ éĩĳ
çĪ¾ çī¹
è§Ģ éŁ³
ä¸Ń åŃ¸æł¡
åĴĮ è¥¿
æł ı
åħŃ ä¸ĸ
æ§ ½
è¶³ ä»¥
åĵº ä¹³
åī Į
èĺ ¿
çī ¢
äºĶ å¤§
ä¿Ħ åľĭ
ĠW ar
è²¡ çĶ¢
æĸ Į
äºº æĺ¯
æķĻ çļĦ
èį ¡
é¨ ·
av id
èĢ¶åĴĮ èı¯
è»Ĭ å»Ĥ
è¾¾ å°Ķ
å¾® åĪĨ
åħ´ è¶£
éĭ ª
m a
çī© æµ¦
è³½ é¦¬
å®ĭ ä»£
æī© å¼ł
åĨĽ å®ĺ
èģ· åĵ¡
ĠG e
çļĦ éĽ»å½±
æ¸ ¤
æİ¥ å£¤
çļĦä¸Ģ æ¬¡
ç·ļ ä¸Ĭ
åı¯èĥ½ æĢ§
èģ· ä½į
ä¼ģ åľĸ
åĤĳ åĩº
è©³ ç´°
çİ« çĳ°
å¤ĸ çķĮ
æ°Ķ ä½ĵ
çī ¡
äº¦ åı¯
æĥħæ³ģ ä¸ĭ
èĩºåįĹ å¸Ĥ
åıĳ åĩº
åı² å¯Ĩ
åįİ åĮĹ
èįī åİŁ
åħ¬ åĪĨ
ä¸ª è¡Ĺéģĵ
et t
çĽ¸çķ¶ æĸ¼
åŃ£å¾Į è³½
B O
åĪĹ åĩº
éĵ ¸
è©ķ ä¼°
ç«ĭæĸ¹ ç±³
A K
æĪĸ åħ¶ä»ĸ
æ¿ ģ
Pl ay
ç¬¬ åįģäºĮ
æĳ ĺ
et er
æµ ħ
åħ¬ å¹³
åħ¬ è»Ĭ
å¾· æĸ¯
çľģ ä»½
åħ© åĲį
éłĴçįİ ç¦®
æĶ¹ åĲįä¸º
çĽ´ å±ŀ
ç© İ
æĶ¹ çĶ¨
é£İ æĻ¯åĮº
ä¸Ģ æĿ¡
ä¸Ģ éĥİ
ä¹ĭ ä¸º
åħĥ çļĦ
æ´ª æ°´
é©ħ éĢĲ
æ¡Ĩ æŀ¶
åŃ¸ ç§ĳ
æĥħ æĬ¥
ç¾İåĽ½ æĢ»ç»Ł
æł ½
åĳ¨ åľį
è¾Ń èģ·
æį ²
çĵ Ĭ
ç¶Ń çĪ¾
ç«ĭ åĪ»
éĤ ¸
èį Ģ
çīĪæľ¬ çļĦ
çļĦ æĶ¿çŃĸ
å¤ ¥
åħĥ å¸¥
çį²å¾Ĺ èĢħ
ä¸į åıĬ
äººæ°ĳ ä»£è¡¨å¤§ä¼ļ
åĨĻ çļĦ
éļ¾ ä»¥
æĹ¥ æĸĩ
çİĩ ä¸º
å·¥ç¨ĭ å¸Ī
ĠJ ohn
æŁĵ èī²
è¢ģ ä¸ĸ
åĮĹæµ· éģĵ
Ġ 13
åľ° åĽ¾
è·¯ åĨĽ
éķ¿ æĺ¥
æıĲä¾Ľ çļĦ
éĦī æ°ĳ
Ġ 2000
åĽ½ åĨĽ
å¥¥ æĸ¯åį¡
æĬĹæĹ¥ æĪĺäºī
çŁ© éĺµ
ä¸Ģ è·¯
ãĥ Ń
å¼ķ éĢ²
è§Ģ å¿µ
çĤ ¼
ç¨ĭåº¦ ä¸Ĭ
åĪ© çī©æµ¦
èĭı ä¸¹
é»ĳ äºº
åıĹåĪ° äºĨ
åĵ¥ä¼¦ æ¯Ķäºļ
åĩº ä¾ĨçļĦ
èį Ĳ
æİ¢ æµĭ
æ¾İ æ¹ĸ
å½ İ
çĲĨ æĢ§
ä¸¦ çĶ±
æĽ¾ æľī
çĤ¹ çļĦ
æķĪ åºĶ
ä¾Ŀ æį®
è²¡ ç¶ĵ
éģµ å®Ī
æºĿ éĢļ
çĲ ¦
åĬ¨ åĬĽ
ç±³ çĪ¾
ä¹Ŀ å·ŀ
æĪ° éļĬ
189 6
é£İ æĻ¯
Ġ et
æ»¿ è¶³
è¢« åĪ¤
ä¸ī éĥ¨
å¯¦ åĬĽ
ãĤ ¿
é¥ ¶
çĶ° ä¸Ń
w ard
äºº çĤº
çĽ¸ è¿ĳ
èµ· ç¾©
æ³¢ ç¾ħ
éģĬ å®¢
Ġ ãĢĮ
ï¼Į ï¼Ī
ä¸Ģ ç´ļ
èº ²
at ed
ãĤ Ĭ
è¾Ĳ å°Ħ
æľī åĪ©
çĲ ¼
å» ¿
çŃī ç´ļ
å®ī æĿ±
æĦ ļ
å°ģ å»º
é«ĺ å±±
åĨį åĬłä¸Ĭ
åİŁåĽł æĺ¯
å´ Ľ
åıĺ éĩı
åħ± äº«
éĿ¢ ä¸Ĭ
æĽ¾ æĺ¯
å¾· å°Ķ
çĩŁ æ¥Ń
ä¼ĳ æģ¯
å¤§ èģ¯çĽŁ
æĶ¿ åĭĻ
åĶ ĩ
äºŀ è»į
ä¼ł è¾ĵ
åģľ éĿł
èĵ ī
åīĩ åľ¨
ãĤ ĵ
åĮĹäº¬ å¤§åŃ¦
æĶ¯æĮģ èĢħ
c on
æº ĥ
in k
åıĪ åľ¨
æľī ä¸ĢäºĽ
é¦Ļæ¸¯ éĽ»åı°
å§Ķ ä¼ļ
è³½ è»Ĭ
å¹´ ä»»
åĪĨ ä¹ĭ
æŃ¦ æĺĮ
ow n
ç«£ å·¥
æľī å¤ļ
ä¾µ çĬ¯
ç¬¬åįģ ä¸Ģ
èĩª ç«ĭ
æĽ´ æĶ¹
æĳ Ĩ
è»į äºº
å·ŀ ç«ĭ
ç¬¬ä¸Ģ å±Ĩ
å¯¼ å¼¹
çį²å¾Ĺ äºĨ
éĽĨä¸Ń åľ¨
åĭģ çĪĨ
å¤§ åľ°
åĤ¬ åĮĸ
èĥ½ åľ¨
è¼ĥ ä½İ
éłĲ æ¸¬
åĮĸ å·¥
åŁİ å¢Ļ
éĸĭ æ¥Ń
å¯¹ ç§°
éĲµè·¯ è»Ĭç«Ļ
æīĢ å¾Ĺ
æŁ Ħ
åħ¨ é«Ķ
åİŁ ä¾Ĩ
è¿ĳ ä¼¼
åĪĿ æŃ¥
æ¨¡ çī¹
å¹´ä»£ çļĦ
çĻ¼ æı®
å¸¸ è¢«
åı¤ å±ĭ
åħ¶ åĲİ
ç¶ĵ åľĭ
åħļ çļĦ
çĩ ¥
è³ĩ åĬ©
åį° ç¬¬
æĭ ¯
é¡ Ľ
çŃī å¾ħ
å¿ĥ çļĦ
æ£ ļ
æĿİçĻ» è¼Ŀ
éĩ £
æķ¸ çĽ®
è¿Ľ æŃ¥
å°± ä¼ļ
åį¡ çī¹
å½¢å¼ı çļĦ
é«ĺç´ļ ä¸ŃåŃ¸
G DP
å·¥ç¨ĭ å¸«
äº¤éĢļ éĥ¨
çĪ ¸
æµ· å³¡
æĶ» åįł
ç©¿ è¶Ĭ
ä¸Ģ æŀ¶
åĢ ļ
æİĪ æĿĥ
çļĦåĲį ç¨±
åĤ ²
å®ļ çĤº
æ· ĭ
æ¸ħ æľ«
èģ¯ çµ¡
éłĲ ç®Ĺ
æļ ĳ
èĲ¨ å°Ķ
ä¹ĭåīį çļĦ
å¤§ æ°£
é¡ŀ çļĦ
åĲī å°Ķ
çĤ¸ å½Ī
éł ĥ
å°± è¢«
æ¨¡ æĵ¬
é©± éĢĲ
å¥§æŀĹåĮ¹åħĭ éģĭåĭķæľĥ
åĴĮ æĸ°
ä¸º ä¸Ģ
åĩº åħ¥åı£
æ³° åĭĴ
çļĦ åľŁåľ°
éķ¿ åŃĲ
æĦı è§ģ
çĦ¡ äºº
åħ³ éĹŃ
éĺ² ç©º
èģļ å±ħ
çľŁ å®ŀ
ä¹ ŀ
S M
æ¥ ł
çıį çıł
a ir
æľĢ åħ·
çİĭ åĲİ
é«Ķ åĪ¶
æĤ Ķ
åıĤåĬł äºĨ
åįĹåĮĹ æľĿ
he l
ob ert
è´¢ äº§
è¨Ń æĸ¼
éµ Ŀ
çļĦ åħĪ
æľĪ åľ¨
éĿĴ å±±
å£° éŁ³
åĵ² åŃ¸å®¶
G A
ä¸º ä¸ŃåĽ½
åı¯ æ±Ĺ
åĻ ª
å®¢ æĪ·
æľįåĬ¡ åĻ¨
an k
Ġc l
éł ¸
åİŁ æĸĻ
å¯¹ æīĭ
ä¿® éģĵ
åįł åľ°
st it
é¢ģ å¸ĥ
çĶŁ æ®ĸ
éħį è§Ĵ
å½» åºķ
åĲī çĪ¾
åĢĻ éĢī
ï¼ģ ãĢį
äº§çĶŁ äºĨ
æĶ¶ åĽŀ
æİĴåĲį ç¬¬
éĭ¼ çĲ´
çļĦ æĸĩåĮĸ
åįİ ä¸ľ
æĢģ åº¦
ul l
åĦ² åŃĺ
åīį å¾Į
14 0
r and
æĹ¥ ä¸ĭåįĪ
å¥ ĭ
èĭ± éĩĮ
åĸ ļ
é¨İ åħµ
å´Ľ èµ·
åį°ç¬¬ å®ī
éĸ ĺ
å¾· è»į
å¸Į ä¼¯
æĤī å°¼
ä¸Ģ åįĬ
åħ¥ çĲĥ
æĽ´ æıĽ
çĶ· äºº
å·¨ äºº
éº¥ åħĭ
åįĹéĥ¨ çļĦ
æľ¬ åĲį
æĥħ å½¢
åıĺ æį¢
us ic
åī¯ ç¸½çµ±
å·® è·Ŀ
ĠB e
ä¾Ĩ å¾Ģ
en er
ç½Ĺ ä¼¯çī¹
éħįéŁ³ åĵ¡
3 50
åı¤ æĸ¯
æķħ å±ħ
ä¸» åĭķ
åĲį åįķ
å®ĥ åľ¨
å»¶ éķ·
èĨ ļ
ç§ĳåŃ¦ æĬĢæľ¯
âĢ ²
åħ¶ åľ¨
æĿ¾ å±±
Ġp p
æĸĩ ä¸Ń
å¸Ĥ éķĩ
çİ° ä»»
æ¶Ī èĢĹ
å°º å¯¸
åĲĮ åĲį
å»º æĸ¼
é»¨ åĵ¡
éĬ ³
å¥ı æĽ²
åĪ© å®ī
æļ ¢
çĢ ¨
ç» µ
è¨ Ł
åł µ
ç§° åĳ¼
r al
æľŁ æľĽ
åħħ æ»¿
åħ¨ éķ¿
è£ ¸
ç´į åħ¥
è¦º å¾Ĺ
v e
å»º åĽ½
åĥ ±
è½¬ æį¢
çĪ± å¾·åįİ
æĦıåĳ³ çĿĢ
åĪĨ æķ£
ç·¨ ç¢¼
çĶŁæ´» åľ¨
ä¸Ĭ ä»»
æĵ ²
ri pt
èĻĽ æ§ĭ
ä¸į æ»¡
æ¨¡ æĭŁ
æĸ¯ åĴĮ
æ´» èºį
æİ¨ å¹¿
è»Ł ä»¶
l es
è®Ģ èĢħ
æĹ¨ åľ¨
ç« Ń
äº§ éĩı
ĠC omm
æ»¿ æ´²
çī©çĲĨ åŃ¸
ç·¬ çĶ¸
å» ļ
ç³ ¾
çķ¶ åľ°çļĦ
åĺ Ľ
å¤ı å¨ģ
å¯© åĪ¤
â ĺ
åĲĦ å¤§
ãĥ ŀ
çıŃ æ©Ł
éĽħ åĲĦ
åĥħ æľī
å®īå¾½ çľģ
S te
å¤§ æŃ£
å¼ Ĭ
åĵ ī
åķĨ åĭĻ
ak e
D R
çĶ· æŃĮæīĭ
ç»Ļ äºĪ
éĭ¼ å½Ī
çļĦ éĿŀ
é¢ ł
ç§ĳ å¤«
ĠS erv
å·¥ä½ľ å®¤
av e
çļĦåīį èº«
é¦¬ çĪ¾
éº¦ åħĭ
å¾¡ åı²
Ġ or
èª ¼
åĲĮ åŃ¸
æīĭ æ©Ł
éĵ ħ
è¾¾ æĪĲ
å¸Ń ä½į
us s
æ´ª æŃ¦
åľĭç«ĭ èĩºçģ£
åģµ æİ¢
Î ²
ä¸Ń ç«ĭ
éĥ¨ éĥ¨éķ¿
ç¶² ä¸Ĭ
äº² èĩª
ç¸® å¯«
å¿į èĢħ
5 000
ç¾İ åĨĽ
ä½¿ èĢħ
ä¾ĭ å¤ĸ
æŃ» æĸ¼
ä¸ĸçºª åĪĿ
åĪĨå¸ĥ åľ¨
æºĲ æĸ¼
æİ¨ åĩºçļĦ
èĸ ¯
æīĵ åĩ»
å®¤ åħ§
éħ ¬
ä¹ĺ åĿĲ
æļ« åģľ
çŃī çº§
æ¼ ¿
äºĭ å¾Į
ä½¿ ä»ĸ
at er
æ² «
åŃĲ åħ¬åı¸
å¾· è¯Ń
å®ĥä»¬ çļĦ
I L
åº Ĳ
å½ Ŀ
ä¼ º
è¥¿ åŁŁ
æĪ° è»Ĭ
æ±Ł èĺĩ
re d
èĶ ¬
åĪĬ çĻ»
qu e
å¤ıå¨ģ å¤·
P r
å¥³ åŃ©
åŃĺ åĤ¨
å²Ľ å±¿
å¯© æŁ¥
æ°ĳ æĦı
è·¯ åı£
åŃĹ çļĦ
çī© ä½ĵ
çĦ ī
æ· «
ç¶ ģ
åıª åľ¨
å·¡ æ´ĭ
è¼¸ åĩº
æ¸¤ æµ·
çĽ¸ ç»§
éĥ½ è¦ģ
ä¸ĩ åħĥ
å»ºçŃĳ çī©
å¤±åİ» äºĨ
æ¹ Ľ
çĻ» åł¡
åŁºéĩĳ ä¼ļ
è´Ĭ åĬ©
16 0
ç»Ŀ å¯¹
t o
Ġ 2003
çļĦ éĽ»
çļĦ è¨Ńè¨Ī
åİŁ åīµ
ĠF ran
åĽ½ æĹĹ
ä¸ľ é£İ
éĺ¿ æ³¢ç½Ĺ
ä¸Ģ åįĥ
æľĢ å°ı
åıĹ å®³
éĢĥ äº¡
ond on
éĬħéĳ¼ çģ£
ï¼Į ï¼Į
åĲį åı¤å±ĭ
æĭī å¾·
çļĦå¤§ éĥ¨åĪĨ
è¸ ¢
r en
ç¬¬ä¸Ģ ä»£
æĹł è®º
é¹ ħ
é¨ Ļ
è¼Ķ åĬ©
æĳĦ å½±
è½° çĤ¸
Ġcol span
æĭ¿ ä¸ĭ
åĺī è³ĵ
åĥħ æ¬¡æĸ¼
å¹¸ ç¦ı
I G
å¹´ èĪĩ
æĶ¹ ç¨±
ç¸£ æĶ¿åºľ
åł± éģĵ
å®Ī èŃ·
å°ģ çĤº
æĳ© æīĺ
åķ¤ éħĴ
åħ¨ çľģ
èı ±
èģĶ åĨĽ
çīĩ çļĦ
ĠR es
Ġ å¤§
æ¼¸ æ¼¸
åĿĩ ä¸º
çļĦ åı¯
åľ° å¸¦
ä¾ ł
å¾Ĺ åĪĨ
æĪ° èī¦
éĺ¿ æĸ¯
åįĩ ç´ļ
çļĦ éĢŁåº¦
éķ· å®ī
å°± èĥ½
åħ§ æĶ¿
ĠP ubl
åħ±äº§ ä¸»ä¹ī
Ġ '
åħ¥ éģ¸
å¹³ æĪĲ
æīĭ æ³ķ
åĸľ åĬĩ
ä»¥ ä¸º
çļĦ è¦ģæ±Ĥ
åħ¶ æ¬¡
éĩį æħ¶
ä¸Ńå¤® æĶ¿åºľ
ä»ĭ åħ¥
è¯Ĺ æŃĮ
å® µ
ä¹Ł åı¯èĥ½
è·Ł éļ¨
è½Ħ å¸Ĥ
æľ¬ ä¾Ĩ
æĵ ł
å¥³ äºº
æĢ» ä¹¦è®°
ç«¶ è³½
f l
n er
çĹħ äºº
çļĦ åħ¶ä»ĸ
æķħ æŃ¤
åĸ® åħĥ
æ¥µ çĤº
éģĹ ä¼ł
å®° çĽ¸
back ground
åĽł åŃĲ
åģļ äºĨ
ç§ĳæĬĢ å¤§åŃ¸
è¸ Ĳ
æĺĨ æĺİ
éļĭ æľĿ
çĤº åŁºç¤İ
æĭ ¨
åĲĪ éĩĳ
éłĺ åľ°
æ¶Ī æ»ħ
å§Ĳ å¦¹
éĻ Ŀ
å¹¾ ä½ķ
åı¸ä»¤ åĳĺ
åĬŁ çİĩ
æ¼¢ äºº
å¤ı å¤©
æ° Ľ
æ·± åĪ»
" ,
A m
Ġ 14
åįı åĬ©
ä¸Ń åĴĮ
æľ¯ è¯Ń
æĬ½ è±¡
å°Ŀ è¯ķ
O K
Ġ 2004
æŃ» äºİ
éĿĴ æµ·
ĠD e
em ent
çļĦ æ³ķ
ç¥ŀ èģĸ
èĶ Ń
189 9
åľĭ éģĵ
æ± Ĳ
åħ¨ å¢ĥ
æ¸ħ çľŁ
åħ¨åĽ½éĩįçĤ¹ æĸĩçī©ä¿ĿæĬ¤åįķä½į
é¸ ¦
or s
ãģ «
åľ¨ åĨħçļĦ
ä¿ ŀ
çĭ ©
å®¢ æ©Ł
r ight
æľĪ åĪĬ
åİ Ń
åĪĹ åĤ³
éĹ´ çļĦ
æĬĹ æĪĺ
å®¡ åĪ¤
çī¹æ®Ĭ çļĦ
C E
åĲį èĥľ
å¢ Ł
åł´ æ¯Ķè³½
çŃī åĲĮ
ä¹Ł æ²Ĵæľī
æıĲ åīį
å¸ĥ æĸ¯
å¤© ç©º
éĽ»è¦ĸ åĭķçķ«
éĢ²è¡Į äºĨ
åĳ½åĲį çļĦ
åŃ¦ éĥ¨
æ¼Ķ è¬Ľ
åł´ æīĢ
åĲĦ ç±»
ĠP ol
æĬĹ è®®
å¹´ é¾Ħ
åķĨ åĬ¡
189 7
æĹĭ è½ī
S O
ä¸Ń ä»¥
10 5
åĲĦ çľģ
ä¾Ľ å¥ī
å¤© æ°£
åĲĪ åĲĮ
åĨĽ åĽ¢
it s
ag es
åĪ ª
åĲį è¯į
æİ¨ èĸ¦
æŁ´ æ²¹
æ¸ Ń
æµ· åºķ
è¯Ń æ³ķ
ĠS ci
çŁ¥ çļĦ
å±¤ çļĦ
å»ºç¯ī å¸«
åı¤ å¸ĮèħĬ
å±Ģ éĥ¨
çľŁ äºº
åįł æį®
èĲ¨ æĸ¯
èŁ ¹
çĻĮ çĹĩ
æĢ§ åĪ«
J ava
T R
ç¦ ¾
èĬ ¦
ä¾Ŀ èµĸ
ç°¡ åĮĸ
çĭ¬ç«ĭ çļĦ
å¾¹ åºķ
å¯ Ĥ
ç¥ŀ åľ£
çİ° æľī
çĭ Ń
M V
åŀĭ æħĭ
åħī çļĦ
ĠS c
ä¿ĺ èĻ
rid ge
æĶ¿ è®Ĭ
éĩį åĬĽ
æ²³ åı£
åı¯ä»¥ éĢļè¿ĩ
å¡« æµ·
åıĤè°ĭ éķ¿
ç¾İåľĭ äºº
ĠI s
ä¸Ģ èģ·
å¤§ éģ¸
ç¾ Į
éĿ¢ åīį
çįħ åŃĲ
B BC
åı ¢
å¯Ĩ è¥¿
çĻ» åŁº
ä¹ĥ èĩ³
å°ĩè»į æ¾³
Ġ 2006
å¹´ ä»½
æ· Ģ
æĶ¯ éħį
Ġ âĢľ
ä½Ĩ çĶ±äºİ
ä¸¦ ä¸įæĺ¯
å¥§ æĸ¯
åĤ³çµ± çļĦ
é¦Ļæ¸¯ å¤§åŃ¸
éĮĦ å½±
ĠG u
åĴĮ ä¸Ń
è¢« ä»»åĳ½
éĽ» æ±ł
å·ŀ åºľ
è« §
å·´ å°Ķ
éĿĴ æĺ¥
èĤĮ èĤī
åħĪ åīį
ãĢī ãĢģ
è£½ä½ľ äºº
å¹¼ ç¨ļ
Ġ {
æĸ° ç½Ĺ
an c
ç² ĺ
åı¯ä»¥ è¢«
è¦ĸ è¦º
é¢Ĩ åľ°
æĪĲç«ĭ åĲİ
ä¸Ĭ æĺ¯
æĶ¹ åħĥ
ç¹ ³
ç¾İåľĭ ç¸½çµ±
åĬī åĤĻ
æĵįä½ľ ç³»ç»Ł
æ°¯ åĮĸ
or th
çŃī äºİ
ä¿¡ ç¾©
åľĸ åĥı
å»¶ çºĮ
ç£ ¡
åħ¬åħ± äº¤éĢļ
èĢĮ å·²
è¾¦ æ³ķ
åģĩ æĹ¥
çĽ¸äºĴ ä½ľçĶ¨
èªķ çĶŁ
D F
è¾ ľ
å¾· åħĭ
åİŁ æľīçļĦ
in c
æµģ åĭķ
éĴ¢ çĲ´
æĻĤ ç©º
åķĨ æłĩ
éĺ² å¾¡
è£ħ é¥°
å¹´ æĪĲç«ĭçļĦ
åĩ į
åľĭ æĹĹ
çĶ¨ åľ¨
æĶ¹ è¿Ľ
æĻ¶ ä½ĵ
ä¸Ģ ä»½
è¡ ·
æķ¸ åŃ¸å®¶
å³ »
ç¾İåĽ½ çļĦ
æĿĢ æŃ»
m e
çĤº çĶ±
å¤ĸ ç±į
å®ī ä¸ľ
æĺŁ åº§
æ£ į
ç¼ĸ ç¨ĭ
ä»¥ èĩ´
èĤ ł
æĪ° è¡ĵ
15 00
éį ĭ
åıĽ äºĤ
çĻ¾ç§ĳ åħ¨
é¦¬åħĭ æĢĿ
åĽĽ äºº
å®ŀ è·µ
åŃ« ä¸Ńå±±
at es
åį³ æĻĤ
èĪª ç«Ļ
ä»į æĺ¯
èĢĮ å¾ĹåĲį
æĶ¶ è´Ń
æĶ» åħ¥
æ±º çŃĸ
èĶ£ ä¸ŃæŃ£
ä»ĸ æĽ¾
å£ ¹
æŃ£ ç¡®
åįĬ çĲĥ
èµĽ äºĭ
è¨Ńè¨Ī çļĦ
ç¶ľ èĹĿ
o us
w e
å¤§ æ²³
åħ¬ çĲĨ
èĭ ¹
åł´ çļĦ
å¦ ĵ
åĲĳ è¥¿
ç¥ŀ çĪ¶
éĥµ æĶ¿
åľ¨ ä»Ĭ
çļ ĸ
åĮ ¿
ä¸» äºº
åĽł æĸ¯åĿ¦
çĻ¾ è²¨
èĪĪ èµ·
ç¹ª çķ«
å¸¸è§ģ çļĦ
ä»¥ ä¸ĭçļĦ
ä¸º æŃ¢
é¡ ·
éħ ¯
çłĶç©¶ çļĦ
ä¸»è¦ģ çĶ±
çīĩ æ®µ
å°Ħ æĵĬ
ç»¿ èī²
æ³ķåħ° è¥¿
a el
åį ¦
ç¨ ½
éĽĨ ä½ĵ
æĴŃ æĺł
æİĴ éĻ¤
èģĸ èªķ
èĪªç©º æ¯į
æ²³æµģ åŁŁ
ä»ĸ åĴĮ
éģĭ ç®Ĺ
åħŃ åįģ
åĩºçı¾ äºĨ
å¤©æĸĩ åŃ¸å®¶
åİŁ çĤº
çĶ· åŃ©
æ·± åº¦
åħį è´¹
èŃ¯ çĤº
å®¡ æŁ¥
è¨ĺæĨ¶ é«Ķ
æĻ ¤
å½ ¬
ä¸į éľĢè¦ģ
åĪĨ åºĹ
äºĶ åĢĭ
æĦĽ å¾·èı¯
ä¸ĢçĽ´ åĪ°
æ¡£ æ¡Ī
ä¸į çĶ¨
å®ī åİ¿
åĲĳ åįĹ
ä¹ĭä¸Ģ çļĦ
è¯į æ±ĩ
æĵĶ å¿ĥ
åŁ· å°İ
ub e
å¤§ åĲį
ç² Ł
åĳ¨ åĪĬ
èĬ± åĽŃ
é¢¨ æļ´
æĢ» åĢ¼
ur g
çı¾åľ¨ çļĦ
ç§ĺæĽ¸ éķ·
åĪĨ åī²
åŃ¦ çļĦ
ä¸ī æĺŁ
æ²» å®ī
æĩ ²
åİĨ ä»£
åľĭå®¶ éļĬ
åĤ· å®³
C S
ä¸į è«ĸ
èĥ ļ
çº¦ çĳŁå¤«
è§Ĩ é¢ĳ
ç»Ļ äºĨ
Ġ as
äºº éĥ½
æĺ¯ ä¸º
ç± ¤
æł¼ éĽ·
åħ· åĤĻ
æľ¨ æĺŁ
å¤§ åĴĮ
åĴ ¤
æĶ¿ åıĺ
ä¸ĢèĪ¬ çļĦ
è¾² æĽĨ
å°ĭ æ±Ĥ
å·´ä¼Ĳ åĪ©äºļ
D A
åĳ ¢
æİ¨ éĢ²
æ¡Ī ä¾ĭ
t s
y pe
æ°´ ä¸Ń
è¡Ľ éļĬ
åħ¬éĩĮ çļĦ
éİ® å£ĵ
éĢı æĺİ
ãĢĬ -{
è¦ģ å¡ŀ
åħĥ èĢģ
æľ« å¹´
å« ¡
çļĦ åĲİ
é£İ éĻ©
189 0
å®ī æģ¯
èĴ ¼
åľº æīĢ
æĸ ĭ
è²» çĶ¨
åĮº åĪĨ
åģĩ è®¾
ç¡® è®¤
ä¸Ń è¥¿
ä¸ī éĩį
ä¸İ åħ¶ä»ĸ
æĻ® æŀĹ
å°Ī çĶ¨
æľĽ éģł
åĭŀ å·¥
æĶ¾å°Ħ æĢ§
Ġ 20
èĲ Į
åĲĮ æ²»
çĵ¦ å°Ķ
åı³ ç¿¼
åľ¨ é«ĺ
æ¸ Ŀ
æĽ´ é«ĺ
èĹĿè¡ĵ å®¶
E L
çļĦ æĹ¶éĹ´
è³ ł
å¯Ĩ çļĦ
åĲĮæĻĤ ä¹Ł
åĲ¯ åĬ¨
æĦıæĢĿ æĺ¯
åĢ¾ åĲĳ
a j
åľ¨ ä¸ĸçķĮ
å¾Ĺ åĩº
åħ± èŃĺ
æĸĩåĮĸ éģĹäº§
çļĦ åŃĹ
çķ¶ å¤©
çĽ´ åįĩ
åıĤ æķ°
éģ· èĩ³
çļĦ éŁ³æ¨Ĥ
çĤº æŃ¤
åįĹ è·¯
æł¼ å°Ķ
åĩ ¶
åľ° çĶ¢
ç± ł
æº ¥
éĸĭ è¾¦
å½¢ çĬ¶
åķŁ åĭķ
éłĴ çĻ¼
ç»Łæ²» èĢħ
æĭĵ è·ĭ
è¾ŀ èģĮ
ä» Ĺ
ä¸Ń ä¹Ł
ä¹ĭ äºĤ
æľĢ åıĹæŃ¡è¿İ
å¯¹ æĬĹ
èĻŁ çļĦ
åĩ ¸
æĿ± æ¼¢
ĠR ev
éĻįæ°´ éĩı
èĢĮ ä¾Ĩ
èĭ± å°º
re am
é¹ ı
èĤ¯ å°¼
æľĢåĪĿ çļĦ
çļĦ èĩªçĶ±
çĶ¨ äºĨ
åħĭ ç¾ħ
éĥ½ åŁİ
ä¸İ åħ¶
id a
è¿ª æĸ¯
ä¹ĭ åĪĿ
åį¡ éĢļ
æĶ» éĻ·
é¥ ¼
æĭ ¾
ä½¿ å¾Ĵ
éĿ¢ èĩ¨
æ¿Ģ ç´ł
èĿ ¦
çıł æµ·
è¿Ħ ä»Ĭ
äºº åĬĽ
æĭ ĭ
æł¼ æĸ¯
è¿ĩ æ¸¡
ĠO n
åľ¨ ä¸Ĭ
æĶ¾ ç½®
å¾ĭ å¸Ī
è¤ Ĵ
ä¸Ń éĨ«
èĩ Ń
åħ¬ æĬķ
å¤© åŃĲ
è§£ æŀĲ
ä¸¤ ä¾§
æ¦ Ĩ
åľ° å¸¶
å¾Ģ ä¾Ĩ
ãĤ ³
ä¸Ńå¤® çłĶç©¶éĻ¢
åĪĴ åĪĨ
èĨ Ģ
çİ© åħ·
ä¿¡ å¥ī
çĥ ¹
éłĺ éļĬ
if ic
H O
å¹ ¢
æ© Ļ
èĬ ¯
å°ĳ éĩı
ĠS ystem
it al
ç»Ī äºİ
éĿĪ éŃĤ
an y
å¯¹ åħ¶
æĽ´ åĲį
ç±³ äºļ
äºĴ åĭķ
åŁºæľ¬ æ³ķ
æķı æĦŁ
èĳ¬ äºİ
æ¡ĥåľĴ å¸Ĥ
é«ĺ æŀ¶
ç¾İ å°ĳå¥³
ä¿® å¾©
è¤ Ĳ
èĿ Ļ
éĢ± åĪĬ
E d
çĻ¼ éģĶ
åİŁ åŀĭ
ç¯ ¤
æŃĮ è©ŀ
èĶ ½
ç¨® æ¤į
è²¡ åĭĻ
ï¼ģ âĢĿ
è§£æĶ¾ è»į
è½¨éģĵ äº¤éĢļ
ç¹¼ ä½į
Ð º
éķ· æ²Ļ
æŃ£ ç¾©
ä¸ĩ ç¾İåħĥ
æ¦Ĥ çİĩ
åľĭåĭĻ éĻ¢
å½ĵ å±Ģ
æīĺ é©¬æĸ¯
èĭ¹ æŀľ
æľĽéģł éı¡
1 18
çļĦ æ³ķå¾ĭ
æŀĹ èĤ¯
éĶ Ĳ
åı¯èĥ½ ä¼ļ
èĦ± ç¦»
å±ł æ®º
ace ae
åĵ¥åĢ« æ¯Ķäºŀ
æŃ ¼
èĢĮ æľī
ãĤ «
æķħ éļľ
èī¯ å¥½çļĦ
éŀ Ń
N ew
åĩº åıĳ
ä½Ĩ ä¹Ł
ä¸ĸç´Ģ çļĦ
èĿ ķ
è³¼ çī©
æ¯ĶåĪ© æĻĤ
r is
å¸ĥ èĲĬ
æĽ´ æľī
çİĩ åħĪ
éĽ· éģĶ
ä¹ł æĥ¯
çļĦ åľ°åįĢ
åĮĹ å¤§
è¼ ¿
çĻ½ äºº
æľº åĪ¶
æ´Ľ å¤«
èĪ¹ éļ»
çĽĽ è¡Į
è¦Ĩ èĵĭ
ä¼Ĭæĸ¯åħ° æķĻ
åħ¨ æķ¸
æµģ æĦŁ
Ġ- -
éĹ®é¢ĺ çļĦ
äºŀæ´² éĽ»è¦ĸ
æŃ¤ åīį
åįģ ä¸īå¹´
æ°´ ä¸Ĭ
åİĨåı² åŃ¦å®¶
å¾Ĳ å·ŀ
åĪĨåĪ« ä¸º
æĭ¯ æķĳ
åĮ ¡
æ³ Ħ
åľ° çĤ¹
æ¨ ĳ
ç¬¬äºĮ ä»£
è¯¸ ä¾¯
èĿĻ èĿł
åĴĮ çļĦ
çľĭ è¦ĭ
ä½ľåĵģ çļĦ
10 6
ç¬¬ä¸Ģ æī¹
èªį èŃī
åħ¶ä¸Ń æľī
ãĤ ª
æİ¨åĩº äºĨ
é«ĶèĤ² é¤¨
è¯ Ĭ
å¾Į ä¸ĸ
åħ¨ åİ¿
èĲ į
æĭī çļĦ
ros oft
an a
åľŁ æľ¨
æŃ» èĢħ
le d
é³³ åĩ°
éģİ çļĦ
äº¦ çĤº
å¼µ åŃ¸
ï¼Ł ãĢį
å± ¢
ç¸½ çĽ£
åĤĳ åħĭ
ä¼łç»Ł çļĦ
ä¸Ģ èĩ³
æķ ĸ
ä¸º æŃ¤
æµģ ä¼ł
ä¹¡ æĿĳ
St ation
åįĹ æ´ĭ
æ© Ħ
ç²¾ èĭ±
è¿ª åįĹ
ãĢĭ ï¼Ľ
å¤ļ æ¨£
åŀ ĥ
åį³ çĤº
æĶ¿æ²» éĥ¨
å³¶ ä¸Ĭ
åĪ¤ æ±º
+ +
çļĦ æķĻ
åĸ Ĭ
è¾ĥ å¤§
çļĦ éĤ£
çī© æ¥Ń
åįĢ åĪ¥
æµģ æµª
å½ĵ åľ°çļĦ
æīį æĺ¯
èĤ¡ æĿ±
åįı åķĨ
éĢĤ åºĶ
éµ ¬
D C
l i
åı² èĴĤ
æ· ¹
ä¹¦ ä¸Ń
éĢŁ çİĩ
å»£æĴŃ åĬĩ
å»£æĿ± çľģ
éģ ¥
æ¡ ¶
éģİ ä¸ĸ
åįķ çĭ¬
ï¼ Ŀ
åľ ¾
æĸ° åºĹ
æĦ ī
éŃ ħ
éĻĨ ç»Ń
åŀĥ åľ¾
çĶŁ åīį
éĽ» è¨Ĭ
éĨ ¬
èŁ »
ear ch
Ġ Qu
èĻŁ ç·ļ
ä¼¯ æł¼
å®ĩ èĪª
ĠIn d
çĽ¸å½ĵ äºİ
æµ ı
å¸¸ çĶ¨çļĦ
æ²ĥ å°Ķ
e xt
æĸ¹ å½¢
åħĥ æľĹ
éĢĻ æ®µ
æ»ħ çµķ
åĪĨåĪ« æĺ¯
è¿½æº¯ åĪ°
åħ¶ä¸Ń ä¸ĢåĢĭ
ç¬¬åįģ ä¸ī
åįĵ è¶Ĭ
col span
äººå¤§å¸¸å§Ķ ä¼ļ
çļĦ å®¶
é«ĺ ç¥ĸ
é©¬ éĩĮ
æķĻèĤ² æ©Łæ§ĭ
åı± åĴ¤
çŁ ¶
äºĮ åħ«
çĽ¸ ç¹¼
åĲĳ åĮĹ
æĽ´ å¤§çļĦ
æ¸ħ æĶ¿åºľ
æ¸¸ åĩ»
åĩºçīĪ çļĦ
çĶŁ éķ·
åħ¥ éĢī
èªį åı¯
ä¸Ńèı¯æ°ĳåľĭ ç¸½çµ±
ä¸Ģ çŃī
äºĮ çĻ¾
çĶŁçī© åŃ¦
åĦĦ æ¸¯åħĥ
ä¸īè§Ĵ å½¢
å¤ļ å¹´çļĦ
äºļ å½ĵ
åıĪ è¢«
éģº åĤ³
åŃ ļ
äºĮ æĪĺ
åı¤ åŁİ
éĶ¦ æłĩ
åľ¨ ä¸ĢäºĽ
è¥¿ å¤ı
çī© èªŀ
æĤ ħ
F l
ç§ĳ å°Ķ
å½ĵ ä»£
æ¾³ éĹ¨
çĻ¼çı¾ äºĨ
ç´Ľ ç´Ľ
ç¼ħ çĶ¸
T A
å°ı æıĲçĲ´
æĶ¹ çĶ±
æł¼ é²ģ
èº« é«ĺ
çķ« éĿ¢
æĻ¯ è§Ĥ
å½±éŁ¿ åĬĽ
b y
u ch
å¹´ ä¸ĸçķĮçĽĥ
è¥¿ è·¯
ä¸¤ å²¸
å°Ī åĪ©
et y
æ³¨ åħ¥
æĹĹ ä¸ĭçļĦ
ï½ŀ ï¼Ī
èģ¯è³½ åĨłè»į
å¥¥æĸ¯ æĽ¼
çļĦ æ¶Īæģ¯
åľ¨ å¤ĸ
çİ° åŃĺ
å¿ħ çĦ¶
k e
èĢĮ æŃ»
åŁİ éİ®
éĢĻ é¡ŀ
è¶³ åįĶ
åĿĲ æłĩ
ä¸Ń åħ¨
æĢ§ è¡ĮçĤº
åįĢ éĸĵ
æĪĸ ç¨±
ç§° ä¹ĭä¸º
å±Ģ éķ¿
æ¶Ī éĻ¤
è¾¦ çĲĨ
è£Ŀ é£¾
å¼ķèµ· äºĨ
è»Ĭ èº«
ä¾Ľ åºĶ
æĻº åĪ©
è¾¦äºĭ èĻķ
å¹´ å·¦åı³
å¢ ħ
äº¤ åĵį
ãĥ ķ
ĠP ar
åľĭæ°ĳ ä¸ŃåŃ¸
æİ¢ æ¸¬
ä¸ĭ æĸ¹
éĹľ æĿ±
åĽŀ æĹı
çª ©
æ´Ľ éĺ³
çĽ£ è£½
å¤§ ä¼Ĺ
çµĤ æŃ¢
åįģåħŃ å¹´
ä½į åħĥ
ç¥ŀ åŃ¸
è£ħ ç½®
c m
çļĦ ç»ıæµİ
ä¹ĭ åħ§
åĪĨ äº«
å¸ĥ ä»Ģ
æĻ¯ çĤ¹
èµĦ æł¼
è¼ĥ é«ĺ
æŃ·åı² åŃ¸å®¶
äºĭä»¶ çļĦ
æ¶ī å«Į
ä»ĸ èĪĩ
çĹĽ èĭ¦
åħ¶ çĤº
ä½į å±ħ
æĬĢ èĥ½
ä½İ æĸ¼
æī¿ æĭħ
å¸¦ é¢Ĩ
ç»Ħç»ĩ çļĦ
O P
åı¯ éĿł
æľĢ èĳĹåĲįçļĦ
è¯Ĩ åĪ«
n ow
å¤§ èĭ±
åĮĹ ä¸Ĭ
åĽ¾ å½¢
åĪ¤ æĸ·
åļ´ æł¼
åİŁ åĿĢ
çŁ¥ åĲįçļĦ
ä¸Ńæĸĩ çīĪ
æĺł å°Ħ
è¿ĩ å¢ĥ
æ³¢ å°Ķ
ä¸¥ æł¼
h am
åİ ²
éķ¿ è¾¾
åĨħ åľ°
åĽŀ æĶ¶
å¢ŀ å¼·
æıĲ èŃ°
æŀĹ å½ª
è¬ ł
æ³¨ éĩį
å§ĵ åĲį
æĲŃ éħį
æ°´ æŀľ
äº¤ éŁ¿
éŁ³æ¨Ĥ æľĥ
ers on
çļĦ åįĹ
éĩį é»ŀ
è« ·
æ´» æĢ§
åīĩ ä»¥
åĪĿ å¹´
åŃ« æ¬Ĭ
æıı å¯«
å¿ĥçĲĨ åŃ¦
çļĦ å±±
æĺ¯ ä¸ĸçķĮä¸Ĭ
åıĹ ä¼¤
ä½ĵ çİ°
æķĻèĤ² å®¶
ç¹¼ ä»»
éĥ Ŀ
å¼ ¼
ç± ²
åħĥ ä»¶
æŃ¦ çĶ°
èŃī åĪ¸
æŃĲæ´² åľĭå®¶
äºĭå®ŀ ä¸Ĭ
é©¾ é©¶
ä¸Ģ åł´
èĪ ĸ
åħ¬ åĭĻ
åĲĮ æľŁ
çŁŃ æļ«
ä¼ļè®® ä¸Ĭ
åĸĩ åĺĽ
åĭģæŃĮ éĩĳæĽ²
è¥¿ åĮĹéĥ¨
ç¨± èĻŁ
åĽŀ åĽ½
éĢłæĪĲ äºĨ
çī§ å¸«
æĴŀ æĵĬ
åĲĲ èķĥ
åº¦ åģĩ
åĲĳ åīį
åĬ¨ ä½ľ
åı¯èĥ½ çļĦ
åĽ¢ éķ¿
% ï¼ī
å¹´ ç¬¬
å¾Į è¢«
çº¦ ä¸º
åĽ¢ éĺŁ
çŁŃ æľŁ
æª Ģ
Ġd es
189 4
èĴ¸ æ±½
æĮ «
åĢĭ æĢ§
åįı å®ļ
éĸ ¥
ãĢī ï¼Į
p s
äºº è¢«
å¤§ éĢī
è¥¿ æ¹ĸ
æĿİ åħĭ
çĶŁæ´» çļĦ
éĢĤ åĲĪ
çļĦ æĢĿæĥ³
ä¸İ æŃ¤
çķ¶ ä½ľ
é¾ Ł
ãĢı ï¼Ī
çĶŁ éķ¿
ç¤¾ äº¤
è±Ĳ èĩ£
187 1
o on
åįģ ä¸Ģå¹´
éĢ² èĢĮ
æ³° åĽ½
ĠĠ Ġ
çĶŁäº§ æĢ»åĢ¼
çĻ¼åĭķ æ©Ł
éĹ ª
é» Ķ
èĪª è¡Į
æ©« æ¿±
æľīæķĪ çļĦ
åīµè¾¦ äºº
ä¹ĭ æĻĤ
çĽ¸ è¿ŀ
å·² åľ¨
èĸ© æĸ¯
ä»ħ ä»ħ
å¯» æī¾
Ġ <
åħ¶ çĪ¶
åĲĦ çķĮ
å§Ķ è¨Ĺ
å¤« å©¦
åĵĪ å¾·
éĢī æīĭ
å±±è¥¿ çľģ
æĸ° å®¿
å®Į çµĲ
åħ· é«Ķ
èĶ ļ
ç©¿ èĳĹ
éĶ¦æłĩ èµĽ
ä¸ ķ
å¤§ éĺŁ
åħĪ è¿Ľ
åĨĻ éģĵ
èĶ£ ç¶ĵåľĭ
ou th
çļĦ åĮĹ
æĸ¯ éĩĮ
ä¸ī çĻ¾
or ge
æŃĮ èĪŀ
åº§ ä½į
çķ¢æ¥Ń å¾Į
ç¯® çĲĥ
åĬł ç´¢
æ°´ ç³»
å¾ŀ æľª
è©² æł¡
æ¸¸ å®¢
åŃĻ ä¸Ńå±±
D e
å¤ ¹
éĥ¨ ä¸ĭ
å°¼ åı¤æĭī
æĺ¯ä¸Ģ åĲį
æ¯ĶåĪ© æĹ¶
C N
çĤº å¤§
å¤ļ éłħ
å§ĭ çļĩ
çĿ ¿
æ°£ è±¡
åħ´ å»º
ç¢º ç«ĭ
å²ģ æĹ¶
ä¹ĭ äºĭ
å¼Ģ å·¥
åıĤ çľĭ
æĹģ çĻ½
åŃŁ åĬłæĭī
ä¸Ńåħ±ä¸Ńå¤® æĶ¿æ²»å±Ģ
åľ¨ èĭ±åľĭ
æľ¬ æĽ¸
åı¯ è§ģ
å¸ĥ éĩĮ
ar ch
æ²³ è°·
å¥ĳ ä¸¹
o z
æĭĽ çĶŁ
é«ĺåı¥ ä¸½
çī¡ ä¸¹
t he
ä¸į è®Ĭ
ä¸Ĭ æĸ¹
ä¹ĭ éļĽ
æ°ĳ çĶŁ
éĴ ł
èĮĥåĽ´ åĨħ
Ġ j
åıĸ èĩª
å¾Ģ è¿Ķ
åºĶ å½ĵ
éĳ Ħ
è£ľ åħħ
æĸ° åĮº
éĩĳ é¦¬
èİ ½
ç¾İåĽ½ äºº
éİ Ĭ
å¼Ĺ åĲī
æĪĺäºī ä¸Ń
éĩĳ éĻµ
åĽ½å®¶ æ£®æŀĹåħ¬åĽŃ
å¥´ éļ¸
G UNDAM
çŃ ĭ
æľį è£Ŀ
èŃ¯ æľ¬
æ³ķåħ° åħĭ
f er
ä»ĸ èªįçĤº
å¿ Ĵ
ç±³ äºŀ
æ¬§ çĽŁ
å®¦ å®ĺ
Ġ ï¼ļ
ä¸į èī¯
æ°ĳ èĪª
èµ° å»Ĭ
æİ¥åıĹ äºĨ
up er
æľĢ æĸ°
ar i
äºĶ ä¸ª
ä¼Ĭ ä¸½
é»ŀ çļĦ
è®° å¿Ĩ
ä½ľåĵģ ä¸Ń
ï¼Ī ï¼īãĢģ
å¤ļ å°ĳ
è¼ĥ å°ĳ
ç´° èıĮ
ç´¯ ç©į
åħ¬ éłĥ
å¸ĥ éĽ·
èī² æĥħ
æīĵ æķĹ
è¬ ¹
è½ī ä¹ĺ
åīµ æĸ°
æ±Łè¥¿ çľģ
æĺ¯ å¾ŀ
åĽ½ æľī
åĮĸ ä¸º
éĥ½ èĥ½
ĠC ent
æĸĻ çĲĨ
åħ¨ ç·ļ
è¡ĵ èªŀ
18 60
åĲĦ æľī
ç³»åĪĹ çļĦ
èīºæľ¯ å®¶
å¤§ æ°Ķ
åĲį èªī
èĴĤ å®ī
çļĦ åŃ¸çĶŁ
æ¥ ·
10 8
å¹¿ å·ŀå¸Ĥ
æĹ¥ æĸ¼
æĪ° æķĹ
ç¤¾ åľĺ
ãĥ £
çĨ ¹
è½ī çĤº
çĴ° çĲĥ
ï¼Ł âĢĿ
M B
æĹł éĶ¡
æį¢ ä¹ĺ
T r
è¢ į
æ» Ļ
èİ· å¥ĸ
æĵ´ å»º
ç¡« éħ¸
èĶ¬ èıľ
10 3
æĮĩ åįĹ
é¬¥ çĪŃ
åĲ¾ å°Ķ
å¡ ¢
æĹ§ ç§°
ç«ĭ å§Ķ
al k
åĪĬ çī©
æ©Łåĭķ æĪ°å£«
è«® è©¢
çļĦ è¡ĮçĤº
éļ Ļ
éĽ» ç£ģ
æµģ æĶ¾
éĵ Ŀ
ç¬¬ä¸Ģ ä»»
ĠM e
æ°¨ éħ¸
n et
èĢĮ å¾Į
å¾® è½¯
i en
æĺ¯ çĶ¨
æ°ĳ é»¨
é¦Ļæ¸¯ å³¶
æĺŁ çĲĥ
æĽ² çº¿
çĬ ģ
ä¸Ńå¤® äººæ°ĳæĶ¿åºľ
å¹´ä»£ æľ«
èĬĤ çĤ¹
åįı è°ĥ
æļ´ éľ²
çī©çĲĨ åŃ¸å®¶
å½© èī²
T P
å· ©
ãģ ¾
æ·± åıĹ
èĲ¨åħĭ æ£®
C L
r ess
çļĦ èĩª
éĹ ²
å¢ ³
å¼Ģ è®¾
éĽĨ é«Ķ
èŃ° å¸Ń
æıĴ åħ¥
æ¯ ĵ
å¥¹ åĢĳ
åĨ° å·Ŀ
é¢ģ åıĳ
åİ¦ éĹ¨
å½°åĮĸ ç¸£
åĩº ç§Ł
è½ī åĲĳ
åį± éĻ©
åİĭ ç¼©
å¥¥æŀĹåĮ¹åħĭ è¿ĲåĬ¨ä¼ļ
I ON
çļĦ éŁ³
å°į ç¨±
äº« åıĹ
è¿ģ èĩ³
åįģåħ« å¹´
åĩ¤ åĩ°
çļĦ æİ§åĪ¶
å¤§ åį«
åį³ å°ĩ
æĳ§ æ¯Ģ
åīį åĪĹ
äº¤ å¾Ģ
æ¨¡çī¹ åħĴ
ä¸į æķ¢
er g
å°į è©±
çħ§ é¡§
os s
ap p
è³¼ åħ¥
E X
O L
åľ¨ èĩºçģ£
åħ¬ çĽĬ
èµ Ķ
æ¿ «
å¾© æ´»
èĩªçĦ¶ ä¿ĿæĬ¤åĮº
ep h
çĻ¼ è¡ĮçļĦ
in al
éĥĳ å·ŀ
æĺ¯ ä»ĸ
ä¸į çŃī
åīį åĲİ
åĬł åĭĴ
æĭī å¤ļ
æµģ æ´¾
çļĦ èº«ä»½
åľĭ å°ı
ä¾ ¦
å°į åħ¶
è° ¦
è° Ĳ
åħ© å¤§
åĽŀ å®¶
ç·¨ çµĦ
æī© å»º
èĶ£ ä»ĭçŁ³
è¡° èĲ½
Ġ ex
é¦ĸ éķ·
å®¢ æĪ¶
éħį åĤĻ
éĹ ¸
ä¿¡ çĶ¨
èĦ ¹
éħĴ ç²¾
çºº ç»ĩ
éĩ Ģ
æ¬¡ æķ¸
å®ī ç½®
æµģ åĬ¨
at or
çĶµ è·¯
å¸¶ èĳĹ
ä¾Ŀ è³´
çļĦ ä¸ŃåĽ½
çļĦ è¯Ŀ
ä¸į ä½³
åĲį åĪĹ
å»ł åķĨ
åĽ½ éģĵ
èĥ ĸ
çĳ ļ
éĨ« å¸«
æĿ°åħĭ éĢĬ
ä¼Ĭä¸½ èİİçĻ½
éĿ¢ å¯¹
æĶ¯ æĴ
éĽ¢ å©ļ
åģĩ æľŁ
å¾Įä¾Ĩ çļĦ
èĪĬ éĩĳå±±
äºº äºĭ
è¿ Ń
èģ Ĭ
åĲį åı«
è¥¿ åħ°
åħ¨ æ°ĳ
åĪĹ å®ģ
æĴ¤ éĬ·
çį¨ç«ĭ çļĦ
æ¼«çķ« å®¶
åµ ©
çļĦ çµĲæŀľ
å¸Ĥ éİ®
éĢĻ éĥ¨
åİ» äºĨ
å¾Ĵ åĪĳ
æļĹ ç¤º
ç´Ĳ è¥¿èĺŃ
è° Ń
èĨ ı
çļĨ çĤº
è«¸ ä¾¯
å¹¼ç¨ļ åľĴ
èĤ ļ
çĮ ¿
å§Ķåĳĺä¼ļ å§Ķåĳĺ
å¯Įå£« éĽ»è¦ĸåı°
ï¼ļ ï¼Į
è¡Į è»Ĭ
æ£® åł¡
è¯ģ åĪ¸
æ·· äºĤ
è¡Ŀ æĵĬ
æ³ķèĺŃ åħĭ
äºº ç¾¤
éłŃ éĬľ
åīµ å»º
æ¸ħåįİ å¤§åŃ¦
å¤§ åłĤ
åĪĨ æ³Į
è¢« åĳĬ
åħ¨ æ¸¯
çª ĳ
é¢¨ éĽ²
è¾Ľ äº¥
é¥° æ¼Ķ
ech n
åľ° è³ª
å£ ¢
æ©Ł è»Ĭ
çĽ´ å¾ĳ
åĲ¦ å®ļ
æĬ ¹
æĸ° å¹¹ç·ļ
èī ·
åĽĽ åŃ£
åĪĿ å§ĭ
èģĮ ä½į
çļĦæĥħ å½¢
äºº æĿĥ
ä¸Ĭ å°ĩ
åı¯ çĶ¨
éĩĳ éĲĺ
å¿ĥ èĩŁ
æµģ è¡ĮçļĦ
çģ« åĬĽ
ç´ħ ç£¡
ä¹ĭ æĹħ
åı¯ åĪĨçĤº
æµ· æ°´
ç©į åĪĨ
ĠIn ternational
Ġ und
ä¸º åħ¶
åı° çļĦ
ï¼į ï¼ī
ur y
ç£ ħ
èķ ī
éłĨ åºı
u ro
æľī æĦı
äºĭ å®ľ
10 4
éĩĮ å£«
éķ¿ å®ĺ
ç¬¬äºĮ å¤§
åĸ® çį¨
Ġd er
å¹´ çīĪ
ä¸į å¹¸
è¿Ļ éĥ¨
è¿Ĳ çĶ¨
ĠL ondon
éĤĬ çļĦ
çĮ© çĮ©
å¹´ ä¸ŃåĽ½
èĢħ åĴĮ
åĵĪ å¸ĥ
ç²¾ éģ¸
çľĭ ä½ľ
ç§» æ¤į
éĪ ¾
( )
å¥ĸ é¡¹
æĮ ½
ç¾İ é£Ł
åįĩ éĻį
çļĦäºĭ æĥħ
åıĽ ä¹±
ens is
ĠSch ool
Ġ 2002
çļĦ ç¸½
ä¸» æĿĥ
æ· Ĩ
ç¤º èĮĥ
çļĦå¤§ å°ı
y m
ä¸Ģ å¥Ĺ
åĵ ĩ
ä¹Ł å¾Ī
è² ¶
ro up
ä¹ĭå¾Į çļĦ
èģĶåĲĪ ä¼ļ
æĪª æŃ¢
o use
å°¼ è¥¿äºŀ
éĤ£ éĩĮ
åŁ¹ é¤Ĭ
ov er
æĭĵ æīĳ
èĴĭ ä»ĭçŁ³
çļĦ ä¸¤
æľº çļĦ
çĩĥ çĩĴ
ev el
ä¼Ĭæĸ¯èĺŃ æķĻ
çº¤ ç»´
n g
ï ¸
Ġ #
æ°ĳ ä¿Ĺ
ç»ı çĲĨ
å³ Ļ
æ¿ ¤
E D
æĹ¥ è¢«
ãĤ £
çİĭ åħ¬
ä½Ĩ åį»
æ¬¡ çļĦ
åŁİ éĤ¦
æ²³ çļĦ
ä¼ł æķĻå£«
ç½ª åĲį
èħĵ åĬĽ
C o
ãĢĬ ãĢĭï¼Į
èİ ŀ
èĳĹ æľī
æĪĢ æĦĽ
å°ĸ æ²Ļ
l er
çļĦ æľ¬
ä¸Ĭ åįĬ
åħ¬ çº¦
æľĢ å¥½çļĦ
æ¬¡ äºİ
An d
æĺ¯ è¢«
O r
ä¸Ń ä¸ľ
åħ¬ åŃĲ
äº¤ åıī
æĻ¯ è§Ģ
åĪĽ å§ĭäºº
éĤĬ å¢ĥ
æĿ¿ æ©ĭ
è¡° è®Ĭ
çŀ ¬
å°¼ æ³Ĭ
ç»´ åĲ¾å°Ķ
Ġl a
ä¾Ĩ çľĭ
èģĶ ç»ľ
è²¡ åľĺ
åī ¥
åĪĨ æŃ§
ä¹Ł æ²¡æľī
å¾· èªŀ
å®ī å®ļ
åĨħ æľī
ç¾¤ ä½ĵ
ç¼º éĻ·
å¤§éĥ¨åĪĨ çļĦ
çĽ¸åħ³ çļĦ
H e
Ġ 2007
åĽ½ åħ±
åĮĸ çī©
æŃ¥ è¡Į
æī¿ è«¾
é²ģ è¿ħ
æ» ¤
ä¸ĢçĽ´ æĺ¯
è¾ĵ åĩº
å¤§ çĶ²
å¿Ĺ æĦ¿
å· ¾
é«ĺ æĸ¼
èĢħ åľ¨
åıĳ æĮ¥
åı¸ å¾Ĵ
æ» ĩ
åıª å¥½
çµĤ é»ŀ
å¯º éĻ¢
åĳ¼ ç±²
èµ¤ éģĵ
å»¢ æŃ¢
å¥§éģĭ æľĥ
I X
å®ĺ è¯Ŀ
æ¸ħ èı¯
ç¡ ħ
æŁĲ ä¸Ģ
è¢« èªįçĤº
çł į
åı¤ å¸Įèĩĺ
ç§» èĩ³
éļ¸ å±¬
iel d
çļĦ åĬĽéĩı
äºº ç¨±
è¡ Ļ
æĹ¥ ä¸ĬåįĪ
åı² ç¨±
éķ¿ åŁİ
åīµ ä¸ĭ
æĹ§ åĿĢ
çĨŁ æĤī
å¤¸ åħĭ
çļĦ èªªæ³ķ
æľī åĬ©
åľ° åĬ¿
èĩº æĿ±
ä¸Ńå¤® æĶ¿æ²»å±Ģ
ä¸Ģ äºĭ
èµ· èįī
æĹ¥æľ¬ æĶ¿åºľ
çĳ Ļ
ĠM ac
ç¶Ń ä¿®
è£½ æĪĲ
æķ¸ åĢ¼
åĽŀ åĲĪ
æ·· æ·Ĩ
éĽķ åĥı
æĹ¥ è¨ĺ
ä¸Ĭ æł¡
å½± è§Ĩ
éª ļ
è©ŀ å½Ļ
çĢ ı
è·¨ è¶Ĭ
æª¢ å¯Ł
éªĳ åħµ
ä¸Ģ åħ±
åĴĮ åįĹ
æĹ¥ åĩĮæĻ¨
åĲĪ ä¸Ģ
çİĭ æĺŁ
éĸĵ æİ¥
åħ« åįģ
å¨ģ çĪ¾æĸ¯
çļĦä¸Ģ åº§
å¥ĩ å¹»
åŁ¹ èĤ²
æ£Ģ å¯Ł
ä¸ĭ åİ»
æµģ åħ¥
æĥħ ç·Ĵ
åĹ İ
æĻ °
æ°¸ åº·
å¤©ä¸»æķĻ å¾Ĵ
åīį æľŁ
æıĲ è®®
åī© ä¸ĭ
èı²å¾ĭ å®¾
I BM
å¹´ çį²
ä¸į å¤§
æĻĤ å¸¸
æĻĤ åĪ»
å£ ¬
æ¦ ´
ä»£è¡¨ ä½ľ
åĲ¦ åīĩ
L a
çļĦ çĪ¶è¦ª
å¤ Ń
åľ° çº§
è¡Į çľģ
ä¸ĭ æĹ¬
æĪĲç«ĭ æĸ¼
é¹ ¼
æ¯Ľ åĪ©
ç¼ĸ åı·
r ing
ä¹ Ĵ
åľ¨ æł¡
ä¸» ä½ĵ
åħ¶ å®ŀ
in o
æģ ª
ä¿Ŀ èŃī
æĥħ æĦŁ
ãĢĭï¼Į ãĢĬ
æħĪ ç¦§
é¡º åºı
çļĦ æł¸å¿ĥ
çĶ¨ æ³ķ
er o
åħ± è®¡
æ´¾ ç³»
ĠL ib
é¬ ±
æ®º äºº
ä¸ªè¡Ĺéģĵ åĬŀäºĭå¤Ħ
å·¥ åŃ¦éĻ¢
é«Ķ ç©į
ion s
ĠB ook
åĬŀ æ³ķ
åıĳçĶŁ äºĨ
çĸ« èĭĹ
å¾Ĺ ç¥¨
å¼· åĪ¶
æºĸ ç¢º
ä¸Ń ä¸ĸçºª
å®£ ç§°
è¾¦ åħ¬
ç°½ ç´Ħ
å±± ä¸Ĭ
æ¨Ļ ç¤º
M M
ä¸ĭ éĿ¢
ç½ Ĳ
å¾Ĺ çįİ
æĭī çī¹
ç§ĳ çĽ®
éĺ¿ å¸ĥ
å¹¶ ä¸įæĺ¯
è° ģ
æĪĺ å£«
æİ§åĪ¶ çļĦ
åħĥç´ł çļĦ
è¨´ è¨Ł
æģĴ æĺŁ
æ²ĸ ç¹©
è¨º æĸ·
é«ĺ åľ°
åĬł åĨķ
ĠA s
é»ĥ èī²
çĻ¼çı¾ çļĦ
188 9
çļĦå¥³ åħĴ
Int el
F L
ç¾İåľĭ æµ·è»į
è¶³ å¤Ł
åĲī ç¥¥
èĲ½ åľ¨
èĹĿ åĵ¡
çıł æ±Ł
å·¡è¿´ æ¼ĶåĶ±æľĥ
Play Station
åľ¨ çķ¶æĻĤ
å¤§ å®ī
æīĢ è¾ĸ
å¤© å®ī
æ°ĳä¸» æ´¾
æŃ§ è¦ĸ
æĸ¼ åĲĮå¹´
è¶ ¾
æĶ¹ è£Ŀ
æĦı çĤº
ä»¶ äºĭ
çģŃ äº¡
çĲĨæŁ¥ å¾·
å¼ĹåĲī å°¼äºļ
çĶ Ħ
åĴ ¬
çĻ» éĻĨ
å¥§ æĸ¯åį¡
èĺĩ ä¸¹
èĽ Ľ
åģ¶åĥı åľĺé«Ķ
ĠAmer ican
O n
å¹´ åĽł
æĬ ¬
éĸĭ åķŁ
çĶµ æ°Ķ
ç¾© åĭĻ
èªį çŁ¥
è£½ä½ľ çļĦ
å¤ĦçĲĨ åĻ¨
åª½ ç¥ĸ
æ³ķèĺŃ è¥¿
ä¿ĿåĬł åĪ©äºļ
æ³ķ æĭī
èĥ Ĩ
âĢĿ ï¼īï¼Į
ç«ĭ çļĦ
çī¹ åĮº
é¢ Ī
çĸ ²
åľĭéĺ² éĥ¨
ä¸Ģ æī¹
å¥ ¢
18 70
è¡£ æľį
è´ ·
ĠA ss
ãĤ µ
æŃ· ä»£
è®º åĿĽ
åĩºçı¾ çļĦ
éŀ ı
è¤ĩ è£½
åľ¨ åħ§
äºĮ çº§
ĠF or
äºĮåįģ åĽĽ
æĥ¡ éŃĶ
æ°¨ åŁº
çĻ¾åĪĨ çĤ¹
åľ¨ ç¬¬
åľ¨ æľ¬
éģĵ æŃī
èªŀ éŁ³
åĪĿ ä¸Ń
åĪ ł
åł °
åĲİ è¢«
å·¨ æĺŁ
Ġ* /
J o
å·´ çī¹
ç¸£ çļĦ
èģŀ åĲį
å¾ħ éģĩ
ä¸Ń å°Ĩ
ä¸ī ç¨®
ç¥ ģ
é¦Ļæ¸¯ ä¸Ńæĸĩå¤§åŃ¸
æ¬Ĭ çļĦ
åĳĬ è¯ī
æ³° å±±
éĺ¿å§Ĩ æĸ¯çī¹
èĥ Ģ
çłĶç©¶ èĢħ
å»£ è¥¿
ä¿® å¤į
n a
å¤ĸ åľį
çļĩ åŃĲ
å·¥ä½ľ èĢħ
æ¬§ åħĥ
æŀģ ç«¯
å±ĭ éĤ¨
çºµ éĺŁ
çļĦ ç¬¬ä¸ī
å¤§ çİĭ
å¤§ å¥ĸ
æĺ¯ å¯¹
ç¥ º
åħ¨ ä½ĵ
åĬ¨ è¯į
çĽ£ çįĦ
ç¡¬ ä»¶
åĵĪå¸ĥ æĸ¯åł¡
çļĦ åı£
å¤§ æ¸ħ
çĶ¨ åľ°
åı¤ åŁĥåıĬ
å¨ ħ
æŃĮ åī§
188 5
ä¼½ åĪ©
èĪªç«Ļ æ¥¼
ï¸ °
y c
åĩº äºİ
éĥ¨ ä½į
çĪ¾ å¤«
æĪĺ åľº
çµĦ éķ·
èĦ Ĩ
çĻ¼å±ķ çļĦ
éģ© æĩī
å¤©æ´¥ å¸Ĥ
å¾Į çºĮ
æĽ¸ çĽ®
æµ¸ æľĥ
æĸ¼ æŃ¤
åĮĹ æĬķ
éĽ» æµģ
éĽķ åĪ»
åħ¬éĸĭ è³½
æľī ä¸įå°ĳ
åĩ ¹
æ¢ §
äºĶ çĻ¾
åıĸ äºĨ
ä¸ĥ åįģ
èģĸ æ¯į
ä¹ĭ çĶ¨
åħļ å§Ķ
çĴ° ä¿Ŀ
æ¡¥ æ¢ģ
æī¬ å·ŀ
: #
çķ ¿
èĢĮ æĪĲçļĦ
éĩį ä¿®
èµ· åħµ
our n
æĿ¥æºĲ äºİ
è¯¦ ç»Ĩ
C R
E P
åħ¥ äºĨ
åº¦ éĩı
éĩį è§Ĩ
æĶ¯ éĤ£
ç¬¬åįģ åĽĽ
ç§ĺä¹¦ éķ¿
ä¼º æľį
çĤ ī
åħ¬ é¡·
è«ĸ å£ĩ
ä¸ĥ ä¸ĸ
èĤº çĤİ
ï¼ī ï¼ī
åĵģ ç§į
ç¾¤ çľ¾
ç§¦ å§ĭçļĩ
çļĦ çŁ³
åľ¨ è¯¥
æĿ ĸ
åľ° è²Į
äº¤ ä»ĺ
åĳ½ éģĭ
èĻŁ ç¢¼
æĳ© æĸ¯
æľ± åħĥ
çĪ± åĽ½
å£ĵ ç¸®
æĭ¿çł´ å´Ļ
w an
èĪ ħ
ä¸ª çĻ¾åĪĨçĤ¹
å·´ çĪ¾
å½ĵ ä¸Ń
åįĶ èª¿
éģµ å¾ª
ä¸į ä¸Ģ
æĪ° çļĦ
ãĤ ī
ãģ ¿
è®ĵ ä»ĸ
åı²å¯Ĩ æĸ¯
åł ¯
éķ· æ±Ł
é«Ķ åŃĹ
å§ĭ çµĤ
ä½İ äºİ
ä»ģ å®Ĺ
çķ° å¸¸
çĺ ĭ
çļĦ äºĭä»¶
å¹´ ç§ĭ
åĩº å±Ģ
10 2
èĴĻ å¾·
èµ« å°Ķ
Ġc on
éĹ» åĲį
æľĿé²ľ åįĬå²Ľ
åİŁåŃĲ æł¸
åĲ ĭ
çº ľ
çľģ æĶ¿åºľ
æ¬Ĭ çĽĬ
ç«ĭæ³ķ æľĥèŃ°åĵ¡
åį± å®³
åľ¨ ä¸Ģä¸ª
åĮĹ è·¯
çĽ´ è¾ĸ
æİ¨ èįĲ
åľĭå®¶ åħ¬åľĴ
å¼· å¤§çļĦ
row span
å°ĸæ²Ļ åĴĢ
çļĦ æĪĲåĵ¡
æĺ¯ ä¸Ńåįİäººæ°ĳåħ±åĴĮåĽ½
æ¨ Ĭ
åĢĭ é«Ķ
å½± å±ķ
ä¹¦ æ³ķ
ç¶Ń æĸ¯
;}- ï¼Į
ber g
åį¸ ä»»
Ġ æĸ°
ä¹ĭ æīĢä»¥
æ¸ ¦
è¥¿ å¾·
er man
æĪ° æ©Ł
ĠC or
åĺī éĿĸ
T BS
ç¤¾ éķ·
åħ±åĴĮ é»¨
çĽĳ çĭ±
åĢĻéĢī äºº
â ĸ
æ°ĳ çĶ¨
åŃ£ é£İ
æĻī ç´ļ
æĢĢ çĸĳ
ä¿®éģĵ éĻ¢
å¤§ ä¸Ń
åŃ¦ åłĤ
è° Ĭ
çĻ¾ åĲĪ
æĪ· ç±į
æį· åħĭæĸ¯
å½ĵéĢī ä¸º
çļĦ åħĴåŃĲ
ä¸į åŃĺåľ¨
ãĥ ĭ
ä¿® æĸ¯
188 8
äº¤ çµ¦
ç«Ļ åľ¨
æħ ¾
æĢ» ä½ĵ
çĻ» å±±
å¸Ī éķ¿
Mic rosoft
ä¸Ń èĪĪ
æ³ķ è»į
å»Ī éĸĢ
å·´ åħĭ
åİ¿ çļĦ
åº§ åłĤ
çµĤ èº«
å§Ĳ å§Ĳ
éĽ ¯
åĭ ¿
å¸ĥ å±Ģ
åĮħ åĽ´
åıª æľīä¸Ģ
å¢ŀ èĩ³
å¯Į è±ª
åĸľ åī§
ç¼© åĨĻ
èĽĭçĻ½ è³ª
å¸ĥ èİ±
é¢Ĩ äºĭ
çľŁ çĽ¸
éĿĴ éĵľ
æ´Ľ éĻ½
éĺ² è¡Ľ
èĿ ´
é¢Ĩå¯¼ çļĦ
è²¨ çī©
æĲŃ ä¹ĺ
éĳ½ çŁ³
æį·åħĭæĸ¯ æ´Ľ
åĴĮ ç´Ħ
æ¢Ŀ æ¬¾
ç¾½æ¯Ľ çĲĥ
çļĦ ç»ĵæŀľ
èĻŁ çıŃæ©Ł
æĶ¿æ²» å§Ķåĳĺ
ä¸ĸç´Ģ åĪĿ
_ _
â ħ
åīį å¤ķ
åĲĪ èĤ¥
è¡¨ è¿°
å¨ ¥
æ±Ł å¸Ĥ
ãģ ¯
éĨ ľ
æŃ£å¼ı æĪĲç«ĭ
äºº å¿ĥ
æĺŁ éļĽ
ar s
çļĩ å¤ªåĲİ
å¯¦ è¸Ĳ
ãĤ Ń
åĵĪ çī¹
æ°Ķ è±¡
ä½ł åĢĳ
E G
å¸ ľ
å°Ĩ ä¼ļ
ĠP art
æĹ© å·²
è¨± åı¯
éģł æĿ±
èĮ¨ åŁº
çħ¤ çĤŃ
è¯ŀ çĶŁ
æ¸ £
æķ¸ åįģ
ä»ĸåĢĳ åľ¨
æĸ°åŁİ åĭģçĪĨ
ä¸ Ł
çıŃ æ¬¡
çĽĳ å¯Ł
èĿ´ èĿ¶
10 9
æ¹ §
é² ¸
æİĴ åºı
çĿ£ å¯Ł
è¯ģ å®ŀ
çļĦ åľ°åĮº
ä¸Ģ æĸ¹
åľĭ æ³°
èģ Ĥ
æĸ¯ å·´
éĽĨ æĪĲ
è®¸ åı¯
éĻ£ çĩŁ
r ad
ä»ĸ ä¸İ
é«ĺ æ¸ħ
æľª è¢«
æĶľ å¸¶
à ¤
é«ĺ éĲµ
ç¦ı å²¡
ä¸¾ è¡ĮçļĦ
é¼ĵ åĬ±
ä»Ĭå¤© çļĦ
ç£· éħ¸
âĢĿ âĢľ
é£ ½
æ°´ æīĭ
åį¡ è¥¿
äºº é«Ķ
å¤§ è»į
åł Ģ
ç¨® åŃĲ
äº§ çī©
æķħ æĦı
æ¸ħçľŁ å¯º
åľ° çįĦ
ä¸į å¤ª
è¥¿ åįĹéĥ¨
å¤ļ çĤº
éĢĻ åł´
é©¬ ä¸ģ
ç´ ³
èĭ į
ä½į åĪĹ
éĽ» èį·
è¯Ń åĴĮ
èĲ¬ ç¾İåħĥ
ãģ Ĩ
ä»£è¡¨ çļĦ
éļĶ å¹´
ç»ĺ çĶ»
èĤ¯å°¼ è¿ª
æľ±åħĥ çĴĭ
ä¸Ģ éĸĭå§ĭ
æķ ·
é¢¨ æĻ¯
am il
ä¸ĸçºª æľ«
å¾·éĩĮ å¸Į
ograp hy
" ï¼Į
' '
è¥¿ è²¢
æīĢ å±ŀ
è¿Ļ åº§
éĢ² å£«
ç®Ĺ æĺ¯
å© ´
4 000
åĴĮ å°ı
ä¹ĭ ç¨±
æĸ° ä¸Ģ
ä½Ĩ ä¹Łæľī
éķ· èĢģ
åŀ Ĵ
ï¼ī ãĢį
æŃ¦ åĬŁ
é¡ŀ åĪ¥
åľĸ æ¡Ī
åģļ çļĦ
ä»£ çĽ®
éģİ æĸ¼
åĵģ çļĦ
çİ° åľº
ĠA m
èĢģ äºº
åīĬ å¼±
é¦Ļæ¸¯ çī¹åĪ¥è¡ĮæĶ¿åįĢ
è° ¥
è¨Ńè¨Ī å¸«
ay s
ï¼Īï¼Į ï¼ī
æłª å¼ı
Ġ Q
ä¸Ģ å®ļçļĦ
å¤§ å¸Ī
æıĲ æ¡Ī
é¦¬ å¾·éĩĮ
ç¸½ åı¸ä»¤
ç¸½ ç¶ĵçĲĨ
å¼· åĮĸ
æ·± æ°´
æ¸¯ åı°
åĤ Ģ
åīĩ çĶ±
ĠF l
ä¸ĭè¾ĸ çļĦä¸Ģä¸ª
éĢ²æŃ¥ é»¨
Ġ 2008
å¹´ åĿĩ
å¾· çĪ¾
ãĥ ī
æ®µ çļĦ
åį« è§Ĩ
æ¦Ĥ è¦ģ
åĤ· äº¡
du ction
3 20
Ġ 2001
ä¸Ń å°ĩ
åĴĮ è§£
éĥ¨ åĴĮ
åı¯ ä¾Ľ
åħ¨ ç¾İ
11 1
èªŀ æĸĩ
æ´¾ äºº
ç¢º å¯¦
k i
é³¥ é¡ŀ
äºº éĢł
æķ ķ
å¢ ©
åįĬ è¡°
å¼ł å®¶
å¥ĸ ç«ł
é»İ æĺİ
çıĬ çĳļ
çºĸ ç¶Ń
Ġ æĪĸ
å®Ĺ å®¤
ol ution
åī¯ éĥ¨éķ¿
ç¹ģ å¿Ļ
éĽ»åŃĲ éģĬæĪ²
é¦ ³
æ³ķ èªŀ
é«ĺ äºİ
ç¥ ĩ
åıĳ éŁ³
è¯Ń ä¸Ń
è¯Ń ç³»
ĠS oci
èħ İ
æķ ²
æĹ¥ çħ§
åł´ åĲĪ
çīĩ å°¾
æ²Ļ çī¹
ä½ł çļĦ
å¿½ çķ¥
å±ıæĿ± ç¸£
å¤§ åİ¦
æĸĩ éĽĨ
èĥ ¤
åı° å¹£
åł´ æĻ¯
å®ĺ åĥļ
å¼· åº¦
æĹĭ å¾ĭ
188 4
å¹´ ç¾İåľĭ
å¤§ æ³ķå®ĺ
ä»ĸ çĤº
æĸ¯ èĴĤ
åĮĹ è§Ĵ
å¢ ®
èĭ± çļĩ
ç¶ĵ è²»
æł¡ æĸ¹
en e
æ²³ éģĵ
å®ĺ åħµ
åħ© æ¢Ŀ
å»£ ç¾©
åĬĩ ä¸Ń
æ²Ļ çļĩ
ç»Ĩ èıĮ
æĻ¶ çīĩ
æĮĳ æĪĺ
Y ou
çļĦ æĸĩç«ł
æĪ Į
åľĭ ç±į
å¤ļ æł·
æķ´ æķ°
å°Ī æ¡Ī
æĿĳ æ°ĳ
çĪŃ å¥ª
åįĥ çĵ¦
os e
ç¿° æŀĹ
æģĲ é¾į
ä¸ī åįĥ
æĭī å§Ĩ
å·´ æĭ¿
æĶ¾ å¤§
ãģ į
èĽ Ļ
æĽ¹ éŃı
åıĳçİ° çļĦ
åĭĩ å£«
æµģè¡Į éŁ³æ¨Ĥ
è½ŁçĤ¸ æ©Ł
åĲį èŃ½
æ°´ åŁŁ
åİ¿çº§ å¸Ĥ
å·¥ æľĥ
æİ¥ åı£
å² ±
è¨Ģ è®º
ç½ĳ çĲĥ
çĥı æĸ¯
æ¯ķä¸ļ äºİ
çĶŁ æ¯į
çī© ä»¶
äºĭ åıĺ
æ¥ ĵ
çĽ´ éļ¶
çľŁ ç©º
ä¾Ĩèĩª æĸ¼
ç±Į åĤĻ
åĺīç¾© ç¸£
Ġ le
äºĨ è®¸å¤ļ
å¤ļ ä½į
èĭ ·
æµ· åħ³
åħĭ éĽ·
å¥³ å£«
åħī èŃľ
çĻ½ éĩĳ
èªį å®ļ
å®£ èªĵ
è¿ĺ åľ¨
ir st
è¿ĳå¹´ ä¾Ĩ
çļĦ åŁºç¤İ
åĪ¶ æľį
å±ķ çı¾
æĶ¶ å½ķ
æĦŁ åıĹ
è½ī è®Ĭ
op s
ãĢģ -{
ä¸Ģ æľŁ
èĩª å¾ŀ
åĦ ¡
æĢ» å±Ģ
åįĩ ä¸º
åĸľ æĦĽ
ç¹ģ èį£
çļĦ ç¶ĵæ¿Ł
çļĦ åħ§å®¹
ä¸Ń åįĹ
ä¹ĭ äºº
è¿Ļ æĹ¶
ä¿Ŀ åį«
æ²³ çķĶ
ç®¡ éģĵ
å¹´ä»£ ä¸ŃæľŁ
æĺ¾ èĳĹ
Ġ im
çļĦ æ©Ł
åĭķ åĵ¡
18 80
æİ¥ çĿĢ
æĽ´ å¤§
ä¸Ńå¤® åĨĽå§Ķ
æĶ» ä¸ĭ
è³ĩæĸĻ åº«
ä¾į éĥİ
ä¸Ń å¤§
ä¸Ģ æīĢ
æĺ¯ çĤºäºĨ
å¢ŀ å¼º
ç»ĵ è®º
å¡« è©ŀ
b e
å¹´ å®Įå·¥
çµ±æ²» èĢħ
è©¹ å§Ĩ
ä¸īè§Ĵ æ´²
åĤĢ åĦ¡
å¤§ çģ«
èĬ ľ
çĸ ¼
éĢģ å¾Ģ
å°ļ æľī
å½ķ éŁ³
æĽ ľ
åŃĲ åĴĮ
ç¾İ äºº
æ® ²
æ²³ è¥¿
è¯Ń éŁ³
éĿ©åĳ½ è»į
åĲİæĿ¥ çļĦ
é«ĺ æ½®
æ£ º
æ¸¸ è¡Į
ä¸ĵ ç§ĳ
èł »
å¥ł åŁº
N ET
æĺ¯ åħ¶
åĨ ¤
çĽ¸ è¼ĥ
åĤ³ åħ¥
ik e
éĤ® æĶ¿
3 30
â Ĺ
Ġ é¦Ļæ¸¯
ä¸Ĭ å°Ĩ
ç¬ ł
ä»ĸ æĸ¼
åŃĲ å½Ī
åĳ½ é¢ĺ
èĲ¬ å¼µ
æļ´ åĭķ
ä¹ł ä¿Ĺ
2 20
çļĦ æ¯Ķ
åį §
ä¸į çŁ¥éģĵ
æ¨ ¸
åĬł éĩĮ
éĽ» è·¯
æ· ŀ
ç±³ åħ°
å¤« çļĦ
ç»´ åħĭ
æľ¨ æĿĲ
æ°£ æĹĭ
åŁĥ å¾·
èľ ¥
æĸ¯çī¹ æĭī
O pen
o le
p ort
å¹´ åıĬ
èĩª ç§°
åįģ äºĶå¹´
ä»¥åıĬ åħ¶ä»ĸ
éĻ¤ éĿŀ
ç¾¤ é«Ķ
ä½Ľ ç½Ĺ
çļĦä¸» é¡Į
æĹłçº¿ çĶµ
C on
åĴĮ æĶ¿æ²»
ä¸į åĲĪ
å±ķ è§Ī
è¿ĳ å¹³
åıĤ è®®éĻ¢
åĿĩ çĤº
ä¿®æŃ£ æ¡Ī
N et
ä»ĸ åıĪ
ä¸ĸ å®Ĺ
ĠM od
è¨İ ä¼Ĳ
éĦīæ°ĳ ä»£è¡¨
3 60
S ch
äººæ°ĳ åĩºçīĪç¤¾
çª ¦
ç¶Ń å¥ĩ
é¬ §
çļĨ æľī
ç¾ ²
åĮº åĴĮ
æ¯Ķ ä¸Ĭ
æĸĩåĮĸ ä¸Ńå¿ĥ
åĬĩ åľĺ
æİĴ æĶ¾
èģļ èĲ½
é«ĺ å±¤
ä¸ŃåĽ½ åĽ½å®¶
çĪ¶ åŃĲ
å¹¿æĴŃ çĶµåı°
æľī æ©Ł
éĿ¢ ä¸´
åŃĹ å½¢
åħ« ä¸ĸ
è©² åľĭ
å¼· çļĦ
éĿ©åĳ½ åĨĽ
çĿ¡ çľł
é»ĳé¾Ļæ±Ł çľģ
ä»ĸ å°į
æ¨ Ł
éĤ ¯
åļ ĩ
ich ael
åħ¬ å¢ĵ
ç½ µ
èµ· é£Ľ
çİ° ä»Ĭ
ç¼ ¸
åľĺ çµĲ
æĳ Ķ
åºĨ ç¥Ŀ
éĪ´ æľ¨
çļĦ æ©Łæľĥ
èĢ ¿
æľĢ å°ĳ
æŃ£å¼ı çļĦ
ç½ĳ é¡µ
åĽŃ æŀĹ
è¾½å®ģ çľģ
çļĦ ä¾ĭåŃĲ
éĩ ľ
ä»¥ æĿ±
ä»ĸ å¯¹
æľĥ èĢĥ
ç¦ ±
éĢĻ æĻĤ
äºļ ç¾İ
æıı ç¹ª
ç¿» æĸ°
éļľ ç¢į
åįĬè¡° æľŁ
æĺ¯ ä¸ĸçķĮ
æĹ¥ éĽ¶
äºĨ å¯¹
ä¸ĭ å±ŀ
å°ģ éĿ¢
Ġb e
æĺ¯ ä»İ
çľ ·
å§ĭ äºİ
ar m
éĢł èĪ¹
éĢ£ åĲĮ
è¶³ åĪ©
æŁĲ ç§į
æ°§åĮĸ çī©
ç¨ĭåº¦ çļĦ
y th
ä¸Ģ çīĩ
éĹ ¢
æĸ° æĺŁ
æĮĩ è´£
å®Į ç¾İ
åĽ¾ æ¡Ī
èĶ Ĺ
ç½ª è¡Į
æķĮ äºº
é£Ľè¡Į åĵ¡
Ġ æĿİ
é«ĺ è¾¾
éĽ» æ°£
æķĹ çµ¦
çĲ ħ
å¤© ä½ĵ
12 9
ãĥ Ĩ
è¿Ľ ç¨ĭ
ç¾ħ å¾·
éĤĬ ç·£
äºº ç§°
éĻ¤ å¤ĸ
åħµ åĻ¨
åĭĿ åĩº
åĨĻ äºĨ
æŁĲ ä¸ª
çļĦçī¹ æ®Ĭ
éĦĤ åľĸ
æľĥ ä¸Ĭ
èī ®
åħĭ ç½Ĺ
éģİ åº¦
çİĩ è»į
èģĸ åħ¬æľĥ
ç° ¿
å°ģ ä¸º
é´ī çīĩ
ä¸Ń èĭ±
æ² ģ
æĬ Ľ
ç¯ ¡
èĮ ¹
ĠS te
çĬ §
ç´¢ å¼ķ
F ran
w eb
ä¸Ń ç¾İ
æ¼Ķ è®²
å² ĳ
æĤ ĸ
ç¢³ éħ¸
æĹ¥ çĻ¼è¡Į
è¥¿ ä¼¯
åı¯ä»¥ ä½¿çĶ¨
æ°ĳä¸» éĢ²æŃ¥é»¨
N O
o ch
æĹ¥ æĻļ
åħĭ æĭīåħĭ
æŃ» åİ»
è½¦ éĺŁ
éĺ¿å°Ķ å·´
angu age
âĢ ¢
ä»ĸ è®¤ä¸º
ä¸ī åįģå¹´
éĢĻ è£¡
èİ ĸ
åįļ è¦½
æľīä¸Ģ å®ļ
æŁ¯ åįĹ
èĹī æŃ¤
ç´§ æĢ¥
IV E
å¹´ åı°çģ£
å¿ §
å³¶ çļĦ
R D
äº¤ çĶ±
å¸Į çĪ¾
å¥ĸ èİ·å¾ĹèĢħ
æħ¢ æħ¢
çĢı è¦½
åħ¬ ç´Ħ
æ³ķ è¥¿æĸ¯
äºĮ çŃī
éĩĳ æľĿ
äº¦ è¢«
å¸ĿåĽ½ çļĦ
åģľè»Ĭ åł´
æ°´ éĩı
é¦¬ åħ¶
å®ŀ åĬĽ
ä¼Ĭ èĹ¤
åĳĬ çŁ¥
æĪ°çĪŃ ä¸Ń
ĠK ong
å¹´åľ¨ ä½į
åİļ çļĦ
æĳ§ æ¯ģ
ä¸ª ä½ĵ
åĽ¢ ç»ĵ
ä»ħ æ¬¡äºİ
ç«ĭ åľº
äºĮ äºĮåħ«
é¦ĸ éłĺ
ic ode
å·¥ç¨ĭ åŃ¦éĻ¢
F or
å»º å®ī
çĻ¾ ä¸ĩ
æīĵ éĢł
åħ±åĴĮ åħļ
è¿ĲåĬ¨ çļĦ
åı¦ä¸Ģ ç¨®
éģ¸èĪī ä¸Ń
æķ°æį® åºĵ
éĻķè¥¿ çľģ
D r
å±± ç¸£
åħŃ åĽĽ
èĻķ æ±º
éĶ ħ
æ°¸ å®ī
è¾¹ ç¼ĺ
ç¿Ĵ ä¿Ĺ
æ¨¹ æŀĹ
æ´ĽæĿī çŁ¶
åī Ŀ
éĽ» ä¿¡
ä»£è¡¨ éļĬ
å¯Į æľī
é£¯ åºĹ
å®īæĿ± å°¼
æĻ ĥ
æ¬ ĸ
æľĢ å¿«
åı² ç§°
æķ¸ åĢĭ
ç®¡ å¼¦
ç¼ Ķ
æ¯ı æľĪ
}- ãĢį
åľĸ çīĩ
äºĮåįģ å¹´
æ¯Ģ æ»ħ
çº· çº·
ä¸Ģ éĿ¢
ä¸Ģ æµģ
ä¸º åŁºç¡Ģ
ç¶ ¿
å±± æ°´
çĻ¼çĶŁ åľ¨
æĹĭ è½¬
æ£Ģ æµĭ
G C
çļĦ æľĢå¤§
è¡Į åĪĹ
èĪĩ æĹ¥æľ¬
æīĢ ä½¿çĶ¨çļĦ
æĤ ¨
çļĦ å®ļç¾©
åħĥ ä»£
åľŁ æĺŁ
æĿĢ å®³
å¾·éĩĮ åħĭ
ä¸į è©³
å¾Į æĸ¼
åı¯ æĥľ
ä¸ª åĽ½å®¶
èĤ ¤
æİ¥ å¾ħ
èŃ¯ åĲį
ĠPh il
ãĢĭ ï¼ļâĢľ
æľĥ è¨Ī
ç¦ İ
æĪ° ä¸Ń
æ¨¡ ç³Ĭ
è¹ Ħ
Ġ Ã
çķ ´
åıĹ æ¬¢è¿İ
at ure
èĥĮ åıĽ
åĦª åħĪ
çİĦ å®Ĺ
åŃ ľ
æĺİ åł±
ãĤ ¨
éĽ£ æ°ĳ
äºĨ è¨±å¤ļ
æĻĤ æľĥ
çķ¶ çĦ¶
ar g
çĽ´ å¾Ħ
èĻŁ çĤº
å¯¦ è³ª
äº¦ æľĥ
è£ħ çĶ²
188 7
C A
çļĦ å¥½
èĪ ¶
å§ĭ ç»Ī
æĪĸèĢħ æĺ¯
æľĿé®® åįĬå³¶
åįĹæĬķ ç¸£
åľ¨ æŁĲäºĽ
ä¸į åıĺ
ç´Ģ åħĥ
æ¦ ķ
èĶ ĵ
è¦ı æł¼
ç£ ļ
è£¡ éĿ¢
äººå¤§ ä»£è¡¨
D E
Ġ )
åħ¬åı¸ åľ¨
åĬ© æīĭ
çĽŁ åıĭ
æĪĲç«ĭ äºİ
èĩªçĶ± çļĦ
åĲ¸ è¡Ģ
k a
æ² Ĥ
ãĢį ï¼īï¼Į
æķĻ æ´¾
å·´ åĵĪ
å¾Ī é«ĺ
of f
ç²¾ ç¡®
ä¸ľåįĹ äºļ
æīĢè¬Ĥ çļĦ
çĬ§ çī²
çļĦ æ¯įè¦ª
ä»ĸ ä»¥
åĪĨ è¾¨
å®ī æıĲ
é© ³
æĪ° äºĭ
èĢģ èĻİ
çµĤ çµĲ
gl ish
åħ¶ ä¸º
å°ı åŃ©
éĢĻ åħ©åĢĭ
èģ¯ ç¶²
åıĥ è§Ģ
æĪ¿ åŃĲ
éļı åį³
å¯¼èĩ´ äºĨ
è·¯ ä¸Ĭ
æŃ¦ è¡ĵ
æĶ¹éĿ© å¼ĢæĶ¾
M Hz
æĻ ı
çº ł
èĪĩ å¤§
ç§ĳ åŃ¸éĻ¢
çİ°åľ¨ çļĦ
ä¸Ń æ¯Ĵ
an e
ä¿Ŀ èĤ²
åı³ æ´¾
åī§ æĥħ
éĩĩ è®¿
æŁı æĭī
åħ ĩ
æ¸ ´
âĢľ âĢĿ
ç¹ ¹
æķ´ æķ¸
ãģ ı
åįł æ¯Ķ
éª¨ éª
æľĪä¸Ń æĹ¬
ä¸īéĥ¨ æĽ²
å¤§ æ¦Ĥ
åľ° è¡¨
æĿ± æĻī
å¥½ èĢħ
éĨ« åŃ¸éĻ¢
at ive
è§£ åīĸ
æĵļ èªª
ä¸Ģ é»ŀ
æĺ¯ å¤§
å¡ ¾
ç¥ĸ æ¯į
åĲĮæĻĤ ä¹Łæĺ¯
ä¸Ń éĢĶ
æĸ° åŀĭ
é«ĺ åĬłç´¢
éķ· å´İ
al s
æĶ» åħĭ
çĽŁ è»į
ĠO S
å¸Ŀåľĭ çļĦ
å¤ªå¹³ å¤©
é¥® é£Ł
é¦¬åħ¶ éłĵ
è¡Į æ¥Ń
æŀ ¯
ãģ ¦
æ³ Ĺ
åĪĨ çµĦ
æĽ² çĽ®
ä¸¤ èĢħ
ç¸£ å¸Ĥ
èĩ´ ä½¿
æĶ» åĭ¢
ç¥ĸ ç±į
å¾® çĶŁçī©
è®Ģ æĽ¸
åĲĽå£«åĿ¦ ä¸ģåł¡
éĩĮ äºŀ
æ°´ æ³¥
æľº åĬ¨
å¤§åŃ¸ æķĻæİĪ
ç¥Ń åı¸
1 200
ï¼Į ï¼īï¼Į
åĴ ¨
æĶ¿ å§Ķ
è¿Ļ åľº
äº¦ åľ¨
å¤± åĪ©
çļ® èĨļ
åĢ« çĲĨ
çļĦåĲį ç§°
å®īå¾· çĥĪ
t r
è¯ ±
ä»ĸ æīĢ
å±ķ åĩº
éĻĲ å®ļ
ĠN o
OV A
ç¬¬ä¸Ģæ¬¡ä¸ĸçķĮå¤§ æĪĺ
äºĮæ°§åĮĸ ç¢³
æĹ¥ éĸĭå§ĭ
ä¸į äºĨ
æĦ ¤
æĦĽ åľĭ
æŃĲ éĻ½
åıĳå±ķ çļĦ
æ·· åĩĿ
ç®Ģ åĮĸ
ä¼½åĪ© çķ¥
E l
t d
çķ ħ
åįĹ å¼Ģ
èĭ± æ³ķ
éĢĻ ä¹Łæĺ¯
éľ Ħ
éłĺ åħĪ
éĤĦ è¦ģ
å¯« æĪĲ
æ¦® çį²
åıĳè¡¨ äºĨ
ç¢° æĴŀ
B e
çİĭ å®ī
æĶ¹ çµĦ
éĢ² è»į
èĢĥ çĶŁ
æ¿ ¾
çĶ¢ éĩı
çį² åĭĿ
ï¼Īï¼ī ï¼ļ
åļ´éĩį çļĦ
å¤ļ é¡¹
éĩĳ çļĦ
ç¥ŀ æĪ¶
æ°ı æĹı
å°ģ éİĸ
èĭ±åľĭ çļĦ
æİ¡ è¨ª
å°ıèªª å®¶
æĮĩæı® å®ĺ
æĦıåĳ³ èĳĹ
çī¹ èĺŃ
äºĭ è®Ĭ
åİŁ æĿ¥
èħ «
éĨ Ľ
é»Ħ èī²
ï¼ī ï¼į
12 5
åĨį çĶŁ
ç£ģ åł´
æ¯ĶèµĽ ä¸Ń
aur us
h a
è² ¸
æĮĩ æķ°
éº Ĵ
ĠS e
èĻķ çļĦ
åįļå£« åŃ¦ä½į
èªī ä¸º
å¨ģå°Ķ å£«
ä¸Ģ ä¹Ŀ
èªŀ ç³»
ç§ģ æľī
å¼ķèµ· çļĦ
çļĦ æŃĮæĽ²
åĪ ĥ
ä¹ĭ å¤Ħ
æĵ Ĵ
çĽ¸ å°įæĸ¼
åĲī æĢĿ
ç¼ĸ è¯ĳ
çİī å±±
=" #
è©© æŃĮ
ç½Ĺé©¬ å°¼äºļ
æ·® åįĹ
ä¸» åĬ¨
åįģ åĽĽå¹´
æ°´ æºĸ
åı² è¨ĺ
å®³ æĢķ
çīĽ é¡¿
æĬµ åĪ¶
çļĦ åĴĮ
å¤§ éĥ½
ä¸ĸ ä¿Ĺ
æľŁ å¾ĴåĪĳ
åĢĭ åĪ¥
éģĶ çĪ¾
éģĬ æ¨Ĥ
çİī ç±³
èĪªç©ºæ¯į èī¦
ä¸Ģ èĻŁ
æİ Ģ
æľ¬ ä½ľ
ĠA ir
å°Ħ ç·ļ
è¼ĥ å¤§
24 0
ç¡Ŀ éħ¸
b ert
çļĦ éķ·
çļĦ å®ĹæķĻ
ä¸Ģ éłħ
åĴ ª
åŃ¦ å£«
èĪĩ æŃ¤
éĩĳ æĸ¯
åĤ³ éģŀ
å·Ŀ ç¸£
o ad
çļĦ åħ©
æĸ° èĪĪ
å¸Ŀ çİĭ
çĵ¦ è§£
éĽ² åįĹ
ell a
ä¸īåľĭ å¿Ĺ
ãģ Ĥ
åįĥ éĩĮ
åĨ³ çŃĸ
èĩªè¡Į è»Ĭ
ä¸Ģ ç¾¤
éĺ¿ åħĭ
æ¥Ń èĢħ
å© ¿
æĺ¯ä¸Ģ åº§
å¿« æ¨Ĥ
è½¬ åĲĳ
æĹ¶ä»£ çļĦ
åĴĮ æĹ¥æľ¬
å¤ļ ä¸º
æ£ ±
çµĲ è«ĸ
çĸ ĩ
ĠP er
çģ« è»Ĭ
æĦŁ è§ī
æ··åĩĿ åľŁ
åĮĹ æĸĹ
ä»» èģĮ
ĠR ep
å»¶ ç»Ń
è¡° éĢĢ
ik i
é« ĵ
æŃ¤ èĪī
10 7
åĲĦ éłħ
éļı æľº
èİ± èĮµ
éļ ķ
è¶³ ç¸½
åĬĥ åĪĨ
åĩºèº« äººçī©
æįĲ æ¬¾
äºļç¾İ å°¼äºļ
x ford
æ±ī æľĿ
çĵ¦ çĪ¾
åĲ« ä¹ī
çĺ ¦
å¶º åįĹ
æµ¸æľĥ å¤§åŃ¸
Ð »
åľ¨ è¿Ļä¸ª
æĺ¯ ç¾İåĽ½
çĶ¨ åĵģ
äº§ éĺ¶çº§
éĢī ä¸º
æĴ¤ åĩº
ç¡® ç«ĭ
æļĹ æ®º
çŁ¿ äº§
æį·åħĭæĸ¯æ´Ľ ä¼Ĳåħĭ
é¦ĸ æŃĮ
èĪª çº¿
åĩºçīĪ äºĨ
éĪ ŀ
çļĦ çĻ½
åħ¨ éķ·
å°ı åĲĥ
å®ī çĲĨ
å¤ª æ¥µ
äºŀ å¤ª
åĤ³ æŁĵ
ç¶Ń ä¹Ł
æĳ© çĪ¾
ä¿ĿçķĻ äºĨ
è¡¥ åħħ
ĠAr ch
æĶ¿ åĬ¡
ä½Ĩ è¢«
éĽ» åĭķ
æĮĩ åĲĳ
ä¸¤ ä½į
æľª çŁ¥
éłĺ äºĭ
ç«ł ç¨ĭ
åįķ åħĥ
éĢĶ å¾Ħ
188 2
çŀ Ń
éĩįåºĨ å¸Ĥ
æĵħ éķ·
) (
çĶ± ä¾Ĩ
ç«Ļ éĸĵ
or a
ĠW h
åģĩ åĲį
M an
W eb
çļĦ ç²¾ç¥ŀ
ä¸» æĴŃ
å¤ĸ ç§ĳ
æĥħ äºº
åľ°æĸ¹ æĶ¿åºľ
æİ¢ è¨İ
åıĳçĶŁ åľ¨
è§ī å¾Ĺ
æĺ¯ åĽłä¸º
æ¬¡ æĹ¥
éļĬ åĵ¡
n d
åĮĹ ç¾İæ´²
é¦ĸ çĪ¾
åĲĦ å¼ı
é¥ ¥
åħ´ èµ·
éĻ¶ çĵ·
æľĢåĲİ ä¸Ģ
form ation
ä¸Ĭ æ¼Ķ
åĩº åħ¥
æ³ķ åħ¸
èı ģ
æį ¨
åıį åħ±
å¤« å¦»
çįİ çīĮ
éĤ£ æł·
æĿĥ çļĦ
B r
è¦ģ ç´ł
æ¼ ²
å¸ĥ åĪĹ
éħ °
ä¸ĸçķĮ åĲĦåľ°
çģ« è½¦ç«Ļ
åįĩ çº§
ä¸ĸç´Ģ æľ«
ä½Ķ åľ°
çºªå¿µ é¦Ĩ
éĦĤåľĸ æĽ¼
éĺ¿å°Ķå·´ å°¼äºļ
G E
æł ĭ
éĢļ åķĨ
æ°´ éģĵ
åı£ çļĦ
çľģ éģĵ
ç¢ Ĺ
ä¸ĸçºª çļĦ
189 3
å¹³æĸ¹ åįĥç±³
E x
äºİ æŃ¤
åĤ ĺ
æ· ª
çµĲ æ¥Ń
æĻ® åĪ©
èļ Ģ
å¡ŀçĪ¾ ç¶Ńäºŀ
ĠColle ge
O H
äºĮ åħĥ
æ¬¡ éĥİ
æĶ¯ ç·ļ
å¸Į å°Ķ
ä»½ åŃĲ
èĽ ®
å®« æ®¿
ä»įçĦ¶ æĺ¯
æ¹ĺ æ½Ń
ast er
ä¼ºæľį åĻ¨
çļ ĵ
å¤ĸ ç·ļ
åħ¨ æĸ°
åħ¨ çº¿
å·¥ èĹĿ
ç¬¬ä¸Ģ åĲį
å¾Ī æľī
ä¼ł åªĴ
éĻĲ æĸ¼
åħ¼ å®¹
Ġ 2009
èĢ Ĩ
æĽ Ŀ
ãĢĮ ãĢįï¼Ī
18 00
æİ¥ ä¸ĭ
æĪĺ åĪĹ
ç¢ ĺ
æŃ¦ æ¼¢
ĠT V
ç²¾ ç¢º
å¾ĹåĪ° çļĦ
çļĦ å½¢è±¡
å¤§ æĸ¼
åŃ¦ åĲį
è¥¿ åĳ¨
æº ¢
å°ĩ æĸ¼
ä¿Ŀ åģ¥
åı¯ä»¥ æĺ¯
éĥ¨åĪĨ çļĦ
è¿ĺ åİŁ
æĽ¼ è°·
ç¬¬ä¸ī ä»£
ĠAl l
ç®Ģåįķ çļĦ
i ro
åĲį ä¹ī
è© ®
ç«Ļ åı°
æĺŁ çŃī
æ¸ħ æĻ°
å®¹ ç´į
éģ· å¾Ģ
çĤ® åı°
çļĦçī¹ æĢ§
çļĦ æ´»åĭķ
çº ı
åīį ä¾Ĩ
é¢ Ĥ
åĤ³ æī¿
äººæ°ĳ çļĦ
le m
åįĩ ä»»
åģĩ éĿ¢
æ¯« çĦ¡
ourn al
U M
çļĦ çīĪæľ¬
ãĢį (
ä¹Ł å°±
åĮĸ åŃ¦å®¶
æĪ° æĻĤ
æİ¥ é§ģ
é¦ĸ æĴŃ
æ´» è·ĥ
æ²Ĵæľī ä»»ä½ķ
189 2
èĻļ æĭŁ
ä¼Ļ ä¼´
åľ¨ åı°
ä¸Ģ æĽ¸
ä¸į èµ·
ä¸Ĭ è¨´
éħ ¿
å¹¿ ä¹ī
åįĥ èĳī
çĳŀ åħĭ
è§Ĥ å¿µ
è©ķ å¯©
é¤ĺ äºº
æķĻç§ĳ æĸĩ
ç½¹ æĤ£
ä¸į è¢«
ä¸ī çľģ
å¤ĸ è§Ģ
åĭķ è©ŀ
12 8
é»ĳ æ´ŀ
åĲĮæĹ¶ ä¹Ł
å®¶æĹı çļĦ
æ³¢å£« é¡¿
7 47
åİ ī
åĩº åİ»
éĺ Ģ
ãĢį ï¼Īï¼ī
æŀĹ ä¸ļ
ç¼ Ģ
è®Ĭ å½¢
éĿĴ è¡£
ĠO ff
æĸĩ äºº
çı¾ æľī
æ£ £
ä¸Ńåľĭ äºº
ä¸¤ å¹´
çį¨ è£ģ
çĭĢ çĹħæ¯Ĵ
ist or
åĶ±çīĩ åħ¬åı¸
åĪĨ åŃĲçļĦ
åĮĸ åĴĮ
å¤© æĸĩåŃ¸
åħ¨ èº«
åħ§ æľī
æŁ¥ å°Ķæĸ¯
A B
çĤº ä½ķ
æĹ¶ æĬ¥
er a
è¿Ļ ä¹Łæĺ¯
ç¸½ éķ·
ä½Ľ ç¾ħ
ur es
éī Ľ
å¼Ĺæĭī åŁº
éĻĿ è¥¿
f or
ä¸ī åĲį
è¦ģ åľ¨
åıĳ æİĺ
åŁĥ å¡ŀ
um b
æŁĲ ç¨®
ç¬¬åĽĽ æ¬¡
ç«¶ æĬĢ
AM D
Ġ 2010
ä¸Ń å¤ĸ
ä¸Ń ä¹¦
å¤§ åľ°éľĩ
éĽ» æ¢¯
éŁ³ éĢŁ
ent s
ĠN ational
ç¶Ńä¹Ł ç´į
ä¹ĭ ä¹ħ
æľĥ ä»¥
æľ¬ çļĦ
å£« æŀĹ
æĿ± èı¯
èħ ķ
å¤ı ä¾¯
ä¿Ĺ ç§°
åĢ ĸ
åĩº å®¶
ä¸» å¯¼
çī¹ é»ŀ
éĩį å¤į
è¿° äºĨ
é©» åľ°
å¯Ħ çĶŁ
è¾ħ åĬ©
æ½ľ èīĩ
æİ¨ æ¸¬
æŃ· å¹´
è¯º æĸ¯
å°¼äºŀ å·ŀ
ä¿ĿåĬł åĪ©äºŀ
çļĦ ç¤¾æľĥ
å¹´ æŃ£å¼ı
è¢« è®¤ä¸º
å¸Ĥ åĨħ
çī© æµģ
åŁİ éĻħ
èĭ± å¯¸
å°¼ è¥¿äºļ
åħ· å¤ĩ
éģĭåĭķ çļĦ
é¡¯ èĳĹ
çļĦæĪĲ ç¸¾
æķĺ åĪ©äºŀ
å¤§ å°ĩè»į
ä¸Ĭ ä¸Ģ
çŃī äººçļĦ
å§ĭ æĸ¼
åĤ³ è¼¸
ä»¥åıĬ åľ¨
åħ« éģĶ
æľį è£ħ
æ¬Ĭ å¨ģ
äºī è®º
æĹº è§Ĵ
å¬° åħĴ
éĩ£ éŃļ
çİĭ ä¸ĸ
èı ¸
åĪ¶ åĵģ
ar b
èĢĥ éĩı
è³ĩ æ·±
èģ² èª¿
èŃĺ åĪ¥
å¹´ åİ»ä¸ĸ
æĿ± æ¶Į
éģĭ æ²³
è¬ İ
æ½® æµģ
æº¶ è§£
éĸ©åįĹ èªŀ
ä¸İæŃ¤ åĲĮæĹ¶
ä»£ ç¢¼
é«ĺ éºĹ
å§ĭ ç¥ĸ
ãģ ķ
åĢ¼ çļĦ
è´¹ çĶ¨
é¢Ħ æµĭ
è¾Ľäº¥ éĿ©åĳ½
çļĦ å¥³æĢ§
èĢĮ æĿ¥
åħ¶ä»ĸ äºº
æĸĩåĮĸ åĴĮ
ãĤ °
å°İ é«Ķ
å°Ī æ¬Ħ
è¾¯ è«ĸ
é«ĺ ä¸½
ä½Ĩ åĽłçĤº
çķĮ éĿ¢
äººæ°ĳ å¹£
çĹħ çļĦ
è¾ĥ å¤§çļĦ
æ·· ä¹±
ich ard
æĮĸ æİĺ
è³ĩæľ¬ ä¸»ç¾©
y r
Ġ æľĪ
åĴĮ åħ¶
å¤ļ å¾·
åįĹ å±±
å±± å³°
äº¤ äºĴ
ç½Ĺ å¾·
çĳ ¶
åıĪ ç¨±çĤº
ä»£è¡¨ å¤§æľĥ
è¯¥ å¸Ĥ
æ³¨ éŁ³
W h
çļĦ è®¾è®¡
ä¹ ĵ
æĹ¥ åħĥ
ä¸ī çŃī
åĮĸ çĤº
åħ± æĮ¯
å®ī æīĵ
çĶ¢ çī©
ä¼¤ äº¡
ä¸Ģ æĻĤ
å¤§ æ´ĭ
ĠM on
å¥¹ æĺ¯
è®¤ åı¯
åĽ¾ çīĩ
æİĮ ç®¡
ne y
ç©ºä¸Ń å·´å£«
å¡ŀå°Ķ ç»´äºļ
éĥ½ ä»¥
åĽĽ åĳ¨
å¾Ī å®¹æĺĵ
æĹł äºº
å¯« çļĦ
é¥ Ĵ
ç«ĭæ³ķ å±Ģ
äºº ä½ĵ
ä¸į æĺĵ
åĩº æĿ¥çļĦ
èĢħ çĤº
èĭ± ä¹Ŀ
ä¸»è¦ģ ä»¥
le ct
å¤Ħ çļĦ
A pp
æµ ĳ
åĬł çĪ¾
ĠA g
å¯Į è£ķ
éĢļè¿ĩ äºĨ
ä¼į å¾·
ç±»ä¼¼ äºİ
å¸ĸ æľ¨
æµ ļ
è¾ Ī
å¦ Ħ
çĽ¸ åĤ³
éĢĻ åħ©
èģ¯ æľĥ
çħ ©
è´¨ çĸĳ
è¿Ľè¡Į çļĦ
éłĲ è¨Ģ
éģ© çĶ¨æĸ¼
éļ¶ å±ŀäºİ
æ³¨æĦı çļĦæĺ¯
å¹½ é»ĺ
åľ¨ æŃĲæ´²
åĬ ¾
ç¾ħ ä¼¯çī¹
çĵ £
åĺ ²
è§Ħ å¾ĭ
å±Ĥ çļĦ
iz e
åľ¨ åľ°
å¤§ æĪĺ
åħ¬ å¯ĵ
å¾Ĺ å¤ļ
çı¾ çĤº
å°± è¯»
åıĥ èŃ°éĻ¢
æĢ» è£ģ
çº§ åĪ«
ç»´ å¤ļ
æĳ© æ´Ľ
è¶³çĲĥ ä¿±ä¹Ĳéĥ¨
åĳ³ éģĵ
å¤ĸäº¤ å®ĺ
å¹´ æĸ¼
ä»¥ ä¸ľ
èĩª åı¤
åıį æĶ»
æĶ¯ éĥ¨
åĩĨ ç¡®
å®ģ å¤ı
å£ĺ æīĵ
çĪ Ľ
ãĥ Ĭ
è½ī åŀĭ
æĹĹ å¸ľ
ç¸½çµ± åºľ
äºº éĸĵ
çī º
çĽ ª
å£ ©
å¤© æīį
17 0
ç¬¬äºĮ åĢĭ
ĠL ife
è£ ¹
çĽ¸ æ©Ł
åĨĽ åľ¨
æ©Ł æ§į
å¹¶ è¢«
èĢĥ åħ¥
è®¾ åľ¨
çµĦç¹Ķ çļĦ
U P
ä¸Ń åı¤
è¥ ª
æıĲ åıĸ
æīĺ æ´Ľ
è¶³çĲĥ èģ¯è³½
åĪĨå¸ĥ äºİ
åĬłåĭĴ æ¯Ķ
S L
æĸ ©
æ³ķ èĢģ
å·¥ é»¨
é©¬ åħ¶
é©¬ èĲ¨
åĵĪ å¯Ĩ
ç§» éĻ¤
åŁĥ çĪ¾
ä¼ģ åĽ¾
åĮ» èį¯
ĠIn stit
èĳ¬ æĸ¼
à ¼
æĺ¯ ç¾İåľĭ
å®ĺ èĩ³
å®ĺ è©±
æ³¢ å¸Į
æ¶Ī çģŃ
æĻ®éĢļ è¯Ŀ
åĮ £
æĸĩ æ³ķ
åħ¶ æīĢ
æ±Ł æ¹ĸ
ä½ĵ ç§¯
çĶµ ç«Ļ
æ¯Ķè³½ ä¸Ń
å®ļä¹ī ä¸º
ĠEn g
amb ridge
O T
åĴĮ æ°´
æĶ¿ åı¸
åŃ¸ æ´¾
éĺ İ
ç±» çļĦ
åĲī éļĨ
çĪŃ è«ĸ
å¥ĸ å¾Ĺä¸»
è®² è¯Ŀ
ï¼ħ ï¼Į
è«¸èĳĽ äº®
ä¸Ń å£¢
åľ¨ å®¶
ä¾ Ĺ
ä¸ĭ åı°
æº ī
ä¿Ħ äº¥
åŃ¸çĶŁ æľĥ
ãĢı ï¼Į
æĩ· åŃķ
æĭĵ å±ķ
ire ct
åĲ Ł
ä¸Ģ å¾ĭ
è¢« æ®º
æķĻ å®¤
åĲİ ä¸ĸ
åĬł å¯Ĩ
èĤ ¿
å¼Ģå§ĭ äºĨ
ä¿Ħäº¥ ä¿Ħ
7 37
k g
Ġ z
åħ Ģ
åŃ¸ èªª
he d
éĢĢ ä½į
éģ© çķ¶
å¹´ è¡¨
æĪ° ç¸¾
èĦ ¸
çľĭ åĩº
éĩİ æĪĺ
çŁŃ æļĤ
è·Ŀ ä»Ĭ
ç¡® ä¿Ŀ
æģĲ æĩ¼
çļĦç¬¬ä¸Ģ ä¸ª
åŃ¸ åľĴ
é¢ ĸ
éĩį çµĦ
å¤§åŃ¦ æł¡åıĭ
æĿĳ èĲ½
èİ· åıĸ
éĢ²è¡Į çļĦ
çªģ æĵĬ
é©¬åħ¶ é¡¿
2 30
c ess
äºº åĲį
åĪĨ å±Ģ
é¦¬ ä¸ģ
è£ģ å®ļ
é©ħ åĭķ
ä¹ĭ æĺŁ
ä»ĸ ä¸º
éĩį è¤ĩ
æĬĹ æĪ°
åĦª æĥł
è¯Ħ ä¸º
éĺ¿æĭī æĸ¯
è¿ĳå¹´ æĿ¥
ict ion
Ġ 1999
æ° ¦
èĪ Ĩ
æĪĲ åĲīæĢĿ
éĹ ĸ
åīį éĢ²
è£ Ļ
å¹³ å£¤
é¦ĸ é¢Ĩ
åĵģ ç¨®
æĶ¯ åĩº
æĿ¡ ä¾ĭ
ç«ŀ éĢī
çĲĨäºĭ ä¼ļ
æ£ī èĬ±
éļķ çŁ³
åľ¨ èĭ±åĽ½
äºº æ°£
æ² ¸
ç¥ ļ
æĶ¹ éĢ²
è¿İ æİ¥
éĺ Ĳ
äºĮ æľŁ
åĮº éĹ´
åĽŀ åºĶ
ç¯Ģ æĹ¥
æ¹¿ åľ°
L L
æľī è®¸å¤ļ
æľ¬ çīĩ
åıĳ éĢģ
éģİ æ¸¡
åĽŀ å½Ĵ
åħµ åľĺ
ä¹¦ åĨĻ
ç»´ çī¹
ä¹ĭåĲİ çļĦ
ĠSoci ety
çļĦ åĨħå®¹
ä½ ¬
æľĪ ä¸ĭæĹ¬
æĶ¹ æĪĲ
ĠA b
ĠB r
èŃ¦ åĵ¡
æľī åĽĽ
åľĭ ä¸Ń
åĵ ©
âĢĿ ï¼īãĢĤ
è¿Ļ ä¸¤ä¸ª
çı¾ åŃĺ
æĦı åľĸ
æµģ ç¨ĭ
åĻ ¬
å¡ŀ çĲī
å¼º å¤§çļĦ
æĳ© å¤©
çļĦçī¹ èī²
å¤©æĸĩ åŃ¦å®¶
ä¹Ĵ ä¹ĵ
åıĬ é¦Ļæ¸¯
é«ĺ æ£ī
åŃĹ åħ¸
æĽ¸ æ³ķ
ç¸£ éķ·
éĦī æĿĳ
çĦ¶èĢĮ åľ¨
å®ĩ æĸĩ
ä¼ģæ¥Ń å®¶
çļĦ éĸĭ
ä¿ ¾
åħ¥ åľį
éħ ī
å¹¶ ä¸İ
ç¾¤ çļĦ
ä½İ åľ°
çĶ² åŁº
è¶³çĲĥ è³½
å¤ľ éĸĵ
æ±Ĺ åĽ½
é¯ Ĭ
èĪŀåı° åĬĩ
r ary
å¹´ åĬłåħ¥
åľ° äºļ
èĪĩ ä¸Ńåľĭ
ä»İ æľª
çª Ŀ
åĳĪ çİ°
åĲ¯ çĶ¨
è¶¨ åĭ¢
æĺĶ æĹ¥
éª¨éª ¼
çļĦ è¡ĮæĶ¿
çļĦ çĽ®çļĦ
å° §
æĸ¯ åľ¨
åĬł å°Ķ
åĬł å¿«
éķ¿ å¾ģ
åĥ µ
èĸ °
åħħ æ»¡
æ¥ļ åĽ½
æĭĽ æĶ¶
å½¼å¾Ĺ åł¡
èĦĬ æ¤İ
E V
t a
åĮ ¾
ä½į åľ¨
åĬ¨ æľº
åĬ¨ æĢģ
çİĩ çļĦ
ĠD r
å¤´ è¡Ķ
æ¶µ èĵĭ
ç´ Ĺ
åı° æĿ±
åĵĪ èĲ¨åħĭ
éŁ³æ¨Ĥ å®¶
iv er
åĲ¦ èªį
æİ¢ éļª
åħħ è¶³
åŁ¹ è®Ń
é¡į å¤ĸ
ä¸Ń ä½¿çĶ¨
åŃĲ å¼Ł
18 48
éŁ³ èĬĤ
11 5
æĿİ å®Ĺ
çħ İ
è½ī éģĭ
è²¡ å¯Į
188 6
çļĦé«ĺ åº¦
Ġ/ *
ä¼Ł å¤§çļĦ
åľ¨éĤ£ éĩĮ
Ġ 1998
çļĦ è¡Įä¸º
ä¹ĭ éģĵ
å¤ļ èĬ¬
èĪĩ ç¾İåľĭ
ä¼ļ è¢«
æ°´ æĻ¶
æ±ī åı£
å¡ŀ æĭľ
ä¸ĵ åĪ©
åĲ ģ
ä¹ĭ ç¥ŀ
å§ĭ å»ºäºİ
æ¨Ļ é¡Į
çĶ² éª¨
èł Ł
åī© ä½Ļ
å°± æŃ¤
is ion
æ§ Ł
è¼ĥ å¤ļ
é¢ĺ æĿĲ
ç¤¾æľĥ çļĦ
çĽ İ
æµ Ĩ
éĥ¨ ä»¶
æĸ¯ å¾·
æĸ° åı°å¹£
ä¹Ł ç§°
ç¥ ¸
ä¼ł éĢĴ
æī¿ åıĹ
å®® å´İ
å¿ĥçĲĨ åŃ¸
tern et
æł½ åŁ¹
åľ¨ çº¿
å¾Į æĸ¹
è¥¿ éĸĢ
éĤ ¢
æ£ ĺ
çļĦä¸Ģ åĪĩ
æŀ¶ æŀĦ
éĳ Ĵ
é©± åĬ¨
. ï¼ī
< /
w ork
æľĥ ç¤¾
ç¶ ¾
å·¥ ä¼ļ
èĻ Ķ
æĺİ æľ«
æ¯Ķ èµ·
åıĥ çľĭ
åįĬ å¾ĳ
ĠL ive
æĳ© æĵ¦
çłģ å¤´
æ³¨æĦı åĪ°
ãĢīãĢģ ãĢĪ
H D
åľ¨ åħ¨çĲĥ
è® ½
åİ ¢
ä¹ĭ å½¹
éĩĳ åĪļ
è¿Ľ åĪ¶
åħ« å¤§
ĠM c
èĪ¬ çļĦ
çº³ å¾·
æĭħ å¿ĥ
æĵ´ åħħ
Ġcl ass
èĭ± éİĬ
ä¿¡ å¿ĥ
åħ° å·ŀ
åĬĩ éĻ¢
éĽĦ æĢ§
èı² å°Ķå¾·
r ich
ä¸į ä¸Ģå®ļ
çĲĥ åľº
18 67
å¤ª åı¤
æĹł éĻĲ
om as
28 0
é¢Ħ ç®Ĺ
èĪīè¾¦ çļĦ
æ©ŁåĻ¨ äºº
æīĢéľĢ çļĦ
Ġ ÃĹ
çļĦ å¦»åŃĲ
ä¸Ĭ åı°
æĽ¸ å±Ģ
ĠL ove
åģľ æĴŃ
åĽº å®ļçļĦ
ç§ĳåŃ¦ ä¸İ
w idth
çļĦ åı¤
æĥ ¹
åĿ ł
æĵļ é»ŀ
å¢ĵ åľ°
æĦ¿ æĦı
æ¿ĥ åº¦
ä¸Ģ ä¸Ń
åħĭ çĪ¾
æĺİ å°¼
ä¿Ŀ å®ļ
å®Į é¡ı
éĢ£ ä¸²
è§Ģ çľĭ
åįķ ä¸Ģ
han n
æľĢå¾Į çļĦ
éĢĥ å¾Ģ
èĭ± å±¬
çĶµ ä¿¡
çĪµ ä½į
èľ ĺ
åĬłåĪ©ç¦ı å°¼äºļ
éĽ²æŀĹ ç¸£
æĳ©æ´Ľ åĵ¥
N T
v en
Ġ ï¼į
æĹ¥ çĶ±
èŃ ´
èĲ ĥ
çĽ¸ æľº
åİŁ æĸĩ
åĤ į
åħĪ éĢ²
æ´¾ åħµ
æ¿Ģ åħī
åĽ½åĬ¡éĻ¢ æī¹åĩĨ
ç©© å®ļçļĦ
åĲĪå¹¶ ä¸º
o id
äºĨ åħ¶
in n
éľ Ĩ
è£½ çīĩ
åī¯ ä¹¦è®°
èĳ¡èĲĦ éħĴ
ç±»ä¼¼ çļĦ
ä½ľæ¥Ń ç³»çµ±
çļĦ åŃ¦çĶŁ
åľ¨ æĹ¥
åĨĽ äºº
ãĥ ł
å¤« å¦ĩ
ĠM at
æīį æľĥ
os h
ter s
å¤§ äºİ
å°ı å·´
åīµ æĦı
ä¼ĳ éĸĴ
çĶ¢çĶŁ äºĨ
æĻ®éĢļ è©±
æĿ¥èĩª äºİ
P P
çļĦ M
çļĦ èĩªçĦ¶
ä¸Ģ åı·
åħ¨ éĽĨ
åķ Ĭ
çł Į
ä¸¦ æľī
åĲĦ çº§
ãĥ ĸ
ĠM usic
å¼· å¤§
å¥ī å¤©
åı±åĴ¤ æ¨Ĥå£ĩ
A b
ä¸į æķµ
å±± æľ¬
éľ ¹
æµģ æĺŁ
å¨ Ħ
éĹľ èģ¯
ãĢī ï¼ĮãĢĬ
éĻ° éĻ½
è´§ çī©
é¡ŀä¼¼ çļĦ
å® ł
åľ¨ åħ¶ä»ĸ
å¥³ æĢ§çļĦ
al es
äºĶ åįĥ
16 00
ä¼ł åħ¥
ä»£è¡¨ åĽ¢
æ¶Ī åĮĸ
èĭ¥ æľĽ
ç«¥ å¹´
ä½Ķ æĵļ
ä¸¦ä¸Ķ åľ¨
u a
å¹´ ä»¥åīį
åľ¨ åħ§çļĦ
å¤§ åĮº
ä¸į çĽ¸
çĶŁ æĦı
æīĢ çĶŁ
è·¯ çĶ±
è·¯ ç«Ļ
æĮĩ è²¬
æ¸ħ åĪĿ
çĶµ æ±ł
ç´ļ çļĦ
æģ© æĸ¯
å®ĮæĪĲ çļĦ
èİī äºŀ
éĻ° è¬Ģ
å¯Ĵ åĨ·
l a
åħ¬ æ¼Ķ
åĪĨ éĸĭ
åı£ å¾ĳ
æł¼ å±Ģ
éģ¸ æ°ĳ
çŃĸ åĬĥ
éłĲ éĺ²
æ¬£ è³ŀ
ä¿Ŀå®Ī é»¨
æĶ¹åĪ¶ çĤº
C ol
åĩº æĸ¼
in ese
æīĭ æľº
éĴ Ļ
ä½Ĳ èĹ¤
çĤ® åħµ
çĦ¡ç·ļ éĽ»
æĹıèĩªæ²» åİ¿
çľ¾èŃ°éĻ¢ èŃ°åĵ¡
z e
ï¼Ī âĢľ
åįĹ éŁĵ
å±± ä¸ĭ
åı² åīį
éĺ¿ åŁº
æĽ¾ çĤº
å¯¦ é«Ķ
ä½įäºİ ä¸ŃåĽ½
æİĮ æİ§
ç¬¬ä¸ĥ æ¬¡
ĠAr t
ãĢį ãĢĮ
æµ· åı£
ä¸Ńåľĭ äººæ°ĳ
åıĥèĢĥ ä¾ĨæºĲ
çīĽ èĤī
å°º åº¦
åĲīæŀĹ çľģ
åĴĮ ç¤¾ä¼ļ
åľĭ åħ±
èĩª è´¡
çĽ® çļĦåľ°
å®Ĺ æĹ¨
åª Ľ
è¯¸ å¤ļ
çĶµåŃĲ æ¸¸æĪı
å®ļç¾© çĤº
è³¦ äºĪ
èª ħ
å·² æķħ
æħ Į
çĻ¾ äºº
å®¹ åĻ¨
çĩŁ é¤Ĭ
å»¶ éķ¿
é¢ĳ ç¹ģ
å¢ĥåĨħ çļĦ
åıĭå¥½ åŁİå¸Ĥ
å¤¥ ä¼´
çļĦ éľĢæ±Ĥ
ä» Ĩ
ç» ĳ
æĺİ çıł
ç¥ŀ å®Ĺ
çĻ¾ æµİ
å°ģ éĸī
éłĲ åĤĻ
é£İæĻ¯ åĲįèĥľ
èľĺ èĽĽ
m o
åĮĹ æ¥µ
ä¸ī ç§į
çĲĨ åŃ¦
åĭķ å·¥
è« ľ
æ³¢ å¾·
è«ĸ è¿°
éª ¸
å°Ħ æīĭ
æĿĥ å¨ģ
ç§Ł åĢŁ
çļĦ ç´ĢéĮĦ
ä¸Ń æĸ¹
æĺ¯ ä½įæĸ¼
ä¹ĭ å¿ĥ
å¾Į åĽł
å¤© æ©ĭ
æ°´ éĿ¢
å·´ å¸ĥ
è¿Ľ åı£
çłĶ åĪ¶
åħŃ åĢĭ
ç¦ı åħĭ
è´Łè´£ äºº
åĸª å¤±
å®īä¸ľ å°¼
c k
çĤº æľŁ
åįĹ ç¾İæ´²
è´ ¬
é¦Ļæ¸¯ äºº
è£½ çļĦ
èµĦ åĬ©
å§Ķåĳĺ éķ¿
éĴ¢ éĵģ
m all
18 64
çĿ ¦
ä¸Ńå¤® çĶµè§Ĩåı°
çļĦä¸Ģ éĥ¨ä»½
è¦ĭ åĪ°
è¡Ľ è¦ĸ
åĨľ åľº
æ»ĳ åĨ°
çģĮ æºī
T w
å¹´ é¦ĸæ¬¡
ç¾ ŀ
ä¹ĭ çİĭ
èģ ª
åĲĮ çĤº
çĽ¸ éĤ»
æŃ£ æķĻ
æĪĺ èĥľ
èĬĤ æĹ¥
ad io
eb ook
åľ¨ åĨħ
åĴĮ é«ĺ
åģ ķ
ä»ĸä»¬ åľ¨
189 1
ill a
ç¤ºå¨ģ èĢħ
) )
ä¹ĭ ç§°
æ¸¯ åįĢ
æ¸¯ åºľ
æ°´ åº«
å±Ģ å±Ģéķ·
ä»ħ æľī
çĽ¸ä¼¼ çļĦ
æĭĺ æįķ
æĪĲåĲīæĢĿ æ±Ĺ
N e
åį ¯
ä¸į ç®¡
ãĢĭ ï¼ļãĢĮ
æĬ ¨
é£ ¼
å±ħ æĸ¼
éĲ ¸
el s
çļĦäºº å£«
éį Ĭ
è¯» èĢħ
å¥ª åıĸ
æ±Ĺ åľĭ
å»¶ä¼¸ èĩ³
å¹ Ł
æ² §
å¤ĸ æĺŁ
18 78
å¼Ģ å°ģ
çĽ´ éĢļ
èı¯ åĥĳ
åĪ¤ æĸŃ
ç»§ ä»»
çĻ¼çĶŁ çļĦ
188 1
æĤ£ æľī
èŃ½ çĤº
C M
å· ³
æĸ¯ éłĵ
èĢĮ ä¸Ĭ
çī¹ äº§
åİŁ èĳĹ
èĭ± ç¾İ
ä¾Ŀ æ¬¡
om ic
ç¼ĸ åĪ¶
æĳ© å°Ķ
åĪ¶åº¦ çļĦ
åįļçī© éĻ¢
åĲīéļĨ åĿ¡
å¤§ åŁİå¸Ĥ
ç¬ Ļ
èĩª æĹĭ
éĽĨ çµĲ
åį¡ æ´Ľæĸ¯
é©¬ åĵĪ
åħĪ çŁ¥
æĶ¶ è´¹
è¯Ħ ä¼°
æĥ¡ åĮĸ
ä¿Ŀå®Ī æ´¾
N o
ä¸» åĬŀ
ç¾İ å¼ı
éĩĮ æĺĤ
æ¼Ķ è®Ĭ
ä¸ľ äºļ
å¤ª å¤ļ
åħī åŃ¦
æ°ı çļĦ
ä¸ģ çĽ®
åī§ æľ¬
å®ĹæķĻ ä¿¡ä»°
äº® çļĦ
éĽĨåĽ¢ åĨĽ
ï¼ħ ãĢĤ
åīĳ æ¡¥
åıĻ åĪ©äºļ
å¤§æ²³ åĬĩ
e an
ä¸ī æ°ĳ
æīĢ ä½ľ
ç® ķ
æİ¥ æīĭ
å·´ å°¼äºŀ
åıĪ ä»¥
æĸ°ç«¹ ç¸£
æľīç·ļ éĽ»è¦ĸ
åħ§æĶ¿ éĥ¨
% ãĢģ
O W
åĴĮ ä¸Ģ
åĴĮ éĺ¿
åľĭ èģ¯
çĶŁ ä¸ĭ
æĸ¹ éĴĪ
å¤© æ°Ķ
å·¥ éĥ¨
åĽŀ åľĭ
çĳ ¾
èªª è©±
æłĩ è®°
éĪ Ķ
çŀ »
187 4
è¢ģä¸ĸ åĩ¯
çļĦ ä»£
å» ĵ
è¢« è§Ĩä¸º
ä¸ĭ è¼ī
éĸĭ éĢļ
éĢ² é§Ĳ
åľº æĻ¯
çģ« è½¦
è¯º å¤«
è¯» ä¹¦
å¹´ ä»¥ä¾Ĩ
åľ¨ æµ·
äºº æľī
å°į ä»ĸ
çķ¶ åĪĿ
æķ° åįģ
çĴ §
èĩºçģ£ éĲµè·¯
æĺ¯ä¸Ģ éĥ¨
æª Ĳ
å¤ªéĻ½ ç³»
BS D
ä¸» çļĦ
çĻ ¸
ä¸ī éĥİ
ç· Ŀ
å®ī å¹³
æŃ£ å¦Ĥ
é£² æĸĻ
r ay
å¹´ åħ¥
æĥ ©
åĬĽ åĴĮ
18 62
åĽĽ éĿ¢
ç·ļ æĢ§
æ´ĭ åŁº
çĶ² çµĦ
åľ°çĲĥ çļĦ
å¹¹ éĥ¨
æ½Ľ èīĩ
æĳĩ æ»ļ
éĻ ĩ
en a
å½ĵ åīį
ä¿® è®¢
ä¾ĭå¦Ĥ åľ¨
å¼º çļĦ
ç§¦ æľĿ
çĶļèĩ³ æĺ¯
å§Ķåĵ¡æľĥ å§Ķåĵ¡
è¬Ģ æ®º
æĲ¬ åĪ°
å¹´å»ºç«ĭçļĦ æķĻèĤ²æ©Łæ§ĭ
s ite
18 75
éŁ³ çļĦ
è¿ĩ çļĦ
çµĲ çĽŁ
Ġc omp
Ġs p
o ul
o ot
u th
æĪĲ ä»½
ä¸Ĭ éĻ£
æ´ ½
éĹ µ
éĥ½ æ²Ĵæľī
åıĳ èĤ²
åı¦ä¸Ģ ç§į
èĵĿ èī²
é¦ ¨
æ³ķ åŃ¦
è¥¿ æ¯Ķ
æĮ Ŀ
è¢« ä¿ĺ
æŃ£ çµ±
äº¦ åį³
ä¿® è¡Į
å¼º åº¦
æ¸© å·ŀ
åĩºçİ° çļĦ
ç·´ ç¿Ĵ
èĩ³ä»Ĭ ä»į
æĢª çį¸
187 6
ç½ķ è¦ĭ
çļĦå¥³ åĦ¿
å®ĩèĪª åĳĺ
æµı è§Ī
Ã ¨
è¥¿ åįĢ
18 61
æŃ£ å¥½
æ» ¬
ç¬¬ä¸Ģ å±Ĭ
é¤ ĵ
çĶŁçī© åŃ¸
uc k
Un icode
å¸ĥæĭī æł¼
å¤ļ å°Ķ
åħ¨ æĹ¥
æĺİ çĻ½
is p
åħ« è·¯åĨĽ
çº³ ç±³
åİĨåı² æĸĩåĮĸ
è¾Ń åİ»
éºµ åĮħ
çļĦ æĢ»
çļĦ åĦ¿åŃĲ
æĺ¯ ä¸ª
çī© è³ĩ
ç· »
18 50
éĺ¿ åįľ
ãĢĭï¼Ī ï¼īï¼Į
æ°¸ è¿ľ
èĳ£äºĭ éķ¿
å· ĸ
ä¸į åĲ«
åĪ° åºķ
åħ¨ å®¶
ç¦ º
åĲĳ ä¸ľ
åĲĦ å·ŀ
ä¸¤ æĿ¡
å°Ī ç§ĳ
ç§¦ åĽ½
ç´° ç¯Ģ
è®¾è®¡ çļĦ
é«ĺéĢŁ éĵģè·¯
ord er
çļĦéĩįè¦ģ æĢ§
å° ĺ
éĸ ı
åħ¨ åĬĽ
æĥ §
ç¸ «
å¸¸ åĭĻ
æīĭ ä¸ĭ
éĢ² åı£
åĲĦ æĸ¹
èĩ´ åĳ½
éĴ »
å·® åĪ¥
çĢ ¾
Ġw idth
éĥĬ åĮº
å¾·å·Ŀ å®¶åº·
èĨ¨ èĥĢ
e i
ä» Ħ
åľ¨ è¿ĻéĩĮ
äºĨ å¤§éĩı
çŁ³ çģ°
åįİ åįĹ
æĶ¶ çĽĬ
éĢ£ éİĸ
æ¸© å¸¦
Ġs h
çĩĥ çĥ§
åĲĮæĢ§ æģĭ
2 11
S E
Î »
åľ¨ åį°åº¦
åľ¨ éĢĻåĢĭ
ç´ ¡
åħ¬ æŃ£
å¤ļ å¤«
æĺİ å¾·
ä¸ľ åĮĹéĥ¨
é¦¬ èĭ±ä¹Ŀ
ç¯Ģ åº¦ä½¿
è£½ åĵģ
çĻ» è®°
æ¼¢ æĹı
ç¾ħé¦¬ å°¼äºŀ
ĠAn d
ç¶ľèĹĿ ç¯ĢçĽ®
u ff
åľ¨ ä¸ī
ä¸į é¡ĺ
è·¯ çļĦ
éħ ļ
al a
åīĩ æľĥ
æĶ» ä½Ķ
ĠG l
ä¸´ åºĬ
éłĴ å¸ĥ
æ»ĳ éĽª
èŃ¦å¯Ł å±Ģ
hy s
å¯» æ±Ĥ
æĶ¶è¦ĸ çİĩ
åľ¨ æĶ¿æ²»
åĪĨ çļĦ
çī¹ èī²çļĦ
é«Ķ é©Ĺ
å®¹ è¨±
å¿ħ éľĢ
éľį å¤«
ä½ĵèĤ² åľº
CP U
ç»´å¤ļ åĪ©äºļ
Ġ 25
Ġ ãĢīãĢĤ
å¹´ å¹¼
èĩ ¥
å°ı åŃ¸æł¡
åĤ Ń
ãĥ Ł
æ´ĭ è¡Į
om b
é¶ ¯
åħ«éģĶ éĢļ
3 80
O D
æĺ¯ éĿŀ
ä¸Ĭ åı¤
è¢« äºº
çī¹ å°Ķ
çĦ Ĭ
æµ· çļĦ
æīĭ æ§į
ãĢįï¼Į ãĢĮ
å¹² éłĲ
çĲĨå·¥ åŃ¦éĻ¢
èĭĹæłĹ ç¸£
åħ¬åĭĻ åĵ¡
æĸĩ æĽ¸
éĹ ¡
å°į ç«ĭ
å¸¸ æķ¸
äºī åıĸ
å¾® åįļ
è±Ĳ çĶ°
åŁ¹ è¨ĵ
äººé¡ŀ çļĦ
åĨ² åĩ»
äºº ä¹Ł
éĩĮ å¸Į
ä¹ī åĬ¡
åħ¶ä¸Ń ä»¥
åħ¸ ç¤¼
æĪ´ ç»´
å½© èĻ¹
è¿· ä½ł
åľĵ å½¢
ç¬¬ä¸ĥ æ¬¡åħ¨åĽ½äººåı£æĻ®æŁ¥
åĩºèº« çļĦ
çļĦåŁºç¡Ģ ä¸Ĭ
å¤© èĬ±
åħŃ çĶ²
çģ« çĦ°
åħ¸ ç±į
ç¿Į æĹ¥
arl es
èĻĲ å¾ħ
å¹´ çĲĥåŃ£
ä¸ŃåĽ½ åĽ½æ°ĳåħļ
äººæ°ĳ æ³ķéĻ¢
å© ·
å°ģ éĶģ
ell o
åŁºç¡Ģ ä¸Ĭ
æ± ¾
é© Ł
é¦ĸ ä¸ª
æ¿ Ĵ
æĬĬ ä»ĸ
ul ar
çīº çī²
ï¼Į -{
åĩº èī²
å®¶ åºĦ
æĸĩ æĨĳ
åīį éĭĴ
18 68
å³ ¨
çĻ½ è©±
åªĴ ä»ĭ
ä¸Ń ä¿¡
äºº æł¼
å¾Į æīį
ç¸½ åħ±
åĪĩ å°Ķ
åģĩ å¦Ĥ
éļİ å±¤
éģ· ç§»
" ãĢĤ
åľ¨ çļĦ
ä¸į åĪĨ
è¥¿ è¥¿éĩĮ
æĸ° ä»»
æķĻ å°İ
éĩĳ æĺŁ
ç«Ļ èĩ³
æ¯ı å¹´çļĦ
å®¢ ä¸²
ä¸ĩ å¹³æĸ¹ç±³
ä¹Ĳ åĻ¨
èŃ· çħ§
æĻĤéĸĵ çļĦ
C T
P R
æ³ķ è¦ı
æŀ ķ
åĲĮ æľĪ
çİĭ æĿİ
åŃ£ ç¯Ģ
éĨ ĭ
äºĭä»¶ ä¸Ń
åĬī éĤ¦
çĤºä¸» çļĦ
I O
ä¸» ç·¨
ç¸½ æĺ¯
æ»Ļ è±Ĳ
è¡ ŀ
æĶ¿ åįĶ
åĮĹ åįĢ
æĬĬ å®ĥ
27 0
èķ ´
å¤º å¾Ĺ
IN G
åĴĮ æĸĩåĮĸ
æĿ¥ çľĭ
éĴ §
è¾² åł´
äººæ°ĳæĶ¿åºľ é§Ĳ
æ´¾åĩº æīĢ
éĺ¿åįľ æĿľ
g er
å¹´ è«¾è²ĿçĪ¾
ä½ľ äºĨ
æľĢ å¥½
ç¥ŀ å¥Ī
ãĥ ĩ
æĽ´ é«ĺçļĦ
åı°çģ£ äºº
ãģ ¡
ä¾Ŀ æ³ķ
ç´¢ çĵ¦
æĴ¤ åĽŀ
åĪĳ æ³ķ
è´§ è¿Ĳ
å¾· åĭĴ
æ°´ æºĲ
å¼ķ è¿Ľ
åı· çļĦ
æį® è¯´
æĭīä¸ģ åŃĹæ¯į
éĩĳåĥı çįİ
F A
å¹´ ä»¥æĿ¥
å£ Ł
åĮĸ åŃ¸å®¶
æ¸ħ åĨĽ
èĮĥ çķ´
éĻµ å¢ĵ
åĲĮæĹ¶ ä¹Łæĺ¯
çģŃ ç»Ŀ
è¶ĭ åĬ¿
æ¸¯å³¶ ç¶«
ç¥ŀåľ£ ç½Ĺé©¬å¸ĿåĽ½
ï¼ī ãĢĬ
è´ ª
éģĵ åħ·
èĻ ¾
å®ī åĢį
ä¸¦ è¢«
è¿Ļ æ®µ
ĠC ar
æĩī ä»ĺ
è¾ĥ ä½İ
Ġp l
åĲĪä½ľ çļĦ
èµĦæľ¬ ä¸»ä¹ī
âĺ Ĩ
åľ¨ ä¸ĢåĢĭ
ï¼ļ ï¼īï¼Į
æ²» éĢļ
æĹ¥æľ¬ éĽ»è¦ĸåı°
çļĩ å¤ªåŃĲ
æŁ¥ çĪ¾æĸ¯
è½ī æĴŃ
éłĲ æľŁ
æķĺ è¿°
èµĦäº§ éĺ¶çº§
çļĦ è¯´æ³ķ
å¹´ æľŁéĸĵ
è¡Į æľ¬
åįĹ åįĢ
çĶµ ç£ģ
çīĩ ä¸Ń
å¤Ħ åĨ³
éĴ ¾
ä¾¿ æľĥ
å¸¶ ä¾ĨçļĦ
é§ Ĵ
æĸ¹åĲĳ çļĦ
åıĸä»£ äºĨ
ä¸Ģ ä¸Ģ
æĶ Ķ
éļ į
èª ¦
æ¶ ¨
æķ° åĢ¼
æļ ®
æİ¢ éĻ©
ç½Ĺæĸ¯ ç¦ı
å±Ĭåħ¨åĽ½ æĶ¿åįı
ç³§ é£Ł
æĲº å¸¦
çļĦ èĬ±
ä¸Ģ å¤§
åĪĨ åĮº
åŃĲ éĽĨ
è´ Ľ
è¿Ļ ç±»
åĽĽ åĨĽ
å¸ĥ çĪ¾
ç¸½ ç½²
çŀ Ħ
æĹ¥ æľĪ
è·¯ å¾ĳ
æĺİ å¸Ŀ
çİ° ä¸º
è¿ĺ åĮħæĭ¬
éłŃ çļĦ
åī¯ æĢ»çĲĨ
ur al
å²Ľ ä¸Ĭ
çĹĩ çĬ¶
æĹ¥å¸¸ çĶŁæ´»
æ°´åĪ© é£İæĻ¯åĮº
K O
| }
è¢« çĻ¼çı¾
ãģ Ĭ
è¯Ńè¨Ģ çļĦ
ubl ic
ç¾İè¡ĵ é¤¨
èĨ¨ èĦ¹
Ð ²
ç¶ ½
è© Ĳ
åı° èªŀ
å°¼ åŁº
æīĵ éĸĭ
re en
èģĮ è´£
çº¢ æĹĹ
è¶³çĲĥ éļĬ
çļĦåľ° çĲĨ
æ³½ æ°ĳ
çĲī çĴĥ
å¤§ æķĹ
ç« Ĭ
éĸ »
æĸ° ä¸ĸçķĮ
çŃī ä»·
æĢ» æĺ¯
ç¶Ń åŁºçĻ¾ç§ĳ
èĩªå·± æĺ¯
ac ebook
ur ch
éłĲ å®ļ
éļĶ ç¦»
è£ľ çµ¦
ä¸Ģ è§Ĵ
åĴĮ åĮĹ
çī© èµĦ
éĺŁ çļĦ
æĪ² éĻ¢
è²ł æĵĶ
ç»ĦæĪĲ éĥ¨åĪĨ
åįģåŃĹ åĨĽ
éĩ Ĳ
æ³ķ å¸«
åīį éĿ¢
æĺŁ åľĺ
è¿Ĳ ä½ľ
è®Ĭ æĽ´
ä¼¯ æĭī
çį¨ çī¹çļĦ
èĲ¥ åħ»
ĠO xford
ç¼º å°ĳ
Î ¼
å¹´ çĤº
ä¸Ń éĥ½
å¤§ å°ĩ
åĮ Ģ
æŃ¤ é¡ŀ
åĽĽ æĸ¹
è»Ĭ å»ł
æ¸ħ éĻ¤
èĻķ éķ·
è´¢ å¯Į
çļĦ åħĥç´ł
æĶ ¤
äºĨ åľ¨
åľ° äºŀ
åħī å¾©
ĠA c
äººåı£ å¯Ĩåº¦
çº¦ æľī
èİİ å£«
æĲľ å°ĭ
åİŁ å®ļ
æĪ° æŃ»
åķĨ åľĪ
å®Ĺ çļĦ
åĬŀ åŃ¦
å®ľèĺŃ ç¸£
å¤§ æķĻåłĤ
åħ¬ ä½¿
åħ¨ å£ĺæīĵ
èĻ §
çĲĥ è¡£
çģ« çĤ®
æ¼¢ æľĿ
åı¦ä¸Ģ ä½į
éģĹ è¿¹
ç¾ħæĸ¯ ç¦ı
è¬Ľ è¿°
æĭīä¸ģ æĸĩ
åıĹå®³ èĢħ
g ram
å¤ĸ åĤ³
å¸ĥ èĺŃ
å°ĩ åľ¨
åŃĺ æ´»
|| |
ç¤¾ä¼ļ ç§ĳåŃ¦
åģī å¤§çļĦ
åį ¤
ä»£ ä¹ĭ
åīį æĸ¹
è´ ¼
åŁİ éĸĢ
å¯¹ è¯Ŀ
æĶ¹ ä»¥
çĽ´ è½Ħå¸Ĥ
ãĥ ¥
æĶ¾ æĺł
èĢģ é¼ł
èĢģ æĮĿ
çĻ¼å±ķ åĩº
è´¢ ç»ı
ç´§ å¼ł
çĪª åĵĩ
ä¸Ń æĿ±
è¡ Ĩ
åĪĨ åĮĸ
æĭī å°Ķ
åıª å¾Ĺ
äº¦ æĽ¾
åİŁæľ¬ çļĦ
å¸¸ä½ı äººåı£ä¸º
m y
ãĢĤ âĢ¦âĢ¦
ä»¥ ä¸Ģ
ç« ĩ
éĹ Ĩ
äºļ çĥŃå¸¦
æĢ» åı¸ä»¤
çĶ· çĪµ
å¹² æĵ¾
çīĽ å¥¶
æıı ç»ĺ
éģº è·¡
188 3
èģ½ åĪ°
éķľ å¤´
æĸ §
ç» ³
æĪĲ ä¸Ģ
åĿ ŀ
åı² è®°
æķ° ä¸º
æĥħ ç»ª
çĳ Ľ
ä¸ĩ åİĨ
å¤± æľĽ
äºĨä¸Ģ ç³»åĪĹ
æķ¦ çħĮ
åĹ ľ
æīĢåľ¨ çļĦ
åºĶçĶ¨ ç¨ĭåºı
è¨ĺèĢħ æľĥ
èĬ±èĵ® ç¸£
18 65
ç¼ Ŀ
éħĴ åĲ§
æ°ĳæĹı ä¸»ä¹ī
æĢĿæĥ³ å®¶
187 9
å¼ĹéĩĮ å¾·éĩĮå¸Į
æľĿæĹ¥ éĽ»è¦ĸåı°
å¡ŀçĲī åı¤
åĩº åł´
æľ¬ ç·ļ
ä½¿ ä¹ĭ
ãĥ Ĺ
çĦ¡ éĹľ
çĪ± æĥħ
æŁĲ åĢĭ
187 3
ç·Ĭ å¼µ
ç°¡åĸ® çļĦ
u z
çļĦ æķĪæŀľ
åľ¨ å¤©
åı¯ åĪĨä¸º
é«ĺ éŁ³
çı¾ éĩĳ
è»Ĭ æīĭ
åħ« åį¦
è¯¥ åĽ½
æ¨Ļ è¨ĺ
åĨ¬ å¤©
åľ°çĲĥ ä¸Ĭ
çİ°ä»£ åĮĸ
ĠCh ina
å£½ åĳ½
æĹ¢ æľī
H P
i et
çĶŁ åŃĲ
åŃ¸ åĲį
æķĻ ç»ĥ
åħĭ çī¹
å¯¹ æĸ¹
12 3
æĴŃ åĩºçļĦ
è©² åħ¬åı¸
ĠH ar
éĦī éİ®
çŃĨ è¨ĺ
çģ° èī²
ä¸¥éĩį çļĦ
è³ł åĦŁ
o int
å¤§ åŃĹ
åĮ Ļ
âĢ ķ
ç´ ®
at ic
is ch
åį° åľ°
Ġv ol
éłĺå°İ çļĦ
åľĨ å½¢
æ·±åľ³ å¸Ĥ
çĮľ æĥ³
è¥¿ æ¼¢
ä¸ĸ ç¥ĸ
æľĢ åı¤èĢģçļĦ
è¿Ļ é¡¹
ç¾İåĽ½ åĽ½å®¶
éģĬ è¨ĺ
ç¤¾æľĥ ç§ĳåŃ¸
å±ĭ èĭĳ
ä¹Į é²ģ
å²ģ åıĬ
æŃ¸ é¡ŀ
åįĹäº¬ å¸Ĥ
è²¨ éģĭ
çļĦçī¹ çĤ¹
éļ¸ å±¬æĸ¼
éŃģ åĮĹ
éĽĮ æĢ§
èŃ´ è²¬
o unt
éģĵ å£«
å½± éĽĨ
é¦ĸ éĥ¨
æ¥Ń é¤ĺ
åĤ³ ä½ĽæķĻ
ç»´ å¸Į
éĻ½ æĺİ
um e
è¼ī å®¢
ç©¿ è¿ĩ
éĽ ¾
åĩº ä¸Ģ
æĬ Ĵ
è´ ĸ
å°¼ å¾·
æĹ¥æľ¬ å¥³æĢ§
æĪĳ æĺ¯
æĵĬ éĢĢ
äºī å¤º
å¼º åĪ¶
çĭ¬ çī¹çļĦ
æ¶² ä½ĵ
åĭĥ èī®
åĥ§ äºº
è¿Ŀ åıį
éĢ Ĺ
æĹ¥ åĴĮ
ä¹ĭ éĻħ
ä¿ ¯
å¤ļ ä»¥
å®ī å¸Ĥ
åħļ åĨħ
æĺ¥ åŃ£
çĭĢ åħĥ
å¾·åĽ½ çļĦ
å¡ĳ éĢł
çĨ±å¸¶ æ°£æĹĭ
Ġ 30
çļĦ é£Łçī©
ä¸Ģ æĺ¯
å¤ļ å®¶
èĭ ĵ
æĥ³ åĪ°
éĽ»å½± ç¯Ģ
éĥ¡ çİĭ
åľį ç¹ŀ
ou g
çŁ© éĻ£
å£® æĹı
Ġ å°ı
åľ¨ ä¸ŃåĽ½å¤§éĻĨ
åĬ ²
åħ¬ ä¼ļ
èĢĮ åħ¶
ç©º è¥²
æ¯ı ä¸ĢåĢĭ
æŃĲ ç¾İ
èĭ±åĽ½ çļĦ
ç¹ģ æ¦®
æª¢ æ¸¬
é«ĺçŃī æ³ķéĻ¢
I EC
ï¼ļ -{
å§ ¦
éĩĳ é¡į
å°¼ çļĦ
S N
ä¹ĭ å®¶
éļ ¼
æ¼Ķ ç¹¹
st e
æĥ³ åĥı
ä¾¿ å®ľ
è§Ĩ è§ī
åĲĽ çİĭ
å®® å»·
ç§ĭ åŃ£
æĭĽ åĭŁ
ç«ŀ èµĽ
çļĦ å®ĺæĸ¹
å¾· å·ŀ
å±± éłĤ
çĽ¸ æĩī
ç§ĳ å¤§åŃ¦
ä¸ľ åįĹéĥ¨
å»£ å³¶
ĠT echn
è®¤ åĲĮ
ac ter
il m
åĵ¥ çī¹
å¶¼ å±±
è²© è³£
éŀį å±±
åĢ ©
åĲĮ æĥħ
é» ľ
ç§ĳ éļĨ
ä¸ŃåĽ½ åı¤ä»£
11 7
å½ĵ å¤©
it er
åĨł çĭĢçĹħæ¯Ĵ
ä¸ĵ åĳĺ
è°ĥ èĬĤ
åľĭæ°ĳ éĿ©åĳ½è»į
èĸ© çĪ¾
éł» ç¹ģ
ç²µ åĬĩ
åŃ¤ ç«ĭ
å¦ Ŀ
ä½¿ äºº
ç§ĳ çļĦ
æł¼ é¬¥
æĶ¯ æŁ±
é¡ŀ åŀĭçļĦ
ro ss
å¤į åĲĪ
um p
è²ł éĿ¢
éºĹ çļĦ
Ġv on
åľ¨ ä¸įåĲĮ
ç¥ Ĥ
åįģ ä¸ĥå¹´
ç´Ħ çĳŁå¤«
è¶ħ äºº
è¯º æĽ¼
ç¦® åĦĢ
æ¦Ĥ è¿°
é£ŀè¡Į åĳĺ
æ±ŁæĪ¶ æĻĤä»£
m in
{ |
æľī åħ¶
ä¹ĭ ä¹±
çŃī æĸ¹éĿ¢
ãĥ Ĳ
æĬķ å½±
ĠT HE
åı³ æīĭ
èĨ Ŀ
æľīæīĢ ä¸įåĲĮ
f r
çļĦ æĢ§
å»º çļĦ
åĮº åĨħ
åĪ¶ çīĩ
åĨĽ éķ¿
æĦı æĮĩ
å¹¶ ä»¥
æĽ´ å¥½
è¯¥ æł¡
çĵ¦ æĭī
çł´ è£Ĥ
éŃĶ è¡ĵ
èŀį åħ¥
ip p
AT P
èĻĽ æĵ¬
b l
å¹´ ä¾Ĩ
æľī å¤§
æ³ķ è§Ħ
ä½¿ åĳ½
åĪ¶ è£ģ
å°± ä¸ļ
æ» ¯
å¯Ĩ éĽĨ
åĬ© æĶ»
èĲ¨ æĭī
éŃ¯ æĸ¯
éĢĶ å¾ĳ
éĩįçĤ¹ å®ŀéªĮå®¤
çİĭå®ī çŁ³
B L
çļĦ ä¸ĭ
çļĦ éģİç¨ĭ
å¼ ¯
å¿ĥ èĦı
å¼Ģ è¾Ł
è¡Ĺ éłŃ
çº³ åħ¥
ad d
çĽ®åīį çļĦ
æ¸¡ è¼ª
Ġw eb
äºº æ¬¡
æĸĩ åº«
æĦ ģ
çĽ¸ çŃī
æ¾ Ģ
å¼µ åľĭ
å°Ī åĵ¡
æ¸¸ æĵĬ
æ¯Ĵ æĢ§
çĤºä¸» é¡Į
è¢« æĮĩ
ç³ Ł
éĻ¢ éĻ¢å£«
åįĢ èŃ°åĵ¡
åľĭæ°ĳ å¤§æľĥ
è³ĩæĸĻ ä¾ĨæºĲ
æıı åĨĻ
åįĹäº¬ å¤§åŃ¦
å·¥ä¸ļ å¤§åŃ¦
çĽĥ åĨłè»į
ĠCh rist
çĲĨå·¥ å¤§åŃ¦
åįłæĢ»äººåı£ æ¯Ķä¾ĭ
è«· åĪº
åĵ ¨
åį³ å°Ĩ
ä¸¤ å¤§
ä¼Ĭ æ¯Ķ
éĸĭå§ĭ åľ¨
èģ¯åĲĪ æľĥ
çĽ¸å¯¹ è®º
å¹´ èİ·
åľ¨ ä»»
æĸ° è¥¿åħ°
çĪ¾ éłĵ
è° ´
ç´Ħ åħĭ
ä¼ł è®°
å¯« éģĵ
äºĴ èģ¯ç¶²
èĩªè¡Į è½¦
GB T
æµĵ åº¦
éĮĦå½± å¸¶
H I
çļĦ åĤ³çµ±
ä»£ ç®¡
èŃ ¬
ä¸ľ æĻĭ
æĻ® ç½Ĺ
ĠM ag
è®Ĭ éģ·
éĺŁ éķ¿
æī¿ è¯º
åı²ä¸Ĭ æľĢ
ä¸į å®ī
æ´ ©
èĩ³ åħĥ
å¼ı æľĪåı°
éĽĨ æľĥ
èĮ ľ
è´¢ åĬ¡
çķ¢æ¥Ń æĸ¼
M y
ï¼Ī ãĢĮ
åĨ »
çĲ µ
ä¹ĭ é¦ĸ
çŁ ½
at s
åĤ³ æķĻå£«
åľŁ èĳĹ
çħ ¥
çİĩ åħµ
åĶĲ å±±
è¼ĥ å¤§çļĦ
as on
çĴ° ç¹ŀ
è¾ĥ é«ĺ
è¼¸åħ¥ æ³ķ
G l
ä¸ī å®¶
er ies
é¦¬ æĸ¯
çŁ³ åĭĴ
ol f
èĢģ åŃĲ
ĠE l
ç¼ĸ åī§
éĢļå¸¸ æľĥ
ä¸ĢçĽ´ åľ¨
èĶ¡ èĭ±æĸĩ
è¯¸ å¡ŀ
å¡ĳ æĸĻ
è±Ĩ èħĲ
äºĳåįĹ çľģ
çĭ® åŃĲ
é©¬åħĭæĢĿ ä¸»ä¹ī
Ġ çĤº
çļĦ æķĻèĤ²
åľ¨ æ¬§æ´²
äºº èªįçĤº
å¹³ åĿ¦
çļĦä¸Ģ ä½į
ãģ Į
å°Ħ åĩ»
}- ãĢģ
ĠD es
å®« å»·
å¿½ å¿ħ
å¸«ç¯Ħ å¤§åŃ¸
18 66
é© °
å®ĺ åĲı
å±Ģ åĭ¢
ĠP e
æīĵ å¼Ģ
å¼· è¿«
éļ¨ ä¹ĭ
æĪ°çĪŃ çļĦ
é³³ å±±
è©¹å§Ĩ å£«
G ame
P ar
çļĦ çĨ±
ä¹ĭ ä¹¡
æľĢ ä¸»è¦ģçļĦ
ä¸ī æĹ¥
å¤© åı°
åĭķ æħĭ
18 40
äº¤ æĪ°
ĠM Hz
å¯¼ ä½ĵ
æıŃ éľ²
å¥ł å®ļäºĨ
çļĦ äºĶ
ä¸Ń åįĪ
æĺ¯ åĶ¯ä¸Ģ
èĢĮ åĩº
è¥¿ å·ŀ
ç¥ ¯
è»Ĭ è·¯
çīĪ æ¬Ĭ
æīĵ åħ¥
ãĤ ¦
æĸ½ åĬł
ä¿ĥ æĪĲ
èĩ´åĬĽ äºİ
ä¸įåĪĹ é¢ł
çĻ¾ç§ĳåħ¨ ä¹¦
Ġ 2012
çļĦ åľĭéļĽ
çļĦ çĶµå½±
çļĦ è¡¨çı¾
æĸĩ çĲĨ
å¥³ çļĩ
11 4
ĠC ambridge
å¾Ī éļ¾
æł¸ éħ¸
èŃ· çĲĨ
è¿½ æĵĬ
æĵį æİ§
ap an
æĭīä¸ģ ç¾İæ´²
å¹´ å®ĮæĪĲ
ä»¥ åħį
å®¶ èĩ£
ç¬¬äºĮ ä½į
ãĤ º
çķĻ åŃ¸
un c
ĠW eb
æľ« ä»£
æŀģ ä¸º
å¹³æĸ¹ åĳİ
èĤĸ åĥı
ä¸Ń æŃ¢
éĿ ¡
ä¸» ç¼ĸ
æĸĩ æŃ¦
è»į èī¦
æº ľ
å½¢ åĬ¿
åħī ç¢Ł
åıª éľĢ
ç´į çĪ¾
ĠW illiam
èµ« é²ģ
å¹¿æ³Ľ çļĦ
è©® éĩĭ
b urg
æľĪ è¢«
11 6
å¼Ģ åĬŀ
åŀ ¦
ç®¡ æ²»
ãģ ĵ
ä½Ľ å¯º
æĨ ¾
èĪ¹ èĪ¶
ç½ª çĬ¯
è¯¸ å¦Ĥ
èļ Į
çīµ å¼ķ
çĽ® å½ķ
ç¬¬ä¸Ģ å®¶
å¨ģ æĸ¯
ç¬¬äºĮ ä»»
éĺ¿çĪ¾ å·´å°¼äºŀ
è²© åĶ®
å¿½å¿ħ çĥĪ
R A
ãĢģ ãĢĮ
ä»¥ ç¤º
å¯ Ŀ
æľ¬ ä¹¦
ï¼īï¼Į ãĢĬ
å»ºéĢł çļĦ
l in
u el
åĴĮ ç¾İåĽ½
åıĤ èµĽ
æĹł äº§éĺ¶çº§
ä»£è¡¨ äººçī©
æŃ¥ éģĵ
æ¥µ ç«¯
éĽª å±±
ï¼ģ ï¼Ī
ä¸įåĪĹ é¡Ľ
æĹ¥ åľĵ
æĿİ ä¸ĸ
åıª æľĥ
å¨ģ åĬĽ
å±ŀ æĢ§
åįł æľī
æ¥µ å¤§
è«¾ æĸ¯
ä¸Ńåįİäººæ°ĳåħ±åĴĮåĽ½ æĪĲç«ĭåĲİ
ç¼º é»ŀ
èģļ åĲĪ
ç¬¬åįģ äºĶ
åī© é¤ĺ
åķ¦ A
D o
ä¸ ¢
åı¸ æ©Ł
is on
å¹´ä»£ ä¸ŃåĽ½
é¹ ¹
æĭĽ å¾ħ
èŁ ¬
à¼ ĭ
åĭĥèī® ç¬¬
çļĦ å£«
äºº ä¸º
ä»£ è¨Ģäºº
éĢļ åĭ¤
åħĭ åĬĽ
çĽ¸ å·®
ãĤ Į
ãĤ Ĵ
å°Ħ çº¿
ĠI II
èĳ£ åįĵ
è¨Īç®Ĺ æ©Ł
èµ·æºĲ æĸ¼
æŃĩ å°Ķ
ĠSci ence
S Q
ï¼ī âĢĶâĢĶ
å¤ļ åįĬ
çĲĥ çļĦ
è¾¾ åĪ°äºĨ
ç±» åŀĭçļĦ
å¿Ĺ é¡ĺ
èĪªç©º èĪªå¤©
è¼ķ éĲµ
ç»Ŀ å¤§å¤ļæķ°
éĻ£ å®¹
ä¸ĸçķĮå¤§ è³½
èĢķ åľ°
æ¶Īè²» èĢħ
ä¸į åĥı
åĲİ åıĪ
åŁİ åįĢ
æ°´ ç¨»
æ¯ı ä¸Ģä¸ª
æĸ½ æĶ¿
æĤ ¦
ing ton
æĿ¾ æ±Ł
éĵģè·¯ å±Ģ
å¥ī åĳ½
åĦĢ åĻ¨
è¿ģ å¾Ļ
èŀ¢ å¹ķ
çĸ¼ çĹĽ
D avid
R T
X X
åĽ½ å¤ĸ
ä¸į åĮħæĭ¬
åħī åŃĲ
ç¨® ç¨®
æĻ® æĭī
çļĦä¸Ģ æ®µ
åĽŃ åĮº
çļĦ çİĭ
åħ¬ åĽ½
æĶ¿ ä½¿
çĽ¸ æľĽ
æħ ¨
ç¬¬ä¸Ģ åº§
æ¼³ å·ŀ
4 50
V ID
çļĦ èĳĹä½ľ
å¤§ çķ¥
å¤© æ°´
çı¾ å·²
èı¯ è£Ķ
æĽ´ å¥½çļĦ
ç¼ ª
éĤĦ åľ¨
æĪ¿ éĸĵ
ä¸»æķĻ åº§åłĤ
åİ»ä¸ĸ åĲİ
é«ĺçº§ ä¸ŃåŃ¦
B E
Ġ å°ĳå°Ĩ
çļĦ åı¯èĥ½æĢ§
åľ¨ è¢«
éĻ Ľ
åı¯ éģĶ
ç³» ä¸»ä»»
äº¬ åŁİ
åķĨ æ¨Ļ
åĤ³ éĢģ
ä¸ĢåĢĭ äºº
çħ ½
æ³¨ å°Ħ
ä»ĭ éĿ¢
ä¹ĺ æ³ķ
åĽ½æ°ĳ éĿ©åĳ½åĨĽ
æĪĲåĳĺ åĽ½
çªĹ åı£
è¿Ī åħĭå°Ķ
èĺĭæŀľ æĹ¥åł±
D on
å¾· åĨĽ
ç©º èª¿
å°ĳ å¥ĩ
ç¬¬äºĮ ä¸ª
æĲ ı
éĻį éĽ¨éĩı
çļĦå¤§ éĩı
åį°åº¦ çļĦ
è¿ģ å¾Ģ
ãĢģãĢģ ãĢģãĢģ
ç»į åħ´
äºļå½ĵ æĸ¯
d a
äºº è®¤ä¸º
å¤§ æĪĲ
é«ĺ æĸ¯
åĳĺ å·¥
ç¸½ ç«Ļ
å°Ī æ³¨
èģĮ èĥ½
éļĶ éĽ¢
åĬª å°Ķ
å¤ķ æ³ķ
æł¼æĭī åºķ
âĢ °
ç» £
åı· ä¸º
åĵ¥ å¾·
æ¥µ éĻĲ
æ¢ħ è¥¿
åĪĺ éĤ¦
åħĦ éķ·
æĹ¥ åŃĲ
æķĻ çļĩ
er r
åĲĳ å¤ĸ
è° ¨
æ±Ł æ³½æ°ĳ
æĥħ ç¯Ģ
å¡Ķ å°Ķ
çĢ Ľ
ä¹ĭ æŃĮ
ç¾İ èģ¯
åıĹ æĲį
æĮĩ æ¨Ļ
åħ© åģ´
un e
åĺī æħ¶
å§Ķåĵ¡æľĥ ä¸»å¸Ń
R obert
Ġ en
åĵ Ĩ
åīį ç·ļ
å¾· æĸĩ
éĩį æĴŃ
è¿ĩ äºİ
çĶ° å¾ĳ
æ±ī æŃ¦å¸Ŀ
èĩºçģ£ ç¸½çĿ£åºľ
æ°¸ ä¹Ĳ
çį¨ èĩª
åĬª æĸ¯
å¤įæĿĤ çļĦ
oth er
çīĩå°¾ æĽ²
åľ¨ éĺ¿
åħ± çĶ¨
éĸĭ åīµ
éħ ±
æ¸ħ è»į
åħĪ éĭĴ
å¥§ çĪ¾
éĢļå¸¸ åľ¨
å¥ī è¡Į
ide o
Ġ 100
çļĦ ç®¡çĲĨ
åĴĮ ä¸ŃåĽ½
å¾Į ä»£
åįĹ ç«Ļ
ä½Ĩ æľī
å°Ķ é¡¿
æİ¥ åĪ°
å°± è¦ģ
ç¥ŀ å¥ĩ
éĹľ è¥¿
èĮ İ
æ³¢ çļĦ
ç¼ ´
åİ» éĻ¤
æŃ» çļĦ
å¸« åľĺ
åĵĪ çĪ¾
çħ§ æĺİ
èģ² æ¯į
ï¼Īï¼ī ï¼Ī
åĲ¦ æ±º
éĻ£ äº¡
å¥Ī èī¯
æ¡ĥ èĬ±
éįµ çĽ¤
èµ·æºĲ äºİ
çļĦæĹ¥ åŃĲ
T e
ãĢ ĩ
åĮĹ åĳ¨
å°ı äºİ
åħ± è¨Ī
è« Ń
å¥³ åĦª
æĺŁ éĽ²
åĽŀ ä¾Ĩ
å¯Ĩ ç¢¼
æĶ¯æĮģ çļĦ
ç¯Ħ çĸĩ
åĭĩ èĢħ
åĬį æ©ĭ
cy cl
" .
A s
åľ¨ æ³ķåĽ½
ç¬ ¼
é¦Ļæ¸¯ æµ¸æľĥå¤§åŃ¸
æĶ¿åºľ åĴĮ
æŃ¦ èĹı
åħĪ è¡Į
çľĭ åı°
çĶ² åįĪ
ĠN e
æ°ĳæĹı çļĦ
çĻĤ æ³ķ
ä¸į ä¾¿
ä¸» æīĵ
æ°ĳ åħµ
ç¥ ķ
ä¼ļ è®¡
æĪ° åĭĿ
åħī åŃ¸
å½ĵ çĦ¶
éĮ ¶
å¾Ī éĽ£
ç¶Ń æĭī
éľĢè¦ģ çļĦ
å®ģ åİ¿
è¤ ²
å·¡ æ¼Ķ
ri b
æª¢ é©Ĺ
å¤¢ æĥ³
ç¹¼æī¿ äºº
pr ess
æ³¨åĨĮ åķĨæłĩ
i j
çļĦ äºĮ
æľī ä¸įåĲĮçļĦ
ä¹Ł æĪĲçĤº
ä¹Ł éĸĭå§ĭ
äº¤ æ±ĩ
å¼Ģ å¹ķ
æĢ» ç»ĵ
çļĩå¸Ŀ çļĦ
æĴŀ åĩ»
ug h
æ»ĭ çĹħ
B BS
å¹´ ä¸ĸçķĮ
åľ¨ åħ¨åĽ½
çĤº ä¸Ńå¿ĥ
æ² ®
ä¸İ ä¹ĭ
æł¡ åĿĢ
æĽ¼ åĵĪ
é£ŀ èĪ¹
ç¬¬ä¸Ģæ¬¡ä¸ĸçķĮå¤§ æĪ°
i or
å¹´ åıĪ
çĦ ķ
èĩ³ å°Ĭ
åħ¥ åŃ¸
å·ŀ åĴĮ
å¯¹ æ¯Ķ
åĵĪ èµ¤
é»ĳ çĻ½
è¡ĮæĶ¿ çĿ£å¯Ł
ĠR ec
å¾Įä¾Ĩ åľ¨
ai wan
Ġ >
å¤§ ç¢Ł
è¡Į ç¨ĭ
ç¶ ı
äºĮ èĢħ
åħĭ åĭŀ
é«Ķ éĩį
çļĦ åī¯
ä¸» æ©Ł
ä»ĸ å°Ĩ
ä¸ª åİ¿
åŁİ ä¸Ń
çµĲ å±Ģ
å¤§åŃ¸ çĶŁ
æīį æľī
il le
åģľ çķĻ
çİ¯ ç»ķ
çĺ Ł
ä»ª åĻ¨
ä¹¾éļĨ å¸Ŀ
F S
P L
å¹ Į
åįĹ ç«¯
å¹³ åıį
å¹³ æģ¯
éĻ¢ ç³»
éĩĳ åŃĹ
å°ĳ å°ĩ
ç·¨ å¯«
ĠH ouse
çĶ² æĿ¿
åĽ´ ç»ķ
ap t
åķŁ å¾·
æĶ¶éĮĦ æĸ¼
å°¼åħĭ æĿ¾
éŃģåĮĹ åħĭ
è°´ è´£
u y
å± ¡
æ³ µ
ä¹Ł è¦ģ
éĻ½ åħī
åĪ¤ åĨ³
äºĮåįģ äºĶ
å·¥æ¥Ń åįĢ
å»Ł å®ĩ
éľ¸ çİĭ
å¼µåŃ¸ åıĭ
R S
W illiam
çļĦ æ¯Ķä¾ĭ
ä¸º äºº
ç¬ ¨
è¥¿ ä¾§
èµ· é»ŀ
æł¼ éŃ¯
æ©Ł é«Ķ
çłĶ åıĳ
çĻ» æľĪ
çµ¦ äºĨ
èĩ¨ åºĬ
ĠIn t
ç¯Ħåľį åħ§
åĴĮ ä»ĸ
å±± åŁİ
æ¼Ķ èªª
æĽ¾ å¤ļæ¬¡
æĦŁ æĩī
ur a
ä¼ģ åĬĥ
çĶµå½± èĬĤ
éĺµ äº¡
æ¯ķä¸ļ çĶŁ
æłĩå¿Ĺ çĿĢ
ï¼ī ãĢĭ
æ°ĳ äºĭ
éĢł åıį
æĶ¶ åıĸ
å¤± è¹¤
éª Ĺ
çĿĢ éĻĨ
æ²¿ èĳĹ
çļĦäºĭ çī©
rans l
Ġ 24
Ġ 1997
å¤§ å°Ī
çĶ¨ èªŀ
æĸ° æĿĳ
éĽ» å£ĵ
æ» ²
æ½ Ł
çģ« çģ½
éłŃ è§Ĵ
åįķ æĽ²
ç»Ī èº«
æ³ķåľĭ çļĦ
åĳ¼ åĲģ
åľ¨ å·´é»İ
åİ Į
ä¾ £
å¤© ä¸»
éĩĳ çĲĥ
åĨĽ æĶ¿
æ¸ħ æĻ¨
ç§į åŃĲ
ä¹¦ å±Ģ
ä½İ éŁ³
å¼Ĺ åħ°
æİ§åĪ¶ äºĨ
æĶ¿çŃĸ çļĦ
åĪ» æĦı
187 2
çĽ¸å°į è«ĸ
å¤§ å°Ĩ
æĹ¥ çĻ¼åĶ®
æĸ¹ ä½į
èī ±
åĲĪ åħ±
éĩĳ çįİ
ç¶ĵ ç´Ģ
äº¤ æ¶ī
å¤ª æŀģ
æīĭ æľ¯
æľį çĶ¨
ä»į æľª
ç£ º
å±Ĩ åħ¨åľĭ
os a
æŀģ éĻĲ
å»ºçŃĳ å¸Ī
èĩªèº« çļĦ
b o
ä¸Ģ è¼Ľ
åŁ Ĺ
åīį é¦Ļæ¸¯
ç¤¾ åĽ¢
åĲĳ ä¸Ĭ
æ¯ı ç§Ĵ
æ¦ Ħ
éª ¤
éļ¾ æ°ĳ
æĪĪ å°Ķ
æĳĦ æĶ¿
çŃ¹ å¤ĩ
åµĮ åħ¥
åĴĮ å°ļ
ä¸į å¿ħ
è» ¼
è³ Ħ
åįĹ éĢļ
æŀĹ çļĦ
çľģ ä¼ļ
å®¢ è½¦
åįĬ å¹´
æķĻèĤ² çļĦ
ä¾Ŀ èĪĬ
æ®º æīĭ
ç»Ļ åĩº
å·® åĪ«
éģĩ ä¸Ĭ
ç¬¬åįģ åħŃ
æµ¦ ä¸ľ
187 7
åĤ¨ éĩı
ru ct
å¸½ åŃĲ
ç´įç²¹ å¾·åľĭ
Ñ ĥ
åľ¨ å½ĵæĹ¶
éĸ Ķ
è´ ¦
éģĵ æł¼æĭīæĸ¯
è« ±
æ¶ ¡
åıį éĿ©åĳ½
éĽ»å½± çļĦ
å®ĥåĢĳ çļĦ
åıįæĺł äºĨ
ä¹Ĵä¹ĵ çĲĥ
æĺ¯ å°į
æľī ä¸įåĲĮ
è® ¼
åİŁ æĿ¥çļĦ
éĢ² ä¿®
åıį ä¹ĭ
æ±Ł åĮĹ
çīĩ éłŃ
æ¯ı éĢ±
èģĮ å·¥
çļ® èĤ¤
éŃĶ é¬¼
é«ĺçŃī éĻ¢æł¡
å»¶ä¼¸ éĸ±è®Ģ
éĩĩçĶ¨ äºĨ
ĠEn glish
æĺİé¡¯ çļĦ
æ³¢å£« éłĵ
çļĦ å¹´åı·
ä¸Ģ åľº
ä¸į å®ļ
å¾· æ¯Ķ
ç¬¬ä¸Ģ æľŁ
èĴ ľ
æºĲ åľ°
ä»Ĭ æĹ¥çļĦ
å®ŀ ä½ĵ
åįĥ ä»£
çŁŃ çīĩ
èĹ© ä¸»
L GBT
u an
çļĦ è³ĩæĸĻ
æľĥ è«ĩ
éķ· å¤§
å¥³ æ¼Ķåĳĺ
st yle
æĪĲåĬŁ åľ°
å¢ŀåĬł åĢ¼
éĸĭçĻ¼ çļĦ
çļĦçī¹ å¾ģ
æ±ª ç²¾
çĲĨå·¥ åŃ¸éĻ¢
éĥ¨ æĹı
åĪĨ éļĶ
åŁİ éļį
çŁ¥ ç¸£
ol a
çľ¼ éı¡
çī§ å¸Ī
èĳ£äºĭ æľĥ
éĻª åĲĮ
æĸ¯æ´Ľ ä¼Ĳåħĭ
æ° °
çĤº ä¸»è¦ģ
éĻ¢ çļĦ
å°į æĪ°
åĤ³ è¨ĺ
æĻ® æ³ķ
ä¼ł å¥ĩ
éĶ ¥
åł± ç«ł
ĠG roup
æ¨£ çļĦ
ä¹¡ éķĩ
è½Ħ åįĢ
éĭ¼ éĲµ
N E
Ġ 23
æĶ¿ äºĭ
è¥¿ éĽħ
åĮĹ éĿ¢
æµ· å§Ĩ
åħ¨ æĽ¸
çĻ½ æ²³
åįİ ä¸Ń
æļ ¹
è®Ĭ åĭķ
çĬ Ģ
äºĮåįģ åħ«
ev er
ĠPubl ish
æ°¨åŁº éħ¸
èĪĩæŃ¤ åĲĮæĻĤ
G Hz
a ut
çĻ¼ è¨Ģ
å¹³ åİ¿
åŁİ éĹ¨
é¦¬ éĩĮ
æ²³ å·Ŀ
æĪĺ è´¥
ĠM ed
æ¼¢ æĽ¸
æ°ĳæĹı ä¸»ç¾©
ç¬¬åħŃ æ¬¡åħ¨åĽ½äººåı£æĻ®æŁ¥
HT ML
G M
è¥¿ ç«Ļ
çĶ± é¦Ļæ¸¯
èªª æľį
ĠC al
ä¸įåĲĮ çļĦæĺ¯
ä¸Ńèı¯ èģ·æ£Ĵ
éĽħ åħĭ
åĲ¦ åĪĻ
éĻ¶ åĻ¨
ç»§æī¿ äºº
çķľ çī§
å®īçĲĨ ä¼ļ
åľ° ä¸»
æ¸¯ çĿ£
å®ī éĤ£
èĬ ¹
11 3
åŃĹ èĬĤ
çį¨ çī¹
ĠW indows
æľĢå¾Į ä¸Ģæ¬¡
çı¾ä»£ åĮĸ
ç´ĢéĮĦ çīĩ
åįļå£« åŃ¸ä½į
our ce
Al l
åľĭç«ĭèĩºçģ£ å¤§åŃ¸
è¼¿ è«ĸ
2 10
G O
u f
çļĦ æĸ¹åĲĳ
äºĨ èĩªå·±çļĦ
æĶ¿ æ³ķ
äºĶ åĽĽ
æĽ² ç·ļ
å¤§åŃ¦ æķĻæİĪ
æŃ· ç¶ĵ
æĳ º
26 0
åŃĺåľ¨ æĸ¼
ç¤¾ä¼ļ çļĦ
æľīä¸Ģ å®ļçļĦ
äºĨä¸Ģ ç§į
çŃĶ æ¡Ī
æ² ¾
ä¸į æĥ³
æķĻ ç¾©
å±± å¯º
éĩĮ å°¼
æµģ å½¢
æľº ç»Ħ
æĿİ å¾·
èŃ° éķ·
çĹħ æĥħ
åīµ å§ĭäºº
åįĶ åķĨ
çĢ ķ
å¹¼ åħĴ
æĭīä¸ģ è¯Ń
Ġ ab
çļĦ ä¸Ńåľĭ
æķĻ æĿĲ
åĪ© å¥¥
è»į åľ¨
å¤§åŃ¦ çĶŁ
æ¸© æ³ī
èĴĤ æĸ¯
çĻ¼çĶŁ äºĨ
æ¼ĶåĶ± ä¼ļ
åħ±çĶ¢ ä¸»ç¾©
å®¢å®¶ äºº
å±¥ è¡Į
èĩºçģ£éĲµè·¯ ç®¡çĲĨå±Ģ
s g
çļĦ èģĸ
æĸ ¡
å¹´ ä¸ĸçķĮæĿ¯
ç¨ ł
æľ¬ è´¨
å¸Ĥ åħ§
æµ· è±ļ
åħ¨ ç¨ĭ
æīĭ æĮģ
æ³¢ æĹģ
ãģ £
ion al
èĭ¥ æĺ¯
èĥ¡ éģ©
çŁŃ çļĦ
å½±åĵį åĬĽ
è¿ľ ä¸ľ
é¢Ħ è®¡
æĸĲ è¿ªåįĹ
F M
äºº éģĵ
ä¼ ¶
çĤº åĲį
çĲ Ľ
è¥¿ æĻĭ
å»º æ§ĭ
ä¸¦ çĤº
ç¥ŀ è®º
åħī å¹´
åħī è°±
çŁ³ éłŃ
ĠS ec
ic ial
åŃĺ æľī
æ¨ĵ å®ĩ
éĥ½æĺ¯ çĶ±
åķ¦A å¤¢
H S
å¾Į è£Ķ
å·¥ åĨľ
æ¼Ķ ç¾©
è± İ
çĦ¡ éĽĻ
éĦ Ĵ
ç¦ı çĪ¾
æĶ» çł´
25 6
ä¿Ħ è¯Ń
æł¸ æŃ¦åĻ¨
æĭľ ä»ģ
éŁĵåľĭ çĶ·åŃĲ
ĠAss oci
Â ±
ä½ £
åľ¨ éĩİ
å½ ¤
åı° è¦ĸ
è»į æĸ¹
éĹľ å¿ĥ
è½¬ åıĺ
æľĢä½³ å¥³ä¸»è§Ĵ
æľĢä½³ çĶ·ä¸»è§Ĵ
ç¨³ å®ļçļĦ
åħ ľ
åŃ¦ è¯´
ãĢį ï¼ļ
ä¸ī åŃĲ
äº¤ åĮ¯
åıĪ èŃ¯
çį² éłĴ
è¾¹ çļĦ
å¯¶ è²Ŀ
é¬¥ å£«
ç¡¬ é«Ķ
AR S
èļ Ĭ
P I
åŁ ¼
ä¹ĭ å¹´èĻŁ
åĪĨ æķ¸
éĢļ ç¨±
ç¬¬ä¸Ģ å¤§
èĲ¬ æĽĨ
åŃ£ èĬĤ
èĲ½ å¾Į
å¼Ģå§ĭ åľ¨
åĻ´ å°Ħ
ä¸Ń è·¯
ä¸ĸ å®¶
æĸ° æµª
éĩĳ éĮ¢
æķ° çłģ
æ·± å¤ľ
åĽ° å¢ĥ
use um
NHK å¤§æ²³åĬĩ
çİĭ åºľ
éĩĮ éĿ¢
é«Ķ åħ§
ç¸½ æķĻç·´
çĳ ¤
st r
and er
èŃ¦ åĭĻ
è¿ŀ ä»»
ä¸Ńæĸĩ éĩĳæĽ²
æŃ¡ æ¨Ĥ
è¾½ ä¸ľ
å¤º åıĸ
åĮĹæ´ĭ æĶ¿åºľ
çļĦ äº¤éĢļ
åħ Į
äºº ä»¥
èĥ °
æµ· å¾·
å°ı é¾į
çĳ ©
å¾Ī å¥½
æł¸ ç³ĸ
ç´į å¾·
ä½ł ä»¬
çĮĽ çĥĪ
èµĭ äºĪ
1 19
åİŁ ä¸º
æ±Ł åİ¿
el f
å¸¦ æĿ¥çļĦ
æĺŁæľŁ æĹ¥
æĺŁæľŁ åħŃ
æ¯ķä¸ļ åĲİ
èħĲ è´¥
åĽļ ç¦ģ
åīįåĪĹ èħº
çļĦ æĪĲåĬŁ
çļĦ çĲĨè®º
è¡ «
æĸ¹ éĩĿ
åĮĹ çº¬
æīĢ ä½¿çĶ¨
ä½Ĩ å®ĥ
èĳ «
å¸¸ æķ°
åı¸ éķ·
çĽ® éĮĦ
æĺŁ åħī
æ¸ħ çĲĨ
æ¸ħ æĺİ
åľŁ åį«
å¥½ è©ķ
ĠA p
æĿ¡ æ¬¾
op hy
èķ ©
ĠJ ournal
ä½Ķ æľī
åı¸ä»¤ å®ĺ
å¹´ ä¸Ńåľĭ
ä¸Ģ ç¯ĩ
æĻĤ è¢«
æĸ° èİĬ
è¿Ļ ä¸¤
çĽ´ éģ¸
ç¥ŀ åºĻ
åħŃ ä¸ª
éĮĦ è£½
åĢ« å¤ļ
æºĸ æ±ºè³½
çģµ éŃĤ
ç´Ģå¿µ é¤¨
ç¢İ çīĩ
æľī åħ©
å¦ Ī
åĪĹ æĸ¯
ä¸ľ ä¾§
ç½® æĸ¼
æĬķ è¨´
æĳ ¸
åĥı ç´ł
ç¶² æ°ĳ
éĽ»å½± ä½ľåĵģ
å»ºç«ĭ èµ·
è¿Ļä¸Ģ æĹ¶æľŁ
çĸĨ åŁŁ
ĠY ou
å¯Ĩè¥¿ æł¹
m l
ãĢĤ (
äºĨ ä¸įå°ĳ
æľĢ åħĪ
åīį ç§¦
åĽĽ ä½į
åĲī äºļ
ĠB i
åĪĻ ä¸º
åľ£ æ¯į
um an
æľīä¸Ģ åº§
èı² å°Ķ
åĨ¶ éĩĳ
i u
éĽ Ľ
çĤº ä¾ĭ
å¤© åºľ
åĪĹ å¯§
å¯Ĩ çłģ
é¥ ±
éĢĶ ç¶ĵ
åĨ· æĪ°
èĴĻåı¤ æĹı
é«ĺçŃī åŃ¸æł¡
éĢĤ çĶ¨äºİ
åįĩæł¼ çĤº
æīĺæ´Ľ èĮ¨åŁº
çļĦ ç¾İåľĭ
çļĦ åĽ½éĻħ
ä¸Ń æĺ¯
çĽ Ķ
ä¾ ®
çĶ¨ æ°´
åĮĸ èº«
èİ Ĵ
ĠC ont
éĻĲ äºİ
å¡Ķ çĪ¾
èĭı åĨĽ
åį°åº¦ æķĻ
åıªæľī åľ¨
ul a
å¥ĳ ç´Ħ
å·© åĽº
äºĨ å¾Īå¤ļ
æķĻ åĮº
å°± å·²ç»ı
ä¸ŃåĽ½ æĶ¿åºľ
çĿ ¹
æĽ¾ ä¸Ģåº¦
å¡Ķ çļĦ
åľĸ å½¢
å¸¦ çĿĢ
æļ´ éĽ¨
é«ĺçŃī åŃ¦æł¡
æĭĨ åį¸
æľ¬èº« çļĦ
åįĳ æĸ¯
æĨ¤ æĢĴ
é©¬èĲ¨ è¯¸å¡ŀ
ĠInstit ute
i ed
Ġ 2011
çļĦ å¹³åĿĩ
æľĪ éĸĭå§ĭ
æľĪ äº®
å¾Į åľ¨
è¥¿ èĴĻ
å¸Ĥ ç«ĭ
äº¤ ç»Ļ
äºŀ è¦ĸ
çĥ ĥ
èªį çĪ²
ç¬¬äºĮ å¤©
çļĦä¸Ģ ç³»åĪĹ
æīĢä»¥ åľ¨
å½Ī èĹ¥
è¾² æĿĳ
ä¹Į å°Ķ
æĻ¶ é«Ķ
æĲŃ è¼ī
è´· æ¬¾
B åŀĭ
åľ¨ åĲĮä¸Ģ
æĢ§ æĪĢ
éĩĳ æŃ£
åŀ ®
ç±³ å¾·
çĭ Ļ
çĶµ è½¦
ç¤¾ä¼ļ åŃ¦
em ber
éĢĥ åĪ°
å¹´èĩ³ ä»Ĭ
æĶĿ æĶ¿
hem at
ä¸ŃéĨ« èĹ¥
b it
åį¡ ç¾ħ
å¢ŀ æı´
èĥ¡ å®ī
æĪĺäºī çļĦ
ç´Ģå¿µ ç¢ĳ
çŃĶ æĩī
æĺĨ èŁ²
evel op
å¡ŀæĭľ çĸĨ
å¹´ ä¸İ
ä¸Ń æĸŃ
æĺ¯ èĩª
æľĪ ä»»
ä¸į å¥½
ä¸ĭ è½Ħ
ä¹Ł åĽł
çĽ´ çº¿
åıį æĵĬ
ãĥ ¡
æ» ¥
åį¡ çļĦ
é»¨ çļĦ
ä½ı æĪ¿
æ±º å¿ĥ
å¹´åº¦ æľĢä½³
ä»¥åīį çļĦ
MA X
èı© æıĲ
.... ....
å¹´ æŃ£æľĪ
ï¼Ī ï¼Ł
ä¸» é«Ķ
æĸ° å¸Ĥéİ®
èī °
åı° éĲµ
å·´ å«©
åı¤ ç±į
å·² ä¸į
ç¿ Ł
ç¶Ń æĸ°
ĠPro ject
æļĤ æĹ¶
çŁ³åĻ¨ æĹ¶ä»£
æ·ĭ å·´
- ï¼Ī
Ġ 22
çĤº åı°çģ£
æĸĩ æĺĮ
å¸Ĥ åĴĮ
å±± è°·
æ½ ¼
åħļ åĴĮ
ĠIn c
æĪĳåĢĳ çļĦ
çĦ¦ é»ŀ
æķ¸æĵļ åº«
åŁĥå¡ŀ ä¿Ħ
Ġ åīį
çļ ĭ
è½ ©
æķ¸ çĻ¾
çľģ éķ¿
åīĩ è¢«
éĴ ĵ
éģº é«Ķ
çļĦçī¹ å¾µ
åįģå¤§ ä¸ŃæĸĩéĩĳæĽ²
6 000
æ¨ ±
ä¸ī åĪĨä¹ĭä¸Ģ
er ry
çĭ ¸
æĹł ç©·
æīĺ çĪ¾
åĪ¤ å®ļ
éĢĿä¸ĸ äºİ
åĬŁèĥ½ çļĦ
ide a
cycl op
Ġ çŃī
æ³ķ ä¾ĭ
æľĥ éĿ¢
æĻĤ è£Ŀ
å¼Ģ åĪĽ
åı¤ ä»Ĭ
åı¤ æĸ¯å¡Ķ
åĨħ å¤ĸ
èĢģ éĹĨ
æľ¨ é½Ĳ
éĻį èĩ³
å·¥ç¨ĭ ç³»
æª ¬
ir d
æ±½ æ²¹
éĦŃ æĪĲåĬŁ
ä¿ĺèĻ ľ
æµ Ĭ
æ¸ ¾
æľŁ å¾ħ
å§Ķ æīĺ
çĶµ æµģ
æŃ¦ å¾·
13 5
è¦ĭ èŃī
åĩºçı¾ æĸ¼
çĭ¬ è£ģ
äº® åº¦
çģ½ éĽ£
éĺ¿éĩĮ å±±
å¿ħè¦ģ çļĦ
æĪ į
æ± ŀ
åįĹ éĺ³
é«ĺ éĵģ
åıĳ åĶ®
åĪ¶ æĪĲ
æį į
æĻ® æľĹ
åıĪ æĺ¯
éĤ£ ä¸į
åĽº ä½ĵ
Ġ éĺ¿
ä¸Ń è¦ĸ
å¤§ éŁĵ
åįĹ éĿ¢
çģ ¶
å¾Ī åı¯èĥ½
éĤ£ è£¡
é»İ å·´å«©
ç»Ī æŃ¢
æľīéĹľ çļĦ
ec k
v ent
å±± è·¯
åıĳ è¡ĮçļĦ
12 1
æł¼ çĪ¾
çİĩ éĥ¨
æ°¸ åĴĮ
æĳ© è¥¿
è²» åŁİ
èĨ ³
åķıé¡Į çļĦ
æ¤įçī© çļĦ
åķĨæ¥Ń éĽ»åı°
ä¹Įé²ģ æľ¨é½Ĳ
Ġ èĪĩ
çļĦ èģ²éŁ³
çĶŁ æŃ»
æ¢ Ĺ
al t
åį¡ ç½Ĺ
èĪª éģĵ
è¶ħ æĸ°æĺŁ
çİĩ åĨĽ
ä¸įåĲĮ æĸ¼
æīį è¢«
as c
èĬĤ åº¦ä½¿
å¤©çĦ¶ æ°Ķ
è³½é¦¬ æľĥ
è¤Ĳ èī²
æĺİ æĹ¥
éħ ª
åħ§ éĻ¸
åıĸ åĲĳ
åĬŁ èĩ£
åĽłæŃ¤ è¢«
èĻķ æŃ»
ä¸ĩ äº©
èĩºçģ£ çļĦ
æľĽ è¿ľ
å¤į åĪ¶
åĬŀ çĲĨ
éŁ³æ¨Ĥ åĬĩ
æī¾ åĩº
åľ°çĲĨ ä½įç½®
æĿ° åĩº
è£½éĢł åķĨ
ä¸¾è¡Į äºĨ
å±į é«Ķ
çŁ® æĺŁ
ãĥĥ ãĤ¯
è¢«ä»»åĳ½ ä¸º
åİŁ ä¾ĨçļĦ
å°± å·²
èİ ĵ
ä¸ľ æµ·
åĲĦ é¡ŀ
æŃ¦ çİĭ
å¥¹ ä»¬
å¿Ĺ æĺİ
re m
èĻİ å°¾
æĹ¥éĽ¶ æĻĤ
G T
çģ« è»Ĭç«Ļ
çº³ æĸ¯
å£° æ¯į
G L
M D
ä¸Ģ åħ«
æľī åı²
æĵ ±
18 63
éķ· èĢħ
åħ¶ä¸Ń æľĢ
çķĻ ä¸ĭçļĦ
æĹĹ å¹Ł
ä¼ĺ åħĪ
. "
åĮĹ ç«Ļ
å¦ ¨
åĸ® ç´Ķ
ç®¡çĲĨ çļĦ
åģľ åĪĬ
éļı ä¹ĭ
å©ļ ç¦®
éŃĶ æĪĴ
èĪŀ æĽ²
ä¼Ĺ è®®éĻ¢
å¥ª åĨł
éĪ ī
éģ© çĶ¨
å¼Ĥ å¸¸
if orm
å¬ ª
æĹıèĩªæ²» å·ŀ
èįĶ æŀĿ
æĪĺåĪĹ èĪ°
n o
ä¸Ń æĿĳ
ä¸Ģ éģĵ
å¤§ ä¹ĺ
æĺ¯ çĽ®åīį
è¡Į éĬ·
ä¹Ł ä»¥
çĶµ æĬ¥
æľª ç¶ĵ
ĠM ark
éĺŁ åĳĺ
å¿ħ å®ļ
èı² çĪ¾
äººé¡ŀ åŃ¸
åģ¶ çĦ¶
è»Ĭè·¯ å£«
çļĦ çı¾è±¡
æĹ¥ åĲİ
å¾Į äºº
åĲĮ èĥŀ
åīį éĢĶ
å¹³ åŁĶ
éķ· ç¯ĩ
éĸĭ å±ķ
ä¿¡ è¨Ĺ
ic le
æŀľ å¯¦
å¹´ä»£ èµ·
éĻ¸ åľ°
åĵ¥ èı¯
æķĪ èĥ½
çľ¾ äºº
ç»ıæµİ åıĳå±ķ
åĲĽ åŃĲ
æ³ķåĽ½ çļĦ
åŁºæľ¬ çļĦ
æħ¢ æĢ§
å®¢æĪ· ç«¯
P A
ä¸Ģ éļ»
åĲĮ äºĭ
ç¥ŀ æĺŁ
äº¦ æĸ¼
ĠP ark
åĺ İ
éħį å¥Ĺ
éľį å°Ķ
âĶ Ĥ
æ¯« æĹł
æłªå¼ı æľĥç¤¾
You T
å£Ł æĸ·
åŁ ķ
æĸĩ æ¡£
åĬł çĨ±
éģİ å¾Ģ
ä¿¡ ä¸Ń
åħī éĢŁ
ä¼Ĭ èİī
re w
æ´Ľ æŀĹ
ç·¨ èŃ¯
å¼± çļĦ
çİĦ æŃ¦
æŃĲæ´²åľĭå®¶ çĽĥ
Ġ 1996
æĪĲ çĪ²
ä»ĸ èªª
æį §
ĠA t
ĠM y
æīĵ è´¥
å¤± æ¥Ń
éĮĦ å¾Ĺ
åĿĲ èĲ½
è¬Ľ åº§
æ¡Į éĿ¢
ĠLib rary
çļĦ åĶ¯ä¸Ģ
å®¶ çĶ¨
çī¹ åħ°
æĢ§ åľ°
éĥ½ å¾Ī
æ©Ł ä¸Ĭ
æ£ µ
éĺ² ç·ļ
éĻ³ æħ§
ĠL a
åĩł å¹´
åį» æĺ¯
æ¿Ģ éĢ²
åı¬ åĸļ
ç¤¼ æĭľ
ä¸Ń çĤº
åľĭ å¤ĸ
ç« ¿
åįĹ æ¸¯
æĭī æł¼
ç§ĳ ç´¢
åĽĽ æ¬¡
å°ĩ ä¾Ĩ
æīĭ æĮĩ
æķ° çĽ®
éĸĢ çļĦ
æŃ· å±Ĩ
éĲµ ç¶«
é»ĥ åŁĶ
ir l
æĻī åįĩ
è«¸ å¤ļ
åĬłæĭ¿ å¤§çļĦ
99 9
æĮĩæĮ¥ å®ĺ
æĲį å®³
å¸Įä¼¯ ä¾Ĩ
çļĦ å±ħæ°ĳ
æľī ä¸¤ä¸ª
çĤ ¬
æŁ ĳ
éĢĻ ä½į
å¤ª ä¿Ŀ
Ġ- {
ä¸»è¦ģ çĤº
å¯¦ æ¥Ń
èĲ¬ æ¸¯åħĥ
å¡ŀ åħĭæĸ¯
éı¡ éłŃ
çŁ¥åĲį åº¦
åİŁä½ı æ°ĳæĹı
åª½ åª½
è¡¨è¾¾ å¼ı
åģĩéĿ¢ é¨İå£«
V is
ä¸Ģ æıĲ
ä¸Ģ è¯´
å¤§ æµ·
èĥ ¥
å·´ æ´Ľåħĭ
åı¯ä»¥ è¿½æº¯åĪ°
åħī ä¹ĭ
æĻ® æ£®
åĪĿ çº§
æĹ© æĸ¼
ad em
å¢ŀåĬł åĪ°
åı¥ åŃĲ
æĶĿ æ°ı
é¢Ħ è¨Ģ
è¯ī è®¼
éĤ® ä»¶
æ¾Ħ æ¸ħ
æ£² æģ¯
y p
æĹ¥ æĺ¯
è¢« èªīä¸º
18 69
æĿ± åģ´
}- ï¼Ī
å¼º å¤§
ç»§ ä½į
ï¼Ł ï¼ī
éº» çľģ
ä¸įè¶³ ä»¥
ph a
M et
m ith
æĸ° åħ´
å¤© æĸĩåŃ¦
å°ĩ ä»ĸ
èªŀ æ³ķ
è¾¹ åĮº
æŀģ å¤§
é¡§ å®¢
é¥Ń åºĹ
æ·±æ°´ åŁĹ
çļĦ åŁº
çļĦ æķ°æį®
ãĢĤ ãĢįï¼Ī
å¹´ å»ºç«ĭ
ä¸Ń æĸ·
æĺ¯ åı°çģ£
ä½ľ å®¢
åĲį å½ķ
åĲĪ ç¨±
éĩĳ æĹ¥
äºŀ ç¾İ
æĽ´ æį¢
åıĸ æĻ¯
åıĥ çħ§
äººæ°ĳ åħ¬ç¤¾
åľº åĲĪ
å·Ŀ åİ¿
å´ ĳ
å« »
Ġ ac
çļĦ åĳ½ä»¤
æľī åĲį
ä»ĸ åĳ½
åīį æıĲ
åħĭ æľį
åĪ¶ å®ļçļĦ
æĿ± åĲ³
å°ĳ æŀĹ
åıĤ è§Ĥ
è§ģ äºİ
åĨľ åİĨ
é¯ ī
w ay
çļĦ æĦĽ
åľ¨ èĪĩ
er c
é£ Ħ
äº¤ æĽ¿
ä¸ľ è·¯
å·´ å·´
æķ¸ çĤº
è¯Ńè¨Ģ åŃ¦
ç¬¬åįģ åħ«
åĨĽäºĭ å§Ķåĳĺä¼ļ
æĢª çī©
ON E
å·´æ¯Ķ åĢ«
C omp
çļĦ ä¿¡æģ¯
åĴĮ æµ·
ç¶ ´
ä»£ è°¢
é«ĺ æ©ĭ
çĽ¸ éļĶ
è¿Ľ å£«
èĲ½ å¯¦
éĽ· è¾¾
çĶŁçĶ¢ çļĦ
çķª ç¦º
åī² è®ĵ
éļĭ åĶĲ
éĩİæĪĺ åĨĽ
p le
ï¼ī ,
äºĨ ä¸ŃåĽ½
ä»£ æķ¸
at us
ç¾ħ è³ĵ
å¡ŀ æĭī
æ¨ĵ å±¤
éŁ³ä¹Ĳ å®¶
çĶŁäº§ çļĦ
çºªå¿µ ç¢ĳ
á »
çļĦ çĲĨè«ĸ
ç¨ ·
æĻĤ å°ļ
åŁİ å·´
åĨĽ è¡Ķ
éĹľ ç¾½
å²¸ çļĦ
æ¢ħ èĬ±
éĽ¶ ä»¶
ob e
å¯µ çī©
åĪĨä¹ĭ äºĮ
åĮĸ æĪĲ
èĢħ æĺ¯
éĸĭ æĴŃ
å°¼ æĹ¥
åĪĿ ä»£
åı¯èĥ½ æľī
ĠB oy
æ²¡æľī ä»»ä½ķ
ç²¾ç¥ŀ çĹħ
åĽļ çĬ¯
éĺ¿å§Ĩæĸ¯çī¹ ä¸¹
. )
D OS
m ar
æĺ¯ åħ¨
éļ ħ
æľĢ å°ıçļĦ
çŃī åľ°çļĦ
éĤ ¹
æ¯Ķ éĩį
éĢĻ ä¹Ł
å°¼ çĪ¾
åıį åıĽ
é¦¬ åł´
ç±³ é«ĺ
åĻ¨ åĴĮ
è©² åľ°
æĹł åħ³
ä½Ľ å±±
èĹı æĹı
æ°ĳä¸» ä¸»ç¾©
åŁºåĽł ç»Ħ
ç²¤ è¯Ń
ograp h
æľĽè¿ľ éķľ
çļĦ è¿ĩç¨ĭ
è¥¿ åģ´
æĮ ¡
çĽ¸ éĢ£
å°į ä»ĺ
éĵ ĥ
æĽ´ å®¹æĺĵ
st er
å¥¥ æīĺ
å·¡ åĽŀ
å¤ĸäº¤ æĶ¿çŃĸ
éģ· åħ¥
é«ĶèĤ² åł´
æĿ¡ä»¶ ä¸ĭ
åľ¨ ä¸Ģæ¬¡
æĸĩ æķĻ
åŃ¸ åłĤ
å°± æ¥Ń
çİ° å·²
å°Ħ åħ¥
æ³° æĻ¤
ä¹ħ çļĦ
åį« éĺŁ
ç·© æħ¢
çĽ¸åºĶ çļĦ
7 50
] ãĢĤ
æĪĲ åĥı
ä¸º çĶ±
ä»ĸ ä¸į
ä»ĸ è¯´
ä»ĸ éĤĦ
ãĢį ï¼īãĢĤ
çİĭ å®¶
æŃ£ åĢ¼
æĦı çļĦ
åħ§ å¤ĸ
éĵ İ
ç±³ çī¹éĩĮ
çĹħ ä¾ĭ
ĠL im
et s
åģļ åĩºäºĨ
éĥ¡ çļĦ
åĥħ åĥħ
è®¾è®¡ å¸Ī
æııè¿° äºĨ
iz ation
åĲŀ åĲĲ
Ġ he
æľī åĬŁ
æĹ¥ åĩº
èģ ¶
åĮĹ æ¸¯
å°į æ¯Ķ
ĠL in
èĩºçģ£ äºº
æľĢé«ĺ å³°
èªŀè¨Ģ çļĦ
åĭķçķ« éĽ»å½±
åĲ¸è¡Ģ é¬¼
æ³°æĻ¤ å£«
å¤§ æĺİ
å¤§ å°ĨåĨĽ
çĤº æĸ°
ç¨ ľ
äºĮ åįĥ
åħĭ æ´Ľ
æĸĩåĮĸ ä¸Ń
èĩªçĶ± ä¸»ç¾©
å¹¼ åĦ¿
ç´« èįĬ
åįģåŃĹ æŀ¶
è¾ħ éŁ³
èĻļ æŀĦ
å¸ĤæĶ¿ å±Ģ
æĹ¥ è®°
åĪĨ åĩº
æľ¬ ç´Ģ
çī¹ æ´Ľä¼Ĭ
æĹ¶ åĪ»
èĤ ¾
ar n
å®£ å¸Ŀ
çºª å¹´
æŃĲ åħĥ
éĤĬ å½¢
å¥³åŃĲ åľĺé«Ķ
å´© æ½°
åĲīä»ĸ æīĭ
ĠRes earch
B AS
Î ³
Ġ 80
ä¸Ń æĢ§
ä¸į åĩº
åŁİ åĨħ
é¦Ļ å±±
at ch
æŃĮ è¿·
è§Ĵ çļĦ
ç´ļ åĪ¥
è¡Ĺ å¸Ĥ
éĻĦ è¨Ń
æ¯Ĵ åĵģ
åĢĴ å¡Į
A t
ä¸Ń ä¸ĸç´Ģ
æĺ¯ éĿŀå¸¸
ä¸Ĭ éĩİ
æĸ¯ åĽ¾
ä¼ļ æĪĺ
åĳ½ ä¸Ń
èĩº å¹£
ĠS TS
å¤§åŃ¦ æł¡éķ¿
è®Ĭ æıĽ
åĺ Ĩ
éħį åģ¶
èİ· èĥľ
çīĮ çħ§
éĻĨ åľ°
åį°åº¦ æ´ĭ
å¾Īå¿« å°±
åįĩéĻį æ©Ł
éŀı åĽº
u ter
å¹´ æľī
åľ¨ åĲĮ
åľ¨ ä¸Ńåľĭå¤§éĻ¸
æĺ¯ ä¸ºäºĨ
ä¹ĭ åĨħ
è¢« åĪĹåħ¥
åĮĹ æ¢Ŀ
åĬł æ²¹
å¹³ åľ°
æĶ¾ åħ¥
åħµ éĥ¨
å¯Į çī¹
ĠF re
ä¸ĩäºº æ¬¡
éĿ¢ç©į ç´Ħ
çĻ¾åĪĨ ä¹ĭ
å¹´ æĹ¶
ä¹ĭ è®Ĭ
å¾· ç½Ĺ
éĢ² å±ķ
ãĥ ĵ
å¢ŀ å¤ļ
æķĪ å¿ł
è¡Ģ çµ±
ç¼ĸ åĨĻ
èİī çµ²
åĺīç¾© å¸Ĥ
çī¹åįĢ æĶ¿åºľ
åĩŃ åĢŁ
åŁ ¤
çĲ ¶
ä¹ĭ åŁİ
ä¹ĭ å¼Ł
éĿ ¼
è³ º
äºĮ åŃĹ
äºĮ ç´ļ
åĿ Ł
in ae
æ´Ľ çī¹
åįĩ é«ĺ
çħ¤ çŁ¿
æĩ² ç½°
w in
ä¸º ä¸Ńå¿ĥ
èĭ Ķ
èº« éĤĬ
éĢł çļĦ
æĶ¶ å¤į
æľį é£¾
äººåı£ ç´Ħ
è±¡ æ£ĭ
åĩºçīĪ çī©
ä¸ĵ çº¿
è§Ĥ éŁ³
å¾® æ³¢
è´¹ å°Ķ
å¹¹ äºĭ
èĶĵ å»¶
åľ¨ ä¸ĸ
è¡ ¢
çĶ¨ åĪ°
åı¯ è¡Į
ä½Ĩ å¾Įä¾Ĩ
å¥³ çĶŁ
åŀ Ħ
äºļ ç§ĳ
æľª ä¾ĨçļĦ
èĢģ å¹´
èĢģ å¸Ī
èĩªçĶ± æĦıå¿Ĺ
åŃĺåľ¨ äºİ
å·¡æ´ĭ èĪ°
C K
ä¸Ģ éĸĵ
æĹ¥ èĪīè¡Į
åĩº ä½¿
æľĥ å°ĩ
æ¨ º
å¸¸ æľī
æľº åĬ¡
è®¾ å®ļ
éĭ ģ
å·¡ æĴ«
è£Ķ ç¾İåľĭäºº
ĠIn ter
è¯¸ èĳĽ
æª¢ è¨İ
æĬĺ å°Ħ
èĩºåĮĹå¸Ĥ ç«ĭ
y d
çļĦ æħĭåº¦
çļĦ åģļæ³ķ
æľ ½
å¹´ å¤ı
ä¹ į
æĶ¿ å±Ģ
æľ¬ è³ª
åīį åİ»
åĬł èĹ¤
18 30
å·´ å¡ŀå°Ķ
éļĬ åľ¨
ä»£è¡¨ æĢ§çļĦ
å¹´ä»£ åĪĿæľŁ
ç²Ĵ åŃĲçļĦ
r ol
çļĦ èĥ½éĩı
å¸ Ĳ
èĩ »
åľ° éŃĶ
æĿ± æĹ¥æľ¬
å°¼ åħĭæĸ¯
äºĶ äºº
æĮģ èĤ¡
çĦ¡ æķµ
åħĪ ç§¦
åįİ ä¾¨
åįĬ å¾Ħ
è¡Ģ åŀĭ
æº« åĵ¥èı¯
èķ Ĭ
éªĮ è¯ģ
åģı åĲĳ
LE D
Ġ un
ä½ ļ
æĹ¥ æĻļä¸Ĭ
æīĢ èĳĹ
ä¼ļ è°Ī
äºŀ çķ¶
æµģ å¤±
ç¸½ è¨Ī
äº¦ ä¸į
å¡Ķ åĪ©
è½ī æľĥ
èĸ© æĭī
æ©ĭ æ¨ĳ
è£ľ åĬ©
æĺĨ èĻ«
å·´å¡ŀ éļĨ
ï¼Į ãĢĪ
çļĦ åħ¬åı¸
ä¹Ł éĥ½
éĢĻ éº¼
å² Ķ
åŃĹ é«Ķ
åı¤ è¿¹
çĦ¡ æķĪ
ç¬¬äºĮ åŃ£
ãģ §
èµ« çĪ¾
å·« å¸«
åħ¬å®ī éĥ¨
æĢİ éº¼
6 50
æĺ¯ è¦ģ
çĤº é¦ĸçļĦ
å§ ¨
åĬł çļĦ
è¡¨ å½°
éĩį å¤§çļĦ
ä¸¦ æĪĲçĤº
åĸ Ļ
èµ· è¨´
æĶ¿æ²» åįıåķĨ
è¦ĭ æĸ¼
è¿ĺ åı¯ä»¥
éłŃ éĥ¨
æĭ¿ åĪ°
åī§ åľº
çĶļ éº¼
æł¹æį® åľ°
çĩķ äº¬
åģµ å¯Ł
A p
çļĦ éĻĲåĪ¶
éĽ ī
æ³ ¼
æ² ¦
è¡Į äºĭ
ä¸ī ç´ļ
æīĢ èĩ´
å°ı æĸ¼
åīĩ èªįçĤº
çŁ¥ åºľ
æ¯ı åĳ¨
éĽ»è¦ĸ å»£æĴŃ
éĺ² çģ«
åĢ« æĸ¯
éĥĬ éĩİ
å«ģ çµ¦
g o
u le
åľ¨ æ°´
æĹ¥ è¯Ń
ä¹ĭ ä½ľ
è¥¿ éĥ¨çļĦ
ä¸ĭ è®¾
å·ŀ äºº
æķĪ çĽĬ
æĨ ©
ç¦» å©ļ
ç¦® æĭľ
ä¸Ģä¸ĸ çļĦ
è±ª èı¯
è¡Ŀ éĭĴ
åĲĽä¸» åĪ¶
und am
ä¸°å¯Į çļĦ
é¸¦ çīĩ
åŃ¸ çķĮ
æŃ¤ ç¨®
æ¸¯ çļĦ
å·ŀ éķ¿
ä¸İ ä¸ŃåĽ½
æĴ ķ
åĬ¨ åĬĽåŃ¦
çļĩ åĨł
éĻ¤ åİ»
ç·¨ åĪ¶
å±ĭ éłĤ
ç»Ĩ èĬĤ
ä¼ģæ¥Ń èĻŁ
åµ Ĳ
S e
âĢ ĭ
åĽ½ åľŁ
ãĢĭ ï¼īï¼Į
åħ¶ ä¸»è¦ģ
ä»£ èĻŁ
åĢĭ åľĭå®¶
èĭ± å®Ĺ
æ´¾ å¾Ģ
è©² å¹´
åĸ® æīĵ
äºĴ éĢļ
Ġw h
æĭĺ çķĻ
æĽĿ åħī
C V
çļĦ éĽĻ
ç¥ ·
an i
å¸ĥ è¢ĭ
èĺ Ĭ
æ» ŀ
ä¹Ŀ æ±Ł
æİ¨ å´ĩ
ç¶² éļĽ
åįı åĴĮ
æĬĢæľ¯ åŃ¦éĻ¢
è¿ľ å¾ģ
å·¡ æĬļ
ud e
éļ± èĹı
Ġr es
M on
O ff
ä¸Ģ é¡¹
å¤§ å±±
åĴĮ åľ¨
èª ĩ
èĪĩ ä»ĸ
åĤ £
æ· ĩ
åħ© åľ°
åĳ¨ æľĿ
25 00
è¼ĥ é«ĺçļĦ
éķĩ æ±Ł
èĢ¶ å¤«
çĪ± åĽłæĸ¯åĿ¦
æ·· è¡Ģ
éłĤ ç´ļ
åĩ½æķ° çļĦ
è©ķè«ĸ å®¶
ï¼Īï¼Ľ ï¼īï¼Į
åľĭ åľŁ
åĲİ è£Ķ
åħĭ åĬ³
èĭ± åĨĽ
å¥³ çľŁ
ä¿Ŀ æľī
or o
å´ ģ
å¹´å¤ıåŃ£ å¥§æŀĹåĮ¹åħĭéģĭåĭķæľĥ
P G
æ® Ĩ
åĨħ åŃĺ
æĿİ æ°ı
äº§ åĢ¼
åĪĿ æ¬¡
çķĻ åŃ¦
åī¯ æĢ»ç»Ł
ir c
ä¼ļè®® åĳĺ
ç¸® çŁŃ
6 18
a o
åľ¨ ä¸į
ç» ¸
æ² ħ
åįĹ èı¯
åħ¥ çįĦ
èµ· çļĦ
æıĲ æĹ©
åķĨ æľĿ
éĢĥ éĽ¢
å¤ĸåľį è³½
ï¼Į ï¼ī
èĭ Ľ
éĽ» æ©Ł
ä¸¦ ç¨±
è¿Ľ åĮĸ
åħļ å§Ķä¹¦è®°
ĠT e
åĸ® è¡Įæľ¬
å°ģ éĹŃ
ĠW e
é¥ ²
å¹¾ å¹´
éŃļ é¡ŀ
ç¬¬åįģ ä¸ĥ
æ·® æ²³
æĴ° åĨĻ
ç« º
è° £
æĿİ åħī
ãĤ Ĥ
ç§ģ ä¸ĭ
å¢ĵ èĳ¬
ä¸Ńå±± è·¯
åĢŁ çĶ¨
é¡º åĪ©
åĽ½åħ± åĨħæĪĺ
ï¼Ī ãĢģ
äºº åıĹåĤ·
åĩ ¿
èĢĮ æĪĲçĤº
æĸ° å¹´
å»º äº¤
çĽ¸ å¯¹äºİ
æĭī èĲ¨
éĺ¿ å¯Ĩ
å¤ª ä¸Ĭ
æīĭ çļĦ
éģĶ æĸ¯
ac y
åį°åº¦ åħ¬åı¸
ir us
æĹ¶éĹ´ åĨħ
åĢŁ åĬ©
è¤ĩ åĲĪ
ä¼¯æĭī ç½ķ
S I
Ġ 2013
è® ·
ä½ľ æ³ķ
æ³ķ æ²»
è¡¨ éĿ¢çļĦ
éĹľ ç¯Ģ
ä¸¤ åĲį
ç´Ģ å¹´
ç¡® å®ŀ
æĹ¶éĹ´ çļĦ
æİī äºĨ
éĢ£çºĮ åĬĩ
åĸĢ ä»Ģ
åĽ½å®¶çº§ èĩªçĦ¶ä¿ĿæĬ¤åĮº
A çº§
åĩº è³½
èĢħ ä¹ĭä¸Ģ
è¿Ļ ä¹Ł
å®ŀ æķ°
æĸĩåĮĸ éĥ¨
å®¤ åĨħ
åª ļ
çīĽ éłĵ
NA SA
F ree
t i
Ġ ä¸ŃåĽ½
çļĦ ç¤¾ä¼ļ
å¤ļ æľī
ä¸ī æ®µ
æľŁ éĻĲ
è« «
è¿ĳ æľŁ
åĳ¨ çĳľ
éĹ¨ å¤ĸ
æ¢Ŀ æĸĩ
Ġth at
æĶ¿ çļĦ
å¤ļ çĵ¦
èı ĩ
è¿Ļ å°±æĺ¯
æİ¥ ç´į
ĠB ro
ĠH all
te m
æĢ¥ æĢ§
äº® çĽ¸
å¼ĹæľĹ ç´¢çĵ¦
å¹´ ä¸º
åľ¨ ä¸ĭ
å®ļ åı¤è¹Ł
å°ı å¿ĥ
çĻ¼ æİĺ
æ¯Ķ çĪ¾
è¿Ļ ä½į
çķĮ éĻĲ
å°± å·²ç¶ĵ
å¤ª åĴĮ
è¨Ģ ä¹ĭ
å¯Ĩ éĻ¢
è®¤ çŁ¥
éħį æ¨Ĥ
èĨ Ľ
åĸľ çĪ±
éĶĢ éĩı
å¡ĳ åĥı
è¾© è®º
è´« åĽ°
å¤©å®ī éĹ¨
æľĢ éķ·
ä½Ĩ æľª
æ°´ ä½į
å¸¸ è§Ħ
ç¯ Ĩ
å±Ģ åĬ¿
æĻ® éĩĮ
åĬŁ å¤«
æĹ© æĻ¨
çļĦä¸Ģ éĥ¨
çķĻ å®Ī
åĪĴ åĪĨä¸º
éĺ´ è°ĭ
ç¸± è²«
ĠEd ition
Ã º
çļĦ èµ·æºĲ
ä¸į è¯¦
æ³ķ åĴĮ
æľ¬ æĿ¥
åı¯ è¾¾
æĸ° æĬĢæľ¯
è·¯ å¾Ħ
åķ ĵ
ç² ¥
ç±³ åĭĴ
æĢ» é¢Ŀ
å®¢ è§Ģ
çį² åıĸ
æİĴ çĲĥ
åĢĻ è¡¥
é£Ľ å¾Ģ
å¹² çĩ¥
im es
æĿ±äº¬ éĽ»è¦ĸåı°
æľĢç»Ī å¹»æĥ³
å¥¥æĸ¯æĽ¼ å¸ĿåĽ½
y ch
å¹´ çĻ¼è¡¨
çĤº æĹ¥æľ¬
å£ º
åīĩ æĸ¼
æĶ¶ å¾©
çºª å¾ĭ
èĲ½ åħ¥
ĠG o
å®® æ®¿
ä»ĭ æĸ¼
èĸ© æĳ©
äºĮä¸ĸ çļĦ
ç¬¬äºĶ æ¬¡
å®Ļ æĸ¯
æ£Ģ éªĮ
çİ» èī²
éµ °
åįģä¹Ŀ å¹´
row n
éĸĥ éĽ»
çļĦ ç²¾
æ³ķ åŃ¸
æĮ ¤
åı¯ åı¯
æīĢ çĶ¨çļĦ
è´ ©
åĲİ ä»£
ä¿Ŀ è¡Ľ
æ¸ħ æ´Ĺ
åį¡ çīĩ
åħĪ çĻ¼
äººæ°ĳ æĹ¥æĬ¥
ãĤ ¬
æ±º æĪ°
è§Ģ è³ŀ
æĹħ ç¨ĭ
ĠD avid
ä¸ĵ çĶ¨
äº¤éĢļ å¤§åŃ¦
ä¼´ å¥ı
éģ£ ä½¿
åŃ£é£İ æ°ĶåĢĻ
B I
ä¸Ń åľŁ
ä¸Ģ èīĺ
åĲį åģµæİ¢
ä¸ī æ¢Ŀ
18 41
åıĸ åĲį
è¿ª åħĭ
ç§¦ åľĭ
å»ºçŃĳ éĿ¢ç§¯
äºķ ä¸Ĭ
ĠSt ate
çģ¾ å®³
å«Į çĸĳ
çļĦ æĬĢè¡ĵ
å» ģ
æīĢ èªª
æ¼Ķ åıĺ
æĹ¥æľ¬ çľ¾èŃ°éĻ¢èŃ°åĵ¡
èªŀ æĹı
åıĭ äºº
åİĨåı² æ²¿éĿ©
ä¸įéģİ åľ¨
é¾Ĳ å¤§
ä¸§ å¤±
5 50
çļĦ ä¸Ńå¤®
ä¾ ĸ
ç±³ çī¹
ãģ Ļ
ç»´ çĶŁç´ł
çľĭ èµ·ä¾Ĩ
çĶ² çĥ·
å®ģ å¸Ĥ
æľ± çĨ¹
æľīä¸Ģ ç¨®
Ġp r
å¹ķ å¾Į
ç¤¦ çī©
èµ¢å¾Ĺ äºĨ
å¥¥å°Ķ èī¯
åĪĨçµĦ è³½
b ox
Â ²
å» ¬
ä¸» ç¥Ģ
å°į çħ§
å·´ çĻ»
ar th
it ch
å¼ķ èĩ´
åı°çģ£ çľģ
ä¼ł æķĻ
ç¶Ń åħĭ
åıĭ è°Ĭ
åľ°æĸ¹ çļĦ
å£° è°ĥ
èķ Ļ
åĪĺ å°ĳå¥ĩ
éĿľ å²¡
åĻª éŁ³
ä¸ĵç§ĳ åŃ¦æł¡
æ¯Ķä¸Ĭ å¹´
ç´¡ ç¹Ķ
D D
i P
æľī åħ©åĢĭ
åĴĮ ä¸į
æĪĲ éĥ½å¸Ĥ
ä¹ĭ æīĢ
åĬł éĢŁåº¦
å¦Ĥ ä¾Ĩ
å¯¹ ç«ĭ
ãĥ ı
æĪĺ åĮº
ä¼Ĭ åĩ¡
ï¼īãĢģ ãĢĮ
åįļ è§Ī
æľĢå¾Į åľ¨
æĸ· å±¤
ç¿» åĶ±
èģļ ä¼ļ
åıĳçĶŁ çļĦ
èĥ½åĬĽ çļĦ
åŃĶ éĽĢ
çļĦ æĥ³æ³ķ
åĲ Ĺ
ä¸į æĩī
ä¹ĭ æĹ¶
åĩº èī²çļĦ
åĪĨ æĺİ
åħ¨ æĸ°çļĦ
éĩį å¥ı
an o
æĺŁ éĻħ
å·² æĪĲçĤº
al m
æĿİ åĺī
ä¹Ŀ å»£
ä¿® çŃĳ
am a
çº³ å°Ķ
èĪ¹ åıª
åĶ® ç¥¨
æľ± å¾·
è¿½æº¯ èĩ³
æĸĩèīº å¤įåħ´
èĩ´åĬĽ æĸ¼
å¹´ ä¹ĭåīį
åĲ ¡
æĪ ®
å¤§ æºª
20 8
æĪĲ åĲį
ä¸Ĭ æĿī
ä¹ĭ å¦»
æľ¬ çĶ°
çŃī å¼ı
å®ĥ åı¯ä»¥
æ³¢ çĪ¾
äº¦ ç¨±
çħ ŀ
æ±ī ä¹¦
æ¼¢ æĸĩ
ĠR obert
ĠH ong
æ¤ °
çĳŀ æĭī
ĠN et
éģł å¾ģ
Ġb at
ç»ĵæŀĦ çļĦ
ç´Ķ ç²¹
å¸ĪèĮĥ åŃ¦éĻ¢
IF A
é©¬åĵĪ è¿ª
E A
åľ¨ ç¬¬ä¸Ģ
åĨ ī
éĿ ´
æµ· çģ£
åı° çį¨
è¿Ľ åĨĽ
ä¸ĢåĢĭ æľĪ
æ¡Ī çļĦ
çļĦä¸Ģ åįĬ
åĿĩ çĶ±
å·¥ä½ľ äººåĵ¡
èµ° äºĨ
æ¤į è¢«
èī¾ çĪ¾
åĦª é»ŀ
ä¾µ åħ¥
åĨ· åį»
çı¾ä»£ çļĦ
æ¹¯ å§Ĩ
åĪª éĻ¤
Ġ 40
åĮĹ éĿŀ
ä¸ī çº§
åĪ© æ½¤
æµ· éĹľ
çı ª
an th
èµ· çĤ¹
å¼Ģ åĽ½
åĲĳ ä»ĸ
èĮ ±
éĸĢ å¸Ĥ
å¾Ī é«ĺçļĦ
ol ar
åĵĪ æł¹
åĿĩ è¡¡
ä½Ľ éĻĢ
é£İ æļ´
ä¸ĸçºª ä¸Ń
åĵį åºĶ
ç¯ĩ æĸĩç«ł
æ¿Ģ è¿Ľ
éģĩ åĪº
æŁ´ çģ£
éĻĽ ä¸ĭ
A c
Ġ é£¾æ¼Ķ
ä¸Ģ æĸĩ
å¤§ çĤº
åĴĮ ä¸ĢäºĽ
é«ĺ èĢĥ
åħ¨ èĥ½
æĹ¶ ç©º
çĻ¼ èĤ²
åıĥ éĸ±
ä¼Ĭ å°Ķ
ä½Ľ åľ°éŃĶ
æĸ°èģŀ åı°
è´µ å¦ĥ
æļĹ ä¸Ń
ä¹¦è®° å¤Ħ
å¡ĳ èĨł
æ»¨ æµ·
æ¿ĢçĥĪ çļĦ
æ©Ħ æ¦Ħ
I s
çļĦ å®īåħ¨
æ² ½
æĸ° æ¸¯
18 58
æĿ± è·¯
æĹ¥æľ¬ å¸Ŀåľĭ
éģ¸ ç¥¨
èĬ± çĶŁ
ä¸ĥ å¤§
è¼ĥ å°ı
éĪ £
è¾Ń åħ¸
äººå¤§ æĪ°
åĲįäºº åłĤ
èĳµ æ¶Į
èŃ¬ å¦Ĥ
ä¹ĭ æĹ¥
åīį è¿Ľ
æĶ¯ å»³
å°İ å¸«
ers ion
éģĩ éļ¾
çĽĳ ç®¡
åıĸæ¶Ī äºĨ
å²Ń åįĹ
åģµ æ¸¬
çŁ¥è¯Ĩ åĪĨåŃĲ
å¼ĹéĽ· å¾·
att le
æłĸ æģ¯
ä¸Ĭ éĥ½
èĭ Ł
åĶ ¤
å¤ª æ¹ĸ
ç»ı è´¹
æĪĺ æľ¯
ç¦ı çĶ°
æīĵ åĩº
æĬķ å¥Ķ
è³ª åŃĲ
åģľ è¾¦
ç¯ĩ å°ıè¯´
op e
è¿ģ ç§»
ç´« èī²
æĶ¿æ²»åįıåķĨ ä¼ļè®®
S uper
g el
å¤ĸ ä¾Ĩ
éĢļ ä¿Ĺ
18 59
å½¢ çĽ®
ä¿¡ ä»¶
ç¾İåľĭ åľĭå®¶
åĪĻ åľ¨
çķª åı°
man n
æĪĺå½¹ ä¸Ń
æ¢µ èĴĤ
çĪ ·
ä¸ī å³¡
è¿Ļ ä½¿å¾Ĺ
åĪĹ åħĭ
æĽ¾ èĶŃ
ç´ł çļĦ
æī¹ å¤į
ac he
éĤĦ åĮħæĭ¬
ĠL aw
il ity
ĠI t
åºķ éĥ¨
éļ¨ æ©Ł
ä¹ħ ä¿Ŀ
ç´ħ è»į
Ġp h
åĪº æ®º
éģ· å¾Ļ
âĶĢâĶĢ âĶĢâĶĢ
P aul
åľ¨ åįĹäº¬
ä¸į åģľ
ä¸į åłª
æŀ £
åŃ¦ åĴĮ
ç¾İ ä¸½
å»º æł¡
çİĭ èİ½
åħĥ åĴĮ
éĿŀ çī©è´¨
è®¤ è¯ģ
èĩªçĶ± é»¨
æ²¿ éĢĶ
å°Ĭ æķ¬
pl ay
çļĦ é»ĳ
å¹´ æİ¨åĩº
ä¸Ģ åĳ¨
ä¸Ģ å¼µ
è¡Į æĿİ
å®¶ éķ·
çī¹ æľī
çķ¶ ä¸ŃçļĦ
æĮĩ å¼ķ
åĳ½ è¿Ĳ
éģĭ çĩŁ
å±ħ çķĻ
èĲ½ çļĦ
å¯º åºĻ
æľĢå¾Į ä¸ĢåĢĭ
éĢı è¿ĩ
ä»Ļ å¥³
è¯ĳ ä¸º
å·²çŁ¥ çļĦ
ä»ĸ å°±
ä»ĸ å°ĩ
ç©º éĽ£
è§£ ä½ĵ
å°Ĩ åľ¨
çĩ ¦
æ¿ ł
æŃ» äºĨ
ä¹Ŀ åįģ
ç¶Ń åĲī
ĠB rit
æ¨ĵ éĿ¢
å¾·åľĭ çļĦ
éĺ¶ å±Ĥ
æĸĩèĹĿ å¾©èĪĪ
å¼ Ī
åŃ¦ æ´¾
å¤ļ éĩį
ä¸ĭ æ»ĳ
åĪ© å¥§
æº ´
æŁ µ
18 15
è¶ħ å¸Ĥ
çİĩ çĤº
ä½Ľ åĥı
èģĸ åľ°
åĤ³çµ± ä¸Ĭ
çĳŁ çĲ³
è¼Ķ å°İ
æ¹¿ æ¶¦
éĵģéģĵ éĥ¨
å°¸ ä½ĵ
ener al
p or
å¹ ¡
å¹´ äºŀæ´²
æıĲ éĨĴ
éĢ² åĮĸ
ç¹ ¡
çĻ¾ åº¦
éĿ© æĸ°
éģł çļĦ
ãĢĤâĢĿ âĢľ
èĲ¥ ä¸ļ
im a
çįµ äºº
æŃ¦æ±ī å¤§åŃ¦
g en
æ° ¹
æĭī åľŃ
åĨħ éĻĨ
çŁ³ ç¢ĳ
æİĴ æĸ¥
èĲ½ æķĹ
å¼ł ä¼¯
åį« åħµ
ä½ľä¸º ä¸Ģä¸ª
åĪ» æľī
éľį æł¼
å¸ĮæľĽ èĥ½
å¹´åīį çļĦ
ä¸Ĭå¸Ĥ åħ¬åı¸
åĢļ å¤©
æ³ £
å¯ °
éĹ °
çī¹ å¾ĭ
æ¥ ŀ
æº º
è¿Ļ æĿ¡
é¦ĸ å±Ĩ
é¦ĸ èĦĳ
æĮĩ çļĦ
åıĸ åĨ³
æĻ® åĭĴ
æ¾ ľ
ç¬¬äºĮ å±Ĩ
æķ´ ä¿®
æł¸ åŃĲ
åº·çĨĻ å¸Ŀ
ç½· å·¥
åŁ¼ çİī
p ro
æģ ¥
è»Ĭ éģĵ
åıį å¤į
åł± å¾©
éĻ¸ æĪ°éļĬ
æīĺ å°Ķ
èĭ±åľĭ çļĩå®¶
æĸ¹éĿ¢ åĨĽ
åĩł ç§į
çļĦç¬¬ä¸Ģ åĢĭ
å¤§ä½¿ é¤¨
å·¡æ´ĭ èī¦
è®½ åĪº
á ĥ
éģ ģ
çŃī åĪ°
å¤ĸ è¡¨
å¾· æ¸©
äºĭ åħĪ
åĲİ åľ¨
åħ³ èģĶ
ä¸ŃçļĦ ä¸Ģä¸ª
é¹ ¦
åľį æĶ»
æŀģ åħ¶
å¤§å¤ļ æķ¸çļĦ
çļĦ åĲĮæĹ¶
å¹´ èĲ½æĪĲ
ãĢģ âĢľ
çĶ± åħ¶
æĸ° æĪĲç«ĭçļĦ
ç¨± å¸Ŀ
æĮĩ æłĩ
ä¸»è¦ģ åľ¨
ç¸£ éģĵ
æīĺ å¤«
åĪĩ åī²
ä½įæĸ¼ é¦Ļæ¸¯
çĽ£ è¦ĸ
ap e
é¡ŀä¼¼ æĸ¼
çļĦåİŁ å§ĭ
æįĲ è´Ī
è¾£ æ¤Ĵ
ãĢĢãĢĢ ãĢĢãĢĢ
ä¸Ģ å¼Ģå§ĭ
å¤ĸ å½¢
çĽ¸ éģĩ
è« Ĵ
éĺ¿ å¡ŀæĭľçĸĨ
èı¯ åįĹ
åĶĲ å¤ªå®Ĺ
æĢĿæĥ³ çļĦ
ä»¥ä¸ĭ æĺ¯
æĪĳä»¬ çļĦ
æ¿ģ æ°´
è¨ ¼
ä¹ĭ æŃ»
æĸĩ æł¼åĭĴ
æ°ĳ æ³ķ
ä¸ī å¤©
er ing
æĶ¹ ç»Ħ
äºļ åĨĽ
éº ¾
åıª åī©ä¸ĭ
æ¯Ľ ä¸»å¸Ń
å¹² çº¿
æİ§åĪ¶ åĻ¨
åĲ¦ è®¤
ç´Ĳç´Ħ å¸Ĥ
ä¸ŃåŃ¸æł¡ åıĭ
ĠBook s
Ġ èĳĹ
ä¸į èĤ¯
ä¹ĭ å¤§
æĸ° æ°ĳ
ä¹Ł ä¸įèĥ½
å¤© å®®
éĩį åĤ·
èĬ ·
å¼Ģ éĩĩ
åŃĹ ä½ĵ
ãĥ ĳ
çīĪ æĿĥ
å®ĺ éĤ¸
ç¦ı æĸ¯
èĻķ åĪĨ
åĶĲ çİĦå®Ĺ
çĸĳ ä¼¼
all y
ä¹Ļ çĥ¯
æ£ĭ åŃĲ
ES T
ĠĠĠĠĠĠĠĠ ĠĠĠĠĠĠĠĠ
è±Ĳå¯Į çļĦ
G u
â ī
ï¼ļ ãĢİ
æ¸ Ĺ
å®¶ åĴĮ
ä½Ĩ éĢĻ
èµ· é£ŀ
æ©Ł èº«
å·´ åĪ©
åı¤ éģĵ
ç¹ Ĩ
çµĦ åĪ¥
ï¼īãĢģ ï¼Ī
us h
ĠD o
æĪĲä¸º ä¸ŃåĽ½
å¼º è¿«
é²ģ æĸ¯
ç§ĳæĬĢ å¤§åŃ¦
çļĦåĲį ç¾©
ä½© æĸ¯
ä¹Łå°±æĺ¯ è¯´
S V
åı ¹
åľ¨ å°ı
ä¸Ģ åľĭ
ç¶ º
å±± ç«Ļ
çĽ¸ å®¹
éĢ£ ç·ļ
ĠP aul
æ¯į èªŀ
çįİ éĩĳ
éĨ £
é¾į çļĦ
çĭ¬ çī¹
ä¾¯ çĪµ
é¡º æ²»
ç²ī çµ²
å½Ń å¾·
è®¾ç«ĭ äºĨ
æīĢè°ĵ çļĦ
äºº åıĬ
ä¸Ĭ éĻĲ
çī¹ æľīçļĦ
çĽ¸ ä¼ł
åĤ³ åĩº
è®Ĭ èº«
åºĶ çĶ¨äºİ
id d
èĽ ¾
éŃĶ å¥³
è¤ĩ æķ¸
æĺ¯åĲ¦ æľī
å©Ĩ ç¾ħ
ret urn
ç¶²éļĽ ç¶²è·¯
çļĦ ä½ľèĢħ
åĴ ½
åĴĮ ä¸Ģä¸ª
å¤ļ ç±³
é«ĺ å±Ĥ
å¾· çĶ²
éĸĭ æĭĵ
å¹¶ æĹł
ãĥ ģ
çµ± å¸¥
åį¡ æ´Ľ
èĬ± è²»
åįĬ å°İé«Ķ
ä½ı æīĢ
åĪĴ åħ¥
éĩİ æīĭ
æ¢ģ å±±
çį¨ç«ĭ éģĭåĭķ
çĶŁåĳ½ çļĦ
èģĶåĲĪåĽ½ å®īçĲĨä¼ļ
éĤ® ç¥¨
EE E
å±±åı£ çµĦ
uro pe
E m
c a
çļĦ è¯Ńè¨Ģ
å¹´ åįģäºĮæľĪ
ä¸Ń å°ı
ç³» æķĻæİĪ
12 6
å°ĩ ä¹ĭ
æµģ çļĦ
å¾Ģ æĿ¥
æĬĹ åİŁ
è¾ĥ å°ĳ
ç¦ģ ä»¤
äºĨä¸Ģ ä»½
éĳ °
è²´ å¦ĥ
é¢Ħ å¤ĩ
çĪĨåıĳ åĲİ
æŃĩ çĪ¾
èı© èĲ¨
è²ª æ±¡
SQ L
å¯Įçī¹ æĸĩæł¼åĭĴ
= |||
å·¥ äºĭ
18 53
éĢĻ åº§
æķ° çĻ¾
æĢ» éķ¿
it z
åĽ½å®¶ åħ¬åĽŃ
è½ī èĢĮ
ä¸ĢèĪ¬ èĢĮè¨Ģ
å¹³åĿĩ æ°Ķæ¸©
ãĢģãĢģ ãĢģ
æ±¤ å§Ĩ
çīŁ å°¼
amil y
App le
D J
c ast
ä¸Ģ ä¸ĭ
çĤº ä»ĸ
æµ· çĽľ
èĲ Ŀ
çĽ¸ éĦ°
å¿ĥ éĿĪ
æ· ¤
é«Ķ åŀĭ
éģĭ éĢģ
æĥħ èĬĤ
æļ ±
éĿ©åĳ½ å§Ķåĳĺä¼ļ
è¿½ è¹¤
å¤ľ å¸Ĥ
èĲĬ å¡¢
éŁ³ä¹Ĳ åī§
èĭĹ æĹı
âĹ ĭ
P N
çļĦ ç»ĵæŀĦ
å¹´ ç¾İåĽ½
æ°ĳ éģ¸
åĲİ äºİ
é£ ¢
ç³» æķ°
é¦ĸ æ¼Ķ
èªŀ ä¸Ń
æĶ¯ éĺŁ
æĬķ éĿł
æ°ĳä¸» ä¸»ä¹ī
èĩªçĦ¶ çķĮ
æµ¸ ä¿¡
M ark
çļĦ åĨ³å®ļ
åĴĮ åħ¶å®ĥ
ä»¥ å¤§
æĸ¯ éĢļ
å¤ļ éĥ¨
æīĢ è¿°
ç³ ¯
æ¬¡ åºı
éĩı çĶ¢
ç±³ åĵĪ
æļ ī
å¡Ķ å°¼
ç§¦ çİĭ
äº¿ ç«ĭæĸ¹ç±³
è¡ĮæĶ¿åĮº åŁŁ
æĪĺæĸĹ æľº
å¥ł å®ļ
è¯Ĭ æĸŃ
% ï¼īãĢģ
M ag
çļĦ éģĵè·¯
æľī åĲįçļĦ
åĴ İ
åĩº å¢ĥ
ä¸¦ åĲĳ
åĨħ çĵ¦
å¨ģ å£«
é»¨ åħ§
æĦĽ åĽłæĸ¯åĿ¦
åįł éłĺ
ĠG r
åĬī å¾·èı¯
è¡¡ éĺ³
è¬Ľ è«ĩ
æĬķåħ¥ æľįåĭĻ
g ar
Ġ âĢĶâĢĶ
åį ī
ä¸Ģ å¹´çļĦ
ä¸ī åĪĨ
åĽł çĹħ
12 7
ä¹¦ åºĹ
èī¾ åĵĪ
ä»»ä½ķ äºº
æĺ¾ çĦ¶
å®¿ ä¸»
åĪ¶ä½ľ çļĦ
ç¨İ æĶ¶
èµ«é²ģ æĻĵ
åıĸåĨ³ äºİ
C omm
W orld
çļĦ äººåı£ä¸º
çļĦ æ¬ĬåĬĽ
ä¸Ģ è¡Į
èĩª æĪĲ
å¿ĥ ä¸Ń
æłĩ è¯Ĩ
æ¤ Ń
å¥ĸ çīĮ
æ¶² é«Ķ
è¯ĳ æľ¬
ç´Ģå¿µ æĹ¥
é±¼ ç±»
ä¸Ĭå¸Ŀ çļĦ
æł¼é²ģ åĲīäºļ
ĠAssoci ation
éĤ£ä¸į åĭĴæĸ¯
åĪ ®
çķ¶ æĻļ
å½¢ åĭ¢
ç¸½ åĢ¼
èħ ¥
è²Ŀ åħĭ
åĩ¡ å°Ķ
ç¹ª è£½
åľ°çº§ å¸Ĥ
Ñ ı
çļĦ åĨĽäºĭ
ä¸Ģ èªª
ä¸Ĭ å±¤
éĩĮ å¾Ĺ
æĢ» éĩı
ĠC ity
ä¹Ŀ ä¸ĸ
æķħ éĦī
å»¶ å¹³
ĠE r
å½±éŁ¿ äºĨ
éľį çĪ¾
éĺ» åĬĽ
å°¤åħ¶ æĺ¯åľ¨
æ¸¯éĲµ åħ¬åı¸
æĤŁ ç©º
H ar
Ġ 1995
å¸ Ľ
å¤§ åħ¸
æĹ¥ æĸ¹
åħ¬ åľĭ
åħ¨ æĸĩ
åĮħ è£Ŀ
ãĥ ¢
å¢ĥ å¤ĸ
åĪ¥ äºº
åī¯ æķĻæİĪ
è´Ŀ æł¼
ç´« éĺ³
è²§ çª®
R O
åĪĨ åħ¬åı¸
å¸Ĥ äººæ°ĳæĶ¿åºľ
éķ· å¥³
èĬ ¸
å¨ Ł
ç¸½ åĨłè»į
åľĺ éķ·
å¢ĥ çķĮ
ä¼ł ä½ĽæķĻ
è¿ĺ è¦ģ
åº· æ¨Ĥ
åĤĻ åıĹ
å·¨ èĽĭ
çĤ¸ å¼¹
è¿Ļä¸Ģ çĤ¹
å¶ ½
çĽ¸åħ³ æĿ¡çĽ®
å¢ľ æ¯Ģ
ĠComm un
3 40
çļĦ èĭ±æĸĩ
åľ¨ å¾·åĽ½
ä»¥ éģ¿åħį
æŀ ĭ
åįĹ æ¥µ
èµ· åĪ°
æĶ¹ å±ŀ
ä¸ľ ç»ı
en ry
æĽ¾ èĪĩ
åı· åĨ³è®®
ç»Ħ éķ¿
å¸Į å¾·
éĤĦ åİŁ
ä¸ĢäºĽ äºº
äºĨä¸Ģ æ¬¡
éŁ³ä¹Ĳ ä¼ļ
åĭĩ æķ¢
Ġed ition
ĠComp any
å¼łå®¶ åı£
p x
å¹´ çį²å¾Ĺ
çĤ ¯
ä¸Ĭ æ¦ľ
åı¯ çĶ±
ä¸ī åįģåħŃ
æµ· åĽł
å¤© å±±
å£« å®ĺ
æĦı çĶ²
åıĤ è®®åĳĺ
åħ³ ç¨İ
åĲī çĶ°
æĦŁ çŁ¥
}- ãĢĤ
åĩºçĶŁ çļĦ
ç¶ĵæ¿Ł çĻ¼å±ķ
æĽ¹ ä¸ķ
éĺ» ç¤Ļ
çİ» åĪ©
å¾·å·Ŀ å®¶
æ¨ŀ æ©Ł
éĩĳåŃĹ å¡Ķ
è¬Ľè«ĩ ç¤¾
b a
éĥ ¸
è· ª
éĩĳ èī²
æ²» æīĢ
ä¸ľ æ¬§
çĦ¡ æĶ¿åºľ
ĠC enter
ä¹ī åĴĮ
æ¨Ļ æľ¬
æĪĲä¸º ä¸Ģä¸ª
çŃĸ åĪĴ
éĤ¦ èģ¯
åĨĻ æĪĲ
åı¥ è©±
ain t
éĩĳæĽ² çįİ
åĢ¼å¾Ĺ ä¸ĢæıĲ
20 24
æŃ¤ çĤº
åĬł å¤§
è»į éĸ¥
å¹¶ ç§°
æĮĩ å®ļçļĦ
è¯Ń æĹı
æĢ» ç»ıçĲĨ
èĲ¬ éĩĮ
åıĭ èª¼
om y
æĹħ é¤¨
ad a
å»ī æĶ¿
æ²Ł éĢļ
çĪ¸ çĪ¸
ç¬¬ä¸ĥæ¬¡ äººåı£æĻ®æŁ¥
åŀĦ æĸŃ
o e
çļĦ æłĩåĩĨ
ä¹ĭ åĬ©
æ± ²
åŃĲ åŃ«
éĩį çĸĬ
å®ī èĳ¬
éĩĳ æ²Ļ
æĪĸ ç§°
åºľ åŁİ
é¦¬ è·¯
ç¸½ æķ¸
åŃĺ åıĸ
éĶ Į
ãģ ¤
éİ Į
èĥĮ éĿ¢
æ»¿ è²«
åĬ¨çī© çļĦ
çļĦ æĶ¿åºľ
å¤§ åħ´
ä»ĸ èĩªå·±
ä¸ī ä¸Ģ
åĬł çĥŃ
12 2
çįİ ç«ł
åºķ çī¹å¾ĭ
éĽĻ å±¤
ä¸ĸç´Ģ ä¸Ń
è½½ äºº
èĮ¶ åı¶
ä¹ł è¿ĳå¹³
å¹¼ å¹´
åĲ¸å¼ķ äºĨ
æģ¶ åĮĸ
åĩĿ èģļ
ç¥ŀèģĸ ç¾ħé¦¬å¸Ŀåľĭ
ä¸Ĭ ä¹Ł
å¦ į
å°ı æŀĹ
è»Ĭ åŀĭ
ç¸½ æĽ¸è¨ĺ
åį³ ä»Ĭ
æ³¢ å¤ļ
æ³¢ åĪ©
åĻ¨ æĿĲ
ĠC an
å¾Ī å¥½çļĦ
ä»£è¡¨ äºĨ
å·¥ä¸ļ éĥ¨
çĹĩ çļĦ
é¹¿ æ¸¯
éĽ»è¦ĸåĬĩ éĽĨ
çģ¾ éļ¾
è·¯å¾· ç»´å¸Į
p ar
ä¸Ń å·´
æľī è¶£
èĩ §
æ¸ ¥
å®¶ å±¬
æ°ĳ æŃĮ
åı¯ è¢«
èĤ ½
èµ· äºĭ
æıĲ èµ·
éģĭ æľĥ
æŃ¦ å°ĩ
ç¦ı åħĭæĸ¯
æīĵ åĢĴ
éĽ· è«¾
å²Ľ çļĦ
æįķ æįī
è·¨ åľĭ
æµģè¡Į æ¦ľ
å°ıè¯´ å®¶
åĬ³åĬ¨ åħļ
ä¿ĺèĻ ı
çĽ´åįĩ æ©Ł
è²¡åľĺ æ³ķäºº
ä¹Ŀå»£ éĲµè·¯
Ġ http
ä¸Ģ é¡Ĩ
å¤§ éĽĦ
åĩº è¡Ģ
ä¸ĭ èŃ°éĻ¢
åĲĪ è³ĩ
æ¯Ķ å°Ķ
åŃĹ åŀĭ
å½ĵ ä½ľ
16 6
å®¹ çº³
èĲ¬ åĲį
ä¸Ńå¤® å¤§åŃ¸
è§Ĵèī² æī®æ¼Ķ
çĸı æķ£
% ï¼Ī
äºº ä¸Ń
æĺ¯ ä½¿çĶ¨
æĶ ¸
åıĬ æĸĩåĮĸ
é«ĺ æĺĮ
æīĢ åıĸä»£
åı² ä¸¹
æ¼Ķ åĩºçļĦ
å¸ĥ ç½Ĺ
æĺŁ ç©º
èĳĹ éĩį
æ²³ æ°´
è§Ĵ å·Ŀ
å°İ å½Ī
åŃ£ è»į
ç»Ļ ä»ĸ
å°¾ å·´
ob ile
å»ºéĢł äºĨ
æĩīçĶ¨ ç¨ĭå¼ı
æ¸¸æ³³ æ±ł
èİ² èĬ±
ĠServ er
åįļè¦½ æľĥ
T E
å¹´ æĪĲçĤº
ï¼ī âĢĿ
æľĪ åĪ°
éĥ½ æ²¡æľī
æĵĬ ä¸Ń
èĶ ¥
ĠW ork
ç¤¾ä¼ļ åħļ
éĹľä¿Ĥ çļĦ
è·Ł éļı
é¼İ çĽĽ
çĥŁ åı°
è©¢ åķı
éŃħ åĬĽ
éĿŀçī©è´¨ æĸĩåĮĸéģĹäº§
P DF
S C
åľ¨ åľĭéļĽ
ç«ĭ é«Ķ
æĽ² çļĦ
å®¢ è§Ĥ
å¸¶ åĭķ
å¹² æī°
æª ³
æ¸© åĴĮ
æ²¿ çĿĢ
ä¸»æķĻ ç·´
æ½® æ±Ĳ
é¢Ħ éĺ²
åıĶ çĪ¶
è´Ĭ æĪĲ
çŀŃ è§£
æĻ ·
åĪĨ éĻ¢
åŃ¸ éĩĳ
éķ ¶
å¤ļ åĢ«å¤ļ
åįĹ èĩ³
åĨĽ éĺĢ
èĳĹ æīĭ
èı¯ åĮĹ
åį³ ä¸º
åįİ æ²Ļ
è¿Ĳ è½½
ä¿® è®Ģ
ç¶Ń åŁº
åįĩ èĩ³
ç£ Ĳ
çļĦåľ° ä¸ĭ
38 6
æµģè¡Į æĸĩåĮĸ
ä¼¤ å®³
åħ¶å¯¦ æĺ¯
S R
çļĦ æ¨Ļæºĸ
æĺ Ĭ
éĩ ĺ
ç« ĸ
æł ĵ
è½ İ
å¸¸ åľ¨
åİ¿ å±ŀ
çŁ³ åĪ»
çģ« çģ¾
èĪī ä¾ĭ
æľĹ æĭ¿
ag ue
æ¸Ľ è¼ķ
åĨĴ éĻ©
å¼ķåħ¥ äºĨ
æ©ŁåĻ¨ äººå¤§æĪ°
å¸¦æĿ¥ äºĨ
åĲŀåĲĲ éĩı
åĲ Ĵ
æĹ¥ éĸĵ
åı¯ ä½¿çĶ¨
æ¨ µ
ç¸ Ľ
åıĸ æĿĲ
æĽ¸ æĪ¿
æĢĿ æ½®
éłŃ é«®
æ§ĭ æĥ³
ä¹¾ çĩ¥
çĻ¼è¡¨ äºĨ
ãĥ¼ ãĥ«
å·§ åħĭåĬĽ
è¤ĩéĽľ çļĦ
åĭĭç«ł èİ·å¾ĹèĢħ
æīĵçł´ äºĨ
i idae
ä¸º ä»ĸ
çĻ Ĵ
åĲĮ è¡Į
æ¸¯ å¹£
éķ· æĻĤéĸĵ
é© ķ
é¦ĸ æŃĮæĽ²
å¼Ģ éĻ¤
åĽŀ å¾©
æİ¨ æµĭ
id ent
é»Ħ åŁĶ
os eph
æ´»åĭķ çļĦ
èĲĬ èĮµ
æ¯ģ çģŃ
ç¥Ŀ ç¦ı
ä»»æľŁ çĤº
æĦıè¯Ĩ åĪ°
GN U
ä¸Ńåħ¨ ä¼ļ
V ol
Ġ çİĭ
åĪ ¹
ä¼ İ
åĭķ æ¼«
å£« çļĦ
çĸ ¹
æ¯ı å°ıæĻĤ
å®£ æĪ°
å¡Ķ åħĭ
åºĶ å¯¹
éĤĦ æľĥ
èª¿ ç¯Ģ
åĺī åºĨ
é¡¯ å¾Ĺ
èīº äºº
éľ² å¤©
é§ķ å´©
ç´§ å¯Ĩ
âĦĥ ãĢĤ
å¤ļå¹´ ä¾Ĩ
ç»¼åĲĪ æĢ§
å»£æĴŃåĬĩ CD
" ï¼Ī
M C
çļĦ F
ä¸Ĭ ç©º
ä»ĸ æĬĬ
ä¸ī èı±
å¤ĸ æĿ¥
åħĥ åŁ¹
12 4
äºŀ çī¹èĺŃ
æĢ» ä¼ļ
äººåı£ å¢ŀåĬł
14 5
åįļ å®¢
ç´ħ æ¨ĵ
è®ĵ äºº
æŃ»äº¡ çİĩ
åľ¨æŃ¤ ä¹ĭåīį
æľīäºĽ äºº
çŃĨ åĲį
éĤª æĥ¡
å¸¸åĬ¡ å§Ķåĳĺä¼ļ
æĶ¯æĴ Ĳ
åľ¨ åİŁ
ä¸Ģ æĹı
ä¸Ģ çıŃ
åĽ½ æŃĮ
æĸ° åĽĽåĨĽ
çŃī åĽłç´ł
æµ· é»ĺ
ç§ĳ æĻ®
ä¸¦ åĪĹ
å¥³ èĹĿäºº
æ¼Ķ æĬĢ
äº¤ éħį
çĶµ åİĭ
ç·ļ è·¯
çŁ³ å®¶åºĦ
è¯´ æľį
ç¯Ģ å¥ı
éŁ¿ æĩī
iv es
åħ³ç³» çļĦ
æ´»åĬ¨ çļĦ
ãĢı ãĢĤ
éĥµ å±Ģ
çĢıè¦½ åĻ¨
iction ary
ä¸Ģ æľ¬
ä¸Ģ åĲĳ
ä¸º ä»Ģä¹Ī
åĪĨ æīĭ
æľĿ æĶ¿
åı¤ ç½Ĺé©¬
èĢĥ è¯ģ
éĻĦ ä¸Ń
çµ¦ ä»ĸ
æĻļ æ¸ħ
èĥŀ èĥİ
çİĽ éĽħ
ç½ķ è§ģ
å¤ªç©º èĪ¹
çļĦ è§ĤçĤ¹
å¤§ äºº
ä¼ ŀ
è·¯ éĿ¢
er k
éħ ¥
äº¤ æĪĺ
æĥħ çļĦ
ä½ı æ°ĳ
æĪ¿ éĹ´
æ»¡ æĹı
é¾Ĳ å¤§çļĦ
æľŃ å¹Į
i os
æĹ¥ åĲĳ
çĤº ä¸Ńåľĭ
èĥ ±
è£ ĺ
18 56
åı² åŃ¦å®¶
åį³ ä¾¿
çĻ½ æ²Ļ
17 5
æī¿ æĵĶ
åģļ åĪ°
åİĨåı² ä¸ĬçļĦ
ĠE v
è¾ĥ å¤ļ
å½Ī ç°§
oc ial
éĢĨ è½ī
å¼ĹéĽ· å¾·éĩĮåħĭ
åĬŀåħ¬ åİħ
è¥¿åħĥ åīį
çļĦ æ¼Ķåĩº
åľ¨ åĲĦ
ä¸Ģ ä¹¦
åĽ½ ç±į
å±± ç¾Ĭ
æŃ£ ç»Ł
æľĿ éĺ³
çĽ´ ç·ļ
æ²³ åĴĮ
æ±Ł éĻµ
ä¼Ĭ çĬģ
éĻį éĽ¨
han g
å·® ä¸įå¤ļ
io us
è°ĭ æĿĢ
è¢ģä¸ĸ åĩ±
çĲµ çĲ¶
c he
Ï Ģ
æľī éĥ¨åĪĨ
åĴĮ éĿŀ
ä¹ĭ æīĭ
æ¼ ķ
âĢĶ ãĢĬ
æµģ ä½ĵ
è»Ĭ çļĦ
å±¬ æĢ§
å¸Ń æ¬¡
ç»ıæµİ æĬĢæľ¯
æ¢ħ çī¹
éĿ©åĳ½ çļĦ
æİ¡ è³¼
æ°§ æ°Ķ
ç¡¬ å¹£
åģ¶ çĪ¾
è®² è¿°
å±ı å¹ķ
æ³¡ æ²«
æĶ¹ç·¨ èĩª
æļ¢ éĬ·
èĬ¯ çīĩ
çļĦ ç»Łæ²»
ï¼ī (
æĹ¥ åĪ°
éĿ Ĥ
é«ĺ æīĭ
å·ŀ åĮº
æŃ£ çķ¶
èİ Ĩ
åĬ¨ åĳĺ
åı¤ æĸ¯çī¹
éĹ´ æİ¥
å¢ŀ è®¾
ĠK ing
æ©« è·¨
èħ¹ éĥ¨
è¿¦ çīŁå°¼
èľĤ é¸Ł
W S
æĺ¯ çķ¶æĻĤ
ç» İ
èĪĩ æĸ°
æīĢ çµĦæĪĲ
çī¹ çĪ¾
å¤ĸ è³¼
å°ı çĨĬ
æŀĹ æĸ¯
ç¤¾ æ°ĳ
éĩįè¦ģ æĢ§
èĥ¡ èĢĢ
ad er
Ġs e
è®© ä»ĸ
é§Ĳ å®Ī
èģĺ è«ĭ
æĸ°ç«¹ å¸Ĥ
ç¼ĵ æħ¢
éĩĮå£« å¤ļå¾·
è½īéģĭ ç«Ļ
E F
Ġ 2014
çļĦ æľĭåıĭ
åľĭ æľī
ä¸Ĭ å°ī
ä¹ĭ å¤ľ
å¤© æŃ£
å°į å¾ħ
ç§ĳ ç¾ħ
é¦Ļæ¸¯ éĽ»è¦ĸ
éģİ ä¾Ĩ
è° į
æĽ´ åľ¨
åħ© åº§
èģ¯ éļĬ
åıĥ èŃ°åĵ¡
æĺ¯ä¸Ģ å®¶
æĿ¾ å¹³
ç»Ī ç»ĵ
ra in
ĠCh inese
åŃŁ åŃĲ
8 000
Ġ are
çļĦ éķ¿
çļĦ ä¼łç»Ł
ä¸Ģ çĤ¹
å¤§ å±łæĿĢ
ä¹ĭ æ¯į
çķ Ŀ
ãĢĭ ãĢĮ
ãĢĮ ãĢįï¼Į
éĩį åŀĭ
æ¯Ķ åĸ»
å®£ å®Ĺ
çŁŃ ç¼º
å·¨ åŀĭ
å´ĩ ç¦İ
æĭĽ åķĨ
art in
è¶ħç´ļ æ©ŁåĻ¨äººå¤§æĪ°
å¤Ń æĬĺ
æ¸¦ è¼ª
V al
çļĦ å»ºçŃĳ
ä¸Ń éļĬ
æĺ¯ å°ĩ
éĻ ¡
è¯ Ľ
ä½ľ éľĸ
åı¯ çŁ¥
å±± çĶ°
çİĭ å¦ĥ
æģ ķ
ä¸ŃåĽ½ äºº
åĨħ æł¸
ä¸ļ ä½Ļ
è³½ ä¸Ń
ä»Ĭ å·Ŀ
is ter
è¯´ çļĦ
ä½ı äºĨ
id er
èĭ±åĽ½ äºº
çİī ç¥¥
ot o
çĶĺ èĤħ
æıĴ æĽ²
æĨĳ èĹī
å§ĳ å¨ĺ
æĸ°æķĻ å¾Ĵ
éĤ¯ éĥ¸
% ï¼īï¼Į
i y
Ġ rowspan
åľ¨ æīĢæľī
ä¸Ģ å°ı
ï¼ī âĨĴ
å¾Į ä¸įä¹ħ
ä¹Ł åĮħæĭ¬
å®ī ç¸£
å¸ĥ æĶ¿ä½¿
æīĭ ç¨¿
æ±Ł æ·®
çļĦä¸Ģ èĪ¬
ä»£è¡¨ åľĺ
èģĸ éĿĪ
éĽħ èĻİ
å¾© åĩº
ç¦ģ å¿Į
æ´ŀ ç©´
çķ¢æ¥Ń çĶŁ
æĬ« éľ²
éĩľ å±±
å¹´ æīĢ
åľ¨ æ³ķåľĭ
åī ĥ
æµ· æĪĺ
ç¥ŀ åŃ¦
èĩº éĲµ
å¸Į å§Ĩ
å¹² é¢Ħ
å¹² æĹ±
æĪĪ æŀĹ
å¹¿æĴŃ çĶµè§Ĩ
åĪĽéĢł äºĨ
æ¯Ĺ éĤ»
S ky
T L
w ik
çļĦ éģĬæĪ²
çļĦ çĪ¶äº²
å¤§ éļĬ
å¤§ ä»Ļ
è¢« æĿĢ
åĪ© ä¹Įæĸ¯
18 52
éĺ¿ åĭĴ
èº« å¿ĥ
ä¸ĸçķĮ éģĹäº§
ä¸¤ åº§
å¨ģ çī¹
æīĵ åį°
çľŁ èıĮ
éĴ ¥
éĴ ©
éĽ»å½± å°İæ¼Ķ
ig ital
éģł éĽ¢
çİ¯ çĲĥ
æĴ¤ éĽ¢
çĽ£ ç¦ģ
åķŁ èĴĻ
è¼ķ è»Į
æ±ł çĶ°
ĠCh urch
å¸ĪèĮĥ åŃ¦æł¡
æ¸´ æľĽ
çļĦ ç©º
çļĦ å»ºèŃ°
æ³ ¾
å¥ ļ
èµ Į
èĢĮ ä»£ä¹ĭ
å¤© é¹ħ
èĲ İ
åı£ åĳ³
å¸ĥ ç½®
è± ģ
æĿİ æķĸ
åħ« æĹĹ
åı¯èĥ½ åľ¨
ç»ıæµİ åŃ¦å®¶
çº¢ æ¥¼
èī¾ ä¼¦
èĩªçĦ¶ çļĦ
éĢĥ è·ĳ
å¸ķ æĭī
ç½¢ å·¥
b gcolor
çļĦ å®¶åºŃ
åľ° äº§
åĲİ åĭ¤
éĩį çĶ¨
ä¸ŃåĽ½ å¤§éĻ¸
è¯Ń æĶ¯
èĭ±åľĭ äºº
èī¾ æ£®
op ter
ĠO ne
çµķ åľ°
éĥµ ä»¶
æĻ®æľĹ åħĭ
. ï¼Ī
äºº æĢ§
æĺ¯ éĢļè¿ĩ
æĻĤ æľī
å¤ļ çĪ¾
èĩ³ äºİ
åİŁ çĶŁ
åĽĽ çĻ¾
æıĲ ç¤º
èĢĥ èŃī
ĠI m
å¾© ä»ĩ
è¶³çĲĥ ä¿±æ¨Ĥéĥ¨
å¾Įä¾Ĩ è¢«
ri ed
åĭķçī© åľĴ
çŁ¿ çī©
çļĦæĦı è¦ĭ
ä¸»æ¬Ĭ ç§»äº¤
å·´æĭī åľŃ
èĪĨ è®º
ç¶½ èĻŁ
çļĦ æĪĲåĳĺ
ä¸Ń äºļ
19 2
çĤº é¦ĸ
æ± ´
ä¸ĭ è½½
ä½Ĩ æ²Ĵæľī
èĬ ¥
åĽĽ éĥİ
éŁ³ ç¯Ģ
éģİ å¾Į
æīĭ ä¸Ĭ
ä¿¡ å¿µ
ç´Ħ åľ¨
ic es
éĮ Ĳ
èĩ´ æķ¬
è²¨ æ«ĥ
å¤¢ å¹»
åİļ åº¦
ĠNew s
* *
åħ¶ éĸĵ
éļ ĺ
åĲį ç¨±çĤº
ä¸ī ä»£
äºĮ åı·
çİĭ æľ±
åİŁ åŃĲçļĦ
æł¡ å°ī
åıį åĩ»
é¦¬ ä¸Ĭ
æľª æĽ¾
é»¨ å¤ĸ
um ent
ir t
åĽ´ æĶ»
éĢĥ éģ¿
åįĪ å¤ľ
è¿ģ åħ¥
ec ial
éĦ§ å°ıå¹³
åĪ¶å®ļ äºĨ
ç¡ķå£« åŃ¦ä½į
å¸ĸæľ¨ åħĴ
g r
æĶ ¬
ä¸į åĭķ
æĸ° å¼ı
çĶµ èį·
åŃĺ æĶ¾
åľº çļĦ
éĺ² èŃ·
æĳ© æł¹
åŁºçĿ£ å®ĹæķĻ
æ·· åĲĪçī©
å½Ĵ å±ŀ
çļĦæĦı ç¾©
åīįèº« çĤº
åıĥè³½ èĢħ
3 10
I E
æĪ ¦
éķ ĳ
18 54
ä¸¦ éĸĭå§ĭ
éĸĭ å¢¾
çķĮ äººå£«
al th
çłĶ è¨İ
çįİ åĭµ
çľŁ çĶ°
å¯¼ å¸Ī
éĩįè¦ģ çļĦæĺ¯
éĻµ åĽŃ
è¥¿çıŃçīĻ çļĦ
èĭıèģĶ çļĦ
éĥ½æľĥ åįĢ
åįģå¤§ åĭģæŃĮéĩĳæĽ²
è¿¦ å¤ª
æķĻç§ĳ æĽ¸
æ©Ħ æ¬ĸ
åĲįåģµæİ¢ æŁ¯åįĹ
S H
å¹´ ç´Ģ
èĢĮ åĲİ
æµ· è³Ĭ
éĩį å¿ĥ
æĺİ æĪĲ
é¦¬ åı¯
åħ« éĩĮ
æķħ å®®
æŀĦ æĪĲçļĦ
ç¤¾æľĥ åŃ¸
å¤ľ æĻļ
ay er
æĵ´ æķ£
ç·£ æķħ
ä¸ºä¸» çļĦ
èĩºåĮĹå¸Ĥ æĶ¿åºľ
çķĻä¸ĭ äºĨ
ock et
EE D
æĩ¸ æİĽ
æ²Ļçī¹ éĺ¿æĭīä¼¯
çĽ¸è¼ĥ æĸ¼
B B
n y
çļĦ çĲĥåĵ¡
ä¸Ģ éĤĬ
åĴĮ ç¬¬
ä¸º ä¸Ģä¸ª
è¥¿ éĹ¨
åĬł æ³°
åŁİ åįĹ
æŃ£ è¦ı
éĸĭ åľĭ
åĮħ è£¹
at ing
è¿Ľ å±ķ
ç©¶ ç«Ł
çĨ µ
et a
è¡Ľ éĸĢ
æ¬§ æĭī
æŃ¸ éĤĦ
èĽĭ ç³ķ
è«ĩ è©±
è¡¨çı¾ åĩº
èĤ¥ èĥĸ
èĬŃ èķ¾
Ġ 50
çļĦ å®ļä¹ī
åľ° æ¨Ļ
ä¸į æĪĲ
ä¹ĭ å¤ļ
èĢĮ ä»¥
ç¾İ çĪ¾
å°ı åŃĲ
è·¯ æĸ¯
åĸ ĺ
å¸ĥ ç¾ħ
æŃĮ è¯į
17 89
it or
çº¦ åįł
ä»£è¡¨ æĢ§
å¡Ķ åŁº
çľĭ å®Ī
èĶ ĳ
æĵĶ çķ¶
æĭīä¸ģ èªŀ
å¦ĸ æĢª
åĨħèĴĻåı¤ èĩªæ²»åĮº
æĽ¾èĶŃ æ¬Ĭ
2 14
J ames
T ype
k ey
u i
Ġ 21
çļĦ æııè¿°
ä¸Ģ ä½ĵ
å± ĳ
åĴĮ ç¾İ
çī¹ æ´Ľ
ä¸¦ æĬĬ
æ¢ ³
åĽ½å®¶ åĴĮ
é¢¨ æ³¢
ãĢĤâĢĿ ï¼ĪãĢĬ
å¿ł åŃĿ
ç®Ģ ä»ĭ
èıĮ å±¬
Ġ/ /
çļĦåĪĨ é¡ŀ
åī© ä¸ĭçļĦ
åį³ä½¿ æĺ¯
åįłé¢Ĩ äºĨ
æĪ°å½¹ ä¸Ń
å¸Įä¼¯ æĿ¥
åĪł éĻ¤
åħĭç½Ĺ åľ°äºļ
ä¿¾ æĸ¯
èĥ¡èĢĢ éĤ¦
S U
Ġ 26
çļĦ è§Ĵåº¦
çļĦ å¼Łå¼Ł
çĶ ¥
æķ Ľ
ä¸º é¦ĸçļĦ
éĩĮ å¥¥
éģİ äºĨ
æµģ ç»ı
ĠS T
ĠS outh
ä»Ĭ æ²³åįĹ
åĳ¨ æľ«
ç¡ Ĵ
å¤± ä¸ļ
å®ĮæĪĲ å¾Į
ç«ŀ æĬĢ
éĽħåħ¸ å¨ľ
åĵĨ åķ¦Aå¤¢
æĺ §
æľī å¤§éĩı
åĴĮ ä¸ī
å¤ļ æĸ¼
èĩª ä»İ
æĸ° èĩºå¹£
éĤ ķ
00 00
çı¾ çĭĢ
å°± ç®Ĺ
äºĶ è¡Į
åŀĭ åı·
ç¬¬äºĮ æľŁ
çļĦä¸Ģ æĶ¯
ç¶Ń åŁĥ
re y
åį» è¢«
èİ± çī¹
æĪ°çĪŃ çĪĨçĻ¼
åħĭéĩĮ å¤«
æł¼åħ° çī¹
äºĶä»£ åįģ
å¹´ å»ºæĪĲ
æĺ¯ åı¯
ä¾ ı
è¥¿ å²¸
èĩª æ°ĳé»¨
ä¼ļ è§ģ
æ°´ å¡ĺ
å½± éŁ³
æ¯Ķ çī¹
åĬ¨ è½¦
å®ĺ ç¶²
æĻ® äº¬
éģĶ å°¼
it ies
ä¸ĥ æĺŁ
èĢģ è¡Ĺ
ĠL anguage
ĠE m
åľ°æĸ¹ èĩªæ²»
èľ ¡
âĨ Ķ
æģĴ çĶŁ
å¬ Į
ĠEx pl
å·´æ¯Ķ ä¼¦
yth on
å¤§æ´ĭ æ´²
M TV
Ġ 1993
æľī åĪ¥
åľĭ æŃĮ
æ³ķ æĸĩ
å°ı éº¦
æ¯Ķ çİĩ
åı² è©©
å¯¹ ä»ĸ
ç¸½ çµĲ
åĤ³ æķĻ
èĦ ¾
ĠB as
åĽ¾ çģµ
èģ· äººåĵ¡
åģľ æ³Ĭ
è¾ĥ å°ı
çİ¯ ä¿Ŀ
åı¯ å¤¢
è½ ¿
æĺİ åı²
18 57
è§£ é«Ķ
ä¸ĥ åĢĭ
å¤± æķĪ
èĴĻ åĵ¥
æ¨ĵ é«ĺ
ç³»ç»Ł ä¸Ń
èĩªçĦ¶ ç§ĳåŃ¦
æĪĲåĵ¡ åľĭ
æī¾ åĪ°äºĨ
ç»ĵæĿŁ äºĨ
æŁ³ å·ŀ
æĲľ æŁ¥
åĤį æĻļ
iform es
è¿¦å¤ª åŁº
Ġ åıĬ
åľ° åľ¨
ç«Ļ æĪ¿
æŃĮ æĺŁ
è¶ħ åĩº
è©² èĻķ
å¢ĥ åħ§çļĦ
æķĻèĤ² åŃ¸éĻ¢
Ġd o
çĶļèĩ³ åľ¨
éĿĪ æĦŁ
ud io
æıĲé«ĺ äºĨ
çĲ³ å¨ľ
ç¸½çĲĨ å¤§èĩ£
ä¸Ŀ ç»¸
Sc ript
W in
çļĦ å½¢æĪĲ
ä¸Ń å°ī
æ¯ ĭ
å¾Į åıĪ
é«ĺ æ¸©
åħ¨ åĮº
18 47
å¹¶ ä¸º
çĥ ¦
çĻ½ äºĳ
åħŃ å¤§
çĸ ¯
è¦ĭ éĿ¢
æĺ¥ å¤©
å±Ĭ ä¸Ńå¤®å§Ķåĳĺä¼ļ
æĪ°çĪŃ æľŁéĸĵ
éŁ³ä¹Ĳ åŃ¦éĻ¢
ä¼° ç®Ĺ
az ine
æİ¢æµĭ åĻ¨
å¹´æĪĲç«ĭçļĦ åħ¬åı¸
Ġweb site
R X
Ġ art
ä¸Ń åł´
ä¸Ģ åı°
è´ ¿
çĻ¼ è¨Ģäºº
çı¾ è¡Į
ä¸ŃåĽ½ å·¥ç¨ĭ
åķĨ èĪ¹
æ´» åĮĸ
æ±º æĸ¼
èĪĪ çĽĽ
ä½įæĸ¼ èĩºçģ£
æª ¸
æľīéĻĲ çļĦ
åĲĪä½µ çĤº
èĵ¬ åĭĥ
åı²èĴĤ èĬ¬
çļĦ åĲĦ
å¹´ ä¸Ĭæĺł
åĩº æĪ°
æľĥ çĶ¢çĶŁ
åĲį å°ĩ
å¤ļ éģĶ
éĥ½ çĶ±
å¤ª å¤ª
ro t
èģĸ ä¿Ŀç¾ħ
å¥ĩ æĢª
ĠH er
èĪĬ ç¨±
å¥Ĺ ä»¶
åĿĲ åľ¨
åĿĲ æ¨Ļ
ib le
ä¹Łè¢« ç§°ä¸º
æĹ¥ æ¼¸
20 30
å®¶ éĦī
åĪĨ çķĮ
æŀ «
æĻĤ äºĭ
ä¹Ł ä¸įæĺ¯
çī¹ é¦ĸ
ç¾İ åŃĲ
é¦Ļ èķī
éĺ¿ åį¡
èı¯ èĮ²
ãĥ §
æ¹ Ĭ
ic ation
å®ŀ è´¨
èĬ± å²Ĺ
çĻ¾ å®¶
æ½ ĳ
çĹħ æĤ£
èĩªå·± åľ¨
æĦŁ è¬Ŀ
åľ°æĸ¹ æ³ķéĻ¢
ir a
æ°§ æ°£
éĢĥ èµ°
åĭķçī© çļĦ
Ġn o
åŃĹç¬¦ ä¸²
å¹´å¹³åĿĩ æ°Ķæ¸©
éľ¹ éĿĤ
Ġ 64
æ³ķ åĪ¶
è¢« ç§°ä½ľ
åħ¥ è®Ģ
éĸĵ è«ľ
å·´ æł¼
è¦ĸ éĩİ
çĦ¡ åĬĽ
è¿ĳ çļĦ
çĻ½ çŁ³
ä¼¯ éĩĮ
èµĽ è½¦
ç½ĳ ä¸Ĭ
æŃ·åı² å»ºç¯ī
çļĦäºº é¡ŀ
éŃ¯ éĸ£
èĥĮ å¾Į
å¯¶ åı¯å¤¢
è´Ŀ åħĭ
éĿ¢ç§¯ ä¸º
ç£ģ æĢ§
ç·Ĭ å¯Ĩ
æ¶µ çĽĸ
å¸Ĩ èĪ¹
èº² éģ¿
ï¼ļ ãĢĤ
ä½ľ çķ«
æīĢ çŁ¥
åĲİ éĩĳ
å·ŀ ä¸º
æŀĹ åı£
æķ¸ æ¬¡
ç¬¬ä¸Ģ æīĢ
çŁ³ å·Ŀ
éĤ£ ä¸ª
éĿĴ å¤©
æĿĳ åºĦ
åł¡ çļĦ
çĴ° ç¯Ģ
è¶³çĲĥ è¿ĲåĬ¨åĳĺ
æĿľ éŃ¯
çļĦåĲį ä¹ī
å®ŀçİ° äºĨ
äºĮäºĮåħ« äºĭä»¶
åĬªå°Ķ åĵĪèµ¤
ä½ Ĺ
å¤§ çŁ³
æľī æľŁå¾ĴåĪĳ
åľ° åĭ¢
åı° å±±
18 42
é© ¿
æıĲ çĿ£
æĮĩ æ´¾
æ±Ł éĿĴ
ä½ĵ åĨħ
åħĪ å¤©
22 1
æĤ į
éĺ² æ²»
om en
æĶ¯æĮģ ä¸ĭ
çĨ± åĪº
èĬ³ é¦Ļ
H ello
l or
ä¸Ń æıĲåĪ°
20 3
æĸ¼ ç¾İåľĭ
ä½Ĩ æ²¡æľī
åİŁ èģ²
in es
in ce
å¸ĥ éĩĮæĸ¯
æĶ¯ çº¿
å¥½ èĲĬå¡¢
13 3
æĻ¯ å¾·
åĶĲ äºº
éĻĪ åĪĹ
ç¬¬åĽĽ ä»£
éľ² åĩº
ç¬¬åįģ ä¹Ŀ
è«¸ å¦Ĥ
è¥¿æĸ¹ çļĦ
å»£æĴŃ éĽ»åı°
æĹħæ¸¸ ä¸ļ
å¤ĸåĽ½ è¯Ń
ç«ĭæ³ķæľĥ éģ¸èĪī
åŁºéļĨ å¸Ĥ
ç»ıåİĨ äºĨ
ĠPol it
æł Ī
æĽ Ļ
åıĬ å¤§
è¥¿ å±±
è¥¿ éĿ¢
å¤ĸ åľ°
ä¼ļ æľī
å¸¸ è¦ı
åı£ èĻŁ
ic ations
åħĪ éĶĭ
å¥½ åĥı
å¹¾ ç¨®
æģĲ æħĮ
åľ¨æŃ¤ æľŁéĹ´
æįŁ å®³
çĭĻ æĵĬ
éĥĬéĩİ åħ¬åľĴ
æĸ ĥ
åĩº åĵģ
èĢĮ ä»ĸ
åĲį åŁİ
éĹ ¹
èĩª é¡ĺ
æŃ¤ ç±»
18 51
éķ· ä¹ħ
äºŀ çļĦ
èªŀ åĴĮ
æĪĲç«ĭ å¾Į
æ·± çļĦ
23 5
æ¨Ļ ç±¤
å¯º å»Ł
å»ºçŃĳ ç¾¤
æ½® æ±ķ
è¡¡ éĩı
åħĭéĩĮæĸ¯ èĴĤå®ī
åī¥ å¤º
æħĪç¦§ å¤ªåĲİ
ä¸Ń æĽ¸
æĪĲ éķ¿
ä¾ Ī
èĪĩ é¦Ļæ¸¯
é«ĺ æº«
åĪ© æ¡ĳ
åıĳ éħµ
éĢĻ å°±æĺ¯
è° ķ
çĥ ĺ
17 00
ãĤ Ī
è®¤ å®ļ
æŃ¥ æŀª
äº¤éĢļ å·¥åħ·
äºĮåįģ åĽĽå¹´
å±Ĥ æ¬¡
è·Ł èĳĹ
ov ern
åĽ° æĵ¾
åĲĦèĩª çļĦ
èĢ¶ç©Į åŁºçĿ£
å·´ä¼Ĳ åĪ©äºŀ
åĴ¨ è¯¢
å²ģåıĬ ä»¥ä¸ĬçļĦ
åĴĮ çº¦
å¤© ä¸Ĭ
æ¯Ķ æĸ¯
æĪ° è¨ĺ
æİ¥ éĢ£
é©¬ åĬĽ
ĠA ct
æĪ² æĽ²
æĪı æĽ²
èģļ æľĥ
éģĹ ä½ĵ
ç©¿ éģİ
å´ĩ ç¥¯
æħĪ æ¿Ł
ort s
iss ion
çļ Ĥ
çļĦ æĸĩ
åĴĮ é¦Ļæ¸¯
20 5
æĸ¼ æĹ¥æľ¬
åįĹ åĶĲ
éĩĮ è¾¾
å°Ķ å¤«
ä¸¦ å°į
æŃ£ ä¹ī
èµ· å§ĭ
è§Ĵ éĢĲ
æĪĳ æĦĽ
çº¿ ä¸Ĭ
å¥ĩ è¹Ł
åĵ¥ æľ¬
å®Ī åĤĻ
äºĮåįģ äºĮ
äºĮåįģ ä¸ĸçºª
åĲ¸ åħ¥
éº» éĽĢ
è²łè²¬ äºº
è²· è³£
ä¾į ä¸Ń
èµŀ åĬ©
E r
i h
çļĦ çĲĥéļĬ
æľī äºĶ
ä»¥ æ±Ĥ
è¥¿ ç±³
ç§ĳ èĪī
è«ĸ èĢħ
åįĬ å¯¼ä½ĵ
åľĭå®¶ å®īåħ¨
éģŃ åĪ°äºĨ
æľĥèŃ° ä¸Ĭ
æľĢåĲİ çļĦ
æĶ¿æ²»éĥ¨ ä¸»ä»»
A Y
Ġ æĹ¥
æīĢ çĶ¨
åīį æĿ¥
èĤ ĭ
å¹³ æĹ¥
èĬ ĭ
ç¥ŀ ç¥ĩ
çľģ çķ¥
æ´² éļĽ
è¯Ń ä¹ī
çª ĥ
çļĦä¸Ģ å¤§
ä½ı å®¿
ĠR eg
è®Ģ éŁ³
æŃ§ è§Ĩ
å³¡ è°·
6 10
A åŀĭ
I EEE
åĴĮ ç¾İåľĭ
ä¸į é«ĺ
ä¸į æŃ»
ç© ¹
ä¹Ł å°ĩ
éģĵ çĲĨ
æĥ ±
é© ¼
åħ³ ä¸ľ
å¤§åŃ¦ åĴĮ
å®¢ äºº
14 7
ä¾¿ åı¯
å·¥ä½ľ äººåĳĺ
ç¥ĸ å¸«
åģĩ å®ļ
ç¶ĵæ¿Ł åŃ¸å®¶
æĪĺäºī æľŁéĹ´
å¾Īå¤ļ äºº
èªŀè¨Ģ åŃ¸
å¥ª åĽŀ
éĻ° éģĵ
æµıè§Ī åĻ¨
ä¸ŃéĨ«èĹ¥ åŃ¸éĻ¢
R E
çļĦ çļĦ
å¹´ éĽ»å½±
åľ° åĴĮ
è¡Į éģĵ
åĲĮ äºº
èĪĩ ä¹ĭ
æķĻ å»·
ä¼ļ å¯¼èĩ´
æ¬¡ å¥³
æĭī æĻ®
èĬ ®
è¿Ľ é©»
çĥ Ĥ
éģ¸ ç§Ģ
çłĶç©¶ å®¤
16 8
æľį ä»İ
ä¿® å¥³
ä¸ĩ å¹³æĸ¹åħ¬éĩĮ
åĿĩ ä»¥
éĩİ å¿ĥ
åľ£ è¯ŀ
é»İ ä¸ĸ
æ¦Ĥ æĭ¬
åĲ¦ åĨ³
éī ħ
Ch rist
æıŃ å¹ķ
ĠCl ass
æ±ķ å¤´
ç§ĳç´¢ æ²ĥ
M e
çļĦ åı°çģ£
çļĦ éľĢè¦ģ
ä¸į å¹³çŃī
éĥ¨ åī¯éĥ¨éķ¿
æĸĩ æ£®
æ³ķ ç§ŁçķĮ
æĻĤ çĤº
æīĢ èĥ½
èı ħ
ç§ĳ æĸ¯
æ°´ åĴĮ
æł¡ åĲį
éĺ¿ å¾·
å°ĩ è¿ĳ
å®Ĺ æ´¾
å¾Ī å°ı
é»¨ éĥ¨
13 4
åħļ æ´¾
è¿ĺ æ²¡æľī
ĠB o
åļ´ åİ²
éĽĸçĦ¶ åľ¨
åĨ· åį´
é¡µ éĿ¢
å°¼æ³Ĭ å°Ķ
å¨ģå£« å¿Į
k s
æķ ŀ
è¢« æİĪäºĪ
ä¸ī éĿ¢
å»º èı¯
ï¼Ľ ãĢĬ
å®ī åįĹ
åŁº è¾ħ
åĭķ æ©Ł
18 49
ç«Ļ åİħ
en ces
å¤ª å¤§
å¤ª éŃ¯éĸ£
é¦¬ ç¥ĸ
æĽ´ å¿«
æĩ ĭ
ä¹¦ çĽ®
å¤® è§Ĩ
çįİ åŃ¸éĩĳ
re g
æľīä¸Ģ æ¬¡
åŃ¸èĢħ èªįçĤº
åıĳå¸ĥ äºĨ
çĲĨäºĭ éķ·
éĨľ èģŀ
åĵ¥æľ¬ åĵĪæł¹
M O
z a
å¹´ æĪĲä¸º
æĺ¯ æ³ķåĽ½
æĹ¥ åīį
ä¸į ç¬¦åĲĪ
å¤ļ æĸ¯
èī ³
çľģ äºº
åľŁ å®¶æĹı
é»¨ ä¸»å¸Ń
é¢Ĩ åħĪ
è½ī æĬķ
èĭ¥ çĳŁ
è°ĥ çĶ¨
èĲ¥ éĶĢ
æ³Ľ æĮĩ
éŃļ éĽ·
ç©¿ çĿĢ
æ¥ļ åľĭ
åľ°ä¸ĭ éĲµ
åĽŀå¿Ĩ å½ķ
ç·ł çµĲ
v iew
ä¸Ģ åŃĹ
åįĢ åħ¬æīĢ
å¯¼ èĪª
çł´ çĶ¢
èĴĻåı¤ äºº
æī© æķ£
ĠEn ter
çļĦæĶ¯æĮģ èĢħ
èĭ· éħ¸
å®®å´İ é§¿
Ġ æĹ¥æľ¬
Ġ 2015
å¹´ ä»¥åĲİ
ãĢĭ ï¼īãĢĤ
çĶŁ åĮĸ
åĽł åľ¨
äºĮ èĻŁ
ç³» åħĥç´ł
ä¸İ ç¾İåĽ½
äº¬ å¸Ī
åħī æ¦®
å¼ķ è¿°
é»¨ ç±į
è³ª æķ¸
ĠV al
èĪį åĪ©
åĩ± æĴĴ
å»¶ä¼¸ åĪ°
ens e
ĠEn cyclop
åĤ¾ æĸľ
åĲĪåĶ± åľĺ
Ã¼ r
l ing
çļĦ åı¦ä¸Ģ
çļĦ çĴ°å¢ĥ
å¤§ åĨĽ
åħ¬ åŃ«
æľĢ å°ĳçļĦ
åĲİ ç»Ń
åħ§ éĥ¨çļĦ
æµģ é«Ķ
13 00
å¸« çĶŁ
é¾į é¦¬
éĴ ŀ
é¬ ļ
è¿ª äºŀ
ä»ĭ è´¨
çĽ®åīį å·²
è´Ŀ å¤ļèĬ¬
ç§ĺ é²ģ
éĻ° èĴĤ
çº¦ç¿° éĢĬ
éĢīä¸¾ ä¸Ń
æľĢè¿ĳ çļĦ
åı°ä¸Ń å¸Ĥ
C ar
ï¼ ĭ
ä¸Ģ å¥³
éĻ ĭ
ä¸į å¤ł
åĩº éĿ¢
æĸ¹ ç´¢
æĢ§ äº¤
ä½Ĩ æŃ¤
éĩį çĶ³
éĿ¢ è²Į
åĬĽ å£«
èĭ± ç§ŁçķĮ
æĿ± æŃĲ
ĠT our
âĢĶâĢĶ ãĢĬ
éļ¨ æĻĤ
éłħ ç¾½
çĴ° çĭĢ
ĠJ ames
æĸĹ åħŃ
èµµ ç´«éĺ³
å¥³åŃĲ åģ¶åĥıåľĺé«Ķ
çŀ ¿
çļĦæĦı è§ģ
åĲŀ å¹¶
å¸¸ä½ıäººåı£ çĤº
èµ¦ åħį
For ce
çļĦ çĶŁçī©
çļĦ èªŀè¨Ģ
æĺ ¼
åº ¾
ä¸į åĴĮ
è¡Į é©¶
çº ±
èĲ ±
éĥ½ å°ī
è»į æĶ¿
æł¡ èĳ£
çľģ å§Ķ
åĤ³ èģŀ
å¯¦ çĶ¨
å¾Ģ å¾Į
èĪª å»Ī
å®¢ æľº
ä¸ĩ åįĥçĵ¦
çĹħ åİŁ
ä»į ä»¥
è¯¥ åľ°åĮº
ĠL IVE
and ard
æĻĤéĸĵ åħ§
od y
è¤ ļ
æ¸Ľ ä½İ
åģ´ å®¤
In ternet
æĪĴ åļ´
èİİå£« æ¯Ķäºļ
çļĦ çĭĢæħĭ
è¥¿ éĦī
çĲĨ åŃ¸
éĺ¿ çĳŁ
è¾¾ èµĸ
ol it
ĠT O
æŃ¥ é©Ł
æŃ¥ éª¤
è¡Ľ åĨķ
æľ« ç«¯
éĢģ èĩ³
èİ« å°Ķ
å®ĹæķĻ æĶ¹éĿ©
ce pt
ä¼´ ä¾¶
åĽ½åĬ¡éĻ¢ æĢ»çĲĨ
b ook
ä¸Ń åįĢ
æĺ¯ å¾Ī
æ³ ¸
æľĪ æŃ£å¼ı
ç» Ĵ
å®ī å¤§çķ¥
ä¸ľ èİŀ
å¼Ģ åħĥ
éĢł å°±
åıĸ èĢĮä»£ä¹ĭ
æĽ¸ ä¿¡
å¼ķ å¯¼
14 4
æ´Ľ ä¼¦
æĺ¯ä¸Ģ æīĢ
è©ķ çĤº
çĶĺ èĶĹ
å»£æĴŃ åħ¬åı¸
çĵľ åĪĨ
åıĶ åıĶ
å´© æºĥ
ç¿ħ èĨĢ
ãĥķ ãĤ
èµĶ åģ¿
evelop ment
YouT ube
åľ¨ åħ¬åħĥåīį
ä»£ è¨Ģ
åįĹ ç¾İ
åıĸ æ±ºæĸ¼
è¿ĳ è¡Ľ
ãĤ »
ç»ĵ å°¾
åıĺ æĪĲäºĨ
é¢¨ ä¿Ĺ
éĻ³ æĸĩ
å·¦ æīĭ
é³ ©
ç½² éķ·
ãĢī ï¼Ī
éº¦ åį¡
ä¹ĥ æĺ¯
èĶ¡ åħĥåŁ¹
åıĤä¸İ äºĨ
åĪ¶éĢł åķĨ
Un iversity
åıĻ è¿°
arch ive
ä¾® è¾±
èµ«é²ģæĻĵ å¤«
A I
W e
Ġ 1994
Ġ 1992
ä¸Ń æ¸¸
åľ¨ åħ¨
ä¸į è¦ĭ
å¤ļ åªĴé«Ķ
åĮĹ éŁĵ
æīĢ æ®º
å¦ Ĵ
è¡¨ æł¼
éĩį æķ´
å°± èģ·
çĻ½ å¤©
æŃĮ åī§éĻ¢
éĤ£ åĢĭ
æĦŁ åıĹåĪ°
un ction
ç´į æĸ¯
ä¹Łæľī ä¸ĢäºĽ
è¯ķ çĤ¹
åķŁ çĶ¨çļĦ
åı°åĮĹ æį·éģĭ
éģį å¸ĥ
Ġn ot
åįĹæĸ¹ çļĦ
èľĢ æ¼¢
ug ust
æħ£ ä¾ĭ
å²ģçļĦ äººåı£ä¸º
7 000
çļĦ æĿĥåĬĽ
æľ ķ
èĢĮ éĢĻ
åĽł æŀľ
é¦ĸ å¼µ
å°¼ å°Ķ
æŃ¦ å®Ĺ
çĻ½ ä¿Ħç½Ĺæĸ¯
æĶ¶ è§Ĩ
ä¹Ŀ äºĮ
ä¼¯ æģ©
ä¸įåĲĮ äºİ
æĢĿ ç»´
é§ ±
æ¨ĵ æ¢¯
è½¬ åĮĸä¸º
è¯į åħ¸
åĸľ å¥½
å½ķ åĪ¶
ç¼º å¸Ń
ç³ĸ å°¿
Ġn ew
s ize
çļĦ ç¨ĭåº¦
æµ· æĪ°
éĢļ èĪª
å°¼ æĭī
åĲĳ çļĦ
èı¯ çī¹
éĿŀ æŃ£å¼ı
èĩ´ æŃ»
åĸ® è»Ĭ
å°Ī å±¬
æ°£ å£ĵ
æĺ¥ æĹ¥
é¾Ļ å±±
æĿ¾ æľ¬
è£Ķ ç¾İåĽ½äºº
é¤Ĳ åİħ
è¾ŀ åİ»
å¹´åĩºçīĪ çļĦ
ç³¾ ç´Ľ
æĶ¯æĴ ĳ
F acebook
M od
] ï¼Į
Ġ ä½ľæĽ²
æ°ĳ çļĦ
ä¸ĭ è¡¨
åı° å¤§
çİĭ æ°ı
å°ı çĶ°
è»į çĶ¨
æĪĺ æĹ¶
æĻ® ç¾ħ
ĠA ward
ĠM ic
çļĦä¸Ģ æĿ¡
æ°¸ æģĨ
çľ¾ çĶŁ
å¾® åŀĭ
ä¸Ńåįİ ä¹¦å±Ģ
åľį æ£ĭ
äºĨä¸Ģ åº§
åŃ« å¥³
ç«¥ è»į
é¦ĸæ¬¡ åľ¨
ä¹³ æĪ¿
åħ¬å¼Ģ èµĽ
ĠEng ine
ĠLim ited
ç»ıæµİæĬĢæľ¯ å¼ĢåıĳåĮº
ä¸į ä¸ĭ
ä¸į åĩĨ
åīį çº¿
18 44
æĿ± æĺł
å¸ĥ åħ°
ç¬¬ä¸Ģ ä¹¦è®°
æ¸ħ æ½Ķ
æ¨Ĥ æĽ²
æ°£ æ°Ľ
é»ĥ å¸Ŀ
ä¸ĢèĪ¬ æĺ¯
æ¢ģ æĮ¯
åĦª çķ°
è£Ķ ç¾İåľĭ
åĦĴ çķ¥
èģ·æ¥Ń çĶŁæ¶¯
olog ical
æľīæĻĤ æľĥ
Î ¿
çļĦ åĲĮæĻĤ
åĴĮ ä¸ĭ
å¾· åľ¨
æ© ¢
æ°´ æĸĩ
æ©Ł çİĩ
é¦¬ éģĶ
çµ± ç±Į
æĿİ æĪĲ
åĨį ä¸Ģæ¬¡
ä¼Ĭ æľ¬
çº¦ æĿŁ
ä¼¯ æĺİ
éĿĴ éĬħ
è¬ Ĭ
éĽ¢ å³¶
é»ĥ æ²³
çµĤ æ¥µ
ç¦» æķ£
åį» åľ¨
é©» æīİ
é½Ĳ åĽ½
æ°Ł åĮĸ
ä¸ŃåĽ½ç§ĳåŃ¦éĻ¢ éĻ¢å£«
è»¼ äºĭ
N S
çļĦ éŁ³ä¹Ĳ
æĪ Ł
æĹ¥ å®£å¸ĥ
ä»ĸ äºİ
çĲĨ æµ©
å¹³ å¸¸
on es
éĺ¿ éģĵå¤«
æľª å©ļ
çľĭ æĿ¥
ç´¢ èı²
çº¢ åį«åħµ
ç«¥ è©±
å®ľ æĺĮ
90 3
å¼Ģåıĳ çļĦ
æľĢåĲİ ä¸Ģä¸ª
ord s
åĴ¸ è±Ĳ
æıŃ ç¤º
çĲĨäºĭ æľĥ
æĺİæĺ¾ çļĦ
å¯¹åºĶ çļĦ
åħĭç¾ħ åľ°äºŀ
M ichael
S ARS
T HE
Ð ¹
Ġ qu
åĮĹ ä¾§
è¦ģ ä¹Ī
å±± åįĹ
æµ· åľ°
åŁİ å¤ĸ
åŁİ æ±ł
ç§ĳ è¥¿
æĿ¥ äºĨ
åħī åº¦
è¿Ľ èĢĮ
åĽŀ åĪ°äºĨ
ç´Ħ å®ļ
æĢ» æķ°
å¢ŀ å¤§
ĠP ower
æŃ· æĻĤ
åŃ£ é¢¨
22 2
åľ£ æ®¿
è«¾ å¤«
çĽ£ ç®¡
èĩ³ä»Ĭ æĹ¥
åĴ¸ ä¸°
çĬ¹å¤ª æķĻ
ç¨Ģ å°ĳ
æ¸ł éģĵ
æ¼ı æ´ŀ
éģ ı
ï¼ļ âĢĺ
åīį çĶ°
åīį è¡Ľ
å¾· åĴĮ
æµ· æ¸¯
åĵ¡ æŀĹ
å¾ŀ ä¾Ĩ
åĲī åħĭ
å¡Ķ æĸ¯
åįł åįľ
åģľ çĶ¨
èµ° ç§ģ
å¥ĸ åĬ±
åķŁ çĻ¼
çķ¶ä¸Ń åĮħæĭ¬
å¾Īå¤§ ç¨ĭåº¦ä¸Ĭ
å¤§è§Ħæ¨¡ çļĦ
æ»¡æ´² åĽ½
D O
çļ Ī
ä¸Ģ é¦ĸ
æĺ¯ ä»ĸçļĦ
åĴĮ çĶ°
æĹ¥ åĬĩ
ä¹ĭ ä½į
åįĹ æŀģ
å¹³ æĻĤ
åıĳ è¨Ģ
èµ· è¯ī
ä¸ľ ç«Ļ
èĴ Ĳ
èĬ± åįī
çº§ çļĦ
æĪĲçĤº ä¸ĢåĢĭ
è¬ ¬
æķĻèĤ² å±Ģ
å·Ŀ å´İ
èĭı åħ±
åĶ± æŃĮ
ç·¨ çºĤ
æłĩ é¢ĺ
æĨ Ĳ
éĦī åħ¬æīĢ
éģĬæĪ² çļĦ
è¼ķ æĺĵ
ä¹ĭéĸĵçļĦ éĹľä¿Ĥ
æĬķåħ¥ ä½¿çĶ¨
å±Ĭåħ¨åĽ½ äººæ°ĳä»£è¡¨å¤§ä¼ļ
ä¼Ĭèİī èİİçĻ½
çļĦ çľĭæ³ķ
åľ¨ è¿Ļç§į
åľĭ æľĥèŃ°åĵ¡
éĿ ¶
å¤ļ å¤Ħ
ä½į èĻķ
åĪ© æ¶¦
æĪĸ è¨±
æīĭ åĨĬ
èį «
æĻ® éģ¸
åįİ è¯Ń
æľª å¿ħ
æĩī å°į
åº§ æ¤ħ
åįļ æĸĩ
éĽ· æł¹
åģľ è½¦
å·¦ çĩŁ
éļ¨ çĿĢ
ç»Ī çĤ¹
çĶ» éĿ¢
ob al
éĢĻæĺ¯ åĽłçĤº
å¯¿ åĳ½
Ge orge
éĺ¿æĭīæĸ¯ åĬł
æľī åĢĭ
åľĭ å®ī
åŃ¦ çłĶç©¶
ä¸ī åº§
å·¥ èµĦ
èµ· ä¼ı
åı¤ æĸĩ
æŃ¦ å¤·
ç¼ Ĩ
ä¸»è¦ģ ä¸º
å¤Ħ æŃ»
æľīä¸Ģ ç§į
é»İ æĽ¼
å£ĵ è¿«
æľĢåĲİ ä¸Ģæ¬¡
ä¸įä¹ħ å¾Į
æ³¨æĦı åĬĽ
å¸ĥå°Ķ ä»Ģ
å®¢è¿Ĳ ä¸ĵçº¿
èįĬ å·ŀ
è¶³åĪ© ç¾©
å¼ĹæĭīåŁº ç±³å°Ķ
æĸ¯å¾· åĵ¥
é£İæĻ¯åĲįèĥľ åĮº
M r
åĪĨ æľĥ
åĪĨ å¼Ģ
ä¸ĭ è·Į
æľĢ éķ·çļĦ
åĲĪ è¨Ī
ï¼Ľ ï¼īï¼Į
ç»ĵ çĽŁ
æİ§ åĳĬ
æ¨£ æľ¬
è½¬ ä¸º
å¤ªç©º äºº
æĹħéģĬ æĻ¯é»ŀ
åºĲ å±±
äº¤åĵį æĽ²
æİĢ èµ·
A BC
P M
å¸Ĥ å¢ĥ
æĸ° ç¾ħ
éĩį ç»Ħ
éĸĭ å¿ĥ
å¹¶ å¯¹
äºĶ ä½į
åı¯ä»¥ çľĭåĪ°
ä¸ĸçķĮ ç¬¬ä¸Ģ
ĠM useum
çĶ· éħįè§Ĵ
ä½ı éĻ¢
æ¸¸ çī§
78 7
æĻĭ åįĩ
ath er
rap h
äºŀæŃ· å±±
Ad obe
å¹´ä¸ĸçķĮçĽĥ è¶³çĲĥè³½
f ield
çļĦ è®°è½½
æľĪ åĴĮ
æĸ° ç§Ģ
åĿ į
åĽĽ åĲį
å¥³ éħįè§Ĵ
åıĹ åĳ½
éĥ¨åĪĨ åľ°åĮº
æ§ Ĳ
ç¡ ¼
æīį å¾Ĺä»¥
æĽ¼ åŁİ
å°ģ ä¿¡
ä¸ĸç´Ģ æĻĤ
èįī åľ°
em b
In ternational
åĳĤ å¸ĥ
åıĳå¸ĥ çļĦ
ç¶ģ æŀ¶
éĩĳæĹ¥ æĪĲ
w h
æĹ¥ å¼Ģå§ĭ
ä¸į çķ¶
ä¸Ĭ åİ»
æĪĸ åľ¨
åĽĽ åŃĲ
å¹¶ çĶ±
æ¹ Ħ
æ´» å¡ŀ
ä¿® å£«
æĿĳ çļĦ
éĽ· åħĭ
éĻį éĽª
æ£® çļĦ
åĪ« åħĭ
ä¸ŃåĽ½äººæ°ĳ æĶ¿æ²»åįıåķĨä¼ļè®®
æĤ² åī§
å¹´è¼ķ çļĦ
CC TV
çĻ¼éĽ» å»ł
å¾®åĪĨ æĸ¹ç¨ĭ
ç¥º çĳŀ
å²ģåıĬä»¥ä¸ĬçļĦ äººåı£ä¸º
n ch
çļĦ è®¡åĪĴ
ä¸Ģ èĲ¬
åĴĮ æĿİ
æ°ĳ å±ħ
çŃ ł
æĻĤ èĩ³
èĩª å¼·
éł ¡
åĲİ äºº
æ¯Ķ åħ¶ä»ĸ
çı¾ å½¹
äºĶ éĥİ
åħ© åº¦
çĹ ´
15 5
ä¸»è¦ģ åĮħæĭ¬
æ®µ ç¥ºçĳŀ
13 8
å°Ī é¡Į
åįĥ èĲ¬
ĠD ay
åĺī å®ļ
ä¼ĳ æĸ¯
åĪº æĿĢ
éº¥ çĲĨæµ©
å·²ç»ı è¢«
ey ond
åĵĪåĪ© æ³¢çī¹
æĪ°åľĭ æĻĤä»£
åĩºåľŁ çļĦ
å¤ļæ¨£ æĢ§
f ont
çļĦ æ´»åĬ¨
çļĦ è»įäºĭ
äºº èº«
æľī äºĮ
ä½ľ åĩºäºĨ
åĬł çī¹
å¤© çĭ¼
çĽ¸ ä½į
èĭ± éķĳ
è¿Ļ ä¹Ī
æĿ± åĮĹéĥ¨
èº ģ
è¨Ń åľ¨
çĻ½ å±±
ä¼Ĭ åĭ¢
éĤ£ æĹ¶
ĠL td
è¯Ħ éĢī
æĵį ç¸±
åķŁ ç¤º
éº¥ åı¯
è¨» è§£
æĮĩæĮ¥ éĥ¨
çºªå½ķ çīĩ
ĠAmer ica
y g
çļĦ è§£
çļĦ ä½İ
çļĦ åįĢåŁŁ
åľ¨ åĲĮå¹´
åĴĮ å¤ļ
çĽ ¼
åĪĨ å°ģ
ä¹Ł åĽłçĤº
åīį æīĢ
çģ ¼
èī ĭ
æ¬¡ æķ°
æ©Ł èĥ½
è° Ł
æºĸ åīĩ
å½±åĵį äºĨ
å¤§éĻ¸ æĻĤæľŁ
ç©¿ æ¢Ń
è¾Ľ æł¼
ä¸Ńåħ±ä¸Ńå¤® æĢ»ä¹¦è®°
çİĭåľĭ çļĦ
é²į å¾·æ¸©
æł¼æĭīæĸ¯ åĵ¥
çļĦ å¼Ģ
çļĦ è§Ģé»ŀ
å¹´ å¤ıå¤©
20 6
æľĪ åĲİ
çĤº ä»Ģéº¼
æľ¬ èįī
è¢« èŃ½çĤº
å¤ĸ åŀĭ
åĬł è£Ŀ
in us
in ess
éķ· ç´Ħ
æŀĹ åīĩ
èĻŁ åı¬
ç½Ĺ æĽ¼
æĸĩåĮĸ è³ĩçĶ¢
æĩī çķ¶
éĲµ éģĶå°¼
æĢĿ ç¶Ń
å°Ī è¨ª
ä½Ľ æ³ķ
çĪŃ éľ¸
ç®¡çĲĨ å§Ķåĳĺä¼ļ
èĺĩ è»į
æĻļ éĸĵ
éħ¸ æĢ§
æ§į æ¢°
æĻī èº«
çĭ© çįµ
æª¢å¯Ł å®ĺ
Ġ 2016
Ġ 2017
çļĦ ç¾İåĽ½
20 2
èĪ º
ãĢĬ ãĢĭãĢĤ
èģ Ĩ
èĢĮ å®ļ
å¾Į åĨį
æľĢ å¼·
éģĵ å®¶
æĪ° ç·ļ
æĽ¾ ä»¥
åħ© éłħ
ä¼¯ åħĭ
åĲī å®ī
ĠT rans
ro duction
åĪĻ æľī
æīĺ åħĭ
åįķ è¯į
æĬĹ çĪŃ
ĠH istor
åĤĻ è¨»
ç»Ļ å®ļ
é©Ĺ èŃī
ä»Ļ å¥´
èĳ¡èĲĦ ç³ĸ
è½¨ çĶµè½¦
æĺĤ è²´
åīµä½ľ çļĦ
cl ass
é¨İå£« åľĺ
æ¼ģ æ¥Ń
çĶĺèĤĥ çľģ
å¯Ĩè¥¿ è¥¿æ¯Ķ
éľįæł¼ èı¯èĮ²
ä¸Ģ äºĮ
åĴĮ é»ĳ
æĹ¥ æĪĲç«ĭ
åĩº åľº
åħ¶ éĹ´
å¤ĸ èªŀ
åħ¥ åł´
æĺİ å¤ªç¥ĸ
çķ¶ åīį
åĨħ æĶ¿
å®ĺ èģ·
æĻ® å°Ķ
åĢĳ çļĦ
æİ¨ åĬĽ
åĽ¾ æĸ¯
çīĮ åĿĬ
æ¥µ å¤§çļĦ
æ®º äºĨ
åŃ¸æł¡ çļĦ
æİ¡ ç´į
æľįåĭĻ çļĦ
ä¼ĳ éĹ²
æ¨¹ æľ¨
å¹¸ åŃĺ
å¸ĮèħĬ è¯Ń
å¨ģå°Ķ éĢĬ
äººå·¥ æĻºèĥ½
éºĴ éºŁ
èīĭ èĪº
äºº äºº
æĭ Į
æľĥ åĲĪ
å±± é¡¶
å·¥ åħļ
18 46
æĦı åį³
åį¡ æĸ¯çī¹
ĠC om
14 00
åĵĪ èĸ©åħĭ
ãģ Ī
ç»´ ä¿®
èĸ ĳ
åĮ» ç§ĳå¤§åŃ¦
ag on
å£ĵ åĪ¶
è¿ģ éĥ½
çī¹åĪ« è¡ĮæĶ¿åĮº
èĩ³å°ĳ æľī
åľ¨éĤ£ è£¡
çŁ³åĻ¨ æĻĤä»£
å¤§ å¶¼å±±
æľī çĲĨ
ä¸Ĭ çıŃ
åĪĨ éĥ¨
æľĢ æĸ°çļĦ
äºĭ äºº
åĢĭ äººçļĦ
æıĲ æĸ¯
åĲĦ å°ĳæķ°æ°ĳæĹı
åİ¿ æ²»
å®ĥ è¢«
æĩī çĶ¨æĸ¼
çļĦä¸Ģ æīĢ
è®º è¯ģ
åıĺ å½¢
ent ium
ed er
é¡¯ çĦ¶
éĬĢ çīĮ
äºĨä¸Ģ æ®µ
éĽ¨ æŀĹ
éª¨ çģ°
çļĦä¸» æµģ
è¿Ľåħ¥ äºĨ
é¡¯ç¤º åĻ¨
é³´ äºº
æĤłä¹ħ çļĦ
R FC
ä¹ĭ æ³ķ
æľ¬ å±Ĩ
ç¾İ é½¡
æ· Ħ
åı¤ èĺŃ
æĪĺ ä¿ĺ
åİ¿ åĴĮ
ä¸ĸçķĮ åĲĦåľ°çļĦ
æŃ¦ éĻµ
åįİ åĽ½
ç½® äºİ
22 5
ĠG reat
ç´¢ æĸ¯
å¯« çľŁ
ç´ħ çĻ½
im on
çĢ §
åıĥåĬł äºĨ
è¥¿éĩĮ å°Ķ
çļĦ è¶ħ
çļĦ é¢Ĩå¯¼
ä¸į æ¸ħæ¥ļ
er b
åıĹ éĤĢ
éª Ĩ
åĿĩ åĮĢ
è¬ ¨
å±¤ éĿ¢
åŃ« åŃĲ
oc c
ĠSt re
é± Ĺ
è¢ģ ç´¹
è¼Ķ éŁ³
æĹħæ¸¸ æĻ¯åĮº
åºĩ èŃ·
çİĽä¸½ äºļ
å¤ļé¡¹ å¼ı
g y
ä¸Ĭ æ°´
æĸĩ åı²
èĢĮ ä¸ĭ
åĲĮ åŃ¦
åĮĹ éĸĢ
å±± åĴĮ
åº¦ åĴĮ
18 12
å½± æ¥Ń
åĶ ¸
å¤ª å°ī
or ies
äºŀ ç§ĳ
ãĤ Ħ
åĶ¯ æľī
ĠJ apan
çļĦä¸» è§Ĵ
æĹģ çļĦ
æ¹ĺ æ±Ł
ç»§æī¿ äºĨ
å¤©çĦ¶ æ°£
ĠPhil os
R ed
çļĦ ä¸¤ä¸ª
ä¸Ń åĮ»
æĹ¥ ä»¥
æģ ¤
å·´ éĩĮ
éģĭ éĩı
åħ« å¼·
ä¸ĢèĪ¬ èªįçĤº
æ¬§ éĺ³
éĥ½æĺ¯ åľ¨
AT A
ä¸Ģå®ļ è¦ģ
éŁ» æ¯į
æ«» èĬ±
åŁĥå¡ŀä¿Ħ æ¯Ķäºļ
Ġ 28
Ġ 1991
çļĦ åħ§
çļĦ çĽ®æ¨Ļ
åĳ Ĩ
åıĬ åĪ©äºŀ
åįĹ æ²Ļ
å®ļ éĥ½
åĪ¶ å¤ĩ
æł¡ å¾½
åıĥ æ¼Ķ
16 5
çº§ æķ°
æ¨¡ æĿ¿
æİĴ æ°´
åº· æĭīå¾·
æłĩ æľ¬
å±Ĭ ä¸Ńå¤®
æļ´ åĬ¨
æĭį è³£
èĤ¯ çī¹
çŀ ³
S am
T or
c ript
v s
Ġ 27
å¹´ åħ§
å¹´ èİ·å¾Ĺ
çĤº è©²
æ¯ ĺ
æľĥ æĪ°
ä¸ĸ è¥²
åįĹ å³¶
âĢĿ ï¼Īï¼ī
éģĵ å¥ĩ
å¸¸ ä»»
æŀĹ ç«ĭ
èĳĹ ç§°
èı¯ ç´į
ç§° è°ĵ
æ¨¡ åĿĹ
åºķ ä¸ĭ
è©ŀ èªŀ
é³ ŀ
æ²¹ çĶ°
åŃ¸éĻ¢ æł¡åıĭ
ç°¡ æĺĵ
äºĮåįģ äºĮå¹´
ä½ĽæķĻ å¾Ĵ
é½Ĳ é½Ĳ
é¡ĮæĿĲ ä½ľåĵģ
å»ºåĪ¶ æ´¾
N a
åľ¨ ä¸İ
åľ¨ è¥¿æĸ¹
å°į æ±º
æŀĹ å®¶
ä¿Ŀ ç¥¿
çĽ´ æµģ
é¦¬ åĮ¹
ĠS al
ä¸Ķ ä»ħ
ä¾Ľ æ°´
ĠT o
è¿ĺ ä¼ļ
éĹ¨ æĪ·
å°Ī éłģ
ĠB ar
å¸Ī çĶŁ
åĪ« å¢ħ
å°ģ åį°
ĠW il
è¾ĥ é«ĺçļĦ
åĶ® è³£
æĭľ è¨ª
åŃĻ æĿĥ
èĭ±æĸĩ çīĪ
æķµ è»į
æ²ī ç§¯
é· º
æĿ±æµ· éģĵ
é©ħéĢĲ èī¦
æ¢ģæĮ¯ èĭ±
f e
å¹´ çĶŁ
å¹´ å°ĩ
å¹´ åĥħ
æĺ¯ ä½įäºİ
æĿ ŀ
ç¾ Ł
ä»ĸ æľī
æĻĤ æīĢ
ä»£ è¬Ŀ
ç¾İ éĩĳ
å¾· åĪ©
æĺİ äº®
æł¡ æŃĮ
çķ¶ æĪĲ
åĤ³ éģĶ
æŃ» åĽł
å®ŀ çĶ¨
æĬķ èº«
å¤± æİ§
å¡Ķ æĭī
å°Ħ ç¨ĭ
èĪ¹ ä¸Ĭ
è§Ĥ çľĭ
äºĮåįģ ä¸Ģå¹´
èĹ¥ å¸«
éģ¿ åŃķ
è¡° ç«Ń
ear s
å¾¹ æĸ¯çī¹
æ¨ŀ ç´Ĳ
æĬĦ æľ¬
V GN
Ã ł
çļĦ è¨ĺè¼ī
ä¸Ģ å°į
20 9
å¾· ç¾ħ
å£« éłĵ
æĪĸ ä»¥ä¸Ĭ
ç»ı çĶ±
ç§° å¸Ŀ
åīĩ åı¯
çļĩ ä½į
è³ĩ æ²»éĢļ
å¡ŀ éŁ³
éĽ»å½± ä¸Ń
éĢĢ ä¼į
åİŁæľ¬ æĺ¯
å¼ķåıĳ äºĨ
åı°åįĹ å¸Ĥ
æī« æıı
æ»¿æ´² åľĭ
Î µ
çĶ ¦
æĸ¯ åłª
çı¾ åĿĢ
al ys
ç½Ĺ éĹ¨
èĪª ç¨ĭ
ĠM il
åľĭå®¶ åħĥé¦ĸ
åīµ åĪĬ
æģ© æĸ¯çī¹
Ġd el
éģĬæĪ² ä¸Ń
è§Ĵèī² çļĦ
æŃĲæ´² çļĦ
St ar
éĢ¼ è¿«
åĲīç¥¥ çī©
ç§ĳç¾ħ æĭīå¤ļ
åįİåĽ½ éĶĭ
Ġ 19
çĤº çķĮ
ä¸» æľº
å¾· ç±³çī¹éĩĮ
åħĥ å¸Ŀ
æ±Ł åı£
åİ¿ äºº
å¯¼ æķ°
å¥§ åĮĪ
æıĽ åıĸ
ä½Ĳ æ²»
æļĹ æĿĢ
çļĦä¸» é¢ĺ
ra w
çĩĥ æ²¹
é¡¶ çĤ¹
è¨º æīĢ
è½¬ç§» åĪ°
9 57
v al
å¤§ æľ¬
å¤ļ æĺ¯
èĪĩ èĭ±åľĭ
åħĥ æĹ¦
18 14
æ°´ åĬĽ
æ¼Ķ è¯´
æ©Ł çµĦ
éĵ ī
æŃ¦ ä¿ł
ä¸Ńåľĭ æĸĩåĮĸ
çĶ¢ éļİç´ļ
æľ¨ æĿĳ
èĺĩ å·ŀ
è¯º ä¼Ĭ
ä¸Ńåįİäººæ°ĳåħ±åĴĮåĽ½ æĶ¿åºľ
èĮ¨ åł¡
æĴĴ åĵĪæĭī
åľ°ä½į çļĦ
æ¸Ĳ æ¸Ĳ
åŁºç¡Ģ è®¾æĸ½
éĽĨä¸Ń èĲ¥
åĪļ åĪļ
åĲĮæĢ§ å©ļå§»
ĠMan ag
åıĥè¬Ģ éķ·
èĥļ èĥİ
æĬ¨ æĵĬ
ĠNet work
P ower
çļĦ æĬĢæľ¯
åĲĮ ä¸Ģä¸ª
çī¹ åĴĮ
ä½Ĩ æľĢå¾Į
åĪĹ å¤«
ic o
æĽ¸ éĿ¢
åħ« ä¸Ģ
æĹħ éķ¿
åŃĺåľ¨ çĿĢ
çļ® å°Ķ
ç¦® çī©
çĢ ĭ
åĮĹæĸ¹ çļĦ
æµ·å²¸ ç·ļ
è¡ĮæĶ¿éĻ¢ éĻ¢éķ·
å¼·çĥĪ çļĦ
æŃ£ç¢º çļĦ
åĬłåĭĴæ¯Ķ æµ·
çļĪ ä¾Ŀ
æŀĹåīĩ å¾Ĳ
çļĦ æŃ£å¼ı
åħ ĳ
åĪ° é¦Ļæ¸¯
åĮĹ æľĿ
ç«ĭ æĨ²
åħ¨ æł¡
18 45
æ°´ æµģ
äº¤ æİ¥
å·² æĺ¯
ç¥ŀ ä»Ļ
çİ° çĬ¶
ä¹Ŀ éĲµ
æĸĩåĮĸ éģºçĶ¢
ĠA cc
åĺ ¯
ur t
ĠE con
èŃ· è¡Ľ
ç³»åĪĹ è³½
èŃ¯ ä½ľ
ä¸»æķĻ ç»ĥ
å®īåħ¨ çļĦ
èĩºåĮĹ ç¸£
ä»Ļ äºº
æĦıå¤§åĪ© çļĦ
ian a
æĤ² åĬĩ
æĶ¹åıĺ äºĨ
æ¸Ķ ä¸ļ
çĺŁ çĸ«
çļĦ å·¥åħ·
äºº å®¶
äºº å°į
åĲį ä¹ĺå®¢
ä¸ī åĲĪ
åħ¥ åŃ¦
æ³¢ åıĬ
åħ³ æĬ¼
it able
éĢ£ åĭĿ
åħ« æĻ¯
æĪĲçĤº é¦Ļæ¸¯
ĠR el
é»ĥ å¤§ä»Ļ
èĺĩ ç¶ŃåŁĥ
åĬĥ æŃ¸
op le
å« Ķ
Ġv ar
åĢ¾ æĸľ
æľ¬ç§ĳ çĶŁ
ä¿¡çĶ¨ åį¡
é¢Ĩäºĭ é¦Ĩ
é¦Ļæ¸¯æµ¸æľĥå¤§åŃ¸ ä¸ŃéĨ«èĹ¥åŃ¸éĻ¢
h r
Ġ ä¸ī
çļĦ è¡¨
çķ ĳ
æĸĩ çİĭ
åĮĹ æŃĲ
ç¾İ å¥³
èĥ½ éĩıçļĦ
åŁİ åħ§
å¯¹ ä¸ŃåĽ½
äºĶ æĺŁ
é¦¬ éŀįå±±
è§ģ åĪ°
æł¸ åĩĨ
èĹĿ æĸĩ
èĥ¡ éĶ¦
å¥ĸ æľĢä½³
æľīä¸Ģ æ®µ
åŃ¦æł¡ çļĦ
èİ± åĿŀ
åİ»ä¸ĸ å¾Į
å»£æ³Ľ çļĦ
æīŃ æĽ²
çļĦ å±ĢéĿ¢
ä¸Ģ æĹ¶
æ³ ª
æľĪ ä¸Ĭ
çĤº èĩºçģ£
ä¹ĭ åĪĨ
åĲĮ æºĲ
èĪĩ æĿİ
èĢħ ä¹Ł
æŃ£ è§Ħ
å½± è©ķ
è¿ĩ äºĨ
ç¬¬ä¸Ģ åŃ£
åħ© å®¶
ä¸ĸçķĮ éģºçĶ¢
çŁ³ å¤´
çĻ½ èī²çļĦ
æĳ© å°¼
æº« åĴĮ
é¤Ĭ åŃĲ
åĬ³ å·¥
æ²ī é»ĺ
è®¨ ä¼Ĳ
IC E
å§Ĭ å§Ĭ
æĤ¬ æĮĤ
äº¤éŁ¿ æĽ²
ä¿Ħäº¥ä¿Ħ å·ŀ
ä»¥ ä¾ĨçļĦ
èĤ Ľ
èĳ ±
åı² æĽ¸
éĸĭ æĶ¯
ç¯ ·
ä¿Ŀ å¯Ĩ
çµĲ å°¾
çŁ³ åĮĸ
é©¬ å¾·éĩĮ
åıª éľĢè¦ģ
it a
çĵ ¯
ä¸įåĲĮ æĦı
æ¢ħ æĸ¯
æº« æļĸ
å¯¶ çŁ³
æĵį çºµ
æ®ĸæ°ĳ åľ°çļĦ
æ´Ĺ è¡£
ç¨Ģ æľī
å¤©åĲİ å®®
é° Ń
åĪ©æ¡ĳ éĤ£
å¹´ åĨį
åĲ µ
ä¸Ģ æľĪ
äºº çŃī
æľī å¦Ĥ
æľĥ éĢłæĪĲ
éł ĳ
å·ŀ éķ·
å·² äºİ
åĮħ è£ħ
æ±Ł åĮº
ĠC r
ĠT w
æ°¸ åĺī
ç¥ĸ åĽ½
çµ¦ åĩº
åºĵ å°Ķ
æĢ¥ éĢŁ
èģĶéĤ¦ æĶ¿åºľ
IN E
çĲĨå·¥ å¤§åŃ¸
èĪªå¤© åĻ¨
çĳªéºĹ äºŀ
å¤ªå¹³å¤© åĽ½
åı¤æĸ¯å¡Ķ å¤«
é½Ĳé½Ĳ åĵĪå°Ķ
Ġ ï¼īï¼Į
çļĦ è¡Įåĭķ
å¹´ æĶ¹
æľī ä»¥ä¸ĭ
ä¹ĭ éŁ³
å¸Ĥ ä¸ĭè¾ĸçļĦä¸Ģä¸ª
ä¸ĸ ç³»
åĢĭ æ¡Ī
å®ī çº³
åı£ éŁ³
åĦ ī
ä¸Ńåľĭ æĶ¿åºľ
æĢ» ç®¡
åĤ³ éģĵ
å®Į çķ¢
æ¯ı éĢ¢
14 6
éĸĭå§ĭ äºĨ
å¹´ä»£ èĩ³
è³ª ç´ł
ĠH ol
ĠH igh
æ³ī æ°´
å£ģ çĶ»
èģ·æ¥Ń åŃ¸æł¡
åŁĭ èĳ¬
åĲı éĥ¨
æĢİ ä¹Ī
èģ° æĺİ
æĿİåħĭ åĭ¤
éłĺäºĭ é¤¨
X ML
Ø §
çļĦ æĸĩåŃĹ
åĮĹ è¶Ĭ
å¤ĸ åĭĻ
ä½Ĩ ä»¥
åİŁ æĺ¯
æ©Ł éļĬ
çĽ´ éļ¸
èĻŁ æľĪåı°
ç¾İåľĭ æĶ¿åºľ
å¼ķ å°İ
çĵ¦ å¤«
èİ« éĩĮæĸ¯
é¡¹ ç¾½
æĴ¤ ç¦»
é©¬æĿ¥ äºļ
æıŃ çĻ¼
å°ĳæķ¸ æ°ĳæĹı
èĴĻçī¹ åĪ©
æĸ¯èĴĤ èĬ¬
ste in
N C
T O
äºº ä¸İ
å¤§ éĥ¨
å¥ ĺ
åľ° èĻķ
åİ ¨
ä¸º ä¸»è¦ģ
ç¬ ĥ
ç¬ Ī
æ³ķ çİĭ
æŃ¤ èĻķ
åĭķ çļĦ
æł¼ èİ±
ç¦ı å°Ķ
çº¦ åħĭ
ç»´ åŁºçĻ¾ç§ĳ
ä¸ĢèĪ¬ åľ¨
åī§ åĽ¢
å¾ģ ä¼Ĳ
éºĹ çµ²
Ġin t
ä¼ĺ åĮĸ
è·ĳ é¦¬
æĭĵ æĴ²
æĤ¼ å¿µ
UT C
æĸ°åįİ ç½ĳ
ĠStud ies
ä¸Ń å®Ĺ
çĤº ä¸ĢåĢĭ
çī¹ ç¨®
çİĭ åĬī
æĭī éĩĮ
éĹľ ä¸Ń
äºļ è¿°
ä¸Ńåľĭ åı¤ä»£
æİ¨ èĪī
åĳĬ åĪ¥
æ¼¢ åł¡
çīĻ é½Ĵ
å±¤ æ¬¡
è½¬ åħ¥
ä¹ĺ æĲŃ
åĪĨåĪ¥ åľ¨
è°Ī è¯Ŀ
çº¸ å¸ģ
å°Īç§ĳ åŃ¸æł¡
æĹ¥æľ¬å¥³æĢ§ èģ²åĦª
A mer
S w
åľ¨ è¿ĻäºĽ
åľ° è¢«
ä¸º å¤§
ä»ĸ ä¹Łæĺ¯
èĢĮ æľª
çĽ¸ æİ¥
èµ· æŃ¥
åĶ Ķ
åĲĳ æĿ±
çĦ¡ çª®
ãģ ĳ
å¹´ä»£ éĸĭå§ĭ
ä½İ çļĦ
æĽ¼ çļĦ
éģĭåĭķ åł´
æŃ² æľĪ
æĻº åĬĽ
éº¥ çķ¶
æĽ¿ æį¢
åħ±äº§ åĽ½éĻħ
æķµ å°į
å¯© èŃ°
æĥ¡ åĬ£
ç¸® å°ı
èģĶåĲĪåĽ½ æķĻç§ĳæĸĩ
ä¸Ģæ®µ æĻĤéĸĵ
å¸®åĬ© ä¸ĭ
æ¶Īè´¹ èĢħ
ç¾ļ ç¾Ĭ
èĥ¡éĶ¦ æ¶Ľ
w ood
åĲĮ ä¸ĢåĢĭ
çĽ¸ æĴŀ
åĽĽ å¼·
çĽ® çĿ¹
åĮħæĭ¬ æľī
æŃ» åĤ·
ĠP al
è¶³ èģĶ
ç´ł æľī
æ°¸ æ¨Ĥ
è§Ħ å®ļçļĦ
é³ Ħ
é¥ ¿
æĥł å¸Ŀ
è±ª æĸ¯
ä¸ŃåĽ½åħ±äº§åħļ åħļåĳĺ
åĢ¡ å¯¼
éĩİçĶŁ åĬ¨çī©
Ð¾Ð ²
Ġ å¤©
å¹´ å¹´åºķ
åľ¨ è¨±å¤ļ
å¤§ åİħ
ä¸į ä¸Ĭ
é¦Ļ æĸĻ
é©¬ èµ«
æĽ¸ é¤¨
çº¿ ç´¢
å¯Ĩ çī¹
æĥ³ è±¡
é¢¨ æ°£
ä»ģ æĦĽ
äºĮåįģ ä¸ĸç´Ģ
è¥¿çıŃçīĻ èªŀ
æįķ é£Ł
é®® åįĳ
åľ°çĲĨ æłĩå¿Ĺ
èĳ¬ ç¤¼
éĢĤ å½ĵ
åĿļ åĨ³
ç«Ł çĦ¶
é¦¬æĭī æĿ¾
é¥¥ èįĴ
é£¼ é¤Ĭ
A X
Ð ´
çļĦ æķ¸éĩı
ä¸Ģ èģĮ
å®¶ ä¹¡
ä¹Ł åıĹåĪ°
å¥³ åıĭ
åı£ èħĶ
æķħ åĲį
æ±ī ä»£
çķĻ åŃ¦çĶŁ
èģ· è²¬
æŀ¶ ç©º
ç´ħ å¤ĸç·ļ
éĥ½æĺ¯ ä»¥
åħ¬æ°ĳ æĬķç¥¨
åĭķåĬĽ åŃ¸
éĿĴå²Ľ å¸Ĥ
åĢ¼å¾Ĺä¸ĢæıĲ çļĦæĺ¯
F ire
Ġ 1990
çļĦ æľĢä½³
æĺ¯ èĩºçģ£
çĲ °
åħ¬ åŃ¸æł¡
æľĥ ä½¿
åĲĮ åĮĸ
ç«ĭ çĤº
ä½Ĩ å¥¹
ä½Ĩ æľĢçµĤ
æĺİ æĻº
ç«Ļ åıĬ
è¿ĩ åº¦
éļĬ åıĭ
é©¬ è¾¾
å¼ķ çĪĨ
åº· æľī
æŀĦ å»º
èŃī æĽ¸
æŃ¤å¤ĸ è¿ĺæľī
å¹¶ä¸Ķ åľ¨
æŁĶ ä½Ľ
éĩĳåĥı çįİæľĢä½³
å¹´ äºĮæľĪ
âĢĿ ï¼ļ
èĩ³ æŃ£
èº« æĿĲ
çŁ³ çªŁ
æĿİ åľĭ
ĠM in
æ§ ĥ
13 1
13 2
åĲī æĭī
ç²¾ éĢļ
åīµ å§ĭ
ä¸ĵ é¢ĺ
å»¶ éģ²
ag o
éĳ ¿
å¤§éĻĨ æĹ¶æľŁ
è¬Ľ å¸«
ra ft
Ph il
åĤµ åĭĻ
è²¸ æ¬¾
ç³¯ ç±³
1 100
N ational
çļĦ æ¬ĬåĪ©
å¤§ åĭĿ
åĴ ı
åĭ »
æľĥ æĺ¯
ç¤¾ çļĦ
æĴ ¼
ãĥ ¯
èĩº å¤§
çļĩ æĹı
çµĦ å»º
ad o
ä¼¦ æĸ¯
um ber
çĪ± ä¹Ĳ
ãĢįï¼Ī ï¼īï¼Į
ä¸»æĮģ çļĦ
åıĥèĪĩ äºĨ
è·¯æĺĵ åįģåĽĽ
çĸ¾çĹħ çļĦ
åĮ¯ çİĩ
ç»ĺ åĪ¶
æ¡ĵ åħ¬
ele ct
ç½¹ éĽ£
æĳĨ èĦ±
æ²« èĭ¥
= #
f in
ä¸Ģ ä»¶
äºº æĪĸ
å¤§ è°ĥ
æĹ¥ åĨħçĵ¦
ä¸ī ç»´
æĹ¶ ä¸º
åŁº è¼Ķ
18 55
é© Ľ
åĽĽ ç¨®
éķ¿ èĢģ
åĨħ åĬ¡
ä¿¡ çļĦ
æľª å®ļ
éĻ¤ ä»¥
ä¹Ŀ å·´
çĶ° æĿĳ
è¯´ æĺ¯
å®¤ çŃī
çħ§ å°Ħ
ad y
å½Ī æĢ§
æľīä¸Ģ ä½į
æĬĢæľ¯ çļĦ
æĵģ èŃ·
åģ¥ èº«
éĵ¶ æ²³
è£ģ æĴ¤
è¨Ĥ è³¼
éŀ ĺ
æĸ¯ç§ĳ çī¹
é¢ĨåŁŁ çļĦ
æľ´ æŃ£
èº«äº¡ èĢħ
èįĨ å·ŀ
ĠStud io
å¤§å¥ĸ èµĽ
R I
w ell
Ġ 29
å¤§ éĥ½æľĥ
æľī ä¸¤
è¡Į ç½²
åĮĹ ç«¯
éĩĳ å¤§ä¸Ń
æĿ¥ è¡¨ç¤º
å±ķ çİ°
ç§° èµŀ
çĻ½ æĹ¥
åĪĿ ç´ļ
å¹¿ å¤§
åħļ ç»Ħ
Ġs ub
åĽ´ æ£ĭ
å°¤ éĩĮ
èĩªæ²» åįĢ
å¹ħ åº¦
å±ł é¾į
æĴ¥ æ¬¾
èģļå±ħ åľ°
2 17
Ġ é«ĺ
åľ¨ ä»»ä½ķ
æľī çº¿
åĴĮ å¤ĸ
æĪĲ æķĪ
ä¹ĭ åĬĽ
åĪĨ æĭĨ
ä¸ĭ è®®éĻ¢
éĥ½ æĽ¾
å®ī äºº
äº¤ ä»£
æĽ´ æĹ©
ä¸ĸçķĮ æİĴåĲį
å¯¦ åľ¨
æķħ å®«
åº§ çļĦ
çĹħ æŃ»
ç¾¤ èĩ£
å»¶ èĩ³
26 4
æ¯Ľ éĩĮ
ç§Ģ æĸĩ
æľīéĻĲ è´£ä»»
åįģäºĮ ç¢¼
æĺ¾ å¾Ĺ
æģĨ æĺŁçļĦ
åĲ¸å¼ķ åĬĽ
è¡¨çİ° åĩº
åįłåľ° éĿ¢ç§¯
- ï¼ī
T X
v el
çļĦ æ°ĳæĹı
çļĦ å»ºç¯ī
ä¸Ģ çµĦ
çĤ «
æĸ¯ çĲĨ
ä¸ī åĪĨä¹ĭäºĮ
çī¹ èµ¦
é¾ Ķ
ç¸½ é«Ķ
é©¬ èµĽ
æĶ¶ å®¹
å®¢ è»Ĭ
å¸¶ åĪ°
å¥§ å¤ļ
æĹĹ èī¦
æ¦® æģ©
æļ´ é¾į
éª¨ æŀ¶
æģĲ æĥ§
å¹¸ éģĭ
å¤ªéĻ½ èĥ½
éģķ æ³ķ
èĮħ æĸ¯
ĠOn line
% ï¼īãĢĤ
W ii
å¹´ åĮĹäº¬
åľ¨ å»º
æľī å®³
äºĨ çļĦ
æĶ¿ çķĮ
åıĬ ç¬¬
è¢« åĪĹä¸º
ä¹Ł ç¨±çĤº
éĩĮ éģĶ
18 5
ä¸ľ å¾ģ
ĠC D
ä»¤ åħ¶
13 7
çķ« ä½ľ
å¾ĭ æ³ķ
of tw
å¥¥ å¤ļ
è¦ª å±¬
åĨł ä»¥
å¼ł ä¸ĵè¾ĳ
om an
å¤į æķ°
å¼º åĮĸ
å£ĵ åĢĴ
åİŁåŃĲ åºı
å¯¬ éł»
åıªèĥ½ åľ¨
åĩ¯ å°Ķçī¹
æĴ° æĸĩ
æĲľ éĽĨ
ä¹Łå°±æĺ¯ èªª
è¥¿éĽħ åľĸ
Ġ it
å¹´ æĺ¯
å¤§ åŀĭçļĦ
æī ¯
è¯ µ
æľĥ å°į
åŁº çļĦ
äº¤ åĩº
å¼Ģ çļĩ
å·´ æŀĹ
æ¸ħ æ²³
æ´» åĬĽ
å®Į å¤ĩ
åħ« åĢĭ
ç±» åĪ«
ç·¨ åħ¥
ĠG erman
éĻĪ è¿°
éĥŃ æ²«èĭ¥
ä»ĺ è²»
æ±ĩ æĬ¥
èĲ¬äºº æ¬¡
åĲĮæ¨£ çļĦ
ĠPro f
é¢Ĺ ç²Ĵ
åĽŀæĨ¶ éĮĦ
éĩĮç¨ĭ ç¢ĳ
èŃīåĪ¸ äº¤æĺĵæīĢ
t en
Î ´
Ñ ĭ
æĪ ³
å¤§ ä¸»æķĻ
æĺ¯ èĭ±åľĭ
åĴĮ è°Ĳ
æľĥ æľĥéķ·
åŃĲ å®®
ä¸ĸ åĺī
èĪĩ åı°çģ£
åĪ© çİĩ
éĩĳ åº¸
éĢ² åĩº
éĢ² çĲĥ
at o
åħŃ æĹ¥
ä¸ĩ ä½Ļ
è¡ĮæĶ¿ ç¸½è£ģ
æ·± è¿ľ
åīµ æł¡
éĢī åĩº
åĬĥ åĪĨçĤº
ç³»çµ± ä¸Ń
è¿Ļä¸ª è¯į
åĪĨåĪ¥ æĸ¼
æ²ĥ æ´Ľ
ç¹ģ é«Ķ
éģ· éĥ½
éłĨ æ²»
éĩĳèŀį ä¸Ńå¿ĥ
æĦıèŃĺ å½¢æħĭ
åĢ¼å¾Ĺ æ³¨æĦıçļĦæĺ¯
æĵº èĦ«
éĮĦéŁ³ å®¤
æĵ² å½Ī
âĺ ħ
çĻ¾ç§ĳåħ¨ æĽ¸
è±Ĳèĩ£ ç§ĢåĲī
B en
C ore
çļĦ æ¯Ķè³½
ï¼ī .
äºĨ æĸ°
æĸĩ å®Ĺ
åįĹ åİ¿
ä¹Ł å¸¸
å¦ Ĩ
åħ± éĿĴ
å°ĩ æŃ¤
åķĨ çĶ¨
æĹ© é¤Ĳ
13 9
æĻ¯ å¸Ŀ
éĤ£ æĻĤ
æ±ī åł¡
èĭı éĩĮ
è¡Ĺ åĮº
å¥¥ æł¼
åģļ å¥½
å¤į æ´»
æł¸ èĥ½
å°¤ ä»¥
è®¡ç®Ĺæľº ç§ĳåŃ¦
å¡Ĺ è£Ŀ
N BC
Î ½
çļĦ åĬŁ
çļĦ æĿĥåĪ©
å¤§ æ®¿
è³ ĥ
åįĹ éģĵ
éł ¤
éĥ½ æŁıæŀĹ
åŁİ ä¹¡
æģ º
éĺ¿ æĸ¹ç´¢
äºŀ çĳŁ
æĮĩ ä»£
åĲĦ ç«Ļ
æ¸ħ æ²»
åħ© å¹´å¾Į
åıĥ æķ¸
ç´Ħ æĿŁ
çļĩ å¥³
åĽ½å®¶ åħĥé¦ĸ
åľĭå®¶ æĪĸ
è©ŀ åħ¸
å©ļ ç¤¼
é¡¹ çĽ®çļĦ
æľ± æ££
éĽ£ åº¦
ç®Ģ ä½ĵ
é²ľ åįĳ
æ°ĳåĽ½ æĹ¶æľŁ
å±ı éļľ
OV E
æĦ¤ æĢĴ
A g
P eter
i que
ä¸Ń æł¡
å¤ļ ä¼¦
çĽ´ ç³»
åħī ç·ļ
åį³ æľī
åĭĻ å±Ģ
ĠP ort
æ¨¡ åŀĭçļĦ
åŃ¦éĻ¢ çļĦ
è½¬ æĴŃ
th er
Ġfor m
ç«¶çĪŃ å°įæīĭ
éĹ½ åįĹ
ç©ºä¸Ńå·´å£« A
B ig
Y O
Ġ ï¼Ľ
Ġ æµ·åĨĽ
ä¸Ģ åĨį
æĺ¯ å°Ĩ
æ¸ ļ
å¾Į åĤĻ
çŃī åħ¶ä»ĸ
æı Ĩ
æĿ± æ¸¯
èĺŃ å¾·
å¾ŀ å°ı
åħ« è§Ĵ
èĬ± äºĨ
åĽ¢ åĽ¢éķ¿
æĽ¼ å¾·æĭī
ä¾Ŀ éĻĦ
èĪ¬ èĭ¥
æ¥µ åº¦
èģĮ æĿĥ
çļ® åŁĥå°Ķ
åį°åº¦ å°¼è¥¿äºļ
äºĮåįģ ä¸īå¹´
è¿½ éļ¨
è²Ŀ æĸ¯
ap s
åı¥ è¯Ŀ
éĻ£ åľ°
è¨´ æ±Ĥ
çĭĦ æĭīåħĭ
pr int
ĠServ ice
C G
æĸ° æĶ¿
åħ¨ åı°
ä½Ĩ å¯¦éļĽä¸Ĭ
åĭķ éĩı
æŃ£ äº¤
åĨĽ æł¡
éĢĻ æ¢Ŀ
åı¯ä»¥ çĶ±
æŀľ å®ŀ
Ġt ext
åł¡ åŀĴ
ä¸ĢèĪ¬ ä¾Ĩèªª
éĽĻ éĩį
Ġd i
åŃ« çŃĸ
Ġf l
ist r
èĩªæ²» åİ¿
éĺ» æĵĭ
åģı å¥½
åĭĥ åħ°
éĺµ åľ°
åĪ¶éĢł ä¸ļ
è¯ģæĺİ äºĨ
çı¾ä»Ĭ çļĦ
åĸ¬æ²» äºŀ
å¨ĥ å¨ĥ
èĬĻ èĵī
åħĥèĢģ éĻ¢
æ¸ħèı¯ å¤§åŃ¸
å®īæıĲ æŁ¯
éİĮ åĢī
ä¸Ń ä¿Ħ
åĮĹ èĩ³
ä¾Ĩ è¡¨ç¤º
éĽ» éĺ»
çł ¸
åı² è¯Ĺ
æ¿ ¬
ç´Ģ å¾ĭ
ç¬¬äºĮ å¹´
ä¸ĥ æĹ¥
åĲī å¸ĥ
æĸ½ çī¹
ç° ĩ
å»ºç«ĭ åľ¨
åģľ æĪ°
èĩ£ æľį
ĠSt ates
æĹ§ éĩĳå±±
ç£ģ åľº
çµĲæĿŁ äºĨ
åį¢ æ£®åł¡
æİ¡çĶ¨ äºĨ
èĳ£äºĭ ä¼ļ
è¡¥ ç»Ļ
çļĩå®¶ é¦¬å¾·éĩĮ
ĠAn n
è´Ń çī©
èµŀ æĪĲ
åŃ¦èĢħ è®¤ä¸º
æĶ¹å»º çĤº
ç¹ĶçĶ° ä¿¡éķ·
åħĭåĪ© å¤«
ä¸Ń è¡¨ç¤º
ä¸Ģ çļĦ
äºº é¦¬
åĴĮ åıĳå±ķ
éĽ ı
æĻ Ł
åħ¬ é¤¨
å®¶ åħ·
èĢĮ çĦ¡
æľĥ å°İèĩ´
åįĹ æĺİ
å»º ç½®
åĽĽ åĪĨä¹ĭä¸Ģ
åĲĦ éĥ¨
çĩ Ń
éģĶ è³´
å¤± èª¤
26 5
èĥ¡ å¿Ĺæĺİ
èĤ¡ å¸Ĥ
å±¤ ç´ļ
æĥł å·ŀ
è¿ģ åĪ°
å¾½ ç«ł
éĢ¼ è¿ĳ
sh ip
åĢ¾åĲĳ äºİ
å°¼æ³Ĭ çĪ¾
é¹¦ é¹
ĠExpl or
i ent
çļĦ ç§ĺå¯Ĩ
åľ¨ åı¤ä»£
åľ° åºķ
èĪĩ å°ı
åĮĹ å²¸
æīĢ éĢłæĪĲçļĦ
åĬĽ éĩıçļĦ
çĲĥ æĺŁ
ç¬¬ä¸Ģ çĻ¾
åĮħæĭ¬ åľ¨
éĢ£ æĪ°
çĻ¾ èĢģ
é»¨ éŃģ
ĠM or
è¶ħ éŁ³éĢŁ
æĹ© å°±
åħ¸ èĹı
å¤Ħ éķ¿
ç¯Ģ çľģ
é£Ł æĿĲ
åįı å¥ıæĽ²
iv al
åĭĿ è²ł
æ¯« ä¸į
ç²ī å¶º
ç´¯ è®¡
åĤ¨ åŃĺ
çļĦæĶ¯æĮģ ä¸ĭ
ä¸ŃçŃī åŃ¸æł¡
çıįçıł æ¸¯
æĿİå®Ĺ ä»ģ
é¹¦é¹ ī
C F
å¤§ åĵ¥
åľĭ äºº
ä¸Ĭ çĴ°
ãĢĮ ãĢįãĢĤ
ä¸ī èĻŁ
äºĭ éłħ
å¾Ĺ çļĦ
è·¯ è»Į
ç§ĳ ä¸¾
ç«Ļ åĴĮ
é«Ķ çı¾
æīĭ å·¥
ç¥ŀ æĺİ
æł¹ æºĲ
çºĮ éĽĨ
40 1
è«¾ çĪ¾
éľį æĻ®
ä»Ļ åı°
çĻ¼è¡Į äºĨ
In d
77 7
åĥ¹åĢ¼ è§Ģ
éŃĶæ³ķ å°ĳå¥³
å§¿ æħĭ
åĨ¥ çİĭæĺŁ
ç¼ĸç¨ĭ è¯Ńè¨Ģ
çĽ´è¾ĸ å¸Ĥ
çīĩéłŃ æĽ²
ï¼Į ãĢĤ
æĹ¥ åıĬ
èĩª åĬ©
äºĮ æ®µ
éĩį åĽŀ
10 10
å®ī ç´į
ç§ĳ çī¹
éķ· åŁİ
æŃ£ æľĪåĪĿ
èµ· éĻį
éĹľ æĩ·
åı· åı¬
äº¦ ç§°
ä¼Ĭ éºĹ
æ¯ı èĤ¡
ç¬¬äºĮ éĥ¨
ç´ł æķ°
çĻ¼å±ķ æĪĲ
åł¡ å£ĺ
os aurus
åŁ· çħ§
ç§Ł çĶ¨
æµª æ½®
ç¨» çĶ°
ict or
è¿ªå£«å°¼ æ¨ĤåľĴ
å¹´è½» çļĦ
ĠGu ide
B o
ï¼ »
ä¸Ń å¤©
åĭ Ľ
ä½ľ çĪ²
æĸ° æ½Ł
åįĢ åıĬ
åıĳ æºĲäºİ
å¸ĥ éĩĮäºļ
åħ§ æ¹ĸ
åıĹ ä½ĵ
æľĿ åĲĳ
äºŀ çĪ¾
æĮĩ ç¨±
ãĥ İ
ä½ĵ éĩį
ç¸½ éĿ¢ç©į
æĽ² éĿ¢
åıĤ æĶ¿
åįĩ ç©º
çĨ± éĸĢ
åŁ· æ³ķ
å¸ķ åħĭ
æĽĨ æ³ķ
åį³ä½¿ åľ¨
âĢĻ ï¼Į
åľ°è´¨ åħ¬åĽŃ
çŁŃç¯ĩ å°ıè¯´
ç¥ŀå¥Ī å·Ŀç¸£
oftw are
K I
åŃ µ
ç» °
èĢĮ åıĪ
æľĥ èĪĩ
åĨĽ èĪ°
åı² çī¹
éĸĭ æĪ°
éĽĨ ä¼ļ
åĨħ éĥ¨çļĦ
çīĪ åľĸ
å³ ª
çłĶç©¶ åĴĮ
15 4
èĪª è¿Ĳ
çĴ ½
å§Ķåĳĺä¼ļ ä¸»å¸Ń
çĳª æĸ¯
å¢ĵ ç¢ĳ
ä¼ģä¸ļ å®¶
æģĨ æĺ¥
ĠPr es
ä½ĵèĤ² é¦Ĩ
åĲ¬ åĪ°
æºĲèĩª æĸ¼
ä¸´æĹ¶ æĶ¿åºľ
å¸ĥå°Ķä»Ģ ç»´åħĭ
åı¤èĺŃ ç¶ĵ
â ĳ
ï¼ ½
çļĦ ç¯Ħåľį
çļĦ è®ĬåĮĸ
çĶ ¬
è® ³
åĪĨ æ²»
è¥¿ èĩ³
ä¸ĸ äºº
åĪ¶ å¼ı
æ°´ æĺŁ
å°ĳ æł¡
å³ Ń
èģ¯ æīĭ
ç½Ĺ å¤«
çĶ· æ¼Ķåĳĺ
å© Ń
éĦī æĶ¿
åħ¨åĽ½ äººå¤§å¸¸å§Ķä¼ļ
çĻ¼çĶŁ æĸ¼
åıĽ è®Ĭ
å¢ĥåĨħ æľī
éģİåİ» çļĦ
ä¿®å»º äºĨ
æļĤ åģľ
é¨· æĵ¾
æ±Ĳ æŃ¢
æµ·åºķ éļ§éģĵ
å¾Ĺç¥¨ çİĩ
éģĬæ¨Ĥ åł´
æĬĴ æĥħ
å¤§ çł´
èµ İ
æĶ¿ ä½ĵ
æĸ° åįĹ
ï¼Ľ ãĢĮ
éĢĻ ä½¿å¾Ĺ
æŀĹ åŃĲ
å°¼ èĮ¨
å·´ é¡¿
åı¯ä»¥ å¾ĹåĪ°
çĦ¡ åı¯
æŃ· ç¨ĭ
å°Ī åĪ¶
éĺ³ åħī
å¼ł åŃ¦
å¥§ åı¤æĸ¯
èĹı ä¹¦
èĭ¥ æľī
ç´ħ åįģåŃĹ
æ²¹ éº»
çļ® çī¹
æĺĮ å¹³
çµķ å¤§å¤ļæķ¸
æĹ¶éĹ´ éĩĮ
AS T
ĠRev iew
éĲµéģĶå°¼ èĻŁ
M E
çļĦ åĩºçı¾
åŃ º
èĩª å¹¼
æīĢ ç¤º
åĲİ ä¸įä¹ħ
æł¼ çº³
è° ı
çīĪ ä¸Ń
äº¬ å¸«
èĮ ī
åħĪ æĺ¯
å½ĵ ä¸Ķä»ħ
åĩºçĶŁ åľ¨
å¤§å¤ļ æĺ¯
ist a
ri x
æĮ¯ èĪĪ
ä¸Ńå±± å¤§åŃ¦
åģı æĮ¯
æ®ĸæ°ĳ èĢħ
ä¸¹å°¼ å£«
Ã³ n
çĭŃ ä¹ī
A ir
M I
æĹ¥ æĹ©ä¸Ĭ
ä¸ī æĪĲ
å»º æĿĲ
å»º æĪĲçļĦ
å±± æµ·
å°ı æ³ī
18 20
éķ· éĩİ
åı¸ ç©º
å¼Ģ åĲ¯
è»Ĭ çīĮ
ç¸½ å±Ģ
çµĦ çµĦéķ·
ä¼Ĭ éģĶ
éĶ ¤
åĲī å£«
ä¾Ľ çµ¦
æĹł æķĪ
22 8
é¾į çıł
é»ĳ çĮ©çĮ©
å¥ĩ å¦Ļ
ĠD ec
æŃ·åı² çļĦ
å¯« ä¸ĭ
éĿ©åĳ½ åħļ
éĢļå¸¸ çĶ±
ç¸½çµ± éģ¸èĪī
éĻĪ äºĳ
æķĳ åĩº
çļĦä¸» åĬĽ
åłħ å°¼
è°¢ å°Ķ
éĬħ åĥı
è¡¨éĿ¢ ä¸Ĭ
ç¨» ç±³
éĻķ çĶĺ
å¥§æĸ¯ æĽ¼
ä¸ĵåĳĺ åħ¬ç½²
M ax
å¹ Ĥ
åľ¨ ä½¿çĶ¨
åľ¨ åĽ½éĻħ
å¤§ éĸĢ
æĻ ¦
åĲĮ æ¯Ķ
æµ· æ¿±
æĵ Ħ
åħ¨ å·ŀ
éĽ» åĻ¨
å¢ Ĭ
ç¶ĵ æĸĩ
é¦Ļæ¸¯ ä»Ķ
é¦ĸ èħ¦
æĮģ æľīçļĦ
æ²³ ä¸ľ
çĳ ĭ
æ¿ ®
æĪĳ æľĢ
13 6
æŁ¥ è©¢
å®¤ çĶº
èģĸ æ®¿
å¥¥ åĪ©
æł¸ èĭ·éħ¸
è¨±å¤ļ äºº
å¤ľ éĹ´
å½ķ åıĸ
å®ĺæĸ¹ ç¶²éłģ
çļĦåľ° åĲį
è£ľ åĦŁ
ht ml
æ¸¸åĩ» éĺŁ
ç´įçĪ¾ éģľ
çļĦ åħ¬åħ±
ãĢĤ ãĢįãĢĤ
ä¸į æ¸ħ
ä»£ åĥ¹
éĽ» åł±
è»į ä¸Ń
å®ī æħ°
ä¸ŃåĽ½ å¹´åı·
äºŀ ç¨®
äºĶ æ¬¡
çļĩ å®®
ç¾İåľĭ éĻ¸è»į
å®ŀ ä¾ĭ
ĠM et
ç¬¬äºĮ åĲį
ãĤ ¶
åĽ½å®¶ å®īåħ¨
åĺī åħ´
éĢģ çµ¦
åľ£ å½¼å¾Ĺåł¡
æĸ¯çī¹ æĭīæĸ¯
éī Ģ
å¹´è¼ķ äºº
æĵ¦ éŁ³
éħĭ éķ¿
ä¾Ħ åŃĲ
å¥¥æĸ¯åį¡ æľĢä½³
è¢«ä»»åĳ½ çĤº
å¿ĹæĦ¿ åĨĽ
å©´ åĦ¿
ç¿°æŀĹ éĻ¢
4 16
A F
Ġ am
çļĦ æľ¨
å¾Į è¡Ľ
è¥¿ çĶ²
ä¸ī åħĥ
åħ¨ ä¹¦
éĩĳ æ£®
éķ¿ éĢĶ
éģİ å¤ļ
é¦ĸ å°Ķ
æµģ æ°´
åıĪ åĽł
èĪª éģĭ
ä¸Ńå¤® éĽĨ
æĿĳ ä¸Ĭ
åħĴ å³¶
éĿ©åĳ½ å®¶
é¸ ļ
äºĮåįģ åħŃå¹´
çĶŁçī© çļĦ
å¿ł èªł
éĪ ķ
è²¨ è»Ĭ
å¾½ å®Ĺ
ph en
ç©©å®ļ æĢ§
ãĥĥ ãĥĪ
è´ŀ è§Ĥ
Ä «
çļĦ åĲĪ
åŃ ¢
ä¸Ń æ¸¯
å¤§ éĹ¨
æľī æ©Łæľĥ
ä¸į çĽ¸åĲĮ
ä¿ ¸
èĢĮ ä¾ĨçļĦ
å¾Į çĤº
æĸ° ç´Ħ
å¾· ç´¯
è¡¨ ä¸Ń
çĽ¸ çīĩ
åĪ¶ æŃ¢
åı² å®¶
å°Ĩ æĿ¥
ç¼ ł
å¯¦ æķ¸
éĦ ±
çĻ¾ å®ĺ
ç¬¬äºĮ åįģ
å¡Ķ åĲīåħĭ
åįł æĺŁ
èĪĪ å¥®
æ¢ħ çĪ¾
ä¾µ èĿķ
æĦıèŃĺ åĪ°
éĩĳçīĮ å¾Ĺä¸»
èĢĥèĻĳ åĪ°
éĽĩ ä½£
è§Ģå¡ĺ ç¶«
çľĭä½ľ æĺ¯
å¥¢ ä¾Ī
è¥¿ä¼¯ åĪ©äºļ
ĠMat hemat
æĶĶ æĪª
C I
ä¸Ń èĭı
ä¸Ń åŃ¦æł¡
ä¸Ĭ è¢«
åĲĮ æµİ
åįĹ äºŀ
æĦı åĽ¾
æľĿ ä»£
èº« çļĦ
é¾ ļ
èĬ± è´¹
è½¦ æīĭ
æ¨¡ çµĦ
ç¬¬ä¸ī åĲį
æ¬§ ç¾İ
æ¬§ åĩł
æł· çļĦ
éĬĢ çįİ
çĪ± å¥½èĢħ
å¿ł çĥĪ
ä¾µ å®³
éĢĥ ç¦»
åĲ¯ è¶ħ
çļĦæĦı ä¹ī
è·³ èĪŀ
ust ral
éĢĴ å½Ĵ
F IFA
u es
å¹´ æŃĲæ´²åľĭå®¶çĽĥ
ä¸Ń åĶ¯ä¸Ģ
åľ¨ çķ¶åľ°
ä¹ĭ å£°
åħ¶ å®ĥçļĦ
æľĥ æĸ¼
åĮĹ åģ´
ä¹Ł çĤº
éĸĭ éĹ¢
æķ¸ åįĥ
åħ© éĥ¨
is hed
åĵĪ æŀĹ
æĻ¯ èī²
åįĶ å¥ıæĽ²
èĪªç©º çļĦ
èģĮ åĳĺ
è¶³çĲĥ åħĪçĶŁ
åĽº æľī
çĥŃ åĬĽåŃ¦
åīĽ æŀľ
è®¾ç«ĭ çļĦ
AT ION
ä¸īåĢĭ æľĪ
èĦļ æľ¬
Ġy ou
æĳ©å¤© å¤§æ¨ĵ
æľīéĻĲè´£ä»» åħ¬åı¸
4 20
R ichard
b all
çļĦ å°įè±¡
ä¸Ģ æ¨ĵ
ä¸» åľº
åĪĨ å±ŀ
åŃ¸ éĥ¨
åĲĮ å±¬
èĩª å®¶
äºĮ éĥİ
çİĭ çīĮ
è¡¨ æ±º
æıĲ æĭĶ
ç©º éĻį
çŁ³ çĶ°
éģĶ æŀĹ
åħ« çĻ¾
ĠP at
æĴŃ éŁ³
30 1
çĴ ĩ
å¼· è¡Į
ä¾Ŀ æĹ§
é£İ ä¿Ĺ
å¾® åŃĲ
éĢĲ åĩº
èī¯ çļĦ
åħ¨åĽ½ æĶ¿åįı
æĻļ æĬ¥
èı² çĪ¾å¾·
æħ¶ åħ¸
åĦĦ æĹ¥åħĥ
èħĲ æķĹ
æĬĳ éĥģ
æĲŀ ç¬ĳ
åŃ¸å£« åŃ¸ä½į
å¸ĥåĪĹ å¡Ķå°¼
æĥ© ç½ļ
S K
t op
ãĢĤ ãĢı
åľ¨ å¥¹
å¾· æĽ¼
èĢħ æľī
å¦Ĥ åľ¨
éĸĭ æİ¡
åı¸ åı¸éķ·
è¿Ľ çĲĥ
éĹ´ éļĶ
éĹ´ è°į
å°Ĩ ä»ĸ
åħµ å½¹
åĳ¨ åħ¬
ä¹¦ éĿ¢
ä»¤ ä»ĸ
åŃĺ æ¬¾
å¡ŀ æĸ¯
il ver
åģľ çģ«
ĠE ast
èĤ¡ ä¸ľ
åĨĻ ä¿¡
è¥¿çıŃçīĻ äºº
äºŀç¾İ å°¼äºŀ
G r
N H
ä¸ «
çļĦ çĦ¡
æ² Į
èĪĩ ç¤¾æľĥ
åĮĹ éģĵ
çī¹ åħĭ
å¤© å¾Į
æĥ °
éĩĳ åŁİ
18 43
ä¸¦ çį²å¾Ĺ
æĶ¹ æŃ£
å¹¶ æľī
å®ĺ åºľ
åı¯ä»¥ å°Ĩ
è¿ĳ ä¹İ
çĶ· çĶŁ
è¡ĮæĶ¿ æ©ŁéĹľ
|| ||
è¯¥ ä¹¦
çľĭ ä¾Ĩ
è¼ĥ å°ıçļĦ
åģļ æĪĲ
éİ ³
ç¬¬ä¸ī ä½į
è«¾ æĽ¼
ä¹Łæľī äºº
éĳ ²
ä¸¥ åİī
çŃ¾ çº¦
ä¿Ħç½Ĺæĸ¯ å¸ĿåĽ½
è¾¨ èŃĺ
è´ıå¾Ĺ äºĨ
ä¾¦ å¯Ł
å½ĵä¸Ķä»ħ å½ĵ
å¹´ æ¯ķä¸ļäºİ
ä¸Ģ åıª
åĩº å¾ģ
èĪĩ éĻ³
ä¸ª æ°ĳæĹı
è© Ľ
çİĭ èĢħ
èĭ± çİĭ
éĩı åĮĸ
å½± åŃĲ
éķ¿ çº¦
æį Ĩ
å¯¦ ç¿Ĵ
æİ¨ è«ĸ
è«ĸ é»ŀ
è©² çīĩ
çľŁ æł¸
çĽŁ åĨĽ
åĶĲ å®ĭ
åĵ¥ æĭī
å¤į æĹ¦
æĨ İ
åĨ³ å¿ĥ
åħ¨åĽ½ äººæ°ĳä»£è¡¨å¤§ä¼ļ
åıĥèĢĥ æĽ¸çĽ®
æ¢ģ åĲ¯è¶ħ
ç¼º çĤ¹
å·²ç¶ĵ æľī
ç§Ł è³ĥ
æľīæķĪ åľ°
åĲĮçĽŁ åľĭ
æģ¢å¤į äºĨ
æµ·å²¸ çº¿
é¥® æĸĻ
ä½Ľç½Ĺ éĩĮè¾¾
è¥¿éĩĮå°Ķ åŃĹæ¯į
èģĶåĲĪåĽ½æķĻç§ĳæĸĩ ç»Ħç»ĩ
æľ´æŃ£ çĨĻ
C om
F i
æľī æĻĤåĢĻ
æ³ķ åŃ¦éĻ¢
çĶ± æĹ¥æľ¬
åįĹ å¹³
ç«ĭ ä½ĵ
ä¹Ł å¼Ģå§ĭ
éĺ¿ ä»Ļå¥´
å¹¶ åĲĳ
éĹľ ç¨ħ
åħī æºĲ
è¿ĳ éĥĬ
ç»Ħ ä»¶
æ¾ ±
åĿĩ åı¯
æķĻèĤ² åĴĮ
æķĻèĤ² åŃ¦éĻ¢
é¾į æ±Ł
æİĴ åĩº
è¡ĮæĶ¿ åįĢåŁŁ
åª ³
éĻµ åİ¿
æĻī åľĭ
ç¤¼ ä»ª
ç¡¬ åº¦
æĿĲæĸĻ çļĦ
åĲ¯ èĴĻ
æĺŁæľŁ ä¸Ģ
åĪļ æŀľ
è¯Ħè®º å®¶
éĻĦå±ŀ ä¸ŃåŃ¦
çĭ¹ ç¾©
alys is
a is
n ess
å¹´ è¯ºè´Ŀå°Ķ
åľ¨ ä¸įåĲĮçļĦ
å¤§ è³ŀ
åĴĮ åīį
ä»¥ åĪ©
æ¸ ²
èĢĮ åıĹåĪ°
åĲİ åĽł
æµ· çİĭæĺŁ
åıį è¦Ĩ
ä¸ĸçķĮ å·¡è¿´æ¼ĶåĶ±æľĥ
ä¼Ĭ èİİ
30 5
å¤± è¸ª
é¾į æ½Ń
è¦ı å¾ĭ
ç´¢ ä¸į
éĦī éķ·
äºĨä¸Ģ åľº
ãĢī ãĢĪ
èĳ£ å»ºèı¯
èĩªæ²» å·ŀ
æĹĭ åį³
æľĢçµĤ åľ¨
é¼ĵ æ¥¼
ç²ī ç¢İ
å¤ªéĻ½ çļĦ
æĲŃ æªĶ
æĺŁæľŁ äºĶ
ä¸Ńåįİæ°ĳåĽ½ å¤§éĻĨæĹ¶æľŁ
æĦıè¯Ĩ å½¢æĢģ
è¾© æĬ¤
éªĳå£« åĽ¢
L ive
çļĦ æĬ¥åĳĬ
å¹´ åķŁçĶ¨çļĦ
äºº è³ª
å¤§ åľĭ
ç» ħ
å½ §
è¯ Ī
åı° åľ°
æĭī ç¾İ
åıĳ çļĦ
å¯¹ å¾ħ
åĬ¨ å·¥
æ¥Ń çķĮ
è± Ī
äºļ ç§į
çµĲ èŃĺ
æĿİ é´»
15 8
åŁŁ åĲį
åĽ½å®¶ ä¸»å¸Ń
éª °
æŃĲ åĨł
äºĮåįģ ä¸Ģ
éĽ¨ æŀľ
åĨ° å³¶
ĠU p
åŁĶ éĩĮ
180 6
çĮ¶å¤ª æķĻ
oy al
å¤§å°Ī éĻ¢æł¡
A lex
B as
çļĦ çµĲæ§ĭ
ä¸Ģ å¤ľ
å¤§ èĤĨ
æĸ¯ å®¾
èĪĩ åīį
åĮĸ å¦Ŀ
æł¡ åħ§
ä¸ĸçķĮ å¤§åŃ¸
æĸĩåĮĸ åıĬ
æ¹ĸ äºº
åĿĩ è¢«
å¤Ħ ç½ļ
åĶĲ ä¹¦
ç¬¬ä¸ī æĸ¹
å½Ī éłŃ
æ¸© æļĸ
èĢ³ æľµ
å±ħä½ı çļĦ
In ter
æĶ¹è®Ĭ äºĨ
å¡« åħħ
è§Ģå¯Ł åĪ°
è´µå·ŀ çľģ
æŁıæĭī åľĸ
äº¤åĮ¯ èĻķ
ç³ĸå°¿ çĹħ
C or
S u
W i
çļĦ åŃĲ
ä¸Ģ åħĥ
æī Ķ
åĴĮ æ³ķåĽ½
åŃ¦ ç³»
æĮ ¾
ç¾İ åĪ©
äºĭ åĲİ
éĿ¢ åĮħ
æĪ° åįĢ
åı£ å¾Ħ
æĹ¥æľ¬ åľ¨
çĽ´ è§Ĵ
åħī æ»ĳ
åĽŀ é¡§
å¼ķ äºº
èĪª æ¯į
çģ« çĤ¬
çļĦä¸Ģ åĲį
è½ī ä»»
èģ· æ¬Ĭ
å§Ķåĵ¡ éķ·
åıĮ éĩį
Ġm od
å¾µ æĶ¶
æģĲ é¾Ļ
åħ» æ®ĸ
å³½ è°·
ĠCl ub
æĬĵ ä½ı
éħĭ éķ·
ä¸Ń åŀĭ
èĢĮ éĹ»åĲį
çģ ĳ
å±± ä¸Ń
èĥ½ åĲ¦
ä»» çĶ¨
åı² åŃ¸å®¶
éķ¿ æĹ¶éĹ´
éľ ī
æµģ è¡Ģ
ç¥ŀ åĥı
æ²³ åħ§
åĽŀ åİ»
ĠC ult
æŃ» åīį
å±ħ å£«
å®£ æĪĺ
æĶ¿æ²» å¤§åŃ¸
å¡Ķ å¤«
çĻ» éĮĦ
åĨł çĬ¶
éľĢè¦ģ åľ¨
åŁºçĿ£ æĸ°æķĻ
Ġin d
å¸ķ çī¹
è¿İ å¨¶
éĦŃ ç¶ĵ
æ²Ī æĭ¬
å®ª ç«ł
æĻ®éģį çļĦ
Ch arles
ç»Łä¸Ģ çļĦ
åľ¨éĢĻ è£¡
ãĥª ãĥ¼
åŁİéĻħ éĵģè·¯
wik itable
æľĪ èĻŁ
ä¸į éľĢ
èģ ¿
æĸ¯ è¯º
åĪĨ ç«ĭ
æīĢ ä½ľçļĦ
çī¹ äºº
ç¾İ æĭī
å·¥ åĮł
çĻ¼ çļĦ
åįģ èĲ¬
ä½Ĩ åį´
åħ± è¯Ĩ
éĥ½ åı¯
æĿ± éĲµç¶«
é¦ĸ æĺł
ç¾ħ æĽ¼
çĻ½ å®«
ä¹¦ é¦Ĩ
å»£ å¤§
å¥½ èİ±åĿŀ
åĳĬ ç¤º
æ·± éģł
ç²¾ åº¦
éĤ¦ èģĶ
è½¬ èĢĮ
éłĲ çķĻ
Ġin ter
ä¸¥ æł¼çļĦ
éĪ º
Ġw as
æłĩåĩĨ çļĦ
Ġon line
è²« ç©¿
æĶ¹ç·¨ æĪĲ
ç·¨èĻŁ çĤº
m en
çļĦ èĪĬ
ä¸Ģ æ´¾
æī ³
åĴĮ å¯¹
åĴĮ ç¤¾æľĥ
æĹ¥ ä¿Ħ
åĽ½ è¯Ń
æĭ ¦
ä¹ĭ èªª
åĢ ¦
ä¹Ł èĪĩ
å¤© åĳ½
éĩį èĩ£
æ¼Ķ ç®Ĺæ³ķ
å®ĺ ç«ĭ
è®Ĭ æķ¸
æĹ© å®ī
å°Ī çĩŁ
èĲ½ åľ°
ä»ĸçļĦ ä½ľåĵģ
åįĥ ç¦§
ç¬¬ä¸ī å±Ĩ
ç§¯ ç´¯
åĽº é«Ķ
åĨ· æĪĺ
äº¿ åĲ¨
é¼ĵ æīĭ
æİĥ æıı
çº³ç²¹ å¾·åĽ½
è½īç§» åĪ°
ä¾Ŀèµĸ äºİ
æĸ°åŁİåĭģçĪĨ éłĴçįİç¦®
s erv
å¹´ æĽ¾
åĩº æµ·
æ°ĳ çĩŁ
åı¯ å¤«
æ¨ ½
ä¸ī è·¯
äºĮ æĺ¯
çĽ¸ äº¤
å®ī æ¨Ĥ
é¦Ļæ¸¯ æ¼Ķåĵ¡
è»Ĭ æ¬¾
çĶµ æľº
è³½ å¾Į
æĿİ å®¶
çłĶç©¶ åĵ¡
åĨį ä»¥
åĨį çĶ±
åĨį è¦ĭ
ä¼¯ æĸ¯
æŃ· ä¾Ĩ
é² ¨
å¿« ä¹Ĳ
èī¾ åĪ©æĸ¯
Ġc ont
çļĦåīį æıĲ
çĽĪ åĪ©
itt le
èĳ« èĬ¦
å¡ĶåĪ© çıŃ
P U
Ġ ro
çļĦ å»ºè®®
å¤§ çīĩ
åĩº èµ°
ä¸ĭ èĲ½
é«ĺ ç©º
æķĻ çĪ¶
çī¹ æ´¾
åĪ© æ¯Ķäºŀ
äºĮ æĪ°å¾Į
é¦ĸ å±Ĭ
æĿİ æĸĩ
ç¾ħ æ¼¢
åľŁ è¡Ľ
æĸĩåĮĸ åľĪ
åİĨ æĹ¶
23 8
æĽ¼ å°¼
åī¯ å§Ķåĳĺéķ¿
åºķ çĽ¤
åĬĥ åħ¥
éĢļå¸¸ è¢«
æ»¿ æĦı
éĿł èĳĹ
çİ» å°Ķ
Bl ack
angu ages
èī· èĬ³
æĿİä¸ĸ æ°ĳ
ĠPublish ing
3 21
X box
Ð ¼
çļĦ è»įéļĬ
å¤§ æĢĴ
æĺ¯ åħ¨çĲĥ
æľī å¾Īå¤§çļĦ
åľĭ æħ¶
æ² ±
æ² Ĳ
ä¸į æĦ¿
æ°ĳ å»º
è¥¿ çļĦ
çī¹ é²ģ
åħĭ éŃ¯
çĲĥ éĿ¢
åİ¿ å¢ĥ
ç´Ħ çĳŁ
ç¼ ®
ä¾ĭ è¡Į
æİ¨ ç®Ĺ
å¾·åĽ½ äºº
ç¡® å®ļçļĦ
æĿľ çĶ«
æĸĩæĺİ çļĦ
ä¸»æ¼Ķ çļĦ
é¢ģ å¥ĸ
éĤµ æ°ı
å¼ĹæľĹ èĮ¨
åĵĪéĩĮ æ£®
èĭ» åłħ
çĺĭ çĭĤ
çĶ²éª¨ æĸĩ
æŃ¸é¡ŀ çĤº
éĴĵ é±¼
7 67
çĶ £
éĢ µ
æĹ¥ èĪĩ
ä¸į å®Įåħ¨
ä¹ĭ å§ĭ
æ´ ¼
åħ¬ çīĽ
è¥¿ ä¹Ŀé¾į
åĲĮ å¿ĥ
èĩª åĤ³
åı¯ æ¨Ĥ
æĦ §
å»º åº·
äºĮ çļĦ
åĤ »
å¸ĥ æŀĹ
es p
ç½Ĺ éĤ£
ï¼į ï¼īï¼Į
å®Į é¢ľ
èĻķ å¥³
åĽ½å®¶ éĺŁ
Ġt r
åģĩ èªª
å¸ķ å°Ķ
Ġm e
æŃ»äº¡ çļĦ
å±ħæ°ĳ çļĦ
ç¡¬ ç¢Ł
ç¢ĳ æĸĩ
-- -
æ±¡ æ°´
åįĳ åįĹ
åĲĪæ³ķ æĢ§
æĺı è¿·
åĢº åĬ¡
æľīåĬ© æĸ¼
D L
b ject
k in
å¹´ ä¹ĭå¾Į
ä¸Ģ é«Ķ
å¸ §
æĪĲ å¸Ŀ
ç¶ ¬
çĻ¼ æĶ¾
æ¬¡ è¦ģ
å°Ķ èĮ¨
åĽĽ éĩįå¥ı
å¥³ å©¿
æĿ± æ£®
æĵĬ èĲ½
æİĴ åľ¨
æ³° éĽħ
çĶļ å°ĳ
å¥ī ç¥Ģ
æĺĨ å£«
è·³ æ°´
ç§ĳåŃ¦éĻ¢ éĻ¢å£«
ç¦½ æµģæĦŁ
æĭīæł¼ æľĹ
æª¸ æª¬
åľ°çĲĨæłĩå¿Ĺ äº§åĵģ
a us
åĲİ æĸ¹
æŃ¤ ä¸¾
åĬł æ³ķ
çĻ¼ åħī
å¸ĥ å®ľ
é¦¬ åĪ©
ä¸ĸçķĮ è¡ĽçĶŁ
æĿİ çĻ½
ç»Ł å¸ħ
çŁ¥ äºĭ
å±ħ å¤ļ
å±ħ å±ĭ
æ¦ Ķ
ï¼īãĢģ âĢľ
è¶Ĭ éģİ
åįĬ éĥ¨
æĤ Ħ
ä»ĸçļĦ åĲįåŃĹ
å¹´ä»£ å¾ĮæľŁ
æ³° åĽł
èŃ¦ åĤĻ
éĢĢ åĽŀ
èĥ¡ ä½Ľ
äºĴ ä¸į
æĸĩåŃ¸ çįİ
éĺ¿æĭīä¼¯ äºº
åĽ½åĬ¡éĻ¢ åī¯æĢ»çĲĨ
çļĦå¥³ äºº
èģĸèªķ ç¯Ģ
i T
Ã Ł
æĺ ¨
æĹ¥ åħ§
åĽ½ åħ¬
ä¸į æŃ¢
æľĥ é¤¨
éĺ¿ éĥ½
æĹ¥æľ¬ åĭķçķ«
æĶ¶ çľĭ
ç¾İåľĭ èģ·æ£Ĵ
ä¼ł æŁĵ
ä½ķ å¡ŀ
åĲī åįľ
åį° æľī
am in
as p
åĮĹäº¬ çļĦ
é¥ ĳ
ãĥ» ãĥ»
åĶ® åĩº
ç§ģ å®¶
è¶ħç´ļ èģ¯è³½
ä½Ľç½Ĺ ä¼¦
Ġ ~
åı ®
ä¸į å·²
ä¸į éĮ¯
è¨ ¶
èĢĮ å¾Ĺ
æīĢ éĥ¨
æīĢ çĶ¢çĶŁçļĦ
ç§ĳ å¨ģçī¹
å°ĳ éĩıçļĦ
éģĭ è½ī
ç¾ħ çĲ³
åĪĿ çŃī
ĠM ay
ĠM em
ãģ ł
åħ¸ æķħ
åįĥ åħĭ
çĳŀ å®ī
çº¢ åįģåŃĹ
éŃĶ çİĭ
æľįåĭĻ ä¸Ńå¿ĥ
ap h
éĢĥ åĩº
è¼ķ é¬Ĩ
åĳ³ çļĦ
åºŁ æŃ¢
å®¾ å¤ķæ³ķ
æµ® éĽķ
æĹ¢ çĦ¶
ĠX P
ç·¯ åº¦
ĠBl ack
çīĽæ´¥ å¤§åŃ¸
ĠOff ice
å¼µåľĭ æ¦®
æĺ¯ èĪĩ
20 7
ä»ĸ äº¦
æīĢ èĳĹçļĦ
18 39
åŀ «
åķĨ çļĦ
åıĥ æĪ°
èĻŁ ç¨±
è±¡ å½¢
el le
èĸ ¨
æľ¨ åį«
æ·± æ·±
åī¯ æł¡éķ¿
å¯Į åĭĴ
éĽ¢ èģ·
è¿ª äºļ
å¾ģ æĶ¶
æºª åİ¿
éģĬæĪ² æ©Ł
å·¡ éĤı
åĲ´ è¯Ń
å»¢ æ£Ħ
åģī å¤§
èģ¯éĤ¦ æĶ¿åºľ
ä¹ĭéĹ´çļĦ åħ³ç³»
ä¼Ł å¤§
åĿĤ æľ¬
çī² çķľ
æĢİ æ¨£
èĺĨ æ´²
å¹´ä»£ä¸ŃåĽ½ æĶ¿æ²»
Ġ éĻ³
æŃ ª
èĢ į
ä¸į è¨Ń
ä¾ ¬
ä¸Ĭ å¥ı
åıĬ æĻĤ
åıĬ æĸ°
è¥¿ æŃĲ
åı¯ çĶ¨äºİ
åįĹ ä¾§
æŃ¤ åĬĩ
æ°´ è·¯
æĿ± åįĹéĥ¨
å·´ é¦¬
åķĨ ä»£
éļĬ åı²
ç¾ħ æĿ±
åľŁ åľ°çļĦ
çĮ ·
å»£ çĤº
éĿĴ èĹı
é¾į èĻİ
éĽ· è¯º
å¥ĩ çķ°
èĬĤ å¥ı
å¯« æ³ķ
æ¢ħ èī·èĬ³
æ¸¬ é©Ĺ
æĪ¶ å¤ĸ
æİ¥åıĹ çļĦ
æ¸¡ éĤĬ
èį£ èİ·
é§ķ èĩºä¸Ńå¸Ĥ
éĻĢ èŀº
å¤§ä½¿ é¦Ĩ
éłĹ çĤº
åĬłæĸ¯ åĬł
èĤ¿ çĺ¤
ä¸Ģ éĢ£ä¸²
æĺ¯ åı¯ä»¥
ä¸Ĭ å±Ĥ
èĢĮ çĶŁ
æľĥ æīĢ
å§ ª
åįĹ å²¸
âĢľ -{
ç«ĭ å®ª
çŃī å¤ļ
è½ ħ
è¿Ļ æĺ¯ä¸Ģä¸ª
äºļ çĽ®
le ment
èĲ¬ å¹´
éĤ£ æ¨£
25 1
éĩĭ åĩº
è¥¿çıŃçīĻ è¯Ń
æĬĢè¡ĵ çļĦ
ç¾ħé¦¬ çļĩå¸Ŀ
å¢ŀéķ¿ çİĩä¸º
AC K
è»¸ å¿ĥ
ç¨į å¾®
å±Ĭåħ¨åĽ½ äººå¤§å¸¸å§Ķä¼ļ
å±Ĭåħ¨åĽ½ äººå¤§ä»£è¡¨
å·¥åķĨ ç®¡çĲĨ
Ġâ Ĺ
æ¦´ å½Ī
åĢĻè¡¥ å§Ķåĳĺ
ä½Ľç½Ĺä¼¦ èĲ¨
å®¾å¤ķæ³ķ å°¼äºļ
ä¸Ń æī®æ¼Ķ
å¤§ å±łæ®º
åħ¬ æľī
æĸ¹ èĪŁ
è¥¿ æĭī
è¥¿ éŃı
ä¹Ł è®ĵ
éĢļ è´§
18 32
å°± ä»¥
å°± èģĮ
å¼Ģ æĴŃ
æĽ´ è¢«
åŀĭ æľºè½¦
ä¸ĸçķĮ ç¬¬
æĿİ é¸¿
ä¸»è¦ģ åĪĨå¸ĥåľ¨
ç²¾ åĬĽ
ä»Ģ èĳī
ä½µ è³¼
ç±Į æ¬¾
çĥ§ æ¯ģ
ĠIs land
åĬłåĪ©ç¦ıå°¼äºļ å·ŀ
C X
S l
p H
ä¸Ń ä¹ĭ
å¤§ åĶĲ
æľī åºı
æĸ¼ æĺ¯åľ¨
æ°ĳ æ¬Ĭ
æ± Ļ
ä¹Ł ä¸įæľĥ
å¤ĸ åĩº
åĬł ä¹ĭ
èĳ Ĩ
éķ· æĺ¥
åı² åŃ¸
é¦Ļæ¸¯ æŃĮæīĭ
åł´ éĿ¢
ç¨± è®ļ
æķ° åįĥ
éĵ Ģ
çłĶç©¶ åĳĺ
åľŁ åı¸
æīį åı¯
22 3
éĤĦ æ²Ĵæľī
æł· å¼ı
æİ¡ çĶ¨çļĦ
åķŁ æĴŃ
ä¹Į åħ°
çĬ¯ äºº
å·²ç¶ĵ è¢«
éģ· åĪ°
ç§Ł éĩĳ
åŃĻ åŃĲ
è£ľ éģ¸
èİİ æĭī
çķª èĮĦ
æıļ å·ŀ
é¯ī éŃļ
% "
8 50
D ream
S ir
T H
s en
åľ¨ éĢĻäºĽ
åĲį å®¶
çī¹ åľ¨
æµ· å¹³éĿ¢
å·¥ åł´
å°į ä¸Ńåľĭ
æĿ± å²¸
éŁ³ éŁ¿
ç«Ļ åĲį
éĺ¿ åħ¹
åĲĳ ä¸ĭ
æ³¢ éķ·
å¢ŀ å»º
ĠT ime
å¥§ åħĭèĺŃ
ĠD ictionary
è¾¹ çĸĨ
åĽº éĨĩ
èī¦ èīĩ
ç§ĺ éŃ¯
æķħäºĭ çļĦ
æĸ°èģŀ ç¶²
çĢ ī
çĽĳ è§Ĩ
ç°½ ä¸ĭ
éĽĨåľĺ è»į
çĲĨè«ĸ ä¸Ĭ
ç´¹ èĪĪ
éµ ¡
éĥµ ç¥¨
è´¯ ç©¿
éŁ¶ å±±
çŀ¬ éĸĵ
çĦĬ æİ¥
çº¢æ¥¼ æ¢¦
M at
U E
l t
ä¸Ń äºŀ
ä¸Ń è¥¿éĥ¨
åľĭ å¤§
ä¸º æľŁ
åĩº ç·ļ
çŃī åĽ½
æŃ¤ æĽ¸
ä¼ļ éĿ¢
çı¾ æ³ģ
ç«Ļ çĤ¹
åħ§ äºŀ
ç©º æīĭ
çµĦ çļĦ
åİ» å¹´
å¿Ĺ åģī
æīį éĸĭå§ĭ
æĵĬ åĩº
åľĭéļĽ è¶³åįĶ
åĪ¤ èĻķ
èŃ· å£«
è¿½ åĬł
æ¦Ĥ åĨµ
éĭ °
éĽ¨ åŃ£
åºĦ åĽŃ
åĩºçīĪç¤¾ åĩºçīĪ
é± ·
èµµ åĽ½
ãĥ³ ãĤ°
æ¶ħ å¤«
æĬļ é¡º
æĤĸ è®º
æŁıæĭī åĽ¾
æľºåĬ¡ æ®µ
æ¸² æŁĵ
4 80
D irect
F e
L i
t ic
å¤§ å°ıçļĦ
æĭ Ĳ
èĢĮ èĪĩ
åıĬ æĹ¶
ä¸ĭ æĶ¾
æķĻ å¯¼
å¸¸ ä»¥
å¸¸ å·ŀ
æĪ° åīį
å² ļ
åı¤ ç¾ħé¦¬
åı¯ä»¥ çĽ´æİ¥
é©¬ åħĭæĸ¯
ç¦ı å·ŀå¸Ĥ
æ±Ĥ åĴĮ
æ²Ļ ä¿Ħ
è¨ĺ è¿°
å¡ŀ æµ¦
åĶĲ ç´į
åĪĳ éĥ¨
ä¹Ļ éħ¸
è£½éĢł æ¥Ń
æĳĦ æ°ı
æľīåħ³ çļĦ
åĪĽä½ľ çļĦ
åħ§éĸ£ ç¸½çĲĨå¤§èĩ£
é§ķé§Ľ åĵ¡
å§Ķä»» çĤº
å·ŀç«ĭ å¤§åŃ¸
F ate
H y
çļĦ åĲĪä½ľ
çļĦ åĨĽéĺŁ
æľī åĬĽ
éļ ´
æĸ° çīĪ
é«ĺ è¡Ģ
ä¹Ł ä½¿
å¤ĸ è¯Ń
ä»» åĨħ
ä½Ĩ ä»įçĦ¶
å°± åı¯
çķ¶ åł´
ç¥ŀ å»Ł
åħĪ ç¥ĸ
ĠC ap
å»£ å·ŀå¸Ĥ
åº· æĸ¯åĿ¦
éĽ»å½± åħ¬åı¸
éĩįè¦ģ ä½ľçĶ¨
ĠF orm
éŃ¯ å¤«
åį°åº¦ å°¼è¥¿äºŀ
åĲ¾ çĪ¾
æ²ĸ ç©į
æ¡¿ èıĮ
åĤ¬åĮĸ åīĤ
éĽ»æ°£ åĮĸ
çĢĭ éĻ½
C os
æĺ¯ æīĢæľī
æĺ¯ å½ĵæĹ¶
åĴĮ ç®¡çĲĨ
ä»ĸ è¡¨ç¤º
èĩª ä¼ł
ä¸ī æ²³
åĽł çĪ²
å±± ä¸ĺ
å®ļ åĲĳ
å°ı éĩİ
è»į çĩŁ
18 36
æł¼ éĻµ
ç¤¾ éķ¿
åĬ¨ çļĦ
ç¾İåľĭ ç©ºè»į
èĲ¬ çī©
el y
ç»´ åŁº
èĭı æł¼æĭīåºķ
éĴ Ĭ
om a
è¶³çĲĥ éĺŁ
è¿½ å°ģ
æ¿Ģ æ´»
ot a
éģĩ å®³
æ´ŀ åºŃ
ç¥Ń åħ¸
åĨ³å®ļ å°Ĩ
éłĤ é»ŀ
ç´Ģå¿µ åłĤ
ç¹ª åľĸ
éķ¿æ±Ł å¤§æ¡¥
å±ķç¤º äºĨ
éľľ æľŁ
éħµ æ¯į
ç²Ł è£ķ
æļ± ç¨±
é¸ļ éµ¡
åľ¨ ä¸ľ
äºº éģ¸
éĻ Ĥ
åĴĮ ç»ıæµİ
åħ¶ å¼Ł
éĺ ±
å¤ļ çĳĻ
ä¹Ł è¨±
åİŁ å±¬
ä¾Ĩ äºĨ
å°į å³Ļ
ç¯ ł
å¼Ģ è¡Į
åŃĹ æ¨£
æĺŁ äºĳ
æĮģ ä¹ħ
æ¸ħ ä¹¾éļĨ
15 6
æľį å¾ŀ
id s
æīĺ å°¼
äºĭä»¶ çĻ¼çĶŁ
é³ į
åĶ¯ çī©
çĹĩ åĢĻ
æĨ² åħµ
éŀ ħ
åŁĥåıĬ çļĦ
è£½éĢł çļĦ
äººç±» çļĦ
ç´Ļ å¹£
èĴ¸ æ°£
åı¸é¦¬ æĩ¿
ä»ĵ åºĵ
é©¬èĲ¨è¯¸å¡ŀ å·ŀ
ä¸Ń æĽ¾
çŃī åĢĻ
ä¸¦ ä¸įæľĥ
æĪ° åĬĽ
èµ· åĽł
åĵģ è´¨
åı¯ä»¥ å¾ŀ
it ter
æ±Ĥ è§£
ãĤ Ĩ
å© ģ
ĠB us
è¡ĮæĶ¿ æľĥèŃ°
åİĨåı² çļĦ
ç¬¬ä¸ī å¤§
ç¼ĸ ç»Ħ
èĮ¶ èĳī
éĦŃ æ°ı
åľĭç«ĭ å¤§åŃ¸
çĨĬ æľ¬
ä¸Ńèı¯äººæ°ĳåħ±åĴĮåľĭ æĶ¿åºľ
èļ ķ
é£İæł¼ çļĦ
èľĤ èľľ
çŃ¹ å»º
åĵª äºĽ
çĵ· åĻ¨
ĠColle ction
æŃ£ç¡® çļĦ
åĮ¿ åĲį
æīĢè¾ĸ çļĦä¸Ģä¸ª
åĢĸ åŃĺ
P ython
Ġ 60
æľī æ¯Ĵ
æľĪ å¼Ģå§ĭ
ä¹ĭ åĴĮ
æĸ¯ åĭĴ
æīĢ éķ¿
ç¨ĭ è»Ĭ
æĹ¥æľ¬ çĶ·æĢ§
åį³ åľ¨
ç´Ħ æĹ¦
åħĪ åľ¨
ä¹Ŀ æ®µ
ä¸Ńå¤® å¤§åŃ¦
èĪī åĭķ
æ£® ç¾İ
ĠR oad
è©± é¡Į
å¯« çĤº
éĩĩ çº³
çļĨ æĺ¯
ä¼ĳ å£«éłĵ
è¼ķ å¾®
çĽĳ ç¦ģ
éĬħ çįİ
æĺŁæľŁ ä¸Ģèĩ³
åĭ³ çĪµ
éĬ·åĶ® éĩı
èĢĥæħ® åĪ°
æĸ°äºº çįİ
ä»¥èĩ³ äºİ
æ©ŁåĭķæĪ°å£« GUNDAM
æ¿ģæ°´ æºª
) ãĢĭ
v is
Ġ 1989
å¹´ åĨ¬åŃ£
ç¾ §
ä¿ Ń
æĸĩ åŃ¦å®¶
ä¹Ł æĪĲä¸º
åĲĪ éĢĤ
å°ı è¥¿
åŁİ ç¸£
åĽĽ èĻķ
æĿ± åĭ¢
æ³¢ åĭķ
éª ı
ç¥¨ åĥ¹
èĩªçĶ± æ°ĳä¸»é»¨
éĦī åľŁ
åĪ¤ å¤Ħ
è¡Ģ èħ¥
éŁ³æ¨Ĥ ä½ľåĵģ
éĢģ åĽŀ
æĪĺäºī çĪĨåıĳ
æ¾³éĸĢ çī¹åĪ¥è¡ĮæĶ¿åįĢ
éłĴ æİĪ
ä¿ĿèŃ· åįĢ
ĠUn ited
åĥ§ ä¾¶
ä¸Ģå¸¶ çļĦ
http s
åĲĽå£«åĿ¦ ä¸ģ
ä¼ĬéºĹ èİİçĻ½
äºº ä¸į
æ¯ Ļ
åĪ° æĿ¥
åı¯ èªªæĺ¯
æĹ¶ éĢŁ
è° ħ
åĲĦ ç´ļ
é¦¬ åĬĽ
é¤ ¾
åĽ½å®¶ éĩįçĤ¹
æ¸¸ è®°
ä¸Ńèı¯ åı°åĮĹ
æ°¸ å¹³
ä¸ĵ åĪ¶
ç¥¨ ä»·
éĢĢ åĮĸ
èĭ±åľĭ æĶ¿åºľ
äºĮåįģ äºĶå¹´
ĠO f
æ¥Ĭ éģİ
ç»Ŀ å¤§éĥ¨åĪĨ
çļĦä¸» å¼µ
åĪĨå¸ĥ æĸ¼
èģĮä¸ļ æĬĢæľ¯åŃ¦éĻ¢
è·ĥ è¿Ľ
æ©¡ èĥ¶
æŁĵèī² é«Ķ
å¤§æ°£ å±¤
é¦¬åħĭæĢĿ ä¸»ç¾©
å¨ģæĸ¯ åº·
è½¿ è½¦
Ï Ĥ
çļĦ åı¯èĥ½
å¼ı å»ºç¯ī
å®ĺ èģĮ
åİ¿ ä¸º
æºĲ éłŃ
åŃĺ åĻ¨
çĨ ¾
äººåı£ æľĢå¤ļçļĦ
å³¶ æ´¥
çļĦä¸Ģ çĶŁ
re f
è§ģ è¯ģ
æ¥µ é«ĺ
ä»ĭ äºİ
åı¬ åĽŀ
ç¹ģ å¤ļ
éģį åıĬ
å²¡ å±±
æĿŃ å·ŀå¸Ĥ
å¹´å¤ıåŃ£ å¥¥æŀĹåĮ¹åħĭè¿ĲåĬ¨ä¼ļ
æŁĵèī² ä½ĵ
å¾·åħĭ èĲ¨æĸ¯
è¯ģåĪ¸ äº¤æĺĵæīĢ
çļĦ åĨħ
åĽ ĳ
å¾Į èĹ¤
çī¹ è³ª
é¦ĸ å®¶
åħ¬åı¸ åĴĮ
æŃ¦ éĵī
è¯Ń åı¥
æ´¾ å°į
éĸĢ ä¸ĭ
åĿĩ åľ¨
æ±ī ä¸Ń
éĻ¸ ä¸Ĭ
åĮĹäº¬ å¤§åŃ¸
ç¼ĸ ä¸º
ĠN ov
æĽ¿ æıĽ
éĦŃ ç§Ģæĸĩ
ĠThe ory
ight s
ç¬Ķ è®°
éģ¼ å¯§
å¸«ç¯Ħ åŃ¸æł¡
æĻ®æŀĹ æĸ¯é¡¿
led ge
æĸ¯å·´ è¾¾
æ®² æ»ħ
M in
O ne
Ġ ä¸Ĭ
Ġ 35
çļĦ åıĺåĮĸ
çļĦ åŃ©åŃĲ
ä¸Ģ ä½µ
æĺ¯ åħ¨åĽ½
ä¸ĭ å±¤
è»į æł¡
å°¼ éĩĩ
äººæ°ĳ åĨĽ
åıĪ è¯ĳ
éĸĢ ç¥¨
ä¼ł æī¿
åĬ¡ åĳĺ
çįİ çį²å¾ĹèĢħ
ro id
åĺ ±
å¡ŀ çº³
ĠD ie
çĶ² åŃĲ
åģľ æĪĺ
æķĹ æĸ¼
æĿ¿ å¡Ĭ
è¿ľ è¿ľ
éĽ¨ æ°´
oc al
åħ¬åħ± ç§ŁçķĮ
å¹« å¿Ļ
åĪĿæľŁ çļĦ
èĵ® èĬ±
åī² è®©
çļĦæĪĲ æľ¬
æ£ĴçĲĥ éģĭåĭķåĵ¡
æ¡Į ä¸Ĭ
è©ł éºŁ
åŀĭèĻŁ çĤº
å·´å¡ŀ ç½ĹéĤ£
å¹¼åĦ¿ åĽŃ
s k
å¹´ éĿĴ
èĢ »
åĴĮ è«§
ä¸Ĭ èŃ°éĻ¢
è¥¿ æ¬§
å£ ¶
çŃī èģĮ
éĩį éĩĳå±¬
ç¥ŀ ä¹ĭ
ç¿ Ĭ
å³ ¯
çĦ¡ ç·£
ç¶Ń çĶŁç´ł
çĵ¦ æĸ¯
èĺĩ æ¾³
æ¦ľ é¦ĸ
æĹģ éĤĬ
åĩ± çĪ¾çī¹
åį¢ æŃ¦éĵī
æĹħæ¸¸ æĻ¯çĤ¹
å¬ ´
çģĮ æľ¨
æłª æ´²
è¶ģ æ©Ł
ĠEncyclop edia
Ĥ éŃļ
æĺ¯ æ¬¡
æĺ¯ ä¾Ĩèĩª
åŃ¦ çķĮ
èĩª è½ī
ä¸ĸ åŃĲ
çĶ± æĿ¥
åįĹ æİ¥
èĥ½ ä»¥
æµ· éĩĮ
åħĭ éļĨ
in ter
æİ¥ ä¸ĭä¾Ĩ
ç¸½ äººåı£
ãĤ ı
æ²Ļ æ²³
åıĺ åĮĸçļĦ
ç²¾ å½©
å¥¥ åĮĪ
äºĭä»¶ å¾Į
å¹² æĶ¯
å¢ŀåĬł èĩ³
æº« å¸¶
è¿½ éļı
å§Ķåĳĺä¼ļ ä¸»ä»»
åŁ· æķĻ
çļĨ ä»¥
çĶ³ æĬ¥
éĽ»åŃĲ åł±
ĠĠĠĠ Ġ
æ¼«çķ« ä½ľåĵģ
ç´¯ è¨Ī
æĭĴç»Ŀ äºĨ
çº¬ åº¦
èī¾æ£® è±ª
o ung
æľ¬ æ¬¡
è¥¿ æĻī
è³ ¤
æĸ° èı¯
è¦ģ æľī
ç¾İ æ¿ĥ
ä¸ľ æ±Ł
è° ľ
çĩ ®
æ³¢ åĻ¨
æºĲ æµģ
æŃĮ ä»Ķ
é»ĳ å±±
éķĩ çļĦ
èŃ¦ åį«
åĲ³ åľĭ
æŃ¸ å±¬
ä»ĺ æ¬¾
è²´ å·ŀ
çī¹åĪ« æĺ¯åľ¨
éĬħ çīĮ
åĤ¨ å¤ĩ
æľºåĻ¨ äºº
çĪ¬ è¡Į
æĭĭ æ£Ħ
å£®æĹı èĩªæ²»åĮº
å¤§éŁĵ æ°ĳåľĭ
C ent
l on
çļĦ çµĦç¹Ķ
å¹´ åĽĽæľĪ
å¤§ ç¶±
åĴ ²
æĻ ĸ
æĸĩ åħ¬
é«ĺ ä½İ
ä¸ī åľ°
çī¹ æĸ¯
ä¸ª åĪ«
åĲİ ä¸º
åģ ĥ
ç¬¬ä¸Ģ æĿ¡
æ³¢ æģ©
æľª ç»ı
çĪŃ åŁ·
è³ª éĩıçļĦ
èģ· èĥ½
ing u
åĽłçĤº åľ¨
æŀģ å¤§çļĦ
Ġb ack
é½Ĭ åľĭ
åĩı è½»
åīĽ å¥½
qu es
ä¸įåĨį æĺ¯
éĺ¿æĭīä¼¯ è¯Ń
ä»ĩ æģ¨
è¥Ħ çİĭ
âĸ Į
èħ« çĺ¤
2 16
3 70
S ony
çļĦ æĿİ
çļĦ ç¯ĢçĽ®
çļĦ æķ°éĩı
ä¸Ģ åħ±æľī
å¤§ ä¸ļ
ä»¥ ä¾Ľ
æĭ ·
æ³ķ åīĩ
å¾Į éĿ¢
é«ĺ å£ĵ
å¦ Ĭ
é¢ Ĳ
æŃ£ å¾·
æ°´ å¸«
çµ± éłĺ
ĠM ichael
çĶ· åĸ®
ä½Ľ æľĹ
æīĢæľī äºº
åĩĨ åĪĻ
çĽ®åīį æľī
ay a
éģĩ åĪ°äºĨ
èĹī èĳĹ
ĠPr inc
çģ½ å®³
æī¶ æīĭ
ç¨į å¾Į
èŃļ è©łéºŁ
Ã¡ n
3 65
O G
P e
R OM
v ir
çļĦ é¦ĸéĥ½
ä¸Ģ çķª
åĴĮ éĩĳ
åľ° çĽ¤
è¥¿ éĿŀ
è¥¿ å¾ģ
æĸ° æĶ¿åºľ
åĮĹ æŀģ
å±± åĿ¡
åĲĪ æł¼
åĲĪ æĪĲçļĦ
ä½Ĩ è¿Ļ
åŃĹ å¹ķ
ä½ĵ éªĮ
ç¬¬ä¸Ģ åı°
es ter
çµĲ æł¸
çĻ½ ä¿Ħç¾ħæĸ¯
èĩ´ çĻĮ
æĵĬ æ½°
æĦŁ åħ´è¶£
çľĭ èµ·æĿ¥
æĬĹ è¡¡
æ°¸ æĽĨ
ä¿Ĥ æķ¸
èī¾ å¾·
äºĮåįģ åħ«å¹´
å±ĭ é¡¶
å¯¬ åº¦
åĢī åº«
çļĦæĪĲ å°±
æ½Ľ åľ¨
æ²¼ æ³½
åħ¶æ¬¡ æĺ¯
æĽ¼åĵĪ éłĵ
æĺİæĪĲ ç¥ĸ
6 40
ä¸Ń åĩºçı¾
èĢĮ çĦ¡æ³ķ
èĭ± åĭĩ
18 35
åĽĽ åįĥ
ç®¡ çļĦ
äº¬ æ²ª
æ¸ħ åº·çĨĻ
çģ« çĩĴ
çļĦä¸Ģ éłħ
éĽ· åĪ©
24 9
ed u
ä¸»ä¹ī åĴĮ
èĥ¡ å¾·
iv il
åĸĦ æĸ¼
æ²¿ çº¿
ãĢįï¼Ī ï¼īãĢĤ
èĪŀ èĩº
ĠIn formation
çº² é¢Ĩ
ä½Ľç¾ħ éĩĮéģĶ
] ]
b r
Ġ 1988
æľĪ æĻĤ
åĩº åĭķ
è¡Į èĢħ
è¥¿ å·Ŀ
åĲĮ çŃī
éĢļ å©ļ
18 37
en c
es ch
åķĨ åŃ¦éĻ¢
çĶµ åĻ¨
æĹ© éĢĿ
çº¦ æĹ¦
è¯´ è¯Ŀ
æ¨¡ èĮĥ
ĠR et
ä¹ĭå¾Į åľ¨
æ°ĳä¸» åĮĸ
åģĩ èĭ¥
çĽĽ ä¸ĸ
è¶³çĲĥ æľĥ
è¶³çĲĥ åĵ¡
å®īåħ¨ æĢ§
ou is
çŁ¿ ä¸ļ
éģķ èĥĮ
å¹¿è¥¿ å£®æĹıèĩªæ²»åĮº
isc he
çŃ¾ç½² äºĨ
åĬłåĪ©ç¦ı å°¼äºŀå·ŀ
æľīåĪ© äºİ
å¤©çĭ¼ æĺŁ
è³ĩæ²»éĢļ éĳĳ
P E
d o
x x
ç» Ľ
æ¯ Ĩ
å¤© ç¥ŀ
çĻ¼ åĩºçļĦ
ç¦ ¿
æ°´ æ±ł
æ¼Ķ ç®Ĺ
æķ° ä¸ª
ç¬¬ä¸Ģ ä¸ŃåŃ¦
éŃ Ħ
æŃ¦ èŃ¦
åľŁ åº«
ä¼Ĭ æĸ¯åĿ¦
è©² åįĢ
ç®Ĺ æľ¯
æĦŁ åĭķ
åıĺ æ³ķ
éħį å¤ĩ
æīĺ æĸ¯
ur r
éĦī çļĦ
æł· æľ¬
è·¨ å¢ĥ
çº½çº¦ å·ŀ
é° ĤéŃļ
è½°çĤ¸ æľº
çĽ´åįĩ æľº
æľĪä¸Ĭ æĹ¬
) ï¼Ľ
è¿ º
æľī æ¬Ĭ
æĹ¥ åħī
æĹ¥ å¤ľ
ä¸Ĭ ä»¥
ç¨ Ł
åħ¶ æ¯į
æ°´ åĪĨ
æ°´ åİ¿
åĨħ äºļ
ä¸ĩ éĩĮ
åį° åĬł
ç´ł é£Ł
è¦ĭ çļĦ
å®ĭ åŃĲ
ĠG irl
çĳŀ æĸ¯
ç±į è²«
èī¾ åĢ«
ç«¹ æŀĹ
èĴĻåı¤ åĽ½
å°İèĩ´ äºĨ
ä¹ĭå¤ĸ çļĦ
åıįåºĶ åłĨ
æĮĳ éģ¸
æµ© çī¹
ä¸¹å°¼ çĪ¾
ĠCent ury
è¥¿ä¼¯ åĪ©äºŀ
çŀĦ æºĸ
VID IA
å¤©æ°´ åľį
è¿Ĳè½½ çģ«ç®Ń
P ol
u ild
ä¸į ä½ı
åħ¶ ä¸Ģ
èĢĮ ä½¿
èĢĮ æĿ¥çļĦ
è¥ ¯
çŃī æĸ¹å¼ı
åĲĪ éģ©
åĲĪ æ³ķçļĦ
å®ī è¥¿
å®ī åºĨ
æ® Ń
éģİ æµ·
èı¯ éºĹ
è¿Ĳ ä¼ļ
ä¿® é¥°
åħ¶ä¸Ń ä¸Ģä¸ª
èĲ½ åĲİ
ç¶² åıĭ
å¹´ä»£ ä¸Ń
è¡Ĺ çļĦ
çµĤ å¹´
åŃ¸éĻ¢ çļĦ
ap er
ç§ĳåŃ¦ çłĶç©¶
æĺ¾ å¾®
ist s
å¹³åĿĩ æ¯ı
æĭ¥ æĬ¤
åĲİæĿ¥ è¢«
æ¨Ļæºĸ çļĦ
é¹¿ åħĴå³¶
è³ĩè¨Ĭ ç§ĳæĬĢ
èĤ¥ æ²ĥ
äº¿åħĥ äººæ°ĳå¸ģ
ç¤¾ä¼ļä¸»ä¹ī åħ±åĴĮåĽ½
æĸ°çĸĨ ç»´åĲ¾å°Ķ
ï¹ ķ
åĩºç§Ł è½¦
ĠTechn ology
m s
y a
å¹´ ç´ļ
åľ° èĹı
æĽ ¦
äºĭ çļĦ
å±± çŃī
åħĭ ä»Ģ
éĩį åīµ
æ¼Ķ ç»İ
äºŀ æĭī
æĽ´ åħ·
èº« ç©¿
éº ´
å±ħ æīĢ
ä¿® çĲĨ
ãĤ ±
åĪĻ è®¤ä¸º
éĻ³ æľĿ
å¸¶ åĽŀ
åī¯ éĥ½
ç®¡çĲĨ èĻķ
å®ĭ ç¾İé½¡
ä¸ĵ ç½²
è¡Ľ æĸ¯çĲĨ
åºı å¹ķ
é»Ħ å¸Ŀ
éĵģè·¯ çļĦ
ĠO F
éº» éĨī
åľ°çĲĨ åŃ¦
é«ĺéĢŁ éĲµè·¯
è¨İ åİŃ
çıį å¦®
éī ¤
ä¸Ńåħ±ä¸Ńå¤®æĶ¿æ²»å±Ģ å¸¸å§Ķ
C y
D B
d en
Ġ å°į
çļĦ åľĭ
ä»¥ å¤ª
åľ° æ®µ
ä¸Ĭ èª²
åĩº åħ¥å¢ĥ
æ¯ ¯
æ³ķ åĨĽ
ä¸ĸ è¢Ń
åįģ ä¸ĸ
æĶ¹ çīĪ
é«Ķ æĵį
ç¬¬ä¸Ģ æ¬¾
åķĨ æľĥ
ç¸½ ç·¨è¼¯
äººåı£ æľĢå¤ļ
ä¼¯ åĪ©
éĨ ļ
çľĭ ä¼¼
åī¯ ä½ľçĶ¨
ç·¨ æĪĲ
è´¨ åŃĲ
æİĪ èª²
èŀ Ĥ
ĠN orth
èĢ¶ é²ģ
æ¦® èĢĢ
é¼ĵ åĲ¹
æ²ī ç©į
çļĦåĪĨ æĶ¯
èĦĤèĤª éħ¸
éĦĤåľĸæĽ¼ å¸Ŀåľĭ
æĶ¿åįĶ å§Ķåĵ¡
é°ĤéŃļ æ¶Į
Ñ Į
â Ļ
å¹´ å°±
æľĥ è¦ĭ
æ¯Ķ åħĭ
åı¸ æľº
å°¼ æ´¾
åĨħ æĸ¯
å®ĺ åĪ¶
åıª åī©
çļĩ é¦¬
å¢ŀ æ·»
ä¸Ńå¤® éĬĢè¡Į
çº§ èģĶèµĽ
æłĩ çŃ¾
æŃ·åı² ä¸ĬçļĦ
ĠW est
äººçī© çļĦ
çĶŁæ´» ä¸Ń
åıĥèĪĩ èĢħ
èĹį çĶ°
ä¼ĺ çĤ¹
åľĵ å±±
èģ½ å¾ŀ
çĹħæ¯Ĵ çļĦ
å®ļä¹ī çļĦ
èĬĿ éº»
åīĳ èĭ±
è¸ı åħ¥
å¤§çĲĨ çŁ³
çİ»èī² åŃĲ
U L
çļĦ çĥŃ
çļĦ æĹ©æľŁ
æĶ ı
çĲ ®
æµ Ĵ
ä¸» å³°
åħ¬ æĬ¥
æĸĩ è¨Ģ
æľĥ åĩºçı¾
é«ĺ æĸ°æĬĢæľ¯
ä¹Ł ç§°ä¸º
å»º å·ŀ
æµ· éĺ²
å·¥ è³ĩ
æ¯Ķ åĪĨ
éĸĭ éĻ¤
æ» ¸
äº§ æĿĥ
ç¦ı å¸ĥæĸ¯
å¸« åĤħ
ä¸ĥ ä¸ª
çį² åĩĨ
ĠL ab
æĬ¥ åĪĬ
åģľ çĶ¢
æ¨£ å¼ı
éĢģ åħ¥
è¯ģ ä¹¦
ä¼Ĺ å¤ļçļĦ
åĬª æĽ¼
äººå£« çļĦ
ä¼ĺ æĥł
æĻ®éĢļ çļĦ
éłģ éĿ¢
è¦ıæ¨¡ çļĦ
å¤§å¹ħ åº¦
å¾ģæľį äºĨ
ï¼Īï¼Ľ ï¼ī
åĵ¥ä¼¦ å¸ĥ
åı¬éĽĨ äºº
ä¸ĸçºªä¸Ń åı¶
T rans
j a
çļĦ æĿĲæĸĻ
ä¸į æ²»
ä¸į åı¯ä»¥
ç«ĭ èĬ±
çı Ĥ
åħĭ æĭīå¤«
çķ¶ å¹´çļĦ
éĽĨ ç»ĵ
åĲĦ é¡¹
èĳĹ ç¨±
æ´» åŃĹ
åįİ è£Ķ
le ction
ä¹Ŀ é¾Ļ
ĠA pp
åİĨ ç»ı
åĲī åĪ©
æĻ¯ è±¡
æĦĽ ä¸ģåł¡
æī¿ åĮħ
éĻ³ è¿°
éĢļå¸¸ ä»¥
æ²¿ ç·ļ
åŃ¸çĶŁ çļĦ
æ³ķå¾ĭ ä¸Ĭ
éĽĨåĽ¢ æľīéĻĲåħ¬åı¸
è¶ħè¿ĩ äºĨ
Ñģ Ðº
æĸ°åįİ ç¤¾
æĸ¯éĩĮ èĺŃ
ĠAc adem
æ²¹éº» åľ°
æ¬§åĩł éĩĮå¾Ĺ
F re
å¹´ ä»¥å¾Į
ä¸Ģ è¾¹
æľĪ çĶ±
æľĪ éĸĵ
ç¾ Ī
æł ħ
æľĢ æİ¥è¿ĳ
åįģ æĹ¥
18 21
ä¸¦ è¡¨ç¤º
åı¸ æ³ķéĻ¢
åĥ »
æ²³ æ®µ
çļĦä¸Ģ éĿ¢
è½ī è®ĬçĤº
ĠH ow
åĪĴ ä¸º
åĲ« ç¾©
èŃ¦ æĪĴ
æ±ºå®ļ å°ĩ
è¾Ľ è¾Ľ
éĥĬ åįĢ
çļĦåĪĨ ç±»
çļĦæĪĲ åĪĨ
çĳľ ä¼½
åĲĮæĢ§æĪĢ èĢħ
æ³ķåħ°åħĭ ç¦ı
çµĤé»ŀ ç«Ļ
éº¦åį¡ éĶ¡
2 15
C an
ä¸Ģ å¿ĥ
å¤§ è´¥
åĩº è³ĩ
æľ¬ èĥ½
ä¸ĭ æľī
èĪĩ å¼µ
éĢļ è²¨
èĩ³ å¤§
çĻ¼ éħµ
éĽ» åł´
æŁ ľ
å£« å¤§å¤«
åįİ æĸĩ
éĶ Ĥ
çļĦä¸Ģ é¡¹
åıĺ æĽ´
æ±º é¬¥
éħį ä»¶
éĽ· æģ©
å»ºç«ĭ ä¸Ģä¸ª
æŃĲ äºŀ
çĩŁ éĢł
åĪĽ åĪĬ
è¡Ģ ç»Ł
çĶļèĩ³ æľī
ä»¥ä¸ĭ çĤº
ä¸»ä»» å§Ķåĵ¡
è¸ ©
åĮ¹ éħį
éĦ§ ä¸įåĪ©
Un ix
åĳ¨æģ© ä¾Ĩ
Ġ èµ·
ä¸ Ĳ
åľ¨ ç¬¬äºĮ
åĩº åĲį
åı² ä¸ĬçļĦ
éĺ¿ éļĨ
å·´ å¾·
åı¯ä»¥ åĪĨä¸º
è®Ĭ æĪĲäºĨ
ä¸ĥ äºº
éĽ· å¾·
å¡ŀ ç»´
èģĸ äºº
åģľ é§ķèĩºä¸Ńå¸Ĥ
çł´ è§£
ĠG od
åºĹ èĪĸ
é»Ħ æµ¦
å« ī
æī¾ ä¸įåĪ°
åĨ° æ²³
çıł å¯¶
å®¡ è®¡
çļĦå°ı åŀĭ
è£ĿçĶ² å¸«
å¦¥ åįĶ
æĩĤ å¾Ĺ
æİ¢æ¸¬ åĻ¨
ĠAs ia
æ³¢å¸Į ç±³äºļ
å½Ńå¾· æĢĢ
ç¬¬ä¸ĥæ¬¡äººåı£æĻ®æŁ¥ æķ¸æĵļ
6 17
C al
T D
çļĦ æ¤įçī©
çļĦ çĲĨçĶ±
ä½į ç§»
å°ı éłħ
çĽ¸ å£°
èĭ± èģ¯éĤ¦
å¸ĥ ä¼¦
å¼Ģ æĭĵ
åĽłæŃ¤ ä»ĸ
25 5
èģĸ é¬¥å£«
æŀĦ æĪĲäºĨ
ĠR adio
ĠF r
ä»ģ å·Ŀ
è«ĭ é¡ĺ
åĽłä¸º å®ĥ
å¹ķ åĥļ
ut o
çģµ é¡¿
å¸Ĥåł´ çļĦ
æĬĺ ç£¨
ä¹Ŀé¾į å·´å£«
æĹ¢ æĺ¯
åĨĬ å°ģ
ç½° æ¬¾
ci ent
k h
çļĦ è¦ª
çļĦ åħ©åĢĭ
äº ı
å¹´ ä¸Ńèı¯æ°ĳåľĭ
åľ¨ ä¸Ńåħ±
ï¼ī âĢĶ
æīĢ çµĦæĪĲçļĦ
åĬł æ·±
å¤© æ²³
å¤ª è¡Į
çľģ ç«ĭ
èģ¯ åĲĮ
16 3
ä¿® ç¼®
èĹı ä¼łä½ĽæķĻ
ä»ĸåĢĳ èªįçĤº
éĥİ ä¸Ń
åĢĴ æķ¸
æĤ£ èĢħçļĦ
å®īå¾· æ£®
æ¿ķ åľ°
Ġä¸Ń å°Ĩ
èĢ¶ç¨£ ä¼ļ
å¹´åı°çģ£ å»ºç«ĭ
æĵ± ç½®
iP od
Ï ĥ
Ñ ĩ
ä¸Ģ æŀļ
æľĪ åħī
è¦ ĵ
çĶ± æĶ¿åºľ
åĮĹ ç´Ħ
çŃī åķıé¡Į
ç¾İ ç±į
æĶ¹ ä»»
åħ§ åĭĻ
æĽ¾ ä¸º
å³ ĩ
ĠS l
åħ¶ä»ĸ åľ°æĸ¹
å®£ æıļ
ãģ ²
æĿĳ èİĬ
åī¯ éĻ¢éķ·
ĠH ill
ĠE urope
ç¬¬ä¸ī ä¸ª
ä¸ĢèĪ¬ è®¤ä¸º
29 0
åĩł æ¬¡
å»· æł¹
è¿ľ ç¦»
è¡° åıĺ
ä¸Ģå®ļ ç¨ĭåº¦ä¸Ĭ
èĢĹ è³ĩ
å¦Ļ éºĹ
åģµ æŁ¥
èĢķ ä½ľ
æĬ± æĢ¨
ä¸īåĽ½ å¿Ĺ
ç¢©å£« çıŃ
çĦ¡è«ĸ æĺ¯
æļĳ åģĩ
åľŁæľ¨ å·¥ç¨ĭ
åĬ¨è½¦ ç»Ħ
ĠâĹ ı
Ġ 45
çļĦ çĭĢæ³ģ
åĲİ éĿ¢
åįģ ä½Ļ
æĭī æ¯Ķ
æĭī èĴĻ
é© ¯
å½± å°Ħ
çĦ¡ ç½ª
çłĶç©¶ ä¸Ń
éĦ Ļ
åı· çłģ
ĠM a
æĹł æĶ¿åºľ
å© ¢
åīµ æ¥Ń
éĢī æ°ĳ
ĠD VD
ĠG old
éļĨ ç¾İçĪ¾
å½±éŁ¿ åĬĽçļĦ
åĩł åĨħäºļ
åĭķçķ« çīĪ
if f
éŀ ĳ
180 4
éĻĢ ç¾ħ
èį·èĺŃ äºº
å¤§ç´Ħ æĺ¯
åĲĮæł· çļĦ
ç½· åħį
çİ°å®ŀ ä¸»ä¹ī
GP L
ĠLin ux
è·ĳé¦¬ åľ°
K ing
å¹´ æĵĶä»»
æĹ¥ å¼ı
ä¸į ä½¿çĶ¨
å¸Ĥ å§Ķ
æľĢ åıĹ
åħ± æ¼Ķ
çĲĥ èıĮ
åı² åħĭ
å®ĺ å®Ī
åıĸ åĩº
æŃ¦ å®ĺ
åį³ ä»¥
16 44
åħµ è¡Ľ
ç¬¬äºĮ æī¹
åħ° å¾·
åĳĬ çµĤ
æ±ī è¯º
am m
ĠL eg
ç§» åĪ°
id es
æ³° å®ī
çªģ åĩºçļĦ
å¿ł ç¾©
å²ģ ä»¥ä¸Ĭ
é´ ¿
åŁ·è¡Į éķ·
180 1
æĹħéģĬ æ¥Ń
èģĮä¸ļ çĶŁæ¶¯
PS P
æĶ¹ç·¨ çĤº
äºĮæ¬¡ å¤§æĪ°
éĩĳåĥı å¥ĸ
éĻĦåĬł è³½
éĥ½çĿ£ åºľ
åľĭåħ± åħ§æĪ°
åįłæĢ»äººåı£æ¯Ķä¾ĭ å¢ŀåĬł
l as
u o
å¹´ èĭ±åľĭ
éĻ Į
åĽ½ ä¼ļè®®åĳĺ
ä¸į ä¿¡ä»»
ä¹ĭ éĥ½
ä¸» é¡µ
æĻĤ éĢŁ
çĶ± ç¾İåľĭ
ä¸ī éłħ
å¤ĸ èĴĻåı¤
å¤© çĶŁ
er i
an ge
çĽ¸ è·Ŀ
å®ī çĲª
ãĥ Ģ
æĿİ èĩªæĪĲ
æ®µ èĲ½
ĠM ov
å¸« éķ·
æ¹ĸ åĮº
ä¾¿ åľ¨
çļĦäºº åĢĳ
èģļ çĦ¦
åŃ© åŃĲçļĦ
ç¶ĵå¸¸ è¢«
æ¶ħ æ§ĥ
æĹ©å¹´ çĶŁæ´»
ä¸īåľĭ æ¼Ķç¾©
åīįèº« æĺ¯
æĪĲå¹´ äºº
èĪªæµ· å®¶
é©±éĢĲ èĪ°
è¶³ç¸½ çĽĥ
äºŀçī¹èĺŃ å¤§
B ar
B eyond
s ych
çļĦ çµ±æ²»
çļĦ è§Ħå®ļ
å¹´ ç¬¬åħŃæ¬¡åħ¨åĽ½äººåı£æĻ®æŁ¥
åĴĮ åĲĪ
ä¸į ç©©å®ļ
æľ¬ å³¶
éŁ ¬
äºĭ çī©çļĦ
èĩ³ é«ĺ
éĩı çĤº
å¹¶ å¼Ģå§ĭ
åİ¿ æĶ¿åºľ
æĻ® ä¸ĸ
çµĦ ä»¶
çģ« å½±
éĿĴ å³¶
åľĭå®¶ è¶³çĲĥéļĬ
ĠR ichard
ĠD em
èĺĩ éĩĮ
æ²¡ èĥ½
ĠF ound
è§Ĥ åħī
ç¼ĸ çºĤ
os p
èĩªçĦ¶ æķ°
ç¢º åĪĩ
èı² æĸ¯
éĿĪ éłĵ
å·´å£« è·¯ç·ļ
äº« å£½
äºļåİĨ å±±
ç¥Ī æ±Ĥ
æ²¿çĶ¨ èĩ³ä»Ĭ
åĵĪéĩĮ åıĳ
æĪĬ æĪĮ
2 12
G S
çļĦ èĳĹåĲį
ä¸Ń å³¶
ä¸º åĲį
èĢĮ ä¸įèĥ½
æľĥ æĬĬ
è¢« åıĸæ¶Ī
çİĭ å»º
èĭ± å±ŀ
è¿ĩ æĿ¥
ä½ĵ æĵį
ç±³ æĭī
åīĩ ç¨±çĤº
16 7
å®ŀ ä¸ļ
å¤§åŃ¸ æķĻå¸«
çĻ¾ èĬ±
è±¡ çīĻ
å¡Ķ éĩĮ
æ¼¢ æŃ¦å¸Ŀ
äº¤éĢļ è¿Ĳè¾ĵ
æĤ£ ä¸Ĭ
éĺµ çº¿
ç¼© çŁŃ
çļĦåİŁ åīĩ
ç±ĥ æĿ¿
æ¼ģ æ¸¯
åį¡æĸ¯ èĴĤ
çŁŃç¯ĩ å°ıèªª
è¶³å¤ł çļĦ
J ack
M c
Ġ æľĢä½³
Ġ ...
çļĦ åįĬ
å¹´ æĿ¥
äºº ç¨®
æ°ĳ èª¿
æľĥ åł´
åŃĲ åĹ£
åı¯ åı£
åįĹ å®ģ
åįĹ åģ´
çĻ¼ æĢ§
çł ·
åĽĽ æµ·
åı¤ ç§°
åı¯ä»¥ ä»İ
æ¸ħ åı²
åľŁ åŁİ
åħ« ä¸ª
åħ¶ä»ĸ åľ°åįĢ
ç¦ı æĻĭ
çģ« èĹ¥
ä¼ł è¾¾
çª ¯
éĵģ çŁ¿
åĶĲ æĽ¸
åįĩ çĤº
å¯Ł åĲĪ
é£Ľ èĪ¹
å¾® ç¬ĳ
è¾ĥ å°ıçļĦ
è«ĭ è¾Ń
åļ´ è¬¹
70 7
è¿ľ ç¨ĭ
è±Ĳ åİŁ
å·¡ èĪª
èį¯ åĵģ
çļĦæĸ° éĹ»
è»Į è·¡
æ²ī æ²Ĵ
éļĭ æĸĩå¸Ŀ
æĢ¡ åĴĮ
å¤§è¦ıæ¨¡ çļĦ
oug h
å¾·ç´¯ æĸ¯é¡¿
æĿİé¸¿ ç«ł
L D
Q S
g an
çļĦ çľŁ
çļĦ è¿ĩç¨ĭä¸Ń
ãĢĤ âĢĻ
ï¼ī ï¼ı
åĴĮ C
åĵ ®
æĸ¼ åħ¶
åĪĨ å·¥
èĢĮ å°İèĩ´
è¦ģ æĬĬ
éĸĭ å·¥
ç»´ æĸ¯
ç»ıæµİ çļĦ
åı¦å¤ĸ åľ¨
éłĲ ç§ĳ
èĪĬ åĿĢ
æĵģ ç«ĭ
å½Ĵ è¿ĺ
æħ¶ éķ·
ç¾Ĭ èĤī
æ±ºè³½ åĳ¨
æ®ĭ çĸ¾
ç¼ĵ è§£
å¸«ç¯Ħ åŃ¸éĻ¢
ç¥Ī ç¦±
é«ĺåı¥ éºĹ
èĨĢ èĥ±
éķ·èĢģ æķĻæľĥ
åīĳæ¡¥ å¤§åŃ¦
çļĦ éłŃ
è¨ £
ä¸Ĭ è¯ī
æĸĩ åĴĮ
ä¹Ł åı«
çģ ¸
éĢļ å¿Ĺ
åŁº å±Ĥ
åŁİ çīĨ
åķ ¸
æĪĸ å¤ļ
æ¯Ķ ä¸ĺ
æĶ¹ ç¨±çĤº
å¿ĥ çģµ
äºĶ è§Ĵ
æ±Ł å±±
ä¸Ńåľĭ å¤§éĻĨ
ĠS up
çļĩ çĶ«
åįİ å¾·
ç¦ı å³¶
æĶ» åŁİ
âĢĿãĢĤ âĢľ
çĿĢ æīĭ
æīĺ åĪ©
æīĺ é¦¬æĸ¯
å®ĭ åı²
ç¥¨ éģ¸
è¿ŀ éĢļ
çŁŃ çŁŃ
ç°¡ ç¨±çĤº
Ġc ell
ç©Ĩ å°Ķ
ri an
å®Ŀ å±±
çĻ¼è¡¨ èģ²æĺİ
é±¼ éĽ·
åĹ ħ
è³ĩè¨Ĭ ç¶²
è¨Ńç«ĭ çļĦ
èĭ±éĽĦ åĤ³
éģ¼ æĿ±
åĨ¥ çİĭ
æĭīæł¼æľĹ æĹ¥
] .
çļĦ ç¨ĭåºı
åŃ Ģ
èĢ ¦
çĤº ç´Ģå¿µ
åĨ Ĺ
è¦ģ åĪ°
æ¥ Ķ
ä½Ĩ ä»ĸçļĦ
å¼ı å»ºçŃĳ
éŁ³ é¢ĳ
éĸĵ éļĶ
æķ° æ¬¡
æľº ä½ĵ
ä¸ĸçķĮ ç´ĢéĮĦ
æĿİ å¤§
ä»Ĭ å¹´
åħŃ åĲĪ
ä¸Ķ æľī
ä¸ĩ åĲį
ç²¾ å¯Ĩ
æŃ£å¼ı å®£å¸ĥ
çļ® åį¡
ä½ľçĶ¨ åĬĽ
èĢĮä¸Ķ åľ¨
av en
;}- ãĢĭ
åı¶ åīĳèĭ±
æī§ å¯¼
èĥĮæĻ¯ ä¸ĭ
ç»Łæ²» æĹ¶æľŁ
çĪ¶è¦ª æĺ¯
180 9
end er
åĸĢ åĸĩ
éĩıåŃĲ åĬĽåŃ¸
ç¢©å£« åŃ¸ä½į
Î ¹
â ģ
çļĦ æĮĩç¤º
çļĦ çħ§çīĩ
åľ¨ æĿ±
å¤§ åįģåŃĹ
20 4
çĤº éħįåĲĪ
ä¸į ç¬¦
æĶ¿ å£ĩ
æľĥ ä½¿çĶ¨
åĲĮ éŁ³
åı¯ è¿½æº¯èĩ³
é«ĺ ç§ĳæĬĢ
é«ĺ çĪ¾å¤«
å»º å¾·
éĥ½ åħ·æľī
æĺİ å¤©
å£« ä¸ģ
æĪĸ è¢«
éĺ¿ çī¹
å·´ é©¬
al i
es c
ĠS P
ç¾ħ åĤĳ
åħĪ é©ħ
15 1
çĻ¾ å¤§
ä¸ĩ ä½Ļäºº
é¢Ĩ ä¸»
ä»į èĪĬ
ãĢĭï¼Ī ï¼Į
ĠD isc
ç¥¨ æķ¸
å½±éŁ¿ çļĦ
çİ¯ è·¯
æ¿Ģ çĻ¼
og ic
Ġm et
ak er
åĲ¯ åıĳ
åŁ·è¡Į èĳ£äºĭ
æĲį å£ŀ
å°ıæĻĤ åĢĻ
èµĦæºĲ ä¸°å¯Į
ĠPro gram
çº¯ ç²¹
åįĢèŃ°æľĥ éģ¸èĪī
å¦ĵ å¥³
æĪ·ç±į äººåı£
èĻ§ æĲį
N VIDIA
t ain
Ġ us
çļĦ èĪ¹
ä¸Ń æĻĤ
ä¸Ń ä¹Łæľī
éĻ ŀ
åĴĮ ä¸ľ
æĪĲ çĶ°
ä¹ĭ åľĭ
åħ¬ åĻ¸
èĢĮ åİ»
æĸ° å¨ĺ
ç¾İ ç´¢ä¸į
äºĮ æ¨ĵ
æĹ¶ æ®µ
ä¾Ĩ åı°
æŃ£ å®¤
åĨĽ çĶ¨
æ²³ æºĲ
èĩº èªŀ
æĸĩåĮĸ å±Ģ
è©² åľ°åįĢ
çĵ¦ çī¹
un k
un n
ç¬¬ä¸ī åŃ£
æ¢ħ å°Ķ
çĳª æł¼
ä¾¿åĪ© åºĹ
çįİçīĮ å¾Ĺä¸»
Ġab out
èİĨ çĶ°
Ġ 33
Ġ all
çļĦ é¦¬
çļĦ åħ¨éĥ¨
ä¸Ģ æĬĬ
å¤§ å¾ĭå¸«
ä¸Ĭ å®ĺ
ä¹ĭ èģ²
åħ¶ åĲį
ç¥ ľ
å»º åħĥ
è£ ¤
åĪ¶ è¨Ĥ
æ¼Ķ ç¿Ĵ
æĽ¾ äºİ
çĭ ł
åķĨ åŃ¸éĻ¢
çŁ³ èĭ±
15 2
æĹł éľľæľŁ
éķĩ æµ·
ĠE p
æľīä¸Ģ å¤©
æ§į ç®¡
é¤Ĳ é£²
èĵĭ çĪ¾
æľĿé®® çİĭæľĿ
éķ¿æ²Ļ å¸Ĥ
è¾¯ èŃ·
.... ..
é¦Ļæ¸¯éĽ»å½± éĩĳåĥıçįİ
æĭľåįłåºŃ å¸ĿåĽ½
èĸ©åħĭ æ£®
æĪĺåĽ½ æĹ¶æľŁ
ĠDes ign
åįļè§Ī ä¼ļ
ç§ĳè¥¿ åĺī
æ®Ń å±į
C a
v i
çļĦ åĪĨæŀĲ
çļĦ æĸĩä»¶
æĺ¯ å¾·åĽ½
åĴĮ B
ä¸į å®ľ
æĸ° ç¤¾
å±± éĦī
å±± éºĵ
åŁİ ä¸»
èĭ± ç¤¾
æĪ° ä¿ĺ
éŁ³ èŃ¯
ç¥ŀ éģĵ
èı¯ è¦ĸ
äº¬ éĥ½å¸Ĥ
åį¡ å¤«
æ¿ Ĥ
éĢ£ éģ¸
ĠM ess
åľº åľ°
åĵĪ å§Ĩ
æī¿ å¾·
çĵ¦ è¥¿éĩĮ
æľ« æĹ¥
é¡¯ å¾®
è¾¹ å½¢
åĪº å®¢
è´Ł éĿ¢
åŃ© ç«¥
èŁ ¾
æµª è²»
å¯¼èĩ´ çļĦ
æĽ¾ç¶ĵ åľ¨
éĺµ èĲ¥
è£ĿçĶ² æĵ²å½Ī
ç¨³å®ļ æĢ§
å¯ĵ è¨Ģ
æĺİçıł åı°
æ»² éĢı
éº¥çķ¶ åĭŀ
åĭĥåħ° çĻ»åł¡
B LE
Ġ çĶ±
ä¸Ĭ éĿ¢çļĦ
èĢĮ æ²Ĵæľī
åı¯ è¬Ĥ
ä¸ī æ¡Ĥ
éĢļ çĶ¨çļĦ
æĹ¶ å¹´
æĹ¶ å¸¸
åħĥ åı²
æŃ£ åı²
ç«Ļ åīį
å½¢ èĢĮä¸Ĭ
å¹¶ éĢļè¿ĩ
å·² æĪĲä¸º
åħī èĬĴ
æŀľ çĦ¶
è®Ĭ é«Ķ
æķħ ä¹¡
åĲī å§Ĩ
æ²¡ æĶ¶
å¤´ çļĦ
ç»Ļ åĩºäºĨ
ä¸Ńæĸĩ ç½ĳ
åĨ° å²Ľ
å®Ŀ çŁ³
åĨ¬ èĩ³
æĭĽ å¼ı
èĺĩèģ¯ çļĦ
éĺ¿å°Ķ åįĳæĸ¯
eg a
åİŁå§ĭ çļĦ
è¯¢ éĹ®
æ¢ħçī¹ æ¶ħ
c el
åľ¨ å¾·åľĭ
ï¼ī :
çĶŁ çĹħ
æĸ¼ åı°çģ£
åĪĨ ç¤¾
æľĢ éķ¿
æ¸¯ èĭ±
åħ± çĶŁ
éĽ» åŃĲçļĦ
18 31
åĸ ĥ
åı£ è¿°
æ©Ł åŀĭ
ç«Ļ åħ§
åıĹ ç²¾
æĢ» çĽĳ
æĶ¶ ç¸®
æºĲ ç¾©
å¨ģ æĸ¯çī¹
åĬĩ ä½ľå®¶
ä¾Ľ ç»Ļ
åįļ å°Ķ
ç¶Ń åĲ¾çĪ¾
å¯Į åħ°
éļı åĲİçļĦ
åĶ® åĥ¹
æĻĭ åįĩä¸º
ç¡¬ å¸ģ
ç´« ç¦ģ
çİĦ å¥ĺ
çŀ ŀ
ä»»åĳ½ ä¸º
æĮĩæı® éĥ¨
çĦ¦ çĤ¹
çļĦå½±éŁ¿ åĬĽ
ah oo
èĪªå¤© é£ŀæľº
çĲĨæĥ³ çļĦ
éī´ å®ļ
éĩĳéĲĺ çįİ
é¢¨æĻ¯ åįĢ
Ġ ç¾İåľĭ
çļĦ çĶŁäº§
æĺ¯ æĸ°
æĺ¯ çłĶç©¶
æľī éģİ
åĴĮ åıį
ä¸į ä»¥
æµ ľ
ä¸º çķĮ
åŃĲ åľ¨
åįĹ éĸĢ
ä¸ī éĢ£
å¹³ åĴĮ
ä¸İ æĹ¥æľ¬
ç§į ç§į
å½ĵ ä»Ĭ
ä»İ æĿ¥
è½¦ åİ¢
æĶ» åĬ¿
ç¾İåĽ½ æĶ¿åºľ
æ²Ĵ æĶ¶
éĤĦ åı¯ä»¥
23 9
å¸Ī å¸Īéķ¿
åĵ¥ å»·æł¹
éĽ¢ åİ»
èĹı æĽ¸
åĬī è£ķ
ç³»åĪĹ ä¸Ń
äºĴ åĬ©
Ġd u
åĪĺ å¤ĩ
éŃı åĽ½
éĳ «
å´ĩ å¾·
åģ¶ å°Ķ
çļĦçī¹ é»ŀ
è¨Ģè«ĸ èĩªçĶ±
ç³Ł ç³ķ
5 60
J P
Ï Ĩ
çļĦ çİ°è±¡
ä¸Ń è¯´
éĢ į
ä¹ĭ æľĢ
ä¸º çºªå¿µ
èĢĮ åħ¶ä»ĸ
çī© åĥ¹
å±± éļ§éģĵ
äºĮ åº¦
æĵ ¢
åħĭ éºĹ
éĽ» å®¹
åı£ åı·
æł¼ ç½Ĺ
èĢĥ æł¸
æł¹ æĸ¯åĿ¦
ä¸Ķ åľ¨
éĿĴ çĿ
ĠB BC
ä»ĸçļĦ çĪ¶äº²
ur v
åĽłçĤº å®ĥ
å®ĭ åºĨ
ä»ģ è¦ªçİĭ
äº² å±ŀ
æŃĲæ´² è¶³åįĶ
éľĩ é©ļ
å¢¨ çĪ¾
åŃĿ å®Ĺ
ç°½ èŃī
éĻ° èİĸ
åĬ¨çī© åĽŃ
ä¸Ńåľĭå¤§éĻ¸ çļĦ
çļĦæĪĲ ç»©
uc ation
çķ¶éģ¸ çĤº
åīµéĢł äºĨ
èµĶ æ¬¾
åĵĪèĲ¨åħĭ æĸ¯åĿ¦
ä¸Ńåľĭäººæ°ĳ è§£æĶ¾è»į
æ°ĳå»º èģ¯
n m
Ġ ä¸Ģ
Ġ âĪ
ä¸Ģ çº¿
çī Ĵ
åĴĮ èĭ±åĽ½
ä¹ĭ éĸĢ
åĪ° è¨ª
åĲĮ ä¼´
éĩĮ å¥ĩ
æ²³ ä¸Ń
æĽ¾ åĲĳ
åķĨ è¨İ
èŃ° æ¡Ī
ä¸Ģä¸ª äºº
è¶Ĭ å¤§
22 6
22 9
é£Ł æĢ§
åıĺ ä½ĵ
æĦĽ å¥½èĢħ
æ¼¢ ä»£
æ°¸ æĺĮ
èµ° åĪ°
çĽĬ å·ŀ
oc r
æĭħ å½ĵ
æııè¿° ä¸º
æī© åħħ
éĢĤ çĶ¨
éĺ¿å°Ķ åıĬ
æĵĬæķĹ äºĨ
98 5
çļĦåİŁ åŀĭ
ä¸ŃåĽ½äººæ°ĳ éĵ¶è¡Į
éĦ§ éºĹ
æĦıä¹ī ä¸ĬçļĦ
ĠTh omas
Th omas
çĦ¡ç·ļ éĽ»è¦ĸ
ç¾İæľ¯ é¦Ĩ
æĸ¯æīĺ åħĭ
ĠGe orge
å°Īæ³¨ æĸ¼
P entium
k o
çļĦ æĪĺäºī
æĺ¯ åĽł
çĶŁ æĪĲçļĦ
èĢĮ èĩª
å¤ļ åľ¨
ç¶ ¢
ä¹Ł å°į
ä¹Ł è®¸
çī¹ æ¬Ĭ
æĢ§ åĳ½
åĪ¶ åĬ¨
èī² ç´ł
ç¥ŀ èĪŁ
æĮģ æľīäºº
å°Ĩ è¢«
æĿİ åħĥ
ĠS an
æīĵ éĢ²
æŁ¥ å£«ä¸ģ
æĹł ç¥ŀè®º
éĿĴ æ£®
è¦ĭ è§£
çºª å§Ķ
åŁİå¸Ĥ ä¹ĭä¸Ģ
æĬ¥ å¤į
ç´¢ å°Ķ
å¯« äºĨ
èµ° åĩº
åľ£ åľ°
å¯¶ éĳ½
ä»ĺ åĩº
ĠSt ar
èµ¤ å£ģ
æ¸¸æĪı çļĦ
ç°½ åĲį
AR A
å¿į åıĹ
çī©è³ª çļĦ
çº½çº¦ æĹ¶æĬ¥
æ¬ł ç¼º
ĠLe ague
è£½çīĩ äºº
Vis ual
é¥² åħ»
çłĶè¨İ æľĥ
N D
Ġ 1987
çļĦ åħŃ
çļĦ ä»»åĭĻ
ï¼Ī -{
æľī åħ©ç¨®
åĴ Ĳ
ä¹ĭ åĳ½
åŃ¸ æ¥Ń
éĺ¿ èĮ²
æĽ¾ åĽ½
è¨Ń çļĦ
äº§ åľ°
æĢ» åħ±
çµĦ è£Ŀ
ä¹¦ ä¿¡
æ¯ı äºº
23 2
åĮĹäº¬ åľ°éĵģ
éĩİ å¤ĸ
åĨľ åŃ¦éĻ¢
ä¸Ńèı¯æ°ĳåľĭ æĨ²æ³ķ
ä¸Ńèı¯æ°ĳåľĭ å¤§éĻ¸æĻĤæľŁ
åĩł åįģ
å½Ĵ çº³
è¯» éŁ³
çĢ ļ
ç¬¬åħŃ æ¬¡
å²³ éºĵ
éĴŁ æ¥¼
æĬĹæĹ¥ æĪ°çĪŃ
æįŁ åĿı
æ±¡æŁĵ çī©
MP EG
èĳµ éĿĴ
å½¢å®¹ è¯į
äº¤åĵį ä¹ĲåĽ¢
éĢĻéĥ¨ éĽ»å½±
è©Ľ åĴĴ
çĹĩåĢĻ ç¾¤
4 30
M G
u it
å¹´ åīµè¾¦
æľī å¾Īå¤§
å¤ļ éĸĵ
å±± èİĬ
æĪĸ ä¸į
äº¬ åī§
ic us
å¾ŀ ä¸Ń
åĳ¨ æĺŁ
ĠP C
è®Ĭ çķ°
åľº æ¯ĶèµĽ
ãĤ į
çļĦä¸Ģ ä»½
é»ĳ æµ·
éĻĦ åº¸
æ³° åĿ¦
çĶļ å¤ļ
æ·· æ²Į
çĤ® å¡Ķ
å¤©ä¸»æķĻ æľĥ
ä¼´ éļ¨
èĳ£äºĭ å±Ģ
åīµä½ľ æŃĮæīĭ
ä»¥èī²åĪĹ äºº
èĨľ çĤİ
æŃ£å¸¸ çļĦ
éĻª ä¼´
éĦ°è¿ĳ çļĦ
æĸ¬ é¦ĸ
å¼µåŃ¸ èī¯
æİ¥ä¸ĭ ä¾ĨçļĦ
æ°ĳä¸»ä¸»ç¾© äººæ°ĳåħ±åĴĮåľĭ
ä¸ŃåĽ½å·¥ç¨ĭ éĻ¢éĻ¢å£«
D el
R C
Ã «
çļĦ æĶ»æĵĬ
åħ ®
åľĭ èĻŁ
æĹ¶ å°ļ
å°ı å³¶
æĭī è¶Ĭ
æĺİ åĪĿ
éĩĳ æĸĩ
æ°´ çĶµç«Ļ
æ³¢ åĪ©æĸ¯
èĤ² æľīä¸Ģ
è®¾ äºİ
æľª æĿ¥çļĦ
éĻ¤ å¤ķ
åı· åĴĮ
èĲ¬ å¹´åīį
å·Ŀ å¸Ĥ
é¹ µ
åĩºçĶŁ åľ°
å®® ä¸Ń
è¾¹ éĺ²
ers e
è®¸å¤ļ äºº
çĳª åĪ©
Ġ9 57
çĶŁçĶ¢ ç¸½åĢ¼
åľĭç«ĭ ä¸Ńå¤®å¤§åŃ¸
å®ĩå®Ļ çļĦ
å¤§æľĥ åłĤ
èģĺ è¯·
MS G
F O
Ã §
Ġ 88
å¹´ åħŃæľĪ
åľ¨ éģİåİ»
å¤§ æ¹ĸ
æľī æĿĥ
èĩ ¼
ä¸Ĭ ä½¿çĶ¨
éĥ¨ ä½ľåĵģ
åħ¬ èªį
æĸ° ä¸ĸç´Ģ
çŁ ¯
éĩĮ å¾·
18 38
ä¸İ ä»ĸ
è¿Ļ æĦıåĳ³çĿĢ
éĸĭ æľĥ
éĸĭ ç¾ħ
å¥³ æİĴ
è¿ĩ æ»¤
æºĲ æ°ı
æļ ĩ
åĪ¥ å¢ħ
14 1
ç¾İåĽ½ æµ·åĨĽ
å¼ł åĽ½
çĵ¦ å¤ļ
æ¥µ åĬĽ
åħį åıĹ
æķ£ å¸ĥ
èİ± èĬľ
å½±åĵį åĬĽçļĦ
ç¬¬åĽĽ å±Ĩ
åĨ² ç§¯
å¼¹ æĢ§
å®¡ è®®
ç¡« ç£º
åĩıå°ĳ äºĨ
æĶ¾å¼ĥ äºĨ
ĠFran k
éĩĳé¦¬ çįİ
hann el
Amer ican
J K
S m
å¹´ åįģæľĪ
å¤§ åĽ½
åħ¬ åł±
æ°ĳ åĪĿ
æľĥ çĶ¨
åĮĸ åİ¿
æĹ¶ è¢«
åįģ åĢĭ
al y
äº¬ çķ¿
åīĩ æĺ¯åľ¨
çĳ ķ
åħ³ å¿ĥ
ä»¥åıĬ åħ¶
æľį é¥°
è«ĸ çļĦ
è¶Ĭ éĩİ
ĠT aiwan
å¥¥ åı¤æĸ¯çī¹
un es
åįı åĲĮ
èī¾ æ»ĭçĹħ
äºĮåįģ ä¹Ŀå¹´
éĹ®é¢ĺ ä¸Ĭ
;}- ãĢĤ
å¤ĸäº¤ éĥ¨éķ¿
æııè¿° çļĦ
æĤ£ çĹħ
èģ½ çľ¾
å®½ åº¦
æĵħ èĩª
æ³¢ç½Ĺ çļĦæµ·
å¤©çİĭ æĺŁ
è³Ń åł´
å»ļ æĪ¿
éĢ±åĪĬ å°ĳå¹´
æĿİé´» ç«ł
å¯Įåħ° åħĭæŀĹ
B ur
çļĦ çĽ®æłĩ
çļĦ ç¨±èĻŁ
å¹´ å¤§
ä¸Ģ å±Ĥ
ä¸Ĭ çļĩ
è¥ Ł
å¤© é¾į
çİĭ èı²
è² Ĥ
æĢ§ èĪĩ
éĩį çĶŁ
éĽ» çºľ
æĺİ éĦŃ
éĩĳ çĶ°
æŁ ļ
éķ· æ´²
æ°´ æ·±
éĺ¿ ç¾İ
èº º
èį ¼
å±Ģ å±Ģéķ¿
17 93
æľª å®ĮæĪĲ
æĪĳ æĥ³
èĬ± å¼ı
æīĵ åĲ¡
è¯¥ å·ŀ
æ·± åİļ
éĢī ç¥¨
éĺ³ éĥ¡
å¤ı æ´Ľçī¹
ç´¢ åĢ«
åĨľ äº§åĵģ
æķ£ å°Ħ
çĨ± çĥĪ
æĪ¶ ç±į
åĪĳ ç½°
ç¸® æ¸Ľ
ä¹Ŀé¾į çģ£
çī©è´¨ çļĦ
ç¡« åĮĸ
åĵĢ æĤ¼
æĪĲçĨŁ çļĦ
Ñģ ÑĤ
ĠHe art
æĳ©æīĺ è½¦
æĸ¯å·´ éģĶ
å·´æĭ¿ é©¬
éº¾ ä¸ĭ
C II
N ow
Ġ ä»¥
Ġ æŀĹ
æĭ Ļ
ä¸Ĭ åº§
ä¹ĭ ä¸į
çķ ²
åŃ¸ æŃ·
åįĹ å¤ļ
an et
æ°´ çīĽ
éģİ åįĬ
ä¸ľ å¾·
æŃ¦ æľ¯
ç´Ħ ä½Ķ
æ³¢ èĮ¨
æĢ» åħ¬åı¸
åħĪ é©±
æºĲ ä»£çłģ
åĳ¨ æĿ°
ä¼Ĭ å£«
æ½ į
14 8
åĲī ç¿ģ
ro c
ä½İ æº«
åįĥ æŃ²
é¬ į
ä½Ĩæĺ¯ ä»ĸ
èī¾ ç±³
op er
æł¹æĵļ åľ°
è©© éĽĨ
åı°åĮĹ å¸ĤæĶ¿åºľ
æĢ¥ æķĳ
é§Ĳ è»į
èĪīè¡Į äºĨ
æĪĪ çĪ¾
é«ĺç´ļ ä¸ŃçŃīåŃ¸æł¡
éŁĭ ä¼¯
æįĲ èµł
ç¦»å¼Ģ äºĨ
ä¸¾åĬŀ çļĦ
æ·¨ åľŁ
é½ĭ èĹ¤
CN N
ĠMod ern
èļĮ åŁł
T F
e ff
Ġ ãĢİ
çļĦ å°į
å¹´ å¹´
éĩ ī
èª ¡
åĪ° åł´
å¾Į ä¾¿
æľ¬ åĬĩ
åı¯ å¤«æĸ¯åŁº
å¹¶ å°Ĩåħ¶
åĬ¨ èį¡
æĹ¥æľ¬ åľĭ
at ab
è§£ è®Ģ
ç¸½ æ±ºè³½
ĠS w
èĪª èī¦
åľĺ åĵ¡
è®Ĭ åĮĸçļĦ
è½¦ éģĵ
çķĻ æĦı
ĠD el
çļĦäºº å·¥
åıĤèĢĥ è³ĩæĸĻ
å½Ī åĬ¾
çĳª èĺŃ
åįģåŃĹ è»į
çłĤ æĭīè¶Ĭ
åĽ½éĺ² éĥ¨
åĬłåĪ©ç¦ı å°¼äºŀ
æĢ§åĪ« æ¯Ķ
æ´Ľä¼¦ åħ¹
Ġ ;
Ġ ä»ĸ
çļĦ A
çļĦ è¦ıå®ļ
çļĦ å¦¹å¦¹
å¹´ ä¸ĭåįĬ
è¢« çĶ¨ä½ľ
èĪĩ é»ĥ
ç«ĭ ä¸º
éĿ¢ åħ·
è»į éķ·
åĨĽ æ°ĳ
æĽ´ æĸ¯
åĳ½ é¡Į
è®¾ ä¸º
æĶ¶ ç¼©
å®Į ç¾İçļĦ
æ²Ļ å·´
åįļ å¼Ī
åıĺ åĬ¨
æ°£ æµģ
ĠD evelopment
æª »
èµ« æľ¬
èį· è¥¿
æ¿Ģ åıĳ
æł¹æĵļ ç¬¬ä¸ĥæ¬¡äººåı£æĻ®æŁ¥æķ¸æĵļ
æķħäºĭ ä¸Ń
æŁĵ æĸĻ
å¸ķ å¾·
è½Ħ ä¸ĭ
çıį è²´
åıįæĩī çĪĲ
éĢĻä¸Ģ é»ŀ
å¬ ī
åĦ² åĤĻ
å¥¥æł¼ æĸ¯åł¡
æĸ°çĸĨç»´åĲ¾å°Ķ èĩªæ²»åĮº
æ±īè¯º å¨ģ
) ï¼ī
S i
Ã ´
Ġ el
æľī èī²
åĴĮ çłĶç©¶
åī İ
è¢« æīĵ
æĺİ æķı
18 3
18 24
éĢĻ é¡Ĩ
å¸ĥ æ´Ľ
èªª åĩº
è¾¾ å§Ĩ
åı¦ ä¸ĢäºĽ
å®¹ å¿į
åį° ä¹¦é¦Ĩ
è¡ĮæĶ¿ åħ¬ç½²
æ°¸ å®ļ
ä¸Ĭæµ· çļĦ
å¾© åİŁ
æĻļ åł±
æİ¢ è®¨
ĠJ ul
èĤ¯ å¡ĶåŁº
çİ© ç¬ĳ
éĻ£ ç·ļ
åķĨæ¥Ń éĬĢè¡Į
AN D
ç¨» åŁķ
æħķå®¹ åŀĤ
æĵħ éķ¿
çĶŁçĲĨ åŃ¸
eth od
JR æĿ±æĹ¥æľ¬
åİŃ æĥ¡
çī¹æ´Ľ çĶ«
âĸĮ âĸĮ
6 21
O p
Ġ 2018
ä¸Ń èį¯
äºº ä¹ĭä¸Ģ
å¤§ æ»¿è²«
ä¸į ç¢ºå®ļ
ä¸į æĥľ
æ°ĳ å¿ĥ
æ³ķ åĪĻ
æĸ° æľĪ
åĮĹ é½Ĳ
é«ĺ åĩº
åİŁ ç±į
åıĳ æºĲåľ°
åĨĽ åĮ»
çķ¶ ä»Ĭ
æ» Ħ
ç¾© éĽĦ
æĢ» æĮĩæĮ¥
äººæ°ĳ ä»£è¡¨å¤§æľĥ
17 92
ä¸¤ éĥ¨åĪĨ
äº¦ ä»¥
æİ¨ æĸ·
ä¿® ç¯ī
å°İ èĪª
ä¾Ľ çĶµ
ç»ĵ è¯Ĩ
éĤ£ æĺ¯
çį² éģ¸çĤº
ç®Ĺ ç¬¦
è¡ĮæĶ¿ ä¸Ńå¿ĥ
å¸Ī åĽ¢
ig er
è©ķ éģ¸
Ġb l
è´Ł æĭħ
éĪ ¦
åĭŀ æĸ¯
å±ı èĶ½
åĤħ éĩĮ
åĽ½åĨħ å¤ĸ
éĤ± åĲīçĪ¾
Ġk m
ä¾Ľæĩī åķĨ
æ£ķ èī²
åĵºä¹³ åĬ¨çī©
ĠFran c
ĠPar is
U SB
ĉ ĉ
çļĦ ä¸Ńæĸĩ
çļĦ éĽĨåĲĪ
çļĦ æīĭæ®µ
çļĦ æīĢåľ¨åľ°
åı ¡
åľ¨ å°į
æĺ¯ æĬĬ
èĢĮ æĸ¼
åįĹ å®ī
åħ¥ ä½ı
æ¥ ¨
ä½Ĩ éļ¨èĳĹ
åįĢ éķ·
æĺİ æĸĩ
å®ī æ¢Ŀ
å®ī è¿ª
ä¸¦ è¦ģæ±Ĥ
æĿ± åį°åº¦åħ¬åı¸
åıĹ è¨ª
å¹¶ æĪĲä¸º
åİ¿ å¸Ĥ
æĻ® æķ¦
17 7
17 8
æīĺ éĤ¦
å¥§ å¾·
èĹı åľ¨
åģľ é§Ľ
ĠE xt
ç¤¾æľĥ é»¨
å·® çļĦ
éİ® å®Ī
ä¾µ åįł
éĢĥ çĶŁ
åĩ½ æķ¸çļĦ
æ¸¡ æ²³
é¼ĵ èĪŀ
åĨĽéĺŁ çļĦ
æľĿé®® æ°ĳä¸»ä¸»ç¾©äººæ°ĳåħ±åĴĮåľĭ
åıĳè¡¨ çļĦ
æº¶ äºİ
è³½äºĭ ä¸Ń
æķĻç§ĳ ä¹¦
è®¸åı¯ è¯ģ
æ³¢å¸Į ç±³äºŀ
ä¼Ĭæ¯Ķ åĪ©äºļ
éģĶè³´ åĸĩåĺĽ
è¾Ľè¾Ľ éĤ£
K A
N GC
g in
v an
Ï ģ
Ġ Î
çļĦ ä»»ä½ķ
çļĦ åĢĭäºº
æĺ ±
ä¸Ń å¼ı
åľ¨ æĦıå¤§åĪ©
æĺ¯ è©²
æľī çĶ¨
åĩº èµĦ
å®¶ æ¨Ĥ
çŃ ²
å¾Į åĭ¤
å¸¸ å¾·
çķĮ ç·ļ
æ¶ ¿
ar ia
æĽ´ éĢ²ä¸ĢæŃ¥
æĿİ æī¿
æĶ¾ éĢĲ
15 3
å°Ī è³£
ç¶² åĿĢ
çĽĽ åħ¸
èµ« æĭī
äºĨä¸Ģ ç¨®
ä½ľçĶ¨ çļĦ
å¸ĿåĽ½ ä¸»ä¹ī
75 7
æĨ² ç«ł
Âł Âł
è¿ĺæľī ä¸ĢäºĽ
åĻ¶ å°Ķ
ç¹ĶçĶ° ä¿¡
æŃĮèĪŀ ä¼İ
ä¸Ńä¹¦ çľģ
è¯ºæĽ¼ åºķ
ĠTO UR
æĸ¯éĩĮèĺŃ åį¡
P at
U C
Ã ¢
Ġ ãĦ
å¹´ è³½åŃ£
åľ¨ è¥¿çıŃçīĻ
ãĢĭ âĢľ
æ³ķ ç³»
èĩª åľ¨
é» ¯
èĥ½ ä½¿
å¤© å®Ŀ
å¤© ä½ĳ
éĩĳ çŁ³
èĳĹ è¿°
at in
çĦ¡ åĲį
çĻ½ èŁ»
åħĪ æ°ĳ
å¯¦ éĮĦ
åħµ æ³ķ
åħ¶ä»ĸ åľĭå®¶
åĸ® äºİ
ç¯Ģ é»ŀ
æĽ¼ å¾¹æĸ¯çī¹
åī¯ åĪĬ
å¥§ åĪ©
çĻ¼å±ķ å±Ģ
çĳŀ ä¸½
å¿« é¤Ĳ
éĨ« èĹ¥
çĶ±äºİ åħ¶
æĿĲ è³ª
èİ« æĸ¯
å¹¾ åħ§äºŀ
æĿ¿ ä¸Ĭ
å¹³åĿĩ åĢ¼
éľį æŁ¥
å¹¼ åŃĲ
å»ºè®¾ çļĦ
æ£Ĵ çĲĥéļĬ
æĿĤ äº¤
éĻ· èĲ½
åī² æĵļ
å¿«éĢŁ åħ¬è·¯
äº§ä¸ļ å¢ŀåĬłåĢ¼
èĴ¸ é¤¾
éĢ¸ å¤«
æĸ¥ è³ĩ
åħ¬çľ¾ åģĩæľŁ
ĠCon c
æ¼Ĥ æµģ
éĩĢ éħĴ
ï¼ī /
æī Ī
åŃĲ ä¸Ĭ
é«ĺ åİĭ
ä¸ī æľŁ
ä¼ļ ç¤¾
æĹ¶ æľī
éĩĳ èĬ±
ç§ĳ çĪ¾
18 34
éľ ĳ
æ¥Ń ä¸»
æĪĺ çº¿
ç§į ç¾¤
ĠS ing
æĶ¾ åģĩ
æĽ² æĬĺ
17 76
ãĤ ®
ä¸ĥ åįģäºĮ
ä¸ĥ é¾įçıł
æ¹ĸ å¹¿
å¥ĩ çļĦ
åĵ¥ çĻ½
åįķ ä¸ª
è¿ŀ è½½
æĿ¾ èĬ±
è½¬ åıĺä¸º
ä¼¦ åł¡
åļ´ æł¼çļĦ
ä¹Į åħ¹
ç¿Ĵ è¿ĳå¹³
éĽĨä¸Ń çĩŁ
ä¸Ģæ¨£ çļĦ
èł ħ
è¿ĻéĩĮ çļĦ
æĩīè©² æĺ¯
åºļ åŃĲ
éĢ±å¹´ ç´Ģå¿µ
å¾·åħĭ èĸ©æĸ¯
ä¸Ńè¥¿ åįĢ
æ·ª éĻ·
èŃ¦åĭĻ èĻķ
æµ·åĽł éĩĮå¸Į
H ong
V B
Ï Ħ
åľ¨ åħ¶ä¸Ń
èĩ Ģ
åĴĮ å®ĹæķĻ
éĥ¨ éĥ¨éķ·
ç¨ ¼
åŃ¸ åķı
å¤ļ éĿ¢
å¤ĸ æĪļ
åħ¨ åĲį
åŁº å±¤
åĭķ èĦĪ
18 13
éĢ² é£Ł
åıĤ æĪĺ
çĶ° å¾Ħ
ĠM edia
çĴ Ĳ
ç²¾ åĵģ
å¡ŀ çī¹
Ġp art
éłĲ åħĪ
ä¼ĳ æĨ©
çĹħæ¯Ĵ ç§ĳ
åī² æį®
æ·® æµ·
Ġh istory
ç´Ľ çĪŃ
å¥´éļ¶ åĪ¶
ãĤ¸ ãĥ£
æ³¨éŁ³ ç¬¦èĻŁ
çĻ»æľĪ èĪ±
Ġ ä¸º
çļĦ æĿ±
ä¸Ģ ç±»
å· ½
åĴĮ æŃĮ
åĽ½ å¾½
åĩº çĶ¢
å®¶ å±ħ
åĳ Ģ
åĪĨ æķ°
å¸Ĥ éĥĬ
ç¾İ æĸ¹
å±± åĽ½å®¶æ£®æŀĹåħ¬åĽŃ
å¹³ åĩ¡
åĮº åĪĴ
å®ī åĵ¥æĭī
æ® ¯
éķ· æ¦®
æĪĸ æľī
åĪĹ å¼·
âĢĶ ï¼ī
å°¼ åĬłæĭī
æĪĺ äºĭ
ç¤º ç¯Ħ
èĤ² æľī
å¹¿ æ·±
çľŁ å®Ĺ
æ²Ļ ä¸ĺ
éĽ»è¦ĸ åħ¬åı¸
é¢¨ æ½®
è½ī å¾Ģ
èµĽ ä¸Ń
[...]
