{"<|endoftext|>":0,"!":1,"\"":2,"#":3,"$":4,"%":5,"&":6,"'":7,"(":8,")":9,"*":10,"+":11,",":12,"-":13,".":14,"/":15,"0":16,"1":17,"2":18,"3":19,"4":20,"5":21,"6":22,"7":23,"8":24,"9":25,":":26,";":27,"<":28,"=":29,">":30,"?":31,"@":32,"A":33,"B":34,"C":35,"D":36,"E":37,"F":38,"G":39,"H":40,"I":41,"J":42,"K":43,"L":44,"M":45,"N":46,"O":47,"P":48,"Q":49,"R":50,"S":51,"T":52,"U":53,"V":54,"W":55,"X":56,"Y":57,"Z":58,"[":59,"\\":60,"]":61,"^":62,"_":63,"`":64,"a":65,"b":66,"c":67,"d":68,"e":69,"f":70,"g":71,"h":72,"i":73,"j":74,"k":75,"l":76,"m":77,"n":78,"o":79,"p":80,"q":81,"r":82,"s":83,"t":84,"u":85,"v":86,"w":87,"x":88,"y":89,"z":90,"{":91,"|":92,"}":93,"~":94,"¡":95,"¢":96,"£":97,"¤":98,"¥":99,"¦":100,"§":101,"¨":102,"©":103,"ª":104,"«":105,"¬":106,"®":107,"¯":108,"°":109,"±":110,"²":111,"³":112,"´":113,"µ":114,"¶":115,"·":116,"¸":117,"¹":118,"º":119,"»":120,"¼":121,"½":122,"¾":123,"¿":124,"À":125,"Á":126,"Â":127,"Ã":128,"Ä":129,"Å":130,"Æ":131,"Ç":132,"È":133,"É":134,"Ê":135,"Ë":136,"Ì":137,"Í":138,"Î":139,"Ï":140,"Ð":141,"Ñ":142,"Ò":143,"Ó":144,"Ô":145,"Õ":146,"Ö":147,"×":148,"Ø":149,"Ù":150,"Ú":151,"Û":152,"Ü":153,"Ý":154,"Þ":155,"ß":156,"à":157,"á":158,"â":159,"ã":160,"ä":161,"å":162,"æ":163,"ç":164,"è":165,"é":166,"ê":167,"ë":168,"ì":169,"í":170,"î":171,"ï":172,"ð":173,"ñ":174,"ò":175,"ó":176,"ô":177,"õ":178,"ö":179,"÷":180,"ø":181,"ù":182,"ú":183,"û":184,"ü":185,"ý":186,"þ":187,"ÿ":188,"Ā":189,"ā":190,"Ă":191,"ă":192,"Ą":193,"ą":194,"Ć":195,"ć":196,"Ĉ":197,"ĉ":198,"Ċ":199,"ċ":200,"Č":201,"č":202,"Ď":203,"ď":204,"Đ":205,"đ":206,"Ē":207,"ē":208,"Ĕ":209,"ĕ":210,"Ė":211,"ė":212,"Ę":213,"ę":214,"Ě":215,"ě":216,"Ĝ":217,"ĝ":218,"Ğ":219,"ğ":220,"Ġ":221,"ġ":222,"Ģ":223,"ģ":224,"Ĥ":225,"ĥ":226,"Ħ":227,"ħ":228,"Ĩ":229,"ĩ":230,"Ī":231,"ī":232,"Ĭ":233,"ĭ":234,"Į":235,"į":236,"İ":237,"ı":238,"Ĳ":239,"ĳ":240,"Ĵ":241,"ĵ":242,"Ķ":243,"ķ":244,"ĸ":245,"Ĺ":246,"ĺ":247,"Ļ":248,"ļ":249,"Ľ":250,"ľ":251,"Ŀ":252,"ŀ":253,"Ł":254,"ł":255,"Ń":256,"ï¼":257,"ä¸":258,"ãĢ":259,"ï¼Į":260,"çļ":261,"çļĦ":262,"äº":263,"æľ":264,"ãĢĤ":265,"åħ":266,"åľ":267,"åı":268,"å¤":269,"å¹":270,"ä»":271,"æĸ":272,"å®":273,"å¹´":274,"åĪ":275,"åĲ":276,"ãĢģ":277,"çĶ":278,"ä½":279,"åį":280,"å°":281,"æĺ":282,"åŃ":283,"åĽ":284,"å¾":285,"æĹ":286,"ä¹":287,"æĪ":288,"ä¸Ń":289,"åľ¨":290,"ä¸Ģ":291,"ï¼Ī":292,"ï¼ī":293,"å¸":294,"éĢ":295,"äºº":296,"åĬ":297,"å¤§":298,"æŃ":299,"æĺ¯":300,"éģ":301,"åĮ":302,"è¡":303,"å·":304,"æĶ":305,"éĩ":306,"çī":307,"è¿":308,"æľī":309,"æķ":310,"èĢ":311,"å±":312,"âĢ":313,"åº":314,"æ°":315,"19":316,"åĴ":317,"çĤ":318,"èĩ":319,"æī":320,"æĿ":321,"éĻ":322,"åĴĮ":323,"éĥ":324,"å¼":325,"çĽ":326,"éĽ":327,"ä¼":328,"æĹ¥":329,"æ³":330,"åĩ":331,"20":332,"æľĪ":333,"åľĭ":334,"çĤº":335,"åĽ½":336,"èĪ":337,"ä»¥":338,"ç»":339,"åĨ":340,"å¯":341,"æĻ":342,"ï¼ļ":343,"è®":344,"ç§":345,"å¥":346,"ç«":347,"æ²":348,"å½":349,"ç¾":350,"äºĨ":351,"åľ°":352,"è¦":353,"åī":354,"æĪĲ":355,"ä¸į":356,"åŁ":357,"æł":358,"çİ":359,"åİ":360,"çĲ":361,"æµ":362,"æĽ":363,"ä¾":364,"æĭ":365,"è¨":366,"ä¸Ĭ":367,"ä¹ĭ":368,"å»":369,"çķ":370,"æ¸":371,"è¯":372,"åĢ":373,"ä¸º":374,"éĿ":375,"ç´":376,"åĩº":377,"åĵ":378,"ãĢĬ":379,"ãĢĭ":380,"ä¸»":381,"é¦":382,"æİ":383,"æ´":384,"åĭ":385,"çĻ":386,"ä¿":387,"æĢ":388,"è¡Į":389,"çĶŁ":390,"éĥ¨":391,"ç¬":392,"é«":393,"éĸ":394,"ç¨":395,"ä»ĸ":396,"ä½ľ":397,"çº":398,"åħ¬":399,"å®¶":400,"åĳ":401,"èģ":402,"è§":403,"æĸ¼":404,"æ¯":405,"çĶ¨":406,"çµ":407,"æĸĩ":408,"æ°ĳ":409,"åħ¶":410,"æĸ¯":411,"å¿":412,"çŃ":413,"éļ":414,"åĪĨ":415,"æ³ķ":416,"æ±":417,"èª":418,"ç¬¬":419,"èµ":420,"æŀ":421,"èĥ":422,"æĶ¿":423,"åŃ¸":424,"éķ":425,"æĬ":426,"éĺ":427,"åŃ¦":428,"æ¬":429,"èĢĮ":430,"æľĥ":431,"åĲį":432,"åıĬ":433,"è¢":434,"æĻĤ":435,"åŃĲ":436,"åĪ°":437,"è»":438,"è¥":439,"å§":440,"ãĢĮ":441,"ãĢį":442,"éĹ":443,"æĸ¹":444,"å¾Į":445,"æľ¬":446,"çĪ":447,"è¾":448,"è¥¿":449,"å¤ļ":450,"è³":451,"åĲĮ":452,"èĩª":453,"Â·":454,"æĮ":455,"è·":456,"èĭ":457,"è¢«":458,"å¸Ĥ":459,"ç¶":460,"ä¸ĸ":461,"åı¯":462,"ä»£":463,"çĶ±":464,"åł":465,"æĸ°":466,"åįĹ":467,"ç©":468,"æ¨":469,"ä¸ĭ":470,"é»":471,"å£":472,"æľĢ":473,"èĪĩ":474,"éł":475,"é¡":476,"äºİ":477,"200":478,"âĢľ":479,"âĢĿ":480,"åĮĹ":481,"é«ĺ":482,"çľ":483,"ä¸ī":484,"æīĢ":485,"ç«ĭ":486,"çŃī":487,"ä¹Ł":488,"æķĻ":489,"çĲĨ":490,"ç½":491,"çī¹":492,"çī©":493,"å¤ĸ":494,"è¦ģ":495,"ä½į":496,"ç¤":497,"å¦":498,"åīį":499,"ç¾İ":500,"ç¥":501,"æĦ":502,"æ¼":503,"çģ":504,"å¾·":505,"åĽł":506,"çĦ":507,"å»º":508,"èŃ":509,"éŁ":510,"æı":511,"åĪ©":512,"äºĭ":513,"åĮĸ":514,"èī":515,"ä¸ª":516,"è´":517,"åĲİ":518,"å±±":519,"éĤ":520,"èĥ½":521,"æµ·":522,"å®ļ":523,"æŃ¤":524,"åĬł":525,"å¤©":526,"çı":527,"æľŁ":528,"è©":529,"å¾Ĺ":530,"åı°":531,"çŁ":532,"ä»»":533,"äºĮ":534,"éģĵ":535,"èĢħ":536,"æĵ":537,"åĲĪ":538,"ä¼ļ":539,"åĢĭ":540,"åħ¨":541,"è½":542,"å·¥":543,"éĢļ":544,"è¶":545,"æĹ¶":546,"çİĭ":547,"åħĭ":548,"èĩ³":549,"å°ı":550,"çĻ¼":551,"è£":552,"èĻ":553,"ä½¿":554,"è¡¨":555,"æ¸¯":556,"è·¯":557,"åįģ":558,"è²":559,"åħ¥":560,"ç±":561,"æĢ§":562,"æ¥":563,"æĥ":564,"er":565,"åº¦":566,"ä½Ĩ":567,"åĿ":568,"é¢":569,"ç³":570,"èĲ":571,"éĩį":572,"èĤ":573,"å¹³":574,"10":575,"åħ±":576,"an":577,"æ¬¡":578,"éĻ¢":579,"éĩĮ":580,"èĳ":581,"ç®":582,"åĮº":583,"çĽ¸":584,"çį":585,"éĥ½":586,"é£":587,"éĿ¢":588,"åģ":589,"ï¼Ľ":590,"ç·":591,"åİŁ":592,"åĬĽ":593,"åįĢ":594,"å¼ı":595,"ä¾Ĩ":596,"éĽ»":597,"åĤ":598,"è»į":599,"ç¸":600,"æĭī":601,"ç¦":602,"æº":603,"è¼":604,"æĺİ":605,"å®ī":606,"æ©":607,"å¢":608,"å°į":609,"çĲĥ":610,"åŁº":611,"å¦Ĥ":612,"èı":613,"åĭķ":614,"åŁİ":615,"åħĥ":616,"éĩĳ":617,"ç³»":618,"èĭ±":619,"æ®":620,"æŁ":621,"ç§ĳ":622,"åıĳ":623,"å£«":624,"ï¼īï¼Į":625,"æ²»":626,"18":627,"åķ":628,"åĪ¶":629,"å°Ķ":630,"é¦Ļ":631,"çł":632,"ä¸¦":633,"in":634,"åĵ¡":635,"éķ·":636,"å·ŀ":637,"æŃ£":638,"æĪĸ":639,"on":640,"ä¸İ":641,"æ°´":642,"åºľ":643,"åĨĽ":644,"199":645,"èĬ":646,"é©":647,"éĩı":648,"å½±":649,"å¸¸":650,"æ¯Ķ":651,"è«":652,"è¿Ļ":653,"éĢĻ":654,"åı²":655,"éĸĭ":656,"åĽĽ":657,"åĸ":658,"å¯¹":659,"çķĮ":660,"æ¢":661,"åı¸":662,"æĪ°":663,"å¥³":664,"12":665,"ç¶ĵ":666,"èµ·":667,"åı£":668,"å¡":669,"æģ":670,"æ¡":671,"æĶ¹":672,"æł¼":673,"æĿ±":674,"æİ¥":675,"èĹ":676,"é¦Ļæ¸¯":677,"æ¼Ķ":678,"éŁ³":679,"åĶ":680,"å²":681,"çĦ¶":682,"å¿ĥ":683,"æł¡":684,"æıĲ":685,"00":686,"éķ¿":687,"æĿ¥":688,"æŀĹ":689,"åĪĹ":690,"çı¾":691,"âĢĶ":692,"å°±":693,"çĽ®":694,"èİ":695,"æĦı":696,"æ©Ł":697,"çģ£":698,"ç¨ĭ":699,"å¸ĥ":700,"çķ¶":701,"éħ":702,"ç¤¾":703,"éĸĵ":704,"ä¸ŃåĽ½":705,"éģİ":706,"æ·":707,"äº¤":708,"ç«Ļ":709,"éľ":710,"ç¯":711,"é«Ķ":712,"11":713,"æĴ":714,"ä¸ľ":715,"èĺ":716,"çĪ¾":717,"éĺ¿":718,"é¦ĸ":719,"å°ĩ":720,"å¼Ģ":721,"åħ§":722,"å°¼":723,"åŃĹ":724,"ä¿Ŀ":725,"en":726,"åĲĳ":727,"å·´":728,"å½¢":729,"åıĹ":730,"å¤ª":731,"å¹¶":732,"åł´":733,"åĬ¨":734,"åĥ":735,"åŀ":736,"åĵģ":737,"æľĿ":738,"åı¤":739,"or":740,"æį":741,"æīĭ":742,"å§ĭ":743,"æķ¸":744,"äºĽ":745,"ç»ı":746,"æĺŁ":747,"ç¨±":748,"äºŀ":749,"æ¶":750,"ç©º":751,"æĮĩ":752,"æµģ":753,"éĽĨ":754,"èī²":755,"ar":756,"æĶ¿åºľ":757,"éĢ²":758,"å·²":759,"æĹ¥æľ¬":760,"al":761,"æĹı":762,"è°":763,"è»Ĭ":764,"åĮħ":765,"æ¥Ń":766,"æħ":767,"å±ķ":768,"æķ°":769,"è±":770,"çĽ´":771,"åĨħ":772,"ç¥ŀ":773,"å¨":774,"åĲĦ":775,"æ£":776,"äºĶ":777,"éĵ":778,"èº":779,"èĳĹ":780,"å¸Ŀ":781,"èı¯":782,"åıį":783,"æĮģ":784,"ç¿":785,"é¦¬":786,"ä¿¡":787,"ãĥ":788,"æľº":789,"çľģ":790,"198":791,"æ²³":792,"çĿ":793,"åĦ":794,"èį":795,"çīĪ":796,"æĽ´":797,"æ±Ł":798,"æ»":799,"è¿ĩ":800,"ç²":801,"èĢĥ":802,"ç®¡":803,"çµ±":804,"éĹľ":805,"å§Ķ":806,"åĳĺ":807,"äºļ":808,"çİ°":809,"äº¬":810,"å°ĳ":811,"èªŀ":812,"åŀĭ":813,"å®ĺ":814,"ä½ĵ":815,"ç¬¬ä¸Ģ":816,"ä¸ļ":817,"æĽ¾":818,"åı¯ä»¥":819,"ç±³":820,"éŃ":821,"èº«":822,"ç¹":823,"åĳ½":824,"æĪĺ":825,"å³":826,"201":827,"æ¸ħ":828,"ä½¿çĶ¨":829,"æ´²":830,"è¨Ń":831,"es":832,"at":833,"é¾":834,"åħ©":835,"åħī":836,"çĭ":837,"åĻ":838,"éģĭ":839,"æ¹":840,"éĢł":841,"ä»¶":842,"éº":843,"ç¢":844,"åķĨ":845,"éĿŀ":846,"è§£":847,"è¿Ľ":848,"çłĶ":849,"Ġ(":850,"æĥħ":851,"ç§°":852,"éĹ´":853,"èģ¯":854,"çĶµ":855,"ç¨®":856,"åıĸ":857,"åĽŀ":858,"åİ¿":859,"è³½":860,"ç¾©":861,"ï¼īãĢĤ":862,"ç¸½":863,"ç·ļ":864,"åħ¬åı¸":865,"éļĬ":866,"çµĲ":867,"è¦ĸ":868,"èĮ":869,"å°Ĩ":870,"æĶ¯":871,"çĦ¡":872,"è¨Ģ":873,"ä¸ĸçķĮ":874,"çŁ³":875,"æĩ":876,"æĿİ":877,"æŃ¦":878,"é¤":879,"åį³":880,"ç¤º":881,"å±Ģ":882,"åį¡":883,"é©¬":884,"è¯Ń":885,"äº§":886,"åıª":887,"ä¸Ńåľĭ":888,"æ´»":889,"ç§į":890,"çĹ":891,"çĥ":892,"èĩº":893,"åıĥ":894,"å¤«":895,"ĠS":896,"æ¨Ĥ":897,"ç»Ł":898,"å®Ĺ":899,"çĩ":900,"ç©¶":901,"ç´Ħ":902,"èĻŁ":903,"Ġ-":904,"éģ¸":905,"ç¾ħ":906,"æĶ¾":907,"æĽ²":908,"è¿ĳ":909,"å®ĥ":910,"çĻ½":911,"èŃ°":912,"åıĤ":913,"ic":914,"æ³¢":915,"èĴ":916,"èĤ²":917,"åĻ¨":918,"åīĩ":919,"çļĩ":920,"æĽ¸":921,"æĢ»":922,"åħĪ":923,"è®¾":924,"ç½Ĺ":925,"åĤ³":926,"çłĶç©¶":927,"çĳ":928,"æ¿":929,"æĻ®":930,"ä¸Ģä¸ª":931,"æŀľ":932,"å½ĵ":933,"æ´¾":934,"èħ":935,"è¨Ī":936,"éģĶ":937,"ç¼":938,"çµĦ":939,"äººæ°ĳ":940,"åįİ":941,"åıĪ":942,"æĶ¶":943,"15":944,"æºĲ":945,"ä¸»è¦ģ":946,"ä»Ĭ":947,"ï¼į":948,"æŃĮ":949,"he":950,"èªª":951,"éĮ":952,"èĺŃ":953,"is":954,"åħ³":955,"åħŃ":956,"çĶ¢":957,"16":958,"æĭ¬":959,"èģĶ":960,"è§Ĵ":961,"ĠC":962,"ä¾ĭ":963,"å¯¦":964,"éĦ":965,"éĸĢ":966,"197":967,"17":968,"åĪĿ":969,"åİ»":970,"åľŁ":971,"çĸ":972,"ä¸¤":973,"è³ĩ":974,"ä¹ī":975,"it":976,"ç¾İåľĭ":977,"çŁ¥":978,"ä»¥åıĬ":979,"åĭĻ":980,"å¾ŀ":981,"åĨį":982,"å®Į":983,"æľª":984,"åĮħæĭ¬":985,"éĢ£":986,"éĻ¤":987,"åħµ":988,"çīĩ":989,"åĢĳ":990,"åħ«":991,"æł¹":992,"åħ¶ä»ĸ":993,"å¼ķ":994,"åı·":995,"äº¦":996,"åĳ¨":997,"ç¦ı":998,"æŃ»":999,"ä»İ":1000,"æĪĳ":1001,"å¾Ģ":1002,"éĥ¨åĪĨ":1003,"èĪª":1004,"å®ŀ":1005,"ä¹¦":1006,"æĸĻ":1007,"le":1008,"ä¸Ķ":1009,"å¾Ī":1010,"ä»¤":1011,"ä¼Ĭ":1012,"åŃĺ":1013,"ä¸ĢåĢĭ":1014,"å±ħ":1015,"æľį":1016,"ç´Ģ":1017,"èªį":1018,"è¿Ĳ":1019,"çĮ":1020,"èĦ":1021,"å¤§åŃ¸":1022,"194":1023,"ä»¬":1024,"éĲ":1025,"ç»Ħ":1026,"å¨ģ":1027,"æ®µ":1028,"çħ":1029,"æļ":1030,"å¤§åŃ¦":1031,"ä¹Ŀ":1032,"è¾¾":1033,"æ¯ı":1034,"åı°çģ£":1035,"å»£":1036,"æ¾":1037,"æİ¨":1038,"èĬ±":1039,"æ¬Ĭ":1040,"çĶ°":1041,"æ¦":1042,"æĸĩåĮĸ":1043,"çº¿":1044,"å¸Į":1045,"åĬŁ":1046,"å®£":1047,"196":1048,"195":1049,"é¡ŀ":1050,"ä¿®":1051,"çĻ¾":1052,"å¢ŀ":1053,"åħ¶ä¸Ń":1054,"æĬĢ":1055,"é»¨":1056,"åľĺ":1057,"è®¡":1058,"å¥½":1059,"ĠA":1060,"ĠM":1061,"è«ĸ":1062,"æĩī":1063,"è¶ħ":1064,"ĠP":1065,"æĶ¿æ²»":1066,"çĨ":1067,"åħ·":1068,"éĢŁ":1069,"çİĩ":1070,"ï¼īãĢģ":1071,"æīĵ":1072,"è®Ĭ":1073,"æ½":1074,"äººåı£":1075,"å±ŀ":1076,"ç¬¬äºĮ":1077,"åľº":1078,"æ±Ĥ":1079,"æĹ©":1080,"å®¢":1081,"æ§":1082,"æĴŃ":1083,"è¶³":1084,"ãĤ":1085,"å¼µ":1086,"çĵ":1087,"çº¦":1088,"ç¸£":1089,"éĺŁ":1090,"æ¯į":1091,"åı¦":1092,"éĬ":1093,"è©²":1094,"å¢ĥ":1095,"åħ°":1096,"æķħ":1097,"åĪ¥":1098,"å¹¿":1099,"è®®":1100,"å¤®":1101,"14":1102,"13":1103,"åĽłæŃ¤":1104,"åİĨ":1105,"å¸«":1106,"ä¸ŃçļĦ":1107,"æ¡Ī":1108,"ä¼¯":1109,"ç½®":1110,"å°İ":1111,"ä¸ĥ":1112,"èĻķ":1113,"ç¡":1114,"æŃ·":1115,"çģ«":1116,"å®¹":1117,"èĩ´":1118,"å³¶":1119,"ol":1120,"è¯´":1121,"åŁŁ":1122,"éłĺ":1123,"æĬķ":1124,"ä¼ł":1125,"çª":1126,"åħļ":1127,"åĽ½å®¶":1128,"èĲ¬":1129,"ç±»":1130,"æĺĵ":1131,"è¶Ĭ":1132,"è½¦":1133,"éĶ":1134,"åĬĩ":1135,"çĬ":1136,"éĿ©":1137,"å¥¹":1138,"åĬ¡":1139,"ä¸Ńå¤®":1140,"å±¬":1141,"åĵĪ":1142,"ä½ķ":1143,"çķ«":1144,"æŁ¥":1145,"ä¸ĩ":1146,"çĤ¹":1147,"æĶ»":1148,"çļĦä¸Ģ":1149,"åĲī":1150,"æķ´":1151,"åŃ£":1152,"ãĢĭï¼Į":1153,"é»ŀ":1154,"åį°":1155,"çº§":1156,"çįİ":1157,"å·±":1158,"30":1159,"æĻ¯":1160,"ä¾Ľ":1161,"è¡ĵ":1162,"é¢Ĩ":1163,"ãĢįï¼Į":1164,"åº§":1165,"å¤±":1166,"çľŁ":1167,"ãģ":1168,"å¯Ĩ":1169,"æ²Ļ":1170,"çĹħ":1171,"éª":1172,"ion":1173,"æĹł":1174,"ç»ĵ":1175,"æĪĲçĤº":1176,"st":1177,"éĤ£":1178,"æ¹ĸ":1179,"åĿĩ":1180,"å¿Ĺ":1181,"è±¡":1182,"çį²":1183,"el":1184,"çĶ·":1185,"æ¨¡":1186,"zh":1187,"èĪī":1188,"éĨ":1189,"æĥ³":1190,"ä»£è¡¨":1191,"ç´ł":1192,"ç¾İåĽ½":1193,"åł±":1194,"éĿĴ":1195,"åįļ":1196,"ĠT":1197,"ç»´":1198,"éĻĲ":1199,"æĳ":1200,"ä»½":1201,"ro":1202,"åħ¸":1203,"åįĬ":1204,"ä¸įåĲĮ":1205,"åĸ®":1206,"ç¾¤":1207,"åı¯èĥ½":1208,"å¤Ħ":1209,"ä¸Ńå¿ĥ":1210,"è¦ĭ":1211,"çıŃ":1212,"åĬ©":1213,"å¡Ķ":1214,"åĥı":1215,"å¸Ń":1216,"çºª":1217,"è®º":1218,"èĢģ":1219,"ç´ļ":1220,"è¬":1221,"éĲµ":1222,"åłĤ":1223,"è¿ĺ":1224,"æĢĿ":1225,"éļĽ":1226,"è¨ĺ":1227,"é²":1228,"åºĶ":1229,"åħ±åĴĮ":1230,"éľĢ":1231,"æīį":1232,"å¾ĭ":1233,"ç¶Ń":1234,"ç¯Ģ":1235,"éĹ¨":1236,"æĵĬ":1237,"22":1238,"æķĻèĤ²":1239,"re":1240,"of":1241,"åĺ":1242,"èĩªå·±":1243,"Ġt":1244,"ç®Ĺ":1245,"å·Ŀ":1246,"é¾į":1247,"æ´Ľ":1248,"æľ¯":1249,"èĸ":1250,"ä¹ĭä¸Ģ":1251,"åĳĬ":1252,"æĸ½":1253,"é£Ł":1254,"å°Ī":1255,"æ±ī":1256,"èĭı":1257,"å´":1258,"æĿĳ":1259,"å®¤":1260,"å¯¼":1261,"æİĴ":1262,"æ²Ĵ":1263,"å¿µ":1264,"éĴ":1265,"âĢĶâĢĶ":1266,"å©":1267,"21":1268,"ä»į":1269,"è®¤":1270,"éłŃ":1271,"æ¢Ŀ":1272,"æĤ":1273,"éĽ»è¦ĸ":1274,"çĿ£":1275,"æĦŁ":1276,"å°Ħ":1277,"è®°":1278,"âĢĿãĢĤ":1279,"çĽŁ":1280,"æĿĥ":1281,"ä½Ľ":1282,"åıĺ":1283,"æľ¨":1284,"æŃ¥":1285,"çĴ":1286,"èĲ½":1287,"åıĭ":1288,"é¢¨":1289,"ç«ł":1290,"éĸĭå§ĭ":1291,"æĦĽ":1292,"åľĴ":1293,"é»ĳ":1294,"ä½ı":1295,"æĪĲç«ĭ":1296,"}-":1297,"æ¸¸":1298,"ĠB":1299,"æį®":1300,"ãĢĭï¼Ī":1301,"æ±º":1302,"è¡ĮæĶ¿":1303,"ä¾¿":1304,"åľĭå®¶":1305,"ç¶²":1306,"å·¥ä½ľ":1307,"æĬĬ":1308,"åĭĴ":1309,"åľĸ":1310,"25":1311,"æī¹":1312,"-{":1313,"æ°£":1314,"ãĢįãĢĤ":1315,"ä»ĸçļĦ":1316,"æĲ":1317,"æĵļ":1318,"||":1319,"ac":1320,"è£½":1321,"è¯¥":1322,"å¹´ä»£":1323,"ä½İ":1324,"çĪ¶":1325,"åº·":1326,"éħį":1327,"éĺ²":1328,"çĻ»":1329,"éĽ·":1330,"è§Ģ":1331,"çĪŃ":1332,"æ°ı":1333,"æŃ¢":1334,"å¼·":1335,"åĽ¢":1336,"æ·±":1337,"ä¹Ĳ":1338,"è¡Ĺ":1339,"æ¼¢":1340,"ç²¾":1341,"193":1342,"çľĭ":1343,"é¡Į":1344,"am":1345,"éĤĦ":1346,"è½ī":1347,"æī¿":1348,"Ġof":1349,"åĪĻ":1350,"åĽ¾":1351,"éĻ³":1352,"us":1353,"çķĻ":1354,"éĵģ":1355,"åīµ":1356,"âĢĿï¼Į":1357,"éĻį":1358,"å¸¶":1359,"å¡ŀ":1360,"ä½ľåĵģ":1361,"èµĦ":1362,"23":1363,"åĶĲ":1364,"åįĥ":1365,"æĽ¼":1366,"åī¯":1367,"èģĸ":1368,"éĢī":1369,"ĠL":1370,"éģĬ":1371,"æµİ":1372,"èĩºçģ£":1373,"è¨±":1374,"il":1375,"åŁİå¸Ĥ":1376,"è³ª":1377,"æ¨Ļ":1378,"è¼ĥ":1379,"å¥ĩ":1380,"ä¸Ńèı¯":1381,"éĻ¸":1382,"ç§»":1383,"and":1384,"et":1385,"å¥¥":1386,"ä¸ĬçļĦ":1387,"æ´ĭ":1388,"åįł":1389,"ĠI":1390,"æ£®":1391,"çĿĢ":1392,"éĻħ":1393,"æ³¨":1394,"å¯Į":1395,"éĺ³":1396,"åĶ±":1397,"é½":1398,"å¸Ī":1399,"åĢ¼":1400,"è¦ª":1401,"åĵ¥":1402,"æ¶Ī":1403,"éĽ»å½±":1404,"å¹´çļĦ":1405,"æķĪ":1406,"ç°":1407,"éĽ¢":1408,"å¤§çļĦ":1409,"æİ§":1410,"id":1411,"æĬ¥":1412,"èµĽ":1413,"åĨł":1414,"as":1415,"æīĢæľī":1416,"ä¾Ŀ":1417,"å¼ł":1418,"æ²Ĵæľī":1419,"æīĺ":1420,"å»ºç«ĭ":1421,"èģ·":1422,"éķĩ":1423,"ch":1424,"æ¾³":1425,"ä¿Ħ":1426,"æĿ¡":1427,"è¿°":1428,"åľ°åĮº":1429,"éĩįè¦ģ":1430,"èĴĻ":1431,"äºī":1432,"æŃĲ":1433,"æŀĦ":1434,"åįķ":1435,"åģļ":1436,"åįĩ":1437,"ç·¨":1438,"è¡¨ç¤º":1439,"om":1440,"å¥§":1441,"åĮĹäº¬":1442,"çĵ¦":1443,"æĬĹ":1444,"æĹħ":1445,"ent":1446,"åĩºçīĪ":1447,"ç®¡çĲĨ":1448,"èªįçĤº":1449,"å¯Ł":1450,"æ°Ķ":1451,"çºĮ":1452,"å¿ħ":1453,"ĠR":1454,"å®Ī":1455,"èª¿":1456,"ig":1457,"é§":1458,"æŃ£å¼ı":1459,"å¤ı":1460,"åĪ«":1461,"ĠD":1462,"ä¸ĢäºĽ":1463,"åķı":1464,"ĠH":1465,"åĢĻ":1466,"åľ°åįĢ":1467,"éĮĦ":1468,"çīĻ":1469,"ur":1470,"ing":1471,"èĪ¬":1472,"æľĽ":1473,"å¤ĸéĥ¨":1474,"äº¡":1475,"åĪĴ":1476,"24":1477,"è´¨":1478,"èĪĪ":1479,"çħ§":1480,"æĪĲä¸º":1481,"æ°¸":1482,"èĶ":1483,"å·¥ç¨ĭ":1484,"é»ĥ":1485,"æ§ĭ":1486,"è§Ĩ":1487,"åºķ":1488,"äººçļĦ":1489,"çĶ±æĸ¼":1490,"åĽłçĤº":1491,"èĹı":1492,"çº³":1493,"åĲ«":1494,"é¤¨":1495,"èİ·":1496,"å¤į":1497,"æłĩ":1498,"ed":1499,"èĺĩ":1500,"è§ģ":1501,"å¼Ģå§ĭ":1502,"ç¥ĸ":1503,"æł¸":1504,"éİ":1505,"çĶ²":1506,"ç½ĳ":1507,"å®ĭ":1508,"å§Ĩ":1509,"éĩİ":1510,"è¾¦":1511,"çĩŁ":1512,"æ²¡":1513,"æ¤":1514,"èĹĿ":1515,"éĻĦ":1516,"åİĨåı²":1517,"è¦ı":1518,"åģľ":1519,"çł´":1520,"ä¸Ĭæµ·":1521,"çŃĸ":1522,"éĽĦ":1523,"ĠG":1524,"é¬":1525,"å°ģ":1526,"æ³°":1527,"ä¹Łæĺ¯":1528,"ä¸ĵ":1529,"æİĪ":1530,"èĵ":1531,"æĺ¥":1532,"un":1533,"è§Ħ":1534,"ç¥¨":1535,"åŁĥ":1536,"ãĢĭãĢģ":1537,"çķ¶æĻĤ":1538,"æĨ":1539,"åŃ¦éĻ¢":1540,"ç´¢":1541,"éĤ¦":1542,"åºĹ":1543,"28":1544,"åĨ³":1545,"éĢ²è¡Į":1546,"æŃ·åı²":1547,"è£Ŀ":1548,"é£Ľ":1549,"è¿ª":1550,"å»¶":1551,"äºĭä»¶":1552,"éģĭåĭķ":1553,"çĻ¼å±ķ":1554,"èģ²":1555,"çľ¾":1556,"èŃ¦":1557,"æģ©":1558,"åħĴ":1559,"ä¾ĭå¦Ĥ":1560,"çĳŀ":1561,"éĢĢ":1562,"å§Ķåĳĺ":1563,"çµ¦":1564,"ä½³":1565,"é£İ":1566,"è©±":1567,"ç´į":1568,"å²Ľ":1569,"å·¦":1570,"ä»ĸåĢĳ":1571,"åĩĨ":1572,"åįĶ":1573,"æģ¯":1574,"èĭ±åľĭ":1575,"åľĭéļĽ":1576,"æıĲä¾Ľ":1577,"éŁ¿":1578,"æĺ¯ä¸Ģ":1579,"æĭ¿":1580,"éļ¨":1581,"æ¨£":1582,"ä¸ģ":1583,"çīĮ":1584,"å¿«":1585,"è¿Ľè¡Į":1586,"çļĦäºº":1587,"ĠE":1588,"ç¬¬ä¸ī":1589,"è¡Ľ":1590,"æĸ¹éĿ¢":1591,"50":1592,"éĻ½":1593,"åºı":1594,"çªģ":1595,"çµĤ":1596,"æĶ¯æĮģ":1597,"é¢ĺ":1598,"ĠĠ":1599,"å¸¦":1600,"27":1601,"æĪ²":1602,"ï¼Īï¼ī":1603,"æ¿Ł":1604,"ĠF":1605,"26":1606,"èĩªçĶ±":1607,"èĬĤ":1608,"åĺī":1609,"ä¼¼":1610,"ä¸»ä¹ī":1611,"é¹":1612,"éĦī":1613,"ä¸¹":1614,"åħ¬éĩĮ":1615,"ç»ıæµİ":1616,"éĹ®":1617,"èĪ¹":1618,"åĲĽ":1619,"åĩºçĶŁ":1620,"èĭ¥":1621,"éļĨ":1622,"ç£":1623,"éłħ":1624,"ä½Ĩæĺ¯":1625,"è°ĥ":1626,"âĢĵ":1627,"çį¨":1628,"åł¡":1629,"éĨ«":1630,"ä¸ĢèĪ¬":1631,"ä¹ħ":1632,"é¼":1633,"åĬĥ":1634,"çĴ°":1635,"ãĢĭãĢģãĢĬ":1636,"å¯«":1637,"æ²¡æľī":1638,"ç³»çµ±":1639,"2005":1640,"æ°ĳåľĭ":1641,"åľ°æĸ¹":1642,"æĪ¿":1643,"è®¤ä¸º":1644,"ä¹ĭå¾Į":1645,"åª":1646,"å¼º":1647,"æ¥µ":1648,"çĮ®":1649,"åıĤèĢĥ":1650,"ç¤¾æľĥ":1651,"éĢĿ":1652,"æ¨ĵ":1653,"è©ŀ":1654,"å°±æĺ¯":1655,"éĻĨ":1656,"è¿ŀ":1657,"åĪ¤":1658,"æŀ¶":1659,"é¾Ļ":1660,"åĽŃ":1661,"ç¹¼":1662,"åĤĻ":1663,"éĽħ":1664,"åĬī":1665,"ç¨±çĤº":1666,"ç´ħ":1667,"è®¸":1668,"ĠW":1669,"äººæ°ĳåħ±åĴĮ":1670,"è§Ĥ":1671,"ç±į":1672,"åĪĩ":1673,"åŃĺåľ¨":1674,"éħĴ":1675,"é»Ħ":1676,"000":1677,"åĬŀ":1678,"åĪĽ":1679,"äººçī©":1680,"æ¬§":1681,"åı³":1682,"æĻĤæľŁ":1683,"æ®º":1684,"ä¸¾":1685,"çķ¥":1686,"èĩ£":1687,"éĢļè¿ĩ":1688,"å®®":1689,"åī§":1690,"è©ķ":1691,"29":1692,"äº¤éĢļ":1693,"æĿ¾":1694,"ä¸ĸçºª":1695,"æ¯Ľ":1696,"å²¸":1697,"å¾®":1698,"ä½įæĸ¼":1699,"é³":1700,"æ²¹":1701,"2006":1702,"æľ«":1703,"ä¸Ńåįİ":1704,"è¡Ģ":1705,"ç½²":1706,"æł·":1707,"è®ĵ":1708,"æľĢé«ĺ":1709,"èŀ":1710,"å¼Ł":1711,"æĹĹ":1712,"ç¦»":1713,"æ¢ħ":1714,"éĽĻ":1715,"èĥ¡":1716,"çĶļ":1717,"Ġthe":1718,"èŃī":1719,"ç¼ĸ":1720,"ç¤¾ä¼ļ":1721,"éŁ³æ¨Ĥ":1722,"å¤´":1723,"çĶŁæ´»":1724,"éĢĲ":1725,"èŃ·":1726,"ä¸»ç¾©":1727,"å§Ķåĵ¡":1728,"han":1729,"éľĢè¦ģ":1730,"èī¯":1731,"å¯º":1732,"å¾©":1733,"æľĹ":1734,"æķĹ":1735,"ä»ĭ":1736,"èĤ¡":1737,"éĿ©åĳ½":1738,"å¾ģ":1739,"éĥ¡":1740,"ä¸ĸç´Ģ":1741,"æĳ©":1742,"éļı":1743,"è²»":1744,"2004":1745,"éĢļå¸¸":1746,"åĩ»":1747,"æĿŁ":1748,"è¾ĥ":1749,"2000":1750,"åĿ¦":1751,"åºŃ":1752,"ç³»åĪĹ":1753,"ç»Ļ":1754,"èĪªç©º":1755,"ä»ĸä»¬":1756,"åħ¨åĽ½":1757,"æīĢä»¥":1758,"åįı":1759,"èµ°":1760,"å½±éŁ¿":1761,"åį«":1762,"ä½įäºİ":1763,"å±¤":1764,"å¹²":1765,"iv":1766,"æ°ĳä¸»":1767,"é²ģ":1768,"ad":1769,"åĲĮæĻĤ":1770,"åĽ½éĻħ":1771,"èģĮ":1772,"åģĩ":1773,"è½¬":1774,"çļ®":1775,"éģŃ":1776,"æĸ¹å¼ı":1777,"å½¹":1778,"èĽ":1779,"ç¹Ķ":1780,"ç§¯":1781,"ĠN":1782,"å¥ĸ":1783,"åĨľ":1784,"å½¢æĪĲ":1785,"åıĳå±ķ":1786,"åĸĦ":1787,"åıĹåĪ°":1788,"ç§Ģ":1789,"å·®":1790,"çŁŃ":1791,"èįī":1792,"èĮĥ":1793,"åľį":1794,"é¥":1795,"éĢģ":1796,"é¸":1797,"åĭĿ":1798,"æĬ¤":1799,"æıĲåĩº":1800,"äºĴ":1801,"ç»ĩ":1802,"åħį":1803,"çĶ±äºİ":1804,"æª":1805,"åĨĻ":1806,"ä¸»å¸Ń":1807,"æ°ĳæĹı":1808,"ç³»ç»Ł":1809,"ä¹ĺ":1810,"çĭĢ":1811,"ç«¯":1812,"é¦Ĩ":1813,"å©ļ":1814,"èĨ":1815,"æ¤į":1816,"è¦ģæ±Ĥ":1817,"å®ģ":1818,"ä¼ģ":1819,"æĹ¶æľŁ":1820,"åĢ«":1821,"çĪĨ":1822,"çĥĪ":1823,"éĤĬ":1824,"æĻĤéĸĵ":1825,"ä»ģ":1826,"èĲ¨":1827,"ï¼īï¼ļ":1828,"40":1829,"æĪĲåĬŁ":1830,"èĢ¶":1831,"ï¼ļâĢľ":1832,"ation":1833,"éİ®":1834,"æľĢå¾Į":1835,"è¯į":1836,"çį²å¾Ĺ":1837,"çļĦå¤§":1838,"çĽĽ":1839,"ä¼¦":1840,"æĿĲ":1841,"åıĥèĢĥ":1842,"åľ£":1843,"æħĭ":1844,"ãĥ»":1845,"2008":1846,"th":1847,"åľĭæ°ĳ":1848,"å¾Ĵ":1849,"2007":1850,"å¼Ĺ":1851,"æķ£":1852,"éĢĿä¸ĸ":1853,"çº¢":1854,"çŃĳ":1855,"çĽ®åīį":1856,"åĩºçı¾":1857,"åĭ¢":1858,"èİ«":1859,"æĻļ":1860,"è¯ģ":1861,"åĶ®":1862,"åŃ¸æł¡":1863,"è£¡":1864,"æŃ²":1865,"èĭ±åĽ½":1866,"å°ļ":1867,"ç¶ĵæ¿Ł":1868,"æ¢ģ":1869,"ä½ľä¸º":1870,"é¡¹":1871,"é¡¯":1872,"æºĸ":1873,"æľ±":1874,"å°¾":1875,"æĻº":1876,"åĵį":1877,"å¤§åĪ©":1878,"åħ´":1879,"è¯Ŀ":1880,"çİī":1881,"çĨ±":1882,"60":1883,"åĮ»":1884,"éŃ¯":1885,"çĭ¬":1886,"å¾ĹåĪ°":1887,"åį·":1888,"æĵĶ":1889,"èµ«":1890,"2010":1891,"åħ·æľī":1892,"éģł":1893,"è¿ĲåĬ¨":1894,"ç¬¦":1895,"æ¯Ĵ":1896,"è³ĩæĸĻ":1897,"å½Ī":1898,"éĬĢ":1899,"éħ¸":1900,"å®ĮæĪĲ":1901,"çļĦæĺ¯":1902,"ä½ľçĤº":1903,"ãĢĤâĢĿ":1904,"åĸľ":1905,"2003":1906,"éĽĸ":1907,"ä¿Ĥ":1908,"Ġand":1909,"æ¸©":1910,"ä¸Ńèı¯æ°ĳåľĭ":1911,"çİ¯":1912,"å±Ĩ":1913,"å®³":1914,"ãĢĢ":1915,"èĳĹåĲį":1916,"um":1917,"åŃ¦å®¶":1918,"è¯º":1919,"å¢ŀåĬł":1920,"ç©į":1921,"æº«":1922,"Ġd":1923,"ag":1924,"æİ§åĪ¶":1925,"æĺĮ":1926,"è¾¹":1927,"è«¾":1928,"åħ¼":1929,"ï¼ļãĢĮ":1930,"åļ":1931,"èī¾":1932,"åį°åº¦":1933,"è°·":1934,"éĢłæĪĲ":1935,"os":1936,"è¨Ńè¨Ī":1937,"æľīä¸Ģ":1938,"ç¦®":1939,"èĲ¥":1940,"åĩł":1941,"èĩªçĦ¶":1942,"Ġ||":1943,"è¼ī":1944,"é£¾":1945,"ow":1946,"è¶³çĲĥ":1947,"çīĽ":1948,"åĥ¹":1949,"åŃ¸éĻ¢":1950,"190":1951,"ç§¦":1952,"ç°¡":1953,"ç»Ń":1954,"æĸĩçĮ®":1955,"ä½Ļ":1956,"æ²¿":1957,"éŁĵ":1958,"çĪµ":1959,"èĥĮ":1960,"è¨Ĭ":1961,"é»İ":1962,"è©¦":1963,"æ»¿":1964,"äº²":1965,"éŃĶ":1966,"çĪ±":1967,"è£ħ":1968,"ter":1969,"é£ŀ":1970,"å£°":1971,"è¼¯":1972,"ç»Ħç»ĩ":1973,"èīº":1974,"è¨±å¤ļ":1975,"æºª":1976,"å¹¾":1977,"ç»Ī":1978,"ç¯ĩ":1979,"è¿Ļä¸ª":1980,"ç¢º":1981,"ç¯ī":1982,"éĵģè·¯":1983,"ãĢĭãĢĤ":1984,"æ´¥":1985,"ç¦ģ":1986,"è®Ģ":1987,"äºĪ":1988,"äºĮåįģ":1989,"æŀģ":1990,"è¿½":1991,"æĸ¹æ³ķ":1992,"éĥ½æĺ¯":1993,"éĢĻäºĽ":1994,"å¾Įä¾Ĩ":1995,"èı²":1996,"æİ¡":1997,"çĦ¶èĢĮ":1998,"åĥħ":1999,"çĽĬ":2000,"çĶŁçī©":2001,"ç½ª":2002,"èį·":2003,"åŃ¸å®¶":2004,"æŁĲ":2005,"èİ·å¾Ĺ":2006,"å¤ĩ":2007,"è¾ĸ":2008,"éĻµ":2009,"ä¹¡":2010,"ãĢįï¼Ī":2011,"2009":2012,"æ¸¬":2013,"èģŀ":2014,"å§Ķåĳĺä¼ļ":2015,"od":2016,"è²ł":2017,"å»·":2018,"æ³ķåĽ½":2019,"èĴĤ":2020,"åŃ¦æł¡":2021,"å±ĭ":2022,"åĲĮå¹´":2023,"å¦Ĥæŀľ":2024,"èŃ¯":2025,"ä¸įæĺ¯":2026,"åªĴ":2027,"èľ":2028,"æ¬¾":2029,"ir":2030,"èĸ©":2031,"åĬłåħ¥":2032,"éĩĩ":2033,"åĦª":2034,"ä¸Ńåħ±":2035,"æ¦Ĥ":2036,"im":2037,"ä»»ä½ķ":2038,"èĪŀ":2039,"æ©ĭ":2040,"åį»":2041,"åıªæľī":2042,"éĢ£çµĲ":2043,"åĲĮæĹ¶":2044,"op":2045,"çµĦç¹Ķ":2046,"80":2047,"éĽ²":2048,"2012":2049,"éĢĻåĢĭ":2050,"Ġp":2051,"ç»§":2052,"äºĨä¸Ģ":2053,"è·Ŀ":2054,"ç§°ä¸º":2055,"ä¼Ĺ":2056,"è¾²":2057,"éĢı":2058,"ä»Ģ":2059,"åĦ¿":2060,"2002":2061,"çĻ¼çı¾":2062,"å¯¶":2063,"çĻ¼çĶŁ":2064,"åŁ·":2065,"æĢģ":2066,"åĵ²":2067,"æĮī":2068,"å¤ľ":2069,"è«ĭ":2070,"åķıé¡Į":2071,"æĪ¶":2072,"å»ºçŃĳ":2073,"ia":2074,"åŃ«":2075,"æĪĺäºī":2076,"ç¸½çµ±":2077,"ï¼ĮãĢĬ":2078,"å½ķ":2079,"ul":2080,"æ¦®":2081,"te":2082,"éĽ£":2083,"åı¦å¤ĸ":2084,"èŃĺ":2085,"å®ĩ":2086,"éĥİ":2087,"ç«¥":2088,"æĬĢæľ¯":2089,"åĲĪä½ľ":2090,"éłĲ":2091,"éºĹ":2092,"ct":2093,"2011":2094,"è¿ĻäºĽ":2095,"æľīéĻĲ":2096,"æĭľ":2097,"éĹľä¿Ĥ":2098,"ĠO":2099,"ers":2100,"éĿŀå¸¸":2101,"æĺ¯åľ¨":2102,"åĪĬ":2103,"æ¡¥":2104,"èķ":2105,"å³°":2106,"äººæ°ĳåħ±åĴĮåĽ½":2107,"éĩĭ":2108,"æı´":2109,"éĻ¤äºĨ":2110,"èİ±":2111,"æľįåĭĻ":2112,"æľĢä½³":2113,"ay":2114,"éĻĪ":2115,"åŁºæľ¬":2116,"åĲ¦":2117,"æĸ¯çī¹":2118,"æ³ķåľĭ":2119,"çĶ»":2120,"æ³ģ":2121,"ä¸»æķĻ":2122,"æĴ¤":2123,"Ġb":2124,"åĪĺ":2125,"å¾·åĽ½":2126,"åĲ¸":2127,"å·¨":2128,"åĿĢ":2129,"åĽº":2130,"æĿ¿":2131,"æİ¢":2132,"ä¸ĢçĽ´":2133,"ç§ģ":2134,"éłĵ":2135,"è²¬":2136,"çį»":2137,"èī¦":2138,"éģĬæĪ²":2139,"ä¹Łæľī":2140,"å±Ĭ":2141,"ç¡®":2142,"å½±åĵį":2143,"çķ°":2144,"Ġf":2145,"éĵ¾":2146,"2001":2147,"çĶļèĩ³":2148,"éĭ":2149,"æļ´":2150,"åħ¬è·¯":2151,"èĳī":2152,"è¯Ħ":2153,"ä½ł":2154,"æĪ°çĪŃ":2155,"2013":2156,"è´Ŀ":2157,"æ¼«":2158,"å»ºç¯ī":2159,"å¤§éĩı":2160,"æİ¥åıĹ":2161,"åĶ¯":2162,"Ġc":2163,"æĸ·":2164,"å±Ĥ":2165,"åŁºçĿ£":2166,"æıı":2167,"å§ĵ":2168,"å®ĹæķĻ":2169,"æķĳ":2170,"ç«¹":2171,"æĶ¿çŃĸ":2172,"çļĩå¸Ŀ":2173,"éĿĪ":2174,"ç¯Ħ":2175,"æ¿Ģ":2176,"éĽª":2177,"æ¼Ķåĵ¡":2178,"æ´»åĭķ":2179,"ĠJ":2180,"åĪ»":2181,"æĪı":2182,"èĪĬ":2183,"å¿ł":2184,"100":2185,"åĽłä¸º":2186,"Ġs":2187,"éŃı":2188,"è´¹":2189,"2014":2190,"å½¢å¼ı":2191,"å½ĵæĹ¶":2192,"ĠK":2193,"éªĮ":2194,"ä¹ĭåĲİ":2195,"åļ´":2196,"å®ĺæĸ¹":2197,"çĽ£":2198,"çĽ´æİ¥":2199,"æľŁéĸĵ":2200,"äºĳ":2201,"ä¹İ":2202,"çļĨ":2203,"Ġï¼Ī":2204,"è²Ŀ":2205,"ä¸įèĥ½":2206,"åĪ°äºĨ":2207,"åĽ´":2208,"èĩªå·±çļĦ":2209,"ä»ħ":2210,"éĹ®é¢ĺ":2211,"åĲ³":2212,"æķ¦":2213,"ä½Ī":2214,"åıĤèĢĥæĸĩçĮ®":2215,"æĢ§çļĦ":2216,"æĵį":2217,"ç¿»":2218,"70":2219,"è»Ĭç«Ļ":2220,"æĿľ":2221,"æŃ¤å¤ĸ":2222,"ä¸Ńåįİäººæ°ĳåħ±åĴĮåĽ½":2223,"å®Įåħ¨":2224,"åĳ¼":2225,"çµķ":2226,"ap":2227,"=\"":2228,"æ³ī":2229,"ç§ĭ":2230,"ä¹ĭéĸĵ":2231,"âĢ¦":2232,"ä¸Ńæĸĩ":2233,"em":2234,"æ½®":2235,"2016":2236,"ç¯ĢçĽ®":2237,"å¹ķ":2238,"æ¥¼":2239,"å¤ĸéĥ¨éĢ£çµĲ":2240,"ç¿°":2241,"èĢ³":2242,"ç§ĺ":2243,"åıĮ":2244,"åħħ":2245,"è¯ķ":2246,"éĢĶ":2247,"ä½Ķ":2248,"åŃ¸çĶŁ":2249,"è·Ł":2250,"çĽ¸éĹľ":2251,"ï½":2252,"ot":2253,"|-":2254,"éłĪ":2255,"31":2256,"èĥŀ":2257,"æł¹æĵļ":2258,"æ®ĸ":2259,"æĵģ":2260,"æ´ª":2261,"ç¼º":2262,"éĽĸçĦ¶":2263,"è¿ľ":2264,"æĪĲåĵ¡":2265,"çī©çĲĨ":2266,"çĶµå½±":2267,"ç¢¼":2268,"åįģäºĮ":2269,"é©Ĺ":2270,"2015":2271,"og":2272,"æĻĤä»£":2273,"å£ĵ":2274,"æĸĹ":2275,"é¡¿":2276,"èģļ":2277,"Ġin":2278,"ut":2279,"æĹ¶éĹ´":2280,"æ··":2281,"189":2282,"åģ¥":2283,"å®£å¸ĥ":2284,"çĬ¶":2285,"åı¦ä¸Ģ":2286,"æĿĢ":2287,"è¿«":2288,"æµĭ":2289,"ç´°":2290,"å§Ķåĵ¡æľĥ":2291,"1999":2292,"åķŁ":2293,"æĵĶä»»":2294,"åıĸå¾Ĺ":2295,"ä¾µ":2296,"å¹³æĸ¹":2297,"èŀį":2298,"2020":2299,"éģĹ":2300,"è©©":2301,"ç§ĳåŃ¦":2302,"è¤":2303,"å°¤":2304,"ä»·":2305,"ä½ľçĶ¨":2306,"éĽ¨":2307,"æĥł":2308,"SB":2309,"çĥŃ":2310,"å¾Ĳ":2311,"å¾·åľĭ":2312,"æķħäºĭ":2313,"æł¹æį®":2314,"åº«":2315,"ä¹Į":2316,"æĺ¾":2317,"ãĢī":2318,"åºĨ":2319,"è§Ĵèī²":2320,"æ°§":2321,"1998":2322,"ãĢĪ":2323,"ç¿Ĵ":2324,"æ³ķå¾ĭ":2325,"é¨":2326,"æ¥Ĭ":2327,"é¤ĺ":2328,"ä¹ĭåīį":2329,"åı¬":2330,"çĬ¯":2331,"é¦ĸæ¬¡":2332,"æŃĲæ´²":2333,"åĤ·":2334,"åĪ©çĶ¨":2335,"æĽ¹":2336,"éģĩ":2337,"ãĢĤãĢį":2338,"æ»¡":2339,"é®":2340,"å²ģ":2341,"ä¼ĳ":2342,"åĿ¡":2343,"ä¸»æĮģ":2344,"æĪ·":2345,"æĺł":2346,"å®ļçļĦ":2347,"è½½":2348,"çĤºäºĨ":2349,"åĪ¶åº¦":2350,"æŁı":2351,"æŁĵ":2352,"çīĪæľ¬":2353,"åĪº":2354,"è¯Ńè¨Ģ":2355,"ä¹ĭéĹ´":2356,"æĭį":2357,"2017":2358,"ç»Ĩ":2359,"ä¾¯":2360,"å¸Ŀåľĭ":2361,"é¬¥":2362,"ï½ŀ":2363,"2019":2364,"ç©Ĩ":2365,"oc":2366,"å¾Īå¤ļ":2367,"ä¸ĭçļĦ":2368,"ç¬¬åĽĽ":2369,"æŀĲ":2370,"éĩįæĸ°":2371,"çľ¼":2372,"æ³Ľ":2373,"å¤§å¤ļ":2374,"åĪĳ":2375,"å¦»":2376,"åºĵ":2377,"å·²ç¶ĵ":2378,"åĩºçİ°":2379,"2018":2380,"çī¹åĪ¥":2381,"äºķ":2382,"åħ¨çĲĥ":2383,"åĲįçĤº":2384,"1990":2385,"åĨłè»į":2386,"å¤§éĻ¸":2387,"ç«ĭæ³ķ":2388,"ist":2389,"å«":2390,"è¿Ķ":2391,"éº¥":2392,"æĸ°çļĦ":2393,"éĵ¶":2394,"éį":2395,"æŃĮæīĭ":2396,"å¾ħ":2397,"1997":2398,"è²¡":2399,"ĠV":2400,"å¥ī":2401,"è¯Ĩ":2402,"ç®Ģ":2403,"éĳ":2404,"éĢĥ":2405,"æĬµ":2406,"æķĻæİĪ":2407,"ign":2408,"éľ²":2409,"å¹´èĩ³":2410,"æıĽ":2411,"78":2412,"éĵ¾æİ¥":2413,"åı°åĮĹ":2414,"å¥ı":2415,"å·²ç»ı":2416,"èĹ¥":2417,"å¹³åĿĩ":2418,"è¼ķ":2419,"åĪĨåĪ¥":2420,"èĲĬ":2421,"åıĳçĶŁ":2422,"è¥¿çıŃ":2423,"å½Ĵ":2424,"è®¸å¤ļ":2425,"è´£":2426,"æŃ¸":2427,"åĳ³":2428,"35":2429,"å®ľ":2430,"æ®¿":2431,"éľį":2432,"è¥¿çıŃçīĻ":2433,"è±Ĳ":2434,"èĢĮä¸Ķ":2435,"åīįå¾Ģ":2436,"æĹ©æľŁ":2437,"å¥³æĢ§":2438,"èĻİ":2439,"èĳ£":2440,"è¯»":2441,"èĩªæ²»":2442,"éŁ©":2443,"å°įæĸ¼":2444,"è®¾è®¡":2445,"åĬŁèĥ½":2446,"éģ¿":2447,"åįĹäº¬":2448,"å¸ķ":2449,"æ±½":2450,"èĥ½åĬĽ":2451,"Ġm":2452,"éĲµè·¯":2453,"çĲ´":2454,"èªŀè¨Ģ":2455,"åħ³ç³»":2456,"æħ¶":2457,"åĩ½":2458,"åıĳçİ°":2459,"..":2460,")ï¼Į":2461,"è£½ä½ľ":2462,"èģ¯åĲĪ":2463,"è¡ĮçļĦ":2464,"ä½¿å¾Ĺ":2465,"åĨµ":2466,"éŃļ":2467,"éĢļéģİ":2468,"ç¶«":2469,"èĤī":2470,"çĤ¸":2471,"éļİ":2472,"ä½ľå®¶":2473,"å·¥ä¸ļ":2474,"åŁ¹":2475,"ä¼ļè®®":2476,"90":2477,"çĶ¢çĶŁ":2478,"âĶ":2479,"èĿ":2480,"ç©¿":2481,"åĦĦ":2482,"èģĶåĲĪ":2483,"åĨ·":2484,"çļĦåľ°":2485,"åħĦ":2486,"è¿Ļä¸Ģ":2487,"æ¨¹":2488,"æĶ¹éĿ©":2489,"æī¾":2490,"åĬ¿":2491,"å®īåħ¨":2492,"åĨ°":2493,"æ¸¡":2494,"å®«":2495,"å·¡":2496,"éģ¸èĪī":2497,"æĸŃ":2498,"æ±ºå®ļ":2499,"ess":2500,"èĮ¶":2501,"èĥ½å¤":2502,"åį±":2503,"çıł":2504,"å°º":2505,"æįķ":2506,"ä»ĸåľ¨":2507,"ä¸įéģİ":2508,"éĿł":2509,"ä¿Ĺ":2510,"æľĥèŃ°":2511,"SBN":2512,"æĽ¿":2513,"ä¸´":2514,"è³¼":2515,"å²©":2516,"è¿İ":2517,"çİĭæľĿ":2518,"èĩ¨":2519,"èĥľ":2520,"å¸ĿåĽ½":2521,"å°Ĭ":2522,"éª¨":2523,"è£ģ":2524,"å¤ĸéĥ¨éĵ¾æİ¥":2525,"ĠU":2526,"av":2527,"çį¨ç«ĭ":2528,"æ¥ļ":2529,"éģº":2530,"çĶ³":2531,"å¶":2532,"ä¸½":2533,"ä½įç½®":2534,"èĴĻåı¤":2535,"åĮĹéĥ¨":2536,"çĽ´åĪ°":2537,"è¼¸":2538,"åĩºçļĦ":2539,"éĻĦè¿ĳ":2540,"æĭħ":2541,"éĩĬ":2542,"ä¸įåĲĮçļĦ":2543,"æĹĭ":2544,"çĸĳ":2545,"éĽľ":2546,"è¡£":2547,"å»ł":2548,"ri":2549,"æĢĿæĥ³":2550,"è¼ª":2551,"éĦŃ":2552,"åĮħåĲ«":2553,"æĵģæľī":2554,"åħ¬åħ±":2555,"ä¿ĿæĬ¤":2556,"æŃ»äº¡":2557,"ab":2558,"åŃĶ":2559,"ãĢįãĢģ":2560,"è´Ł":2561,"èħ¦":2562,"ï¼Īï¼īï¼Į":2563,"çĶµè§Ĩ":2564,"æ¼¸":2565,"å»ī":2566,"æĢ»ç»Ł":2567,"æĪ´":2568,"æ²ĥ":2569,"ç¹ģ":2570,"å´ĩ":2571,"çļĦæĥħ":2572,"éŁ³ä¹Ĳ":2573,"é¢Ĩå¯¼":2574,"æľīéĻĲåħ¬åı¸":2575,"ce":2576,"æĪĲçļĦ":2577,"çĹĩ":2578,"ä¸¦ä¸Ķ":2579,"æ¸Ľ":2580,"æĪĸèĢħ":2581,"éļ¾":2582,"å®Ŀ":2583,"éı":2584,"ç¬¬ä¸Ģæ¬¡":2585,"é²ľ":2586,"éĢ²åħ¥":2587,"è¯Ĺ":2588,"æ§į":2589,"åħ±åĲĮ":2590,"1996":2591,"çĥı":2592,"çĳª":2593,"hans":2594,"æ¤įçī©":2595,"ä¸¤ä¸ª":2596,"æ´»åĬ¨":2597,"ï¼Ł":2598,"åįĪ":2599,"è¹":2600,"èĩºåĮĹ":2601,"åĭķçķ«":2602,"åħ©åĢĭ":2603,"å¢ĵ":2604,"æį·":2605,"æ±ł":2606,"åħ±äº§":2607,"æĢ¥":2608,"åľ°çļĦ":2609,"åıĥèĪĩ":2610,"ï¼ģ":2611,"æ³½":2612,"åĶ¯ä¸Ģ":2613,"åįĹéĥ¨":2614,"åħĥç´ł":2615,"2021":2616,"åİĭ":2617,"åĤĳ":2618,"ä¸¥":2619,"åı¥":2620,"æĿ±äº¬":2621,"äº¿":2622,"ä»Ļ":2623,"åı«":2624,"èĹĿè¡ĵ":2625,"ç·´":2626,";}-":2627,"åĪĹè¡¨":2628,"å½©":2629,"è®©":2630,"æľŁéĹ´":2631,"éľĩ":2632,"æĸ°èģŀ":2633,"åı¶":2634,"æĺŃ":2635,"æĺ¯çĶ±":2636,"åĦĢ":2637,"éĽ¶":2638,"èĤ¯":2639,"å¥ª":2640,"éĥŃ":2641,"åĲ´":2642,"æĸ¯åĿ¦":2643,"æĻī":2644,"æİĮ":2645,"æ¬§æ´²":2646,"ç»Ŀ":2647,"ç§ĳæĬĢ":2648,"ä¸Ģèµ·":2649,"ä¹¾":2650,"å¤ĸäº¤":2651,"45":2652,"éģ·":2653,"åįļçī©":2654,"ä½Ĳ":2655,"å±ħæ°ĳ":2656,"ç¬¬åįģ":2657,"åºĦ":2658,"éº»":2659,"éļĶ":2660,"ä¹ł":2661,"æ¾³éĸĢ":2662,"æ¶ī":2663,"ä¸Ģæ¬¡":2664,"æŃĮæĽ²":2665,"æ´ŀ":2666,"æŃ¡":2667,"èĬ¬":2668,"ç§Ł":2669,"éĺ»":2670,"è´¥":2671,"æį¢":2672,"å¥Ĺ":2673,"åĨ¬":2674,"åİŁåĽł":2675,"åĤ³çµ±":2676,"åŃĻ":2677,"éł»":2678,"éĿ¢ç§¯":2679,"ä¼Ĳ":2680,"å¾µ":2681,"33":2682,"èıľ":2683,"æ¹¾":2684,"1994":2685,"èĪį":2686,"ä»ĺ":2687,"éĪ":2688,"åŃĲçļĦ":2689,"æ¶²":2690,"è²¨":2691,"éĢ±":2692,"çĦ¡æ³ķ":2693,"1980":2694,"ae":2695,"è¾Ľ":2696,"å¨ľ":2697,"å®¶åºŃ":2698,"ĠSt":2699,"æĭĽ":2700,"èģ¯çĽŁ":2701,"ï¼Īï¼Į":2702,"éº¦":2703,"çİ©":2704,"1995":2705,"ä»¥ä¸ĭ":2706,"align":2707,"äº®":2708,"åĩºçīĪç¤¾":2709,"èµ¤":2710,"The":2711,"é±":2712,"çĽĥ":2713,"ä¸Ģä¸ĸ":2714,"64":2715,"çĢ":2716,"å¢¨":2717,"è«¸":2718,"èĭ±æĸĩ":2719,"æĭ¥":2720,"éłĨ":2721,"è²´":2722,"èĹ¤":2723,"è®¡åĪĴ":2724,"æĬĢè¡ĵ":2725,"çĶŁäº§":2726,"2022":2727,"è¿Ļç§į":2728,"è®¡ç®Ĺ":2729,"âĨ":2730,"ä»¥ä¸Ĭ":2731,"çĲĥåĵ¡":2732,"æ¼ĶåĶ±":2733,"éĬ·":2734,"å¦¹":2735,"è¨ĪåĬĥ":2736,"åŃ©":2737,"çĶĺ":2738,"åľ°çĲĥ":2739,"åĲİæĿ¥":2740,"%ï¼Į":2741,"åĽ½çİĭ":2742,"åħ¬åħĥ":2743,"ç½Ĺæĸ¯":2744,"äºĤ":2745,"åħ¬åľĴ":2746,"æĶĿ":2747,"çłģ":2748,"æĸĩåŃ¸":2749,"æĦıå¤§åĪ©":2750,"ä»įçĦ¶":2751,"äºĮä¸ĸ":2752,"ä¹ĥ":2753,"éĺ¿æĭī":2754,"è§£æĶ¾":2755,"é©»":2756,"é¤Ĭ":2757,"å¸ĮæľĽ":2758,"æī§":2759,"æĿ¨":2760,"ç¾½":2761,"ç¿¼":2762,"åĬª":2763,"å»³":2764,"é®®":2765,"éĹ»":2766,"ç¥Ń":2767,"æİ¨åĩº":2768,"çĭ¬ç«ĭ":2769,"éĥ¨ä»½":2770,"éĺ¶":2771,"è£Ķ":2772,"å¤§éĥ¨åĪĨ":2773,"1993":2774,"å·´å£«":2775,"æľĢæĹ©":2776,"å¥´":2777,"èį¯":2778,"ãĢİ":2779,"ãĢı":2780,"ç§ĳåŃ¸":2781,"åĨįæ¬¡":2782,"ç¾İåħĥ":2783,"äº«":2784,"æľĢçµĤ":2785,"çĽ¸åĲĮ":2786,"æģ¢":2787,"ï¼ļãĢĬ":2788,"åľ°çĲĨ":2789,"è´µ":2790,"ĠIn":2791,"ä¸ŃåŃ¦":2792,"å°ıèªª":2793,"çļĦåĲį":2794,"ï¼ı":2795,"çĤ®":2796,"çı¾ä»£":2797,"ç¾ħé¦¬":2798,"æļĹ":2799,"ä½ĽæķĻ":2800,"èŁ":2801,"ub":2802,"ie":2803,"Ġzh":2804,"é§Ĳ":2805,"æĻĭ":2806,"èĮ¨":2807,"å®¶æĹı":2808,"éļª":2809,"åĳ½åĲį":2810,"ä¸īå¹´":2811,"75":2812,"ä½µ":2813,"éĻ¶":2814,"Ġ3":2815,"å°İèĩ´":2816,"Ġ9":2817,"%ãĢĤ":2818,"æĮ¯":2819,"ä¼¸":2820,"éģ©":2821,"çļĦä¸»":2822,"æ±Ĺ":2823,"âĶĢ":2824,"èĪīè¡Į":2825,"åĢĴ":2826,"é«ĺéĢŁ":2827,"è¯ĳ":2828,"ine":2829,"æĹ§":2830,"åĢĭäºº":2831,"åľĪ":2832,"æľīçļĦ":2833,"65":2834,"æĪª":2835,"è¿·":2836,"æģĲ":2837,"äººå£«":2838,"é¼ĵ":2839,"æ©Łåł´":2840,"äºŀæ´²":2841,"å¤ªå¹³":2842,"çĶ¨äºİ":2843,"ĠThe":2844,"è£Ĥ":2845,"ä¸ŃåŃ¸":2846,"å¯§":2847,"ç½Ĺé©¬":2848,"å¹¼":2849,"å»ºè®¾":2850,"ity":2851,"æ¾¤":2852,"è¨İ":2853,"éĩįè¦ģçļĦ":2854,"è¿ģ":2855,"å°Īè¼¯":2856,"ä¸įå°ĳ":2857,"ä¸Ģå¹´":2858,"ç»ĵæŀĦ":2859,"æľĢå¤§çļĦ":2860,"å¤§éĻĨ":2861,"ãĢįãĢģãĢĮ":2862,"æ£Ĵ":2863,"ç£ģ":2864,"èªĮ":2865,"è¾ĳ":2866,"åĨĽäºĭ":2867,"è£ľ":2868,"èĳ¡":2869,"æ»ħ":2870,"çĲĨè®º":2871,"çĽĳ":2872,"æ¯Ķè³½":2873,"1992":2874,"è»Ł":2875,"åĬłæĭ¿":2876,"è¡¡":2877,"åŃĿ":2878,"äº§çĶŁ":2879,"é»ĺ":2880,"èĹį":2881,"æĭĶ":2882,"ov":2883,"å¤ļçļĦ":2884,"å¹´åĩºçĶŁ":2885,"åĨ³å®ļ":2886,"é½Ĳ":2887,"çĩķ":2888,"è¿Ľåħ¥":2889,"éĻ£":2890,"éģį":2891,"ä¼ĺ":2892,"èİī":2893,"åľĵ":2894,"åŃ¦çĶŁ":2895,"çµĲæĿŁ":2896,"æĨ²":2897,"èª²":2898,"å®¿":2899,"åľ¨æŃ¤":2900,"æĵ´":2901,"æľĢå¤§":2902,"å¥Ī":2903,"éĢĻç¨®":2904,"æľīéĹľ":2905,"ç¾ħæĸ¯":2906,"èĽĭ":2907,"èĭıèģĶ":2908,"åħĭæĸ¯":2909,"188":2910,"èīºæľ¯":2911,"38":2912,"æĭĴ":2913,"ä¸Ńå±±":2914,"å°¼äºļ":2915,"åģı":2916,"ell":2917,"èĢħçļĦ":2918,"ï¼ĮâĢľ":2919,"åĭŀ":2920,"éĢŁåº¦":2921,"48":2922,"Ġw":2923,"å¹´åº¦":2924,"æĿ°":2925,"ä½©":2926,"æµ¦":2927,"ä¾Ĩèĩª":2928,"å¹´éĢĿä¸ĸ":2929,"ht":2930,"æ¸¸æĪı":2931,"æııè¿°":2932,"æ®Ĭ":2933,"åĪĨæŀĲ":2934,"æĿĤ":2935,"è¾ĵ":2936,"å±¬æĸ¼":2937,"éĽ»åŃĲ":2938,"è³ĵ":2939,"äººé¡ŀ":2940,"è¯·":2941,"é¢ĳ":2942,"å¼Ĥ":2943,"åĿĲ":2944,"åĴĮå¹³":2945,"ç¬¬äºĮæ¬¡":2946,"èĩ³ä»Ĭ":2947,"åŁĶ":2948,"è¦º":2949,"ä¿¡æģ¯":2950,"æĮĩåĩº":2951,"åıĤè§ģ":2952,"tw":2953,"çİ°ä»£":2954,"æľºæŀĦ":2955,"çĶ¨çļĦ":2956,"hk":2957,"ard":2958,"æ¡ĥ":2959,"èİİ":2960,"æĤ£":2961,"è¨ª":2962,"é¢Ħ":2963,"çĻ¼è¡Į":2964,"åıĤåĬł":2965,"æ³ķéĻ¢":2966,"ä¸»ä»»":2967,"æ¦Ĥå¿µ":2968,"çļĦä¸»è¦ģ":2969,"è«ĩ":2970,"åı¸ä»¤":2971,"ç¤¼":2972,"çļĦæĸ°":2973,"åħ±æľī":2974,"1991":2975,"æ¼Ķåĩº":2976,"çµĲæŀľ":2977,"éĻ·":2978,"Ġ1":2979,"æī©":2980,"åħ¨éĥ¨":2981,"ä¸ĺ":2982,"éļľ":2983,"èĶ¡":2984,"äº¨":2985,"æķµ":2986,"å¹»":2987,"âĢĿï¼Ī":2988,"æķı":2989,"éłĤ":2990,"èĻ½":2991,"çģµ":2992,"ç´Ĳ":2993,"å¾½":2994,"åĪĨåŃĲ":2995,"æľįåĬ¡":2996,"è¬Ľ":2997,"éĶĢ":2998,"ç¡¬":2999,"ä¿ĥ":3000,"å¤©ä¸»æķĻ":3001,"åĬ³":3002,"ä»°":3003,"çŃīäºº":3004,"åįķä½į":3005,"éłĴ":3006,"è²łè²¬":3007,"Ġ=":3008,"if":3009,"åģ¶":3010,"ä»Ķ":3011,"åĳĪ":3012,"èĭ±æł¼":3013,"éĲĺ":3014,"èĪ°":3015,"å°½":3016,"ob":3017,"æĴĴ":3018,"âĨĴ":3019,"è±ª":3020,"æĸ¹åĲĳ":3021,"Ġ2":3022,"å¾¡":3023,"è·¨":3024,"å¼ķèµ·":3025,"Âł":3026,"å¯¹äºİ":3027,"æ®ĸæ°ĳ":3028,"åĢŁ":3029,"ä¾ĨçļĦ":3030,"åľŁåľ°":3031,"å¯©":3032,"è»įäºĭ":3033,"è¶ħéģİ":3034,"åĽ°":3035,"è½¯":3036,"åħ¨åľĭ":3037,"å¼±":3038,"ç´Ģå¿µ":3039,"åĬłä¸Ĭ":3040,"æ¸ħæľĿ":3041,"åĪ©äºļ":3042,"èĶ£":3043,"åħ±äº§åħļ":3044,"æŁ¯":3045,"è¨Ĥ":3046,"ä¸°":3047,"æł¡åıĭ":3048,"çī§":3049,"æħĪ":3050,"å¼Ģåıĳ":3051,"æĸĩçį»":3052,"æķ°æį®":3053,"ill":3054,"ç³ĸ":3055,"åģ´":3056,"è¶ĬåįĹ":3057,"èĳ¬":3058,"99":3059,"é´":3060,"æĪĪ":3061,"èį£":3062,"çĻĤ":3063,"è¡Ŀ":3064,"å»¢":3065,"ï¼īï¼Ī":3066,"è»Į":3067,"ĠĠĠĠ":3068,"ç¬¬äºĶ":3069,"ç°½":3070,"55":3071,"åĸ®ä½į":3072,"åĭĩ":3073,"åĬłæĭ¿å¤§":3074,"æľĢç»Ī":3075,"çĶŁçĶ¢":3076,"36":3077,"æ¦ľ":3078,"37":3079,"çķ¢":3080,"1989":3081,"æµģè¡Į":3082,"æĸĩåŃĹ":3083,"æ°ĳåĽ½":3084,"ra":3085,"åľĭç«ĭ":3086,"çļĦä¸Ģä¸ª":3087,"47":3088,"ç²Ĵ":3089,"è¡Ĺéģĵ":3090,"æµª":3091,"å¿ħéłĪ":3092,"è´¢":3093,"åľ°ä½į":3094,"åİĤ":3095,"é¡§":3096,"è¯¸":3097,"ç´ĢéĮĦ":3098,"åĽ½æ°ĳ":3099,"è¨ĵ":3100,"éĽĨåľĺ":3101,"åħ»":3102,"ou":3103,"è¶Ļ":3104,"æĹģ":3105,"çĲĨè«ĸ":3106,"çĸ¾":3107,"çı¾åľ¨":3108,"æ¯«":3109,"ind":3110,"éŀ":3111,"è¥¿æĸ¹":3112,"å¹£":3113,"åİ»ä¸ĸ":3114,"æª¢":3115,"èµµ":3116,"é½Ĭ":3117,"ç¥¥":3118,"ç²¾ç¥ŀ":3119,"åħģ":3120,"éĸĭçĻ¼":3121,"èĻķçĲĨ":3122,"éŁĵåľĭ":3123,"åĪĨå¸ĥ":3124,"å¹´åľ¨":3125,"å½¼":3126,"åĭķçī©":3127,"èŃ°åĵ¡":3128,"ä¼°":3129,"å¯¼èĩ´":3130,"ian":3131,"æľĿé²ľ":3132,"æľĢåĲİ":3133,"ç«¶":3134,"çİĽ":3135,"æ©Łæ§ĭ":3136,"32":3137,"åįļå£«":3138,"æĿ¯":3139,"è½Ħ":3140,"å¤¢":3141,"å·¥æ¥Ń":3142,"ãĢĤï¼Ī":3143,"ç»ľ":3144,"é¡º":3145,"åĪ©äºŀ":3146,"æľīäºĽ":3147,"æĸĩåŃ¦":3148,"è¨»":3149,"å±ŀäºİ":3150,"æ²Ī":3151,"åĢį":3152,"çĨĻ":3153,"âĢĿãĢģ":3154,"æ¢°":3155,"åĩ±":3156,"æİĴåĲį":3157,"å»Ł":3158,"æĥ¡":3159,"åħ³äºİ":3160,"1988":3161,"å·ŀå¸Ĥ":3162,"ge":3163,"æĮ¥":3164,"çĩĥ":3165,"åįģåĪĨ":3166,"åłħ":3167,"1949":3168,"åĲĽä¸»":3169,"åŁºçĿ£æķĻ":3170,"çĳŁ":3171,"éĻ°":3172,"æ°§åĮĸ":3173,"å°ĩè»į":3174,"II":3175,"è¸":3176,"è¡ĮçĤº":3177,"åĨ²":3178,"å±ħä½ı":3179,"æµĻ":3180,"èĳĹä½ľ":3181,"ak":3182,"è¿ĩç¨ĭ":3183,"ç´«":3184,"åıĸä»£":3185,"æĭ¥æľī":3186,"ä¼į":3187,"å·¦åı³":3188,"çĽ¸çķ¶":3189,"ud":3190,"åĩ¡":3191,"æ¯ıå¹´":3192,"enter":3193,"éĽĨåĽ¢":3194,"Ġl":3195,"çļĦçī¹":3196,"æĻ®éĢļ":3197,"èıĮ":3198,"åľĺé«Ķ":3199,"åĬ¨çī©":3200,"çĻ¼è¡¨":3201,"çĲĥéļĬ":3202,"est":3203,"34":3204,"ĠCh":3205,"all":3206,"ä¸įåı¯":3207,"åĮ¹":3208,"åıĥåĬł":3209,"æĹ¶ä»£":3210,"é±¼":3211,"æłĳ":3212,"æ¨Ļæºĸ":3213,"ä¹ĭå¤ĸ":3214,"æħķ":3215,"ç»ĦæĪĲ":3216,"åį¢":3217,"è¤ĩ":3218,"æ¨¡å¼ı":3219,"åŃĹæ¯į":3220,"éĻĲåĪ¶":3221,"æĻ¶":3222,"ä¸ºäºĨ":3223,"ç²ī":3224,"è¿ĺæľī":3225,"å¸Ĥåł´":3226,"æ¡ĳ":3227,"ãĥ¼":3228,"æ»ĳ":3229,"ç¹¼çºĮ":3230,"å¹ħ":3231,"éĢıéģİ":3232,"æķ¬":3233,"åıįå°į":3234,"ä½Ĩåľ¨":3235,"NA":3236,"è¿ħ":3237,"èģ½":3238,"éĬĢè¡Į":3239,"ä¹¦è®°":3240,"æ¼«çķ«":3241,"ï¼ĮãĢĮ":3242,"39":3243,"æłĩåĩĨ":3244,"åĮĸçļĦ":3245,"ran":3246,"å¹¸":3247,"68":3248,"èĲĦ":3249,"èģ¯è³½":3250,"é¤Ĳ":3251,"è¦Ĩ":3252,"é¡¯ç¤º":3253,"èĳ¡èĲĦ":3254,"åĹ":3255,"çŃ¾":3256,"art":3257,"çıį":3258,"è¡°":3259,"und":3260,"äººåĵ¡":3261,"å®ª":3262,"ew":3263,"åĪĨåĪ«":3264,"å¥³åŃĲ":3265,"éģĵè·¯":3266,"è¢ģ":3267,"1970":3268,"ä¾§":3269,"éĻ©":3270,"æı®":3271,"åħ§å®¹":3272,"çŃĶ":3273,"é«ĺçŃī":3274,"èĵĭ":3275,"æŁ±":3276,"èĳĽ":3277,"ec":3278,"è¬Ŀ":3279,"éī":3280,"çº½":3281,"å°¼äºŀ":3282,"ç¢ĳ":3283,"èĭ¦":3284,"åĬį":3285,"åıĽ":3286,"é¡ĺ":3287,"ä¿ĿæĮģ":3288,"çĹħæ¯Ĵ":3289,"å¼¹":3290,"çµĦæĪĲ":3291,"åĪĢ":3292,"æ¡Ĥ":3293,"Ġst":3294,"åıĬåħ¶":3295,"æĶ¹çĤº":3296,"åı¤ä»£":3297,"å®ĥçļĦ":3298,"çĤºä¸»":3299,"åį´":3300,"è¼Ľ":3301,"åķĨæ¥Ń":3302,"ä¹Ī":3303,"æĬĺ":3304,"åİŁåŃĲ":3305,"æİ¡çĶ¨":3306,"çĤİ":3307,"ä¼łç»Ł":3308,"å¤ļæ¬¡":3309,"é¨İ":3310,"éĥ½æľī":3311,"æľĢåĪĿ":3312,"æľºåľº":3313,"æ·¡":3314,"æĭīæĸ¯":3315,"åĮĪ":3316,"éĩıçļĦ":3317,"çĶµåŃĲ":3318,"ip":3319,"ä¸ĸçķĮå¤§":3320,"èĥĮæĻ¯":3321,"çµ±æ²»":3322,"æĩ·":3323,"å¤©æ´¥":3324,"å¹¶ä¸Ķ":3325,"åĲĥ":3326,"åĩı":3327,"èĮ²":3328,"åħ¬åĽŃ":3329,"éĿĴå¹´":3330,"çĽĸ":3331,"åĪĨçĤº":3332,"æµ·è»į":3333,"ä¹Ļ":3334,"æĪĳä»¬":3335,"çĽ®çļĦ":3336,"åŃŁ":3337,"ç»Łæ²»":3338,"åįģå¹´":3339,"å®ĥä»¬":3340,"åĨĽéĺŁ":3341,"å¤ªéĻ½":3342,"ä¸įä¹ħ":3343,"ç¶ł":3344,"çĽ¸åħ³":3345,"ç¨ĭåº¦":3346,"ç¨ĭåºı":3347,"eb":3348,"çĴ°å¢ĥ":3349,"æ¹ĸåįĹ":3350,"åīĽ":3351,"æ¸Ĳ":3352,"å¹´èµ·":3353,"éĤĢ":3354,"é¬¼":3355,"è³£":3356,"ç¡Ģ":3357,"ä¼´":3358,"æĭħä»»":3359,"åŁºéĩĳ":3360,"æĿĲæĸĻ":3361,"çĸ«":3362,"çĪ¶è¦ª":3363,"1985":3364,"å¨ģå»ī":3365,"ç¸¾":3366,"å·´é»İ":3367,"èŃ½":3368,"åıªæĺ¯":3369,"éĽ»èħ¦":3370,"çĸĨ":3371,"å¾ĳ":3372,"è¡Įåĭķ":3373,"åĽĽå¹´":3374,"çŃĨ":3375,"åŁºç¡Ģ":3376,"å½Ń":3377,"æĪĲåĳĺ":3378,"Ġ4":3379,"éĿ¢çļĦ":3380,"çµ²":3381,"åŀĭçļĦ":3382,"å®Ļ":3383,"æĶ»æĵĬ":3384,"å²¡":3385,"1950":3386,"åŁºåľ°":3387,"èµĦæĸĻ":3388,"é¡¶":3389,"è¼Ŀ":3390,"è¥²":3391,"èĬ³":3392,"åıĥèĢĥè³ĩæĸĻ":3393,"è®²":3394,"çİĦ":3395,"é³¥":3396,"å¤§èĩ£":3397,"å¡ĺ":3398,"å¹«":3399,"é¡į":3400,"èĢĮåľ¨":3401,"çĶ¨æĸ¼":3402,"æ²ī":3403,"æĪĢ":3404,"åĬĽçļĦ":3405,"ok":3406,"çĪ²":3407,"æĺ¯åĲ¦":3408,"çŁ¿":3409,"è¡ĮæĶ¿åĮº":3410,"èİĬ":3411,"1986":3412,"å»ºéĢł":3413,"éı¡":3414,"âĢĿãĢģâĢľ":3415,"è·ĳ":3416,"å¤©æĸĩ":3417,"åıĥè¦ĭ":3418,"åĮĸåŃ¦":3419,"åĬłåĿ¡":3420,"è¨Ńæľī":3421,"'s":3422,"å¤©çļĩ":3423,"å»£æĴŃ":3424,"ä¿±":3425,"1987":3426,"èª¤":3427,"å°ıåŃ¸":3428,"è¨´":3429,"ä¸ĢæŃ¥":3430,"æ©«":3431,"ä¼¤":3432,"åĲįä¸º":3433,"åĽ½åĬ¡":3434,"åĪĹè»Ĭ":3435,"è½¨":3436,"ç¶²ç«Ļ":3437,"åħĥå¹´":3438,"æĪĳåĢĳ":3439,"çİ°åľ¨":3440,"åİļ":3441,"ä¼Ĭæĸ¯":3442,"èĳĹåĲįçļĦ":3443,"æĭĵ":3444,"å§Ĳ":3445,"Ġn":3446,"1945":3447,"èĻ½çĦ¶":3448,"éģİç¨ĭ":3449,"åľĭçİĭ":3450,"1960":3451,"éĮ¢":3452,"éĽ»è¦ĸåı°":3453,"çĨŁ":3454,"åįĢåŁŁ":3455,"åŁĥåıĬ":3456,"èº«ä»½":3457,"é¦ĸéĥ½":3458,"é¡»":3459,"500":3460,"å®ŀéªĮ":3461,"Ġ|":3462,"æĺĨ":3463,"äºĭåĭĻ":3464,"èŃ°æľĥ":3465,"æħ§":3466,"ä¼ģä¸ļ":3467,"æĸ¼æĺ¯":3468,"èħĬ":3469,"å»¶ä¼¸":3470,"è¢ĸ":3471,"çłĶç©¶æīĢ":3472,"å¢ĥåĨħ":3473,"ä¼ı":3474,"67":3475,"æĸ°åĬłåĿ¡":3476,"ä¼ģæ¥Ń":3477,"éĽĨä¸Ń":3478,"ä¿ĿèŃ·":3479,"æ£Ģ":3480,"çĶº":3481,"åĲ¯":3482,"ä¿Ħç½Ĺæĸ¯":3483,"ev":3484,"æĿ¥èĩª":3485,"æĿ¥çļĦ":3486,"ãĢĤãĢĬ":3487,"é³³":3488,"åİŁæľ¬":3489,"åįģåħŃ":3490,"éĥ¨çļĦ":3491,"ä¸ĩäºº":3492,"åħ¶å¾Į":3493,"ç¶ĵéģİ":3494,"è¨Īçķ«":3495,"58":3496,"ä¸»è§Ĵ":3497,"æĸĩä»¶":3498,"æŃ¦åĻ¨":3499,"è½»":3500,"1982":3501,"--":3502,"ĠISBN":3503,"ĠâĢĵ":3504,"å¹¹":3505,"Ġ0":3506,"éģĤ":3507,"æĵĩ":3508,"center":3509,"éģ£":3510,"ä¹±":3511,"åıįåºĶ":3512,"å°ıè¯´":3513,"åĪĨä¸º":3514,"æĸĩçī©":3515,"è´§":3516,"èĪīè¾¦":3517,"ç¾Ĭ":3518,"éĢĤ":3519,"éĸ£":3520,"èŃ¦å¯Ł":3521,"44":3522,"äººåľ¨":3523,"çİ¯å¢ĥ":3524,"åĪĿæľŁ":3525,"åªĴé«Ķ":3526,"Ġv":3527,"åĩºäºĨ":3528,"åħĦå¼Ł":3529,"å¯¦éļĽ":3530,"åħ¶å®ĥ":3531,"è¥¿åįĹ":3532,"å£½":3533,"ç¾İæ´²":3534,"æ¹ĺ":3535,"éģŃåĪ°":3536,"çŀ":3537,"è½®":3538,"æĭĨ":3539,"çļĦé«ĺ":3540,"1983":3541,"å°ĸ":3542,"ä¸įæľĥ":3543,"æĪĸæĺ¯":3544,"åħ¹":3545,"èĩĺ":3546,"åĲįçļĦ":3547,"è®¿":3548,"å¥½çļĦ":3549,"è¥¿åĮĹ":3550,"çļĩåĲİ":3551,"è®¾ç«ĭ":3552,"ç»ĵæĿŁ":3553,"å®ļä¹ī":3554,"57":3555,"æħ¢":3556,"åĲĦåľ°":3557,"å®¡":3558,"ä¿¡ä»°":3559,"åİħ":3560,"èĦ«":3561,"åĬĽéĩı":3562,"åŁ·è¡Į":3563,"ep":3564,"è¾½":3565,"æĺ¯æĮĩ":3566,"åħ§çļĦ":3567,"å¥¹çļĦ":3568,"ç¯Ħåľį":3569,"ä»»åĳ½":3570,"æĸ¹æ¡Ī":3571,"1984":3572,"é¹¿":3573,"æ±ĩ":3574,"ä¸Ńåħ±ä¸Ńå¤®":3575,"æĽĨ":3576,"çµĲæ§ĭ":3577,"è´Łè´£":3578,"äº¤æĺĵ":3579,"ive":3580,"åĽĽå·Ŀ":3581,"ç¦ıå»º":3582,"åıįå¯¹":3583,"æ¯ķ":3584,"è¬Ģ":3585,"çĶŁå¹³":3586,"èĵ®":3587,"çĺ":3588,"å®ħ":3589,"éĩĮæĸ¯":3590,"çī¹åĪ«":3591,"éļ¨èĳĹ":3592,"çķ¶åľ°":3593,"åºŁ":3594,"çĶ·åŃĲ":3595,"æł¸å¿ĥ":3596,"è¼Ķ":3597,"ä½ľæĽ²":3598,"ç½ĳç»ľ":3599,"åħ¬ä¸»":3600,"è²¿":3601,"å¾ĮçļĦ":3602,"æģĨ":3603,"å¦ĥ":3604,"Ġ\"":3605,"çºªå¿µ":3606,"ĠUn":3607,"çĽ§":3608,"é«ĺéĽĦ":3609,"è¾Ń":3610,"ĠY":3611,"å£ģ":3612,"æĺĤ":3613,"éļ¶":3614,"59":3615,"çĬ¹":3616,"çģŃ":3617,"åįĹåĮĹ":3618,"èĺĩèģ¯":3619,"ç¬¬åħŃ":3620,"Ġa":3621,"æĭīåħĭ":3622,"åĦĴ":3623,"sp":3624,"èĬĿ":3625,"è£½éĢł":3626,"åľ°ä¸ĭ":3627,"æĢª":3628,"åŃ¸èĢħ":3629,"qu":3630,"å°¤åħ¶":3631,"åģī":3632,"éĽķ":3633,"èĭĹ":3634,"æĺ¯ä¸Ģä¸ª":3635,"éĤĦæľī":3636,"æľĿé®®":3637,"é¸Ł":3638,"éº¼":3639,"çķª":3640,"ä¸įåĨį":3641,"éĥ¨éļĬ":3642,"æĶ¶åħ¥":3643,"ä½¿çĶ¨çļĦ":3644,"äººç±»":3645,"187":3646,"çģ°":3647,"åįĵ":3648,"æĽ¾ç¶ĵ":3649,"è¥¿äºŀ":3650,"ä¿ĿçķĻ":3651,"çļĦæĦı":3652,"æľĭ":3653,"èĥ½å¤ł":3654,"our":3655,"éĥ¨éķ¿":3656,"66":3657,"ä¿Ħç¾ħæĸ¯":3658,"æī¹åĩĨ":3659,"çĽ¤":3660,"å°ĳå¹´":3661,"æĸ¹è¨Ģ":3662,"xt":3663,"éĮ¦":3664,"æĮĩæĮ¥":3665,"å°ĭ":3666,"ç§»æ°ĳ":3667,"éłģ":3668,"å®ŀéĻħ":3669,"æ¯Ģ":3670,"ä¸ľåĮĹ":3671,"äººæ°ĳåħ±åĴĮåľĭ":3672,"è³ĩè¨Ĭ":3673,"çĽ¡":3674,"çķ¶ä¸Ń":3675,"ack":3676,"ik":3677,"äºĶå¹´":3678,"éłĺå°İ":3679,"äº¤æµģ":3680,"å¸ģ":3681,"çĶŁåĳ½":3682,"è·¯ç·ļ":3683,"1979":3684,"æĻ®éģį":3685,"å®¾":3686,"å´İ":3687,"å±¯":3688,"49":3689,"ä¸¦åľ¨":3690,"è¡¨æ¼Ķ":3691,"éĦ°":3692,"å±ı":3693,"çĹĽ":3694,"èĳ£äºĭ":3695,"åľĨ":3696,"ä¸Ģä½į":3697,"æĸ¯çļĦ":3698,"è»įéļĬ":3699,"ï¼īï¼Ľ":3700,"ç©ºéĹ´":3701,"åįĹæĸ¹":3702,"èª¿æŁ¥":3703,"èĪĪå»º":3704,"éĽ»è¦ĸåĬĩ":3705,"ä¹Ķ":3706,"ç¸®":3707,"å²³":3708,"éĩĿ":3709,"åĸ¬":3710,"äººåĳĺ":3711,"åīµä½ľ":3712,"ib":3713,"æŁ³":3714,"æľīæķĪ":3715,"å¤§ä¼ļ":3716,"éĩĩçĶ¨":3717,"ç®Ń":3718,"éĩĳèŀį":3719,"æĲŃ":3720,"æ²³åįĹ":3721,"æ£Ħ":3722,"Ġ/":3723,"ä¸Ńåľĭå¤§éĻ¸":3724,"å£ĩ":3725,"é«ĶèĤ²":3726,"åĲĦç¨®":3727,"éĢĻæĺ¯":3728,"éĴŁ":3729,"æīİ":3730,"åħ¬éĸĭ":3731,"ç¬¬ä¸ĥ":3732,"æĲį":3733,"åĽłèĢĮ":3734,"ord":3735,"æ£®æŀĹ":3736,"å®ļç¾©":3737,"2023":3738,"æķĻåłĤ":3739,"éĺ¿æĭīä¼¯":3740,"æŁĲäºĽ":3741,"In":3742,"ä¹Ŀé¾į":3743,"åĲĮæĦı":3744,"åįĶæľĥ":3745,"çĨĬ":3746,"å¹³æĸ¹åħ¬éĩĮ":3747,"St":3748,"ä»ª":3749,"é£¾æ¼Ķ":3750,"å£ŀ":3751,"æ£ĭ":3752,"æīĢåľ¨":3753,"æ¶¯":3754,"ç»Ĩèĥŀ":3755,"æĢĢ":3756,"èģĶéĤ¦":3757,"é§Ľ":3758,"ff":3759,"çī¹æ®Ĭ":3760,"çļĦç¬¬ä¸Ģ":3761,"çļĦçłĶç©¶":3762,"è¡ĮæĺŁ":3763,"éĺ¿å°Ķ":3764,"ä¸ĢåĲį":3765,"ong":3766,"ä¸¦ä¸į":3767,"åĶ±çīĩ":3768,"ä¹³":3769,"å°ıæĻĤ":3770,"æµĻæ±Ł":3771,"åħ¬æ°ĳ":3772,"Ġï¼Į":3773,"åľĭæ°ĳé»¨":3774,"è¿Ļæł·":3775,"å®ĩå®Ļ":3776,"æĭ³":3777,"èªī":3778,"å¦ĤæŃ¤":3779,"çŃīçŃī":3780,"å¹¿ä¸ľ":3781,"åĭ¤":3782,"è¥¿äºļ":3783,"éĵ¶è¡Į":3784,"èĹī":3785,"éĨ«éĻ¢":3786,"è¡¥":3787,"åıĳè¡¨":3788,"ãģ®":3789,"åħĪçĶŁ":3790,"ä»¥å¤ĸ":3791,"ä»¥åīį":3792,"å¤ĦçĲĨ":3793,"å¯¬":3794,"éľ¸":3795,"ç´Ļ":3796,"çŁ¥éģĵ":3797,"69":3798,"è³´":3799,"ich":3800,"AT":3801,"åĩ½æķ°":3802,"å¤§åŀĭ":3803,"ç½ķ":3804,"è³ŀ":3805,"è§Ħæ¨¡":3806,"æĶ¯æı´":3807,"è¡¨çı¾":3808,"éĿŀæ´²":3809,"åĽŀåĪ°":3810,"éģ¸æĵĩ":3811,"æĹħæ¸¸":3812,"ä¸įå¾Ĺ":3813,"ç©ºéĸĵ":3814,"åºĻ":3815,"éĥĳ":3816,"è¥¿éĥ¨":3817,"éĿ¢ç©į":3818,"éĢĲæ¼¸":3819,"ç¢³":3820,"èµ´":3821,"è¨Ńç«ĭ":3822,"æµ®":3823,"1978":3824,"åļ´éĩį":3825,"å¢ŀéķ¿":3826,"æĪ°é¬¥":3827,"çĶ·æĢ§":3828,"ang":3829,"çļĩå®¶":3830,"æļ«":3831,"éŁ©åĽ½":3832,"ä»¥ä¾Ĩ":3833,"æĪĲäºĨ":3834,"äºĮå¹´":3835,"è¶£":3836,"è´¡":3837,"åĽ½åĬ¡éĻ¢":3838,"éĭ¼":3839,"ä¸Ģæ¨£":3840,"æĶ¿æĿĥ":3841,"ç¤İ":3842,"åıªèĥ½":3843,"88":3844,"åľ°åĪ©":3845,"ç»ĵæŀľ":3846,"æĴŀ":3847,"åģľæŃ¢":3848,"io":3849,"è°Ī":3850,"yle":3851,"ate":3852,"çļĦåīį":3853,"åĮºåŁŁ":3854,"è¶ħè¿ĩ":3855,"æĳĦ":3856,"å¿ĥçĲĨ":3857,"çº¦ç¿°":3858,"åľ³":3859,"ast":3860,"çļĦå°ı":3861,"åºĶçĶ¨":3862,"300":3863,"åŁºç¤İ":3864,"èīĺ":3865,"ç·Ĭ":3866,"å¡ĳ":3867,"è²·":3868,"1981":3869,"åĲįç¨±":3870,"åĭĥ":3871,"ç´Ķ":3872,"å¸ĮèħĬ":3873,"åĩ¯":3874,"æĹ¢":3875,"å¦®":3876,"ĠPr":3877,"ç´¹":3878,"æĺİæľĿ":3879,"å¤«äºº":3880,"è·³":3881,"æİ¥è¿ĳ":3882,"æıĴ":3883,"åĨľä¸ļ":3884,"âĢ¦âĢ¦":3885,"éĺµ":3886,"æķĻæľĥ":3887,"å¤·":3888,"æĵįä½ľ":3889,"AM":3890,"ç©©":3891,"èħ³":3892,"è·¯æĺĵ":3893,"çĮ¶":3894,"å¹´åı·":3895,"é¢Ŀ":3896,"éĴ±":3897,"è´¸":3898,"è²¢":3899,"é«ĺçļĦ":3900,"æ¯Ķä¾ĭ":3901,"ç¿ł":3902,"åī²":3903,"èĹ©":3904,"æ·®":3905,"èĦ±":3906,"çİĭåľĭ":3907,"è¦½":3908,"è°¢":3909,"æľ¬èº«":3910,"ä»²":3911,"èĭ±éĽĦ":3912,"è°ĭ":3913,"TV":3914,"åĨĬ":3915,"æĸ¹ç¨ĭ":3916,"èĢĮæĺ¯":3917,"éļ§":3918,"42":3919,"åıįæĩī":3920,"ãĥ³":3921,"ä¸Ģç¨®":3922,"åĨħå®¹":3923,"æĸĩç«ł":3924,"äºŃ":3925,"è£ķ":3926,"ç§Ĵ":3927,"è±Ĩ":3928,"éĿľ":3929,"éĬħ":3930,"åĩºä»»":3931,"éĥ¨éĺŁ":3932,"åīĩæĺ¯":3933,"çİ»":3934,"æĭīä¸ģ":3935,"ort":3936,"åħ±åĴĮåĽ½":3937,"èĭ±èªŀ":3938,"up":3939,"ivers":3940,"é¡ŀä¼¼":3941,"çĵľ":3942,"æ¯ģ":3943,"æĮĳ":3944,"äº¦æľī":3945,"ä¸īä¸ĸ":3946,"éĮ¯":3947,"ary":3948,"Ch":3949,"ç»ıè¿ĩ":3950,"ows":3951,"ãĢģãĢģ":3952,"ä¸¾è¡Į":3953,"å¸Įèĩĺ":3954,"è©¹":3955,"æĶ¹è®Ĭ":3956,"Â°":3957,"èµĦæºĲ":3958,"çļĦéĩįè¦ģ":3959,"\"|":3960,"éĥ½å¸Ĥ":3961,"æ¯Ķè¼ĥ":3962,"å®½":3963,"å¸Ĥåľº":3964,"éģĭåĭķåĵ¡":3965,"æıĲé«ĺ":3966,"å»Ī":3967,"å¦»åŃĲ":3968,"éĶ¡":3969,"éĩįå»º":3970,"èī²çļĦ":3971,"æİī":3972,"æķ°åŃ¦":3973,"éļıçĿĢ":3974,"åįģä¸Ģ":3975,"ç»§ç»Ń":3976,"è§ī":3977,"ä¸Ńèı¯äººæ°ĳåħ±åĴĮåľĭ":3978,"ry":3979,"æ¼ĶåĶ±æľĥ":3980,"åıĤä¸İ":3981,"å¾ª":3982,"èĢĢ":3983,"åħ¬å°º":3984,"å®ı":3985,"æµ·åĨĽ":3986,"AR":3987,"å®ŀçİ°":3988,"æĶ¹ä¸º":3989,"idae":3990,"ä¹ı":3991,"ç¥Ŀ":3992,"æ´Ĺ":3993,"62":3994,"ne":3995,"çĩĪ":3996,"æĺŁæľŁ":3997,"çĲ³":3998,"è¡Įä¸º":3999,"å·¥åħ·":4000,"åĲĪçī©":4001,"éĩįçĤ¹":4002,"å¿«éĢŁ":4003,"åĭ³":4004,"åĳĤ":4005,"æģĴ":4006,"çİĭåĽ½":4007,"ass":4008,"å»£æĿ±":4009,"çµ±ä¸Ģ":4010,"æĸ¯ç§ĳ":4011,"å¹³åİŁ":4012,"æ³¨æĦı":4013,"æ±¡":4014,"æĵĬæķĹ":4015,"åĲĮçĽŁ":4016,"é¡ı":4017,"ç¬ĳ":4018,"ç²µ":4019,"è¿ĶåĽŀ":4020,"æĥħåĨµ":4021,"è¦ĸçĤº":4022,"æĹłæ³ķ":4023,"çļĦä¸ī":4024,"éĿĸ":4025,"ory":4026,"ä¸Ģå®ļ":4027,"çķ¢æ¥Ń":4028,"å¹´åīį":4029,"æ½ĺ":4030,"åĲĦç§į":4031,"å¸Ĥæ°ĳ":4032,"æĨ¶":4033,"è¿Ļæĺ¯":4034,"ä½ľèĢħ":4035,"åľĸæĽ¸":4036,"ĠãĢĬ":4037,"ä¿Ĭ":4038,"èģ¯éĤ¦":4039,"éģ¿åħį":4040,"æĹ¦":4041,"ç»Łä¸Ģ":4042,"ert":4043,"å¾·éĩĮ":4044,"ä¹Łè¢«":4045,"å°İæ¼Ķ":4046,"æĴŃåĩº":4047,"åĳ½ä»¤":4048,"çĶŁæ¶¯":4049,"è¡ĮæĶ¿åįĢ":4050,"åħ±çĶ¢":4051,"èģĶçĽŁ":4052,"å¤±åİ»":4053,"ç·£":4054,"åĴ¸":4055,"æľīäºº":4056,"è³¢":4057,"ä¸Ģç§į":4058,"ç¦ģæŃ¢":4059,"è¾¾åĪ°":4060,"å¤©ä¸ĭ":4061,"æĴ°":4062,"é¥°":4063,"å¥ĳ":4064,"è¦ıæ¨¡":4065,"è¨ĺè¼ī":4066,"ç²¹":4067,"æıļ":4068,"ç¹ª":4069,"å®¹æĺĵ":4070,"æĥħæ³ģ":4071,"46":4072,"å¡«":4073,"çĦ¡ç¶«":4074,"åıĸæ¶Ī":4075,"åķĨä¸ļ":4076,"åıĥèĢĥæĸĩçį»":4077,"ç¶ľ":4078,"çĩĴ":4079,"äº§åĵģ":4080,"ĠAn":4081,").":4082,"å¯¦é©Ĺ":4083,"è®¨":4084,"èļ":4085,"å®£ä½Ī":4086,"äººå¤§":4087,"ä¸Ģåº¦":4088,"ä¼¯çī¹":4089,"æ¯ĶèµĽ":4090,"æ¨¡åŀĭ":4091,"å·§":4092,"98":4093,"æ¯Ķå¦Ĥ":4094,"è®Ń":4095,"æº¶":4096,"ä»¥èī²":4097,"æī¬":4098,"ant":4099,"ç´¯":4100,"æī¹è©ķ":4101,"å¼ĺ":4102,"æ¬²":4103,"é¡¹çĽ®":4104,"äº¨åĪ©":4105,"å¾Ħ":4106,"çĶ¢åĵģ":4107,"åĮĸåŃ¸":4108,"ç¸½çĿ£":4109,"éļ§éģĵ":4110,"æģ¢å¤į":4111,"åįģåŃĹ":4112,"åĿļ":4113,"ä½ĵèĤ²":4114,"è²¿æĺĵ":4115,"åĪ¶ä½ľ":4116,"hy":4117,"ä»¥èī²åĪĹ":4118,"èģ·æ¥Ń":4119,"éĽ¢éĸĭ":4120,"Ġto":4121,"ç¶ĵå¸¸":4122,"æ¢¯":4123,"å©¦":4124,"æµ©":4125,"çļĦæĸ¹å¼ı":4126,"éĵľ":4127,"è¨Ńæĸ½":4128,"41":4129,"æµ·æ´ĭ":4130,"ies":4131,"åįģåħ«":4132,"äººæ°ĳæĶ¿åºľ":4133,"è½¯ä»¶":4134,"ens":4135,"æĸ¯åŁº":4136,"åĲįåŃĹ":4137,"å¤ªç©º":4138,"åĩºåı£":4139,"èīĩ":4140,"å±±èĦ":4141,"æ½Ń":4142,"77":4143,"åŁºåĽł":4144,"å¤º":4145,"ä¹ĭä¸ĭ":4146,"å¿į":4147,"å¿ħé¡»":4148,"æ²³æµģ":4149,"æĮĩæı®":4150,"äººä»¬":4151,"æĿŃ":4152,"æµ·å¤ĸ":4153,"æĹ¥åľ¨":4154,"çĻ¼åĭķ":4155,"æ³¥":4156,"æĮģçºĮ":4157,"éĥĬ":4158,"å±±ä¸ľ":4159,"åħ¥ä¾µ":4160,"æĸ°éĹ»":4161,"è¿´":4162,"è¬Ĥ":4163,"ä¹ĭéĸĵçļĦ":4164,"èĮĥåĽ´":4165,"èĤ¥":4166,"æĹ¶åĢĻ":4167,"èĦĳ":4168,"è·ĿéĽ¢":4169,"éĽ»åı°":4170,"æĻĤåĢĻ":4171,"51":4172,"43":4173,"ä¸ĵä¸ļ":4174,"man":4175,"é§ķ":4176,"æĬķç¥¨":4177,"Ġfor":4178,"å½¢è±¡":4179,"éļ»":4180,"éĩĳå±¬":4181,"ç»¿":4182,"åĲİçļĦ":4183,"56":4184,"å°ĳå¥³":4185,"å¾Ĺä¸»":4186,"å¹´åºķ":4187,"æ¯įè¦ª":4188,"é£Łåĵģ":4189,"Ã©":4190,"äº§ä¸ļ":4191,"ç´Ħç¿°":4192,"ä¾ĨæºĲ":4193,"æĺ¯ä»¥":4194,"åĽłç´ł":4195,"æĮīçħ§":4196,"180":4197,"è§¸":4198,"åĿĳ":4199,"åıĳå¸ĥ":4200,"1975":4201,"æªĶ":4202,"ä¸įè¶³":4203,"æķĮ":4204,"å¾Ĺä»¥":4205,"åģ¥åº·":4206,"è´Ń":4207,"çļĦåľ°æĸ¹":4208,"æĿī":4209,"çµ¡":4210,"æĢ»çĲĨ":4211,"åı°æ¹¾":4212,"æĲľ":4213,"é£²":4214,"æŁ´":4215,"ä»¿":4216,"å¹´éĸĵ":4217,"åĩĮ":4218,"åĮĹæĸ¹":4219,"å¤ªåŃĲ":4220,"æĪ°å¾Į":4221,"çĽ´èĩ³":4222,"å¹¿å·ŀ":4223,"æ·±åľ³":4224,"çļĦå¥³":4225,"åĢī":4226,"æİª":4227,"å¤§æ¨ĵ":4228,"é«ĺåº¦":4229,"Ġde":4230,"indows":4231,"èĳ¡èĲĦçīĻ":4232,"åı·çº¿":4233,"èĥ½éĩı":4234,"ç¼©":4235,"åı¯èĥ½æĺ¯":4236,"è¿ħéĢŁ":4237,"å²Ń":4238,"ç¶²è·¯":4239,"åĿĬ":4240,"èĭ±æł¼èĺŃ":4241,"èįĴ":4242,"çļĦäºĭ":4243,"çļĦåİŁ":4244,"éĢĻæ¨£":4245,"hant":4246,"æĦıå¿Ĺ":4247,"çĭĦ":4248,"æĪĴ":4249,"èĽĭçĻ½":4250,"åĪ¶éĢł":4251,"éĢĲæ¸Ĳ":4252,"éĢ£çºĮ":4253,"å¼¦":4254,"æ«":4255,"å¯Ĵ":4256,"1958":4257,"ä¸ºä¸»":4258,"æĭ¼":4259,"ial":4260,"æľªèĥ½":4261,"ä¸ŃåĽ½äººæ°ĳ":4262,"æĵİ":4263,"ä¸ŃåĽ½åħ±äº§åħļ":4264,"ER":4265,"ç»ĥ":4266,"åµ":4267,"ä¸¦æĸ¼":4268,"èĥ½å¤Ł":4269,"åĿĹ":4270,"çĪĨçĻ¼":4271,"å¤§æľĥ":4272,"çĬ¹å¤ª":4273,"ä¸ĭéĻį":4274,"è§Ħå®ļ":4275,"col":4276,"æľĭåıĭ":4277,"æ¶ħ":4278,"æĿ¥æºĲ":4279,"æľīåħ³":4280,"åĤħ":4281,"éĻĢ":4282,"åħ¨éĿ¢":4283,"ect":4284,"æĦ¿":4285,"è¦ıå®ļ":4286,"æĴŃæĶ¾":4287,"èį·èĺŃ":4288,"å¸ĤçļĦ":4289,"èł":4290,"å»ºæĪĲ":4291,"Ġh":4292,"éĢīä¸¾":4293,"éĸī":4294,"åĥ§":4295,"æĹ¥èµ·":4296,"ä¸ĸçķĮä¸Ĭ":4297,"è®°è½½":4298,"åŃ¸ç¿Ĵ":4299,"ä¹ĭéĹ´çļĦ":4300,"çĸ¾çĹħ":4301,"Ġon":4302,"çĽ¸ä¼¼":4303,"çĳŀåħ¸":4304,"è´Ŀå°Ķ":4305,"åŃ¦ä¹ł":4306,"æ¯Ķè¾ĥ":4307,"æ¬¢":4308,"éĸĭæĶ¾":4309,"èĲ¬äºº":4310,"å·ŀçļĦ":4311,"æĬĹæĹ¥":4312,"åīĤ":4313,"ä¸īè§Ĵ":4314,"æ°´å¹³":4315,"çĽĺ":4316,"æĭ©":4317,"çº¸":4318,"ä¸Ńæľī":4319,"å¹³åı°":4320,"å¸®":4321,"BS":4322,"åĨħçļĦ":4323,")ãĢĤ":4324,"éĺ´":4325,"çĽĲ":4326,"å¦Ĥä½ķ":4327,"éļĭ":4328,"éĦ§":4329,"éłħçĽ®":4330,"æīįèĥ½":4331,"æįŁ":4332,"æ¿±":4333,"çĽ¾":4334,"åł±åĳĬ":4335,"AC":4336,"ä¾į":4337,"52":4338,"è®¡ç®Ĺæľº":4339,"åĨĮ":4340,"æĿ¡ä»¶":4341,"ç¨¿":4342,"ith":4343,"éģľ":4344,"æĹ¥èĩ³":4345,"èĢĮè¨Ģ":4346,"é«ĺä¸Ń":4347,"ä¹Łåı¯ä»¥":4348,"åį¿":4349,"é£Łçī©":4350,"é£Ľæ©Ł":4351,"ä¸įè¿ĩ":4352,"å½ĵåľ°":4353,"æĩīçĶ¨":4354,"å®ĥåĢĳ":4355,"èĩ³å°ĳ":4356,"æ¹¯":4357,"è®ĬåĮĸ":4358,"é¡¾":4359,"èµŀ":4360,"çŃīåľ°":4361,"æľĢå¤ļ":4362,"è¡į":4363,"éĥ½æľĥ":4364,"èªł":4365,"IS":4366,"æ¯Ľæ³½":4367,"æĢ»äººåı£":4368,"é½¡":4369,"è¨Īç®Ĺ":4370,"ä¸ŃåĽ½å¤§éĻĨ":4371,"åĲĮä¸Ģ":4372,"åĪļ":4373,"çļĦåĪĨ":4374,"è®¢":4375,"èĮĤ":4376,"å½°":4377,"çĪŃèŃ°":4378,"age":4379,"åĮ¯":4380,"å¦Ĥä¸ĭ":4381,"ç«ŀ":4382,"å»ºèŃ°":4383,"ph":4384,"éµ":4385,"åľĭçļĦ":4386,"å°¼æĸ¯":4387,"åįľ":4388,"åĨłåĨĽ":4389,"èĩªè¡Į":4390,"ç±»ä¼¼":4391,"AS":4392,"å¼ķæĵİ":4393,"æ¨Ĥåľĺ":4394,"åĶĲæľĿ":4395,"æ¯Ľæ³½ä¸ľ":4396,"æĽ°":4397,"An":4398,"1946":4399,"åįĶåĬ©":4400,"53":4401,"ç½ĳç«Ļ":4402,"CD":4403,"éĢĨ":4404,"éĢĻä¸Ģ":4405,"Ġ&":4406,"æ°ĶåĢĻ":4407,"åľ¨é¦Ļæ¸¯":4408,"æĶ¿æ¬Ĭ":4409,"åĨįåº¦":4410,"ond":4411,"éĢ£æİ¥":4412,"æĻ¨":4413,"æľīæīĢ":4414,"æŃ£åľ¨":4415,"éģİåİ»":4416,"éŃĤ":4417,"æ©ŁéĹľ":4418,"èĨľ":4419,"åħ¬åħĥåīį":4420,"æ²³åĮĹ":4421,"éĴĪ":4422,"ight":4423,"çļĦæĪĲ":4424,"æ³Ĭ":4425,"åŃ¤":4426,"çģ½":4427,"æ±ºè³½":4428,"ĠãĢĤ":4429,"ç¶ĵçĩŁ":4430,"ä¸»é¡Į":4431,"éĢĬ":4432,"å¹¿æĴŃ":4433,"æŁıæŀĹ":4434,"åıĶ":4435,"å±ł":4436,"ä¸īåįģ":4437,"Ġ978":4438,"éĺħ":4439,"çĽ®æ¨Ļ":4440,"ç¶ŃæĮģ":4441,"éĹľæĸ¼":4442,"æĺ¯ä¸ĢåĢĭ":4443,"å»£åĳĬ":4444,"éĻ¸è»į":4445,"éħįéŁ³":4446,"ç¨İ":4447,"å°½ç®¡":4448,"åĩºèº«":4449,"ue":4450,"è¶ħç´ļ":4451,"end":4452,"æĬķåħ¥":4453,"Ġstyle":4454,"ain":4455,"ä¸²":4456,"åī©":4457,"è¢«ç¨±çĤº":4458,"å¤ıåŃ£":4459,"åį³ä½¿":4460,"ä¹ĭä¸Ń":4461,"çĦ¦":4462,"ont":4463,"èĩºåĮĹå¸Ĥ":4464,"åįļçī©é¦Ĩ":4465,"åħ¬çĪµ":4466,"æ¶Īæģ¯":4467,"è³½äºĭ":4468,"æĽ¾åľ¨":4469,"äººåĴĮ":4470,"å¹´è¢«":4471,"æĹ¥çļĦ":4472,"è²Į":4473,"çĸĹ":4474,"çĽ¸å°į":4475,"è¢«ç§°ä¸º":4476,"åįĢçļĦ":4477,"ç¨ħ":4478,"æµ·å²¸":4479,"åħĴåŃĲ":4480,"èĸĦ":4481,"61":4482,"1976":4483,"èķŃ":4484,"éįµ":4485,"ï¼ħ":4486,"çį¸":4487,"å¶¼":4488,"åıĳåĬ¨":4489,"éĩįåºĨ":4490,"ä»¥æĿ¥":4491,"çĩŁéģĭ":4492,"ç´§":4493,"åĲĮæ¨£":4494,"åıĺåĮĸ":4495,"æĪªèĩ³":4496,"ä¸īåĢĭ":4497,"èµ·æºĲ":4498,"åĲĪä½µ":4499,"ç»į":4500,"ç»¼":4501,"é«ĺç´ļ":4502,"å¼ĢæĶ¾":4503,"âĦ":4504,"éŁĭ":4505,"éĽľèªĮ":4506,"åıĳè¡Į":4507,"éĽĨåĲĪ":4508,"æ»¨":4509,"å°ī":4510,"çľĭåĪ°":4511,"åĪ¸":4512,"èĽĩ":4513,"å¨Ľ":4514,"æĶ¿æ²»äººçī©":4515,"æ¨ª":4516,"èģĶåĲĪåĽ½":4517,"çľŁæŃ£":4518,"åĲ¾":4519,"éĥµ":4520,"åŃ¦èĢħ":4521,"åįıä¼ļ":4522,"è§£æĶ¾åĨĽ":4523,"1973":4524,"ç´Ĳç´Ħ":4525,"54":4526,"éģµ":4527,"éĥ¨èĲ½":4528,"ä»¥å¾Į":4529,"å¢Ļ":4530,"çļĦä¸Ń":4531,"æķ´åĢĭ":4532,"æ¸Ľå°ĳ":4533,"eg":4534,"éģĶåĪ°":4535,"AN":4536,"èĻĽ":4537,"éļıåĲİ":4538,"å°ıçļĦ":4539,"éĤ¨":4540,"æī§è¡Į":4541,"1977":4542,"ISBN":4543,"åĦĺ":4544,"æ¾³æ´²":4545,"æĹº":4546,"ä¹Łä¸į":4547,"èĤ¡ä»½":4548,"åĪ·":4549,"æĪĺå½¹":4550,"åĲ¬":4551,"åı²ä¸Ĭ":4552,"ical":4553,"å¹¶ä¸į":4554,"ey":4555,"çĲī":4556,"è¡¨éĿ¢":4557,"ä¹¾éļĨ":4558,"åĤ¨":4559,"åŃ©åŃĲ":4560,"è´¸æĺĵ":4561,"å§¬":4562,"ish":4563,"èŁ²":4564,"ä¸ªäºº":4565,"åªĴä½ĵ":4566,"è¿ŀæİ¥":4567,"æĭīå¤«":4568,"åĲ¸å¼ķ":4569,"è¯¯":4570,"éĢīæĭ©":4571,"ON":4572,"åĭĭ":4573,"OS":4574,"å¬":4575,"è¿¹":4576,"éĤ»":4577,"æĺ¯ä¸Ģç¨®":4578,"æ½Ľ":4579,"èĪĴ":4580,"ç¹¼æī¿":4581,"æ±ª":4582,"æ¯ķä¸ļ":4583,"oh":4584,"çī©è³ª":4585,"çįĦ":4586,"å¤ªå¹³æ´ĭ":4587,"åĲĲ":4588,"æ¬£":4589,"ide":4590,"1972":4591,"é¢ĨåŁŁ":4592,"å½±çīĩ":4593,"å¯¿":4594,"æĽ´åĬł":4595,"å¡Ĭ":4596,"å·´è¥¿":4597,"åı¤åħ¸":4598,"éļ±":4599,"å®Įæķ´":4600,"é«ĺéĢŁåħ¬è·¯":4601,"æĸĩæĺİ":4602,"é¡Ĩ":4603,"ä¹Łåľ¨":4604,"éľĢæ±Ĥ":4605,"æĹ¥è»į":4606,"ç¼ºä¹ı":4607,"é«ĶçļĦ":4608,"iversity":4609,"éĸ±":4610,"1966":4611,"éŁ¦":4612,"é£ŀæľº":4613,"å¾Ģå¾Ģ":4614,"çĽ¸å¯¹":4615,"çī©è´¨":4616,"è¢Ń":4617,"ä¼½":4618,"ä¸»å¼µ":4619,"éł»éģĵ":4620,"åĸĢ":4621,"å®īæİĴ":4622,"ork":4623,"å±±å¤§":4624,"åįļçī©é¤¨":4625,"åĮ»éĻ¢":4626,"æĸ¯åį¡":4627,"éĤĵ":4628,"å¹¶åľ¨":4629,"è®®ä¼ļ":4630,"äºļæ´²":4631,"å°ĨåĨĽ":4632,"1937":4633,"å¹¾ä¹İ":4634,"å¹´éĹ´":4635,"âĦĥ":4636,"åĨĴ":4637,"å§Ĩæĸ¯":4638,"ä¹ĭåŃĲ":4639,"éļ¸":4640,"ĠPro":4641,"ä¸ĭè¾ĸ":4642,"1948":4643,"æĬ½":4644,"å£«åħµ":4645,"ç´°èĥŀ":4646,"éļİæ®µ":4647,"çī¹èī²":4648,"æı¡":4649,"æ±½è½¦":4650,"æ³ķçļĦ":4651,"çĶ¸":4652,"æ¯«ç±³":4653,"èĵĿ":4654,"å¶º":4655,"Ġg":4656,"éªĳ":4657,"æĢĴ":4658,"ç¨³":4659,"1967":4660,"æįĲ":4661,"Ġ7":4662,"å§»":4663,"èŃľ":4664,"ç¿ģ":4665,"1969":4666,"éķľ":4667,"è¯¾":4668,"çĽ¸ä¿¡":4669,"é¦ĸçĽ¸":4670,"é·":4671,"å®¶çļĦ":4672,"æĵ¬":4673,"1974":4674,"é©¬æĿ¥":4675,"çĭĢæħĭ":4676,"cn":4677,"ai":4678,"åħĴç«¥":4679,"é©ħ":4680,"æŀª":4681,"æŀĹåĮ¹":4682,"çĽ¸äºĴ":4683,"æķ´ä¸ª":4684,"çļĦä¸Ģéĥ¨åĪĨ":4685,"å»ºç«ĭçļĦ":4686,"æ®ĸæ°ĳåľ°":4687,"ç±Į":4688,"çĪĨåıĳ":4689,"æĺ¾ç¤º":4690,"æıĲåįĩ":4691,"æī®":4692,"çĸı":4693,"63":4694,"åĲĪå¹¶":4695,"ç¸½çĲĨ":4696,"çħ¤":4697,"1968":4698,"åįģä¸ī":4699,"é¢¨æł¼":4700,"åĿı":4701,"æŃ£å¸¸":4702,"ä¾ĭåŃĲ":4703,"1956":4704,"Windows":4705,"ä»»åĬ¡":4706,"æĤī":4707,"ust":4708,"ä¹ĺå®¢":4709,"æ±Łèĭı":4710,"çĴĥ":4711,"éĺģ":4712,"æķ¸æĵļ":4713,"ä¹Łå°±æĺ¯":4714,"1952":4715,"åĵģçīĮ":4716,"1930":4717,"éķ·çļĦ":4718,"æķĪæŀľ":4719,"ä¸¥éĩį":4720,"è³Ģ":4721,"éļ¨å¾Į":4722,"æĿ¡çº¦":4723,"ä¸Ģæł·":4724,"çĪ¶äº²":4725,"è£ı":4726,"éĴ¢":4727,"1955":4728,"åºĬ":4729,"æĶ¿åºľçļĦ":4730,"å¯Ħ":4731,"æµ·æĭĶ":4732,"è§£éĩĭ":4733,"åŀĤ":4734,"ç¥Ģ":4735,"äººåı£ä¸º":4736,"éĭĴ":4737,"ure":4738,"âĶĢâĶĢ":4739,"å·¥äºº":4740,"åľĸæĽ¸é¤¨":4741,"å£¤":4742,"1940":4743,"éĶĻ":4744,"æĶ¹åĸĦ":4745,"åĽ¾ä¹¦":4746,"æıŃ":4747,"éħĴåºĹ":4748,"å¼ıçļĦ":4749,"omp":4750,"éķ·æľŁ":4751,"æĹ¨":4752,"æģ¶":4753,"æĺ¯ä¸ŃåĽ½":4754,"ä»Ĭå¤©":4755,"ĠçļĦ":4756,"âĢł":4757,"é£Ľè¡Į":4758,"åħ±åĴĮåľĭ":4759,"éĻįä½İ":4760,"éĶ¦":4761,"ä¿Ŀå®Ī":4762,"å±ķéĸĭ":4763,"éĿĻ":4764,"1947":4765,"ä¸Ńéĥ¨":4766,"èĢĹ":4767,"çł²":4768,"è²ĵ":4769,"è²ĿçĪ¾":4770,"å¨Ľæ¨Ĥ":4771,"è¢«è¿«":4772,"çĲĥåł´":4773,"åıĤèĢĥèµĦæĸĻ":4774,"å¤§ç´Ħ":4775,"éĸ©":4776,"è²«":4777,"rom":4778,"ä¸īä¸ª":4779,"å¤ļå¹´":4780,"ç¬Ķ":4781,"å¹¿æ³Ľ":4782,"çĶŁçļĦ":4783,"çĭĤ":4784,"æ³³":4785,"æīĢæľīçļĦ":4786,"ä¸Ģå¸¶":4787,"ä»¥åĲİ":4788,"çŁ¥åĲį":4789,"ä¿®æĶ¹":4790,"ook":4791,"åıĪç¨±":4792,"åĭģ":4793,"çĽ¸æ¯Ķ":4794,"é¼ł":4795,"åİŁä½ı":4796,"éĺ¿çĪ¾":4797,"æĦŁåĪ°":4798,"éģķ":4799,"çĭ¼":4800,"é¯":4801,"å»Ĭ":4802,"ĠEn":4803,"æľĪåı°":4804,"æĻĤçļĦ":4805,"æĽ´å¤ļ":4806,"èĴ¸":4807,"ä½ĵçļĦ":4808,"æķĻå®Ĺ":4809,"ä»»åĭĻ":4810,"å¼ĥ":4811,"ĠAr":4812,"è¾ŀ":4813,"åįłé¢Ĩ":4814,"åŃ¦ç§ĳ":4815,"åĴĮåħ¶ä»ĸ":4816,"æĹħéģĬ":4817,"ä¸»è¦ģçļĦ":4818,"ä¸Ī":4819,"æĽ¾ä»»":4820,"è¡¨æĺİ":4821,"è½¨éģĵ":4822,"uc":4823,"åĽ½åĨħ":4824,"ft":4825,"éħįåĲĪ":4826,"æ¢Ŀç´Ħ":4827,"è¨ĵç·´":4828,"é¦¬ä¾Ĩ":4829,"å°ıæĹ¶":4830,"å¼ķçĶ¨":4831,"èħ¹":4832,"1971":4833,"éĩįå¤§":4834,"æĪ°å½¹":4835,"èĢĮä¸į":4836,"è¯ģæĺİ":4837,"1920":4838,"æĲ¬":4839,"åľ°éľĩ":4840,"åĲĪæĪĲ":4841,"è¿ĳä»£":4842,"éĽĻæĸ¹":4843,"ãĢĭï¼ļ":4844,"èŀº":4845,"1965":4846,"å»£åł´":4847,"ace":4848,"çªĹ":4849,"BC":4850,"æ©Łæľĥ":4851,"æ¹ĸåĮĹ":4852,"ÃĹ":4853,"ç¶±":4854,"åįıè®®":4855,"èĭĳ":4856,"åı¸æ³ķ":4857,"æĬ¥åĳĬ":4858,"åĪĨéĲĺ":4859,"é¦ĸåħĪ":4860,"ä¸ĢåĪĩ":4861,"è¥¿èĹı":4862,"æ®ĺ":4863,"è§ĦåĪĴ":4864,"åº¦çļĦ":4865,"åĦĺç®¡":4866,"èª²ç¨ĭ":4867,"çĭĹ":4868,"æŃ¡è¿İ":4869,"æŃ¤åĲİ":4870,"çº½çº¦":4871,"æľĪåĪĿ":4872,"çļĦæĥħæ³ģ":4873,"ç¤¦":4874,"1954":4875,"éĶ®":4876,"89":4877,"çī¹çļĦ":4878,"åįģå¤§":4879,"ç·Ĵ":4880,"èĩºä¸Ń":4881,"è¡ĮæĶ¿åĮºåĪĴ":4882,"èħĲ":4883,"æĤ²":4884,"é¹½":4885,"ç¢Ł":4886,"çĳŀå£«":4887,"åĦ²":4888,"è½¦ç«Ļ":4889,"ä¸»è¦ģæĺ¯":4890,"æŀĿ":4891,"1959":4892,"å»£å·ŀ":4893,"éĮ«":4894,"åĢ«æķ¦":4895,"é¦®":4896,"åľ¨åħ¶":4897,"1964":4898,"èªķ":4899,"åįģäºĶ":4900,"Al":4901,"ä¿ĺ":4902,"Ġ.":4903,"è¯ī":4904,"ex":4905,"éŁ»":4906,"åĪĨé¡ŀ":4907,"åħ¬å®¤":4908,"1961":4909,"çĦ¶å¾Į":4910,"æĺŁçļĦ":4911,"æŀĹåĮ¹åħĭ":4912,"çĻĮ":4913,"å¦Ļ":4914,"çļĦå½±éŁ¿":4915,"ä¸ľåįĹ":4916,"æ¾³å¤§åĪ©":4917,"ä¸Ŀ":4918,"ç¨»":4919,"orm":4920,"ä½ľæĪ°":4921,"åľ¨å¤§":4922,"åŃ¸è¡ĵ":4923,"éĤ®":4924,"åįģåĽĽ":4925,"ç»¼åĲĪ":4926,"åĮºçļĦ":4927,"è¾ħ":4928,"å¸¸è¦ĭ":4929,"æī¶":4930,"æĬķéĻį":4931,"æ±½è»Ĭ":4932,"IC":4933,"è¨ĺèĢħ":4934,"iz":4935,"ear":4936,"è¡ĮåĬ¨":4937,"è³ĩæºĲ":4938,"å¤§ä½¿":4939,"çļĦå¤ĸ":4940,"æĻ®æŁ¥":4941,"çı¾è±¡":4942,"ç§ĺå¯Ĩ":4943,"äº¿åħĥ":4944,"æĭĴçµķ":4945,"1941":4946,"Ġ+":4947,"éĥ¨éķ·":4948,"ern":4949,"æħ®":4950,"éĻķ":4951,"çįħ":4952,"çŁ³æ²¹":4953,"æģ¢å¾©":4954,"åĬĳ":4955,"è§£æ±º":4956,"79":4957,"å®ªæ³ķ":4958,"åħ±çĶ¢é»¨":4959,"IN":4960,"åĪ©çĽĬ":4961,"150":4962,"è¥¿åĵ¥":4963,"æĭįæĶĿ":4964,"å½¼å¾Ĺ":4965,"åħĪåĲİ":4966,"è°ĵ":4967,"éłĺåŁŁ":4968,"ä¼ĬæľĹ":4969,"çŁ©":4970,"ä»ĸåĢĳçļĦ":4971,"ä»£çĲĨ":4972,"ä¸įæĸ·":4973,"è¥¿æ´ĭ":4974,"ä¸Ĭå¸Ŀ":4975,"åħ¬å¸ĥ":4976,"èŃ°éĻ¢":4977,"400":4978,"åħĨ":4979,"éĩıåŃĲ":4980,"ä¿ĿåŃĺ":4981,"å±±è¥¿":4982,"ä¸¦æ²Ĵæľī":4983,"éĹŃ":4984,"æģĲæĢ":4985,"æ³¢æĸ¯":4986,"ç°¡ç¨±":4987,"èľĢ":4988,"èĦĤ":4989,"å¥¶":4990,"ç¬¦åĲĪ":4991,"è´ı":4992,"åĤ¾":4993,"èĩºåįĹ":4994,"çĶ¢æ¥Ń":4995,"å¤§äºĭ":4996,"éķ¿æ±Ł":4997,"æŁĶ":4998,"ä¹°":4999,"éĥ¨éĹ¨":5000,"è©³":5001,"åħ©äºº":5002,"ment":5003,"çĶ¨æĪ·":5004,"é¼»":5005,"1000":5006,"æĺ¯ä¸Ģç§į":5007,"åįģä¹Ŀ":5008,"å©Ĩ":5009,"PC":5010,"è¡ĮæĶ¿éĻ¢":5011,"åĩºå¸Ń":5012,"åĥ¹åĢ¼":5013,"è¨Ńç½®":5014,"æī¿èªį":5015,"æ¢Ŀä»¶":5016,"è¿ĳå¹´":5017,"1963":5018,"æİĪäºĪ":5019,"ä¸ĥå¹´":5020,"éłĴçįİ":5021,"çļĦä½ľåĵģ":5022,"ore":5023,"éĤ£äºĽ":5024,"å¤§å¤ļæķ°":5025,"çºµ":5026,"ĠX":5027,"åĨ¯":5028,"æĥŁ":5029,"åįĬå³¶":5030,"çĬ¶æĢģ":5031,"åº·çĨĻ":5032,"âĢĻ":5033,"éºŁ":5034,"æ¶īåıĬ":5035,"äººåĢĳ":5036,"çĲĨäºĭ":5037,"éŃĶæ³ķ":5038,"è¿¦":5039,"ä»ĸæĺ¯":5040,"éģĭè¼¸":5041,"çĮ¶å¤ª":5042,"å¯¨":5043,"å¦ĩ":5044,"çīĻåĪ©":5045,")ãĢģ":5046,"æ²»çĻĤ":5047,"1962":5048,"åĮĪçīĻåĪ©":5049,"éĢ»":5050,"æĬķèµĦ":5051,"åĪĹè½¦":5052,"è·¡":5053,"èĭ±è¯Ń":5054,"ä¸ĢåĲĮ":5055,"çĲĨè§£":5056,"è¿ĻéĩĮ":5057,"åĿª":5058,"éĩĳæĽ²":5059,"æĿ±åĮĹ":5060,"åĪĨè£Ĥ":5061,"ite":5062,"æĦŁæŁĵ":5063,"å»ºè¨Ń":5064,"ah":5065,"éĻ¢å£«":5066,"1957":5067,"æ¼Ķåĳĺ":5068,"æľªä¾Ĩ":5069,"ly":5070,"ld":5071,"ber":5072,"æ³¢åħ°":5073,"èģĮä¸ļ":5074,"86":5075,"åľŁèĢ³":5076,"åĵ²åŃ¦":5077,"çİ©å®¶":5078,"åĮĸåĲĪçī©":5079,"è®ĬæĪĲ":5080,"æŃ§":5081,"æıĲåĪ°":5082,"1939":5083,"ĠUniversity":5084,"æıĲåĲį":5085,"olog":5086,"),":5087,"è¦ıåĬĥ":5088,"ç®±":5089,"é¼İ":5090,"åĩ¤":5091,"HK":5092,"é£İæł¼":5093,"å°ĳæķ°":5094,"èµĸ":5095,"æł¡éķ·":5096,"åľŁèĢ³åħ¶":5097,"BA":5098,"æľĪçļĦ":5099,"è¨ĺéĮĦ":5100,"ug":5101,"åĲķ":5102,"åĪĽä½ľ":5103,"ç¬¬äºĮæ¬¡ä¸ĸçķĮå¤§":5104,"pt":5105,"æĩīè©²":5106,"çļĦæĶ¿æ²»":5107,"ä¸Ģèĩ´":5108,"ç´Ľ":5109,"æĭŁ":5110,"éĺª":5111,"æľĢä½İ":5112,"åĤ³èªª":5113,"æ°ĳéĸĵ":5114,"ä¸Ĭè¿°":5115,"éĩĳå±ŀ":5116,"å³½":5117,"åĽºå®ļ":5118,"ä¸¸":5119,"ä¸ĭä»¤":5120,"æľĥåľ¨":5121,"è®°å½ķ":5122,"è°ĥæŁ¥":5123,"æ¬ĬåĬĽ":5124,"çķ¶éģ¸":5125,"è¥¿å®ī":5126,"å¾Īå¿«":5127,"ç»§æī¿":5128,"ç©ºä¸Ń":5129,"tern":5130,"é£ŀè¡Į":5131,"è»Įéģĵ":5132,"PS":5133,"åīĳ":5134,"æ¦®èŃ½":5135,"åīįçļĦ":5136,"çĶ¨ä¾Ĩ":5137,"è¡¨çİ°":5138,"è¿ĺæĺ¯":5139,"æĨĳ":5140,"å¹´åĪĿ":5141,"è§£åĨ³":5142,"äºİæĺ¯":5143,"æ³¡":5144,"å´Ķ":5145,"åī¯ä¸»å¸Ń":5146,"åĨ¬åŃ£":5147,"éĢ²æĶ»":5148,"èĩªåĭķ":5149,"åľ¨æĹ¥æľ¬":5150,"æķ¸çļĦ":5151,"å¹´å¾Į":5152,"éĤĦæĺ¯":5153,"text":5154,"è¨İè«ĸ":5155,"èģĺ":5156,"int":5157,"èĻļ":5158,"å¨ĺ":5159,"-{}-":5160,"æŃ¦å¸Ŀ":5161,"å¯¦æĸ½":5162,"ä¸ĭåįĪ":5163,"åĲ¨":5164,"è¾Ĩ":5165,"ational":5166,"å¤ķ":5167,"ark":5168,"æ··åĲĪ":5169,"æĪĲç¸¾":5170,"èĢĮè¢«":5171,"å¤©çĦ¶":5172,"åĪ¶çļĦ":5173,"MS":5174,"æ±Łè¥¿":5175,"å¸ĤæĶ¿åºľ":5176,"æķ¸åŃ¸":5177,"ç¸±":5178,"æĬķè³ĩ":5179,"ãĢĬãĢĭ":5180,"ç»ıå¸¸":5181,"ç¤¾ä¼ļä¸»ä¹ī":5182,"Ġ5":5183,"son":5184,"Ġby":5185,"å«ģ":5186,"mer":5187,"æ¶Į":5188,"å¼ķåħ¥":5189,"pl":5190,"span":5191,"ä¸»æ¼Ķ":5192,"ä¾ĿçĦ¶":5193,"æ¶µ":5194,"èªªæ³ķ":5195,"åľĭåħ§":5196,"åĭ¢åĬĽ":5197,"ç¬¬åħ«":5198,"çıĬ":5199,"å»ºç«ĭäºĨ":5200,"åĩłä¹İ":5201,"Ġ10":5202,"1953":5203,"åĵ²åŃ¸":5204,"ĠAl":5205,"çħĻ":5206,"å¥Ķ":5207,"å¿½":5208,"çµ±è¨Ī":5209,"èĪŀåı°":5210,"åİŁå§ĭ":5211,"æ·¡æ°´":5212,"æ¥ŃåĭĻ":5213,"85":5214,"æ¢¦":5215,"æĸľ":5216,"èĥİ":5217,"åłĨ":5218,"æ°ĳçľ¾":5219,"èĩªèº«":5220,"é¢ľ":5221,"å¡ŀå°Ķ":5222,"76":5223,"é©±":5224,"çįµ":5225,"é£¯":5226,"åģµ":5227,"å£ĺ":5228,"éħ¶":5229,"çĽ¸å½ĵ":5230,"çķĻä¸ĭ":5231,"å°Ķæĸ¯":5232,"æŃ¦æ±ī":5233,"åĺīç¾©":5234,"åŁİåĮº":5235,"èı¯äºº":5236,"çĬ¬":5237,"åľĭæľĥ":5238,"åı¸é¦¬":5239,"æī¾åĪ°":5240,"æģĲæĢĸ":5241,"çĪĨçĤ¸":5242,"1938":5243,"é¡µ":5244,"å¯Ĩåº¦":5245,"æĪ°å£«":5246,"95":5247,"æĶ¿é»¨":5248,"ä¼¦æķ¦":5249,"çł´å£ŀ":5250,"å¢¨è¥¿åĵ¥":5251,"åĸľæŃ¡":5252,"ice":5253,"æŀļ":5254,"åĲĮæĢ§":5255,"ç¬¬ä¸ĢåĢĭ":5256,"æĴ¤éĶĢ":5257,"å¾·æĦıå¿Ĺ":5258,"çŁ¥è¯Ĩ":5259,"æľīæĻĤ":5260,"åĩĿ":5261,"å¹«åĬ©":5262,"æ³¨éĩĬ":5263,"æĪĺæĸĹ":5264,"çİĭåŃĲ":5265,"è§£éĩĬ":5266,"72":5267,"ost":5268,"ç¾©å¤§åĪ©":5269,"åİĨåı²ä¸Ĭ":5270,"æ·»":5271,"ä½ľåĩº":5272,"æĸ°ç«¹":5273,"å¹³éĿ¢":5274,"ç¡«":5275,"å©ļå§»":5276,"UN":5277,"æ£ĴçĲĥ":5278,"åħ¬åı¸çļĦ":5279,"èħĶ":5280,"æķ¸éĩı":5281,"çº¯":5282,"çĻ½èī²":5283,"ä¸¦éĿŀ":5284,"é©ļ":5285,"Ġé£¾":5286,"å»£æ³Ľ":5287,"æľºåħ³":5288,"éĦĤ":5289,"åķŁçĶ¨":5290,"å¹½":5291,"ç©ºè»į":5292,"çĪ¶æ¯į":5293,"æľ¬åľŁ":5294,"1951":5295,"ç¾¤å³¶":5296,"æĬ¼":5297,"è´Ĭ":5298,"ä»»æľŁ":5299,"æ¡ĥåľĴ":5300,"éĢļè»Ĭ":5301,"éģĹåĿĢ":5302,"ä¸Ģæ®µ":5303,"æ¯Ķäºļ":5304,"èĹĿäºº":5305,"éĽĢ":5306,"ç»ĺ":5307,"æĶ¹éĢł":5308,"çļĦä¸į":5309,"çĮĽ":5310,"å´©":5311,"é¶":5312,"åľ°åĮºçļĦ":5313,"è®¾å¤ĩ":5314,"æķ°éĩı":5315,"çģ«ç®Ń":5316,"ä½Ķéłĺ":5317,"æİªæĸ½":5318,"å§ļ":5319,"æĺ¥ç§ĭ":5320,"ç²ĴåŃĲ":5321,"çĲĨå·¥":5322,"è²ŀ":5323,"çļĦå·¥ä½ľ":5324,"åįĳ":5325,"çĽĨ":5326,"çģ¾":5327,"åħ§éĥ¨":5328,"è»Łé«Ķ":5329,"è¡Ŀçªģ":5330,"ç¿»èŃ¯":5331,"çŁ¥èŃĺ":5332,"çŁĽ":5333,"å±Ī":5334,"éĢĢåĩº":5335,"æĺİæ²»":5336,"æĸ¹çļĦ":5337,"åĪ¶å®ļ":5338,"çĶ«":5339,"å®ŀè¡Į":5340,"ä¸ŃæŃ£":5341,"æĸ°åŁİ":5342,"æºĸåĤĻ":5343,"åĲ«æľī":5344,"åĦ¿åŃĲ":5345,"çĦ¶åĲİ":5346,"èĬĤçĽ®":5347,"Ġ8":5348,"è§Ī":5349,"åĩıå°ĳ":5350,"çļĦå½±åĵį":5351,"éį¾":5352,"Ġ6":5353,"æĸ°çĸĨ":5354,"çı¾æĻĤ":5355,"éºµ":5356,"å¤§å°ı":5357,"éģ¼":5358,"æĹ¥åĨĽ":5359,"äºĭæķħ":5360,"ction":5361,"åĽ½ä¼ļ":5362,"äºĭæ¥Ń":5363,"å¸¸å§Ķ":5364,"ä»¥ä¸ĬçļĦ":5365,"åł±å°İ":5366,"çº¿è·¯":5367,"éĢ¼":5368,"éķ¿æ²Ļ":5369,"èĢĥåı¤":5370,"è¹Ł":5371,"1936":5372,"ä¼Ł":5373,"åĽ½çļĦ":5374,"æľ¬åľ°":5375,"å³¡":5376,"ç»Łè®¡":5377,"ES":5378,"æĽ¸éĻ¢":5379,"åķĨåĵģ":5380,"èĪªå¤©":5381,"Un":5382,"ç¬¬ä¸Ģä¸ª":5383,"éģĵå¾·":5384,"æł¡éķ¿":5385,"æĪĳçļĦ":5386,"åħĭéĩĮ":5387,"çĶ¨éĢĶ":5388,"ä¾Ĩèªª":5389,"çĦ¡ç¶«éĽ»è¦ĸ":5390,"æĨ²æ³ķ":5391,"ç¡®å®ļ":5392,"ç¨ĭå¼ı":5393,"åĮĹäº¬å¸Ĥ":5394,"å¾Īå¤§":5395,"å°Īæ¥Ń":5396,"å¥§éģĭ":5397,"éĥ¨éĸĢ":5398,"éĨ«åŃ¸":5399,"æį·éģĭ":5400,"æ¯ıä¸ª":5401,"aw":5402,"åİĦ":5403,"éģĵçļĦ":5404,"ç±»åŀĭ":5405,"å¤ªéĺ³":5406,"åĿİ":5407,"çĥ§":5408,"1944":5409,"çµĦåĲĪ":5410,"å¤ļä¸ª":5411,"çĪµå£«":5412,"æĶ¹åıĺ":5413,"å¯»":5414,"èħĵ":5415,"æĪĲæľ¬":5416,"åħĪå¾Į":5417,"çī¹å®ļ":5418,"æľŁçļĦ":5419,"çķ¶æĻĤçļĦ":5420,"ä¸Ńåįİæ°ĳåĽ½":5421,"æķ¢":5422,"åħŃå¹´":5423,"åľ°åįĢçļĦ":5424,"è»Ĭè¼Ľ":5425,"ç¢İ":5426,"é¢ģ":5427,"çĽ®æłĩ":5428,"å½Į":5429,"ãĤ¹":5430,"åĬĩåł´":5431,"åĲŀ":5432,"æ±¤":5433,"çĻ¾ç§ĳ":5434,"æĿ±åįĹ":5435,"å¤ļåĢĭ":5436,"per":5437,"æ¢ĿçĽ®":5438,"æķĻèĤ²éĥ¨":5439,"EC":5440,"ath":5441,"åľ°éĵģ":5442,"âĪ":5443,"å§Ĭ":5444,"é©¬åħĭ":5445,"äººåı£æĻ®æŁ¥":5446,"//":5447,"å°ĳæķ¸":5448,"éļĲ":5449,"1935":5450,"å±ķç¤º":5451,"é«®":5452,"åª½":5453,"èŃīæĺİ":5454,"ä»ĸä»¬çļĦ":5455,"è³Ī":5456,"æĢ§è´¨":5457,"è¾°":5458,"çļĦæĸ¹æ³ķ":5459,"è¿Ī":5460,"åĢ¡":5461,"æ½ľ":5462,"è·Ŀç¦»":5463,"1928":5464,"com":5465,"äºĴçĽ¸":5466,"åİŁä½ıæ°ĳ":5467,"éĢ»è¾ĳ":5468,"è°±":5469,"AP":5470,"å®¢å®¶":5471,"è©ķè«ĸ":5472,"æģŃ":5473,"å¥³æ¼Ķåĵ¡":5474,"èĢĮéĿŀ":5475,"è¾¨":5476,"é´»":5477,"åĽ¾ä¹¦é¦Ĩ":5478,"çļĦæµ·":5479,"åľ¨ä¸ŃåĽ½":5480,"æķ°åŃĹ":5481,"æĹħå®¢":5482,"å°¤åħ¶æĺ¯":5483,"æºĲèĩª":5484,"æ³ķæ¡Ī":5485,"ç½°":5486,"æĮĩå®ļ":5487,"ĠSp":5488,"èĩ¨æĻĤ":5489,"çĪ¾æĸ¯":5490,"ence":5491,"èĤº":5492,"çīĨ":5493,"æ°¯":5494,"å¤ªåĲİ":5495,"èľĤ":5496,"ĠNew":5497,"ç§ģäºº":5498,"ç©Ĩæĸ¯":5499,"å¸ĪèĮĥ":5500,"ire":5501,"çļĦä¸ĢåĢĭ":5502,"æĽ¾ç»ı":5503,"çİ»çĴĥ":5504,"æĹħè¡Į":5505,"æ£ī":5506,"åĬ«":5507,"éĺħè¯»":5508,"å¸®åĬ©":5509,"äº¦æĺ¯":5510,"æŁ¥çĲĨ":5511,"åĮ»åŃ¦":5512,"èµ·ä¾Ĩ":5513,"çĶ±æŃ¤":5514,"å°ıåŃ¦":5515,"æ¿ĥ":5516,"çļĦé¦ĸ":5517,"åľ¨ä¸Ģ":5518,"åĹ£":5519,"è¥¿æĸ¯":5520,"æĹ©å¹´":5521,"æĹ¬":5522,"ä¿®æŃ£":5523,"å®īå¾½":5524,"ä½ıå®ħ":5525,"ç¶ľåĲĪ":5526,"ä¸ŃåİŁ":5527,"çİ°è±¡":5528,"éĢ¢":5529,"åħ¬å¼Ģ":5530,"è½Ł":5531,"ä¸įåĪ°":5532,"å®īå¾·":5533,"çĥŁ":5534,"æĪĲç«ĭçļĦ":5535,"äºĨè§£":5536,"ss":5537,"è®¾ç½®":5538,"ç¦»å¼Ģ":5539,"74":5540,"éĽŀ":5541,"æ¸¯éĲµ":5542,"ä¸Ĭæľī":5543,"åĽĽå¤§":5544,"åŁºæĸ¼":5545,"å¯®":5546,"åģ·":5547,"åĬªåĬĽ":5548,"çļĦæĶ¯æĮģ":5549,"çµĲå©ļ":5550,"%ï¼Ľ":5551,"ç·©":5552,"åįłæĢ»äººåı£":5553,"ä¹Łæľĥ":5554,"ics":5555,"æī¹è¯Ħ":5556,"ç±ĥ":5557,"çļĦç¥ŀ":5558,"æ¯ĶåĪ©":5559,"è¾²æ¥Ń":5560,"çĬ¯ç½ª":5561,"ium":5562,"å·«":5563,"åŁºäºİ":5564,"è¿Ľè¡ĮäºĨ":5565,"å°Ķå¾·":5566,"åĲįç§°":5567,"éĽį":5568,"éĤª":5569,"ç©©å®ļ":5570,"cl":5571,"ä¸įæĸŃ":5572,"å¹´è¼ķ":5573,"çļĦæĥħåĨµ":5574,"çº²":5575,"åı¯ä»¥åľ¨":5576,"éĩĳå±±":5577,"åį³ä½į":5578,"è¿Ĳè¡Į":5579,"åĲ¸æĶ¶":5580,"æ³ķå®ĺ":5581,"æľĿå»·":5582,"ç²Ĺ":5583,"æļĸ":5584,"èĻ«":5585,"èĪŁ":5586,"æł¡åĮº":5587,"ç¢§":5588,"éĨĴ":5589,"åħģè®¸":5590,"åľ¨éĢĻ":5591,"çĲĨæĥ³":5592,"éİĸ":5593,"èĢķ":5594,"éķ·å®ĺ":5595,"å®¢éģĭ":5596,"ãĥ«":5597,"èģ¯åĲĪåľĭ":5598,"èĸĽ":5599,"ä»ĩ":5600,"æ°£åĢĻ":5601,"çļĦåĲįåŃĹ":5602,"åĸ®æĽ²":5603,"èĢĮä¸įæĺ¯":5604,"å¤§çįİ":5605,"è»¸":5606,"ĠÐ":5607,"è¥Ħ":5608,"èħº":5609,"æłĩå¿Ĺ":5610,"æī®æ¼Ķ":5611,"æĸ°åĮĹ":5612,"éĺ¶çº§":5613,"å®ĺåĵ¡":5614,"æĢ§è³ª":5615,"ç»©":5616,"è§£æķ£":5617,"éĺ¶æ®µ":5618,"å¤ļæķ¸":5619,"æĶ¹ç·¨":5620,"æĭĴç»Ŀ":5621,"æħ£":5622,"åĵĪå°Ķ":5623,"èı²å¾ĭ":5624,"æ¼ł":5625,"å¸Įçī¹":5626,"ç»ª":5627,"èĲ§":5628,"å®£åĤ³":5629,"äººæķ¸":5630,"æĹ¥æ²»":5631,"æ®ĭ":5632,"æł¼èĺŃ":5633,"ç¼ĺ":5634,"çłĶç©¶éĻ¢":5635,"æĪĲéĥ½":5636,"å¤±æķĹ":5637,"ä¸Ĭåįĩ":5638,"æ´¾çļĦ":5639,"åľ°éĿ¢":5640,"æķĻä¼ļ":5641,"åı¬å¼Ģ":5642,"æĬĳ":5643,"åłª":5644,"åĿĽ":5645,"æĬ±":5646,"æĮª":5647,"èĴĭ":5648,"120":5649,"è¿ĽæĶ»":5650,"ç«ĭåį³":5651,"åıªè¦ģ":5652,"éģĭåĭķæľĥ":5653,"å¨ģå°Ķ":5654,"éĢ¸":5655,"ww":5656,"éĢļä¿¡":5657,"è¿ĲèĲ¥":5658,"ä¹ĭæĪ°":5659,"åĪĨç±»":5660,"æĪĲå°±":5661,"çģĮ":5662,"å¤ĸçļĦ":5663,"è§ĤçĤ¹":5664,"73":5665,"å¤§çº¦":5666,"ç¥¿":5667,"é¦¬åħĭ":5668,"éłĺè¢ĸ":5669,"ä¸¾åĬŀ":5670,"1942":5671,"ç£¨":5672,"å¹¿åľº":5673,"ung":5674,"åĢĭæľĪ":5675,"åįĬå²Ľ":5676,"å¾ĹçŁ¥":5677,"æĺİé¡¯":5678,"æĹ¥åł±":5679,"å®Įå·¥":5680,"èªįçĤºæĺ¯":5681,"çı¾ä»Ĭ":5682,"ä¸Ģå®¶":5683,"ä¿®å»º":5684,"æĽ¹æĵį":5685,"1927":5686,"act":5687,"æİ¥æĶ¶":5688,"å¤§å»Ī":5689,"æŃ¤æĻĤ":5690,"âĢĺ":5691,"ç¿¡":5692,"åĿĤ":5693,"01":5694,"ç§ĳåŃ¦éĻ¢":5695,"ç¹ŀ":5696,"Ġr":5697,"æ²ĸ":5698,"é¨İå£«":5699,"ãĤ¤":5700,"å¯¸":5701,"æ¯ħ":5702,"çĶ¨ä½ľ":5703,"éĤĳ":5704,"åĲ¹":5705,"æĸ¹ä¾¿":5706,"åħ©ç¨®":5707,"è§¦":5708,"èĻĳ":5709,"å¸¸ä½ı":5710,"Ġ18":5711,"èĢĮæĪĲ":5712,"æīĭæ®µ":5713,"ç¬¦èĻŁ":5714,"è®¯":5715,"å¹³æĸ¹ç±³":5716,"åľ¨ç¾İåľĭ":5717,"æµ¸":5718,"ä»ĬæĹ¥":5719,"1933":5720,"ach":5721,"ĠPress":5722,"åĨħéĥ¨":5723,"æ²Ł":5724,"åĳ¨å¹´":5725,"æ¼Ķå¥ı":5726,"çļĦæ°´":5727,"1943":5728,"å¤§å¹ħ":5729,"èº«é«Ķ":5730,"èĭ±æł¼åħ°":5731,"æ¸¯åı£":5732,"çĶ³è«ĭ":5733,"éĢļéģĵ":5734,"OR":5735,"ç¨į":5736,"èµ·æĿ¥":5737,"åĬ³åĬ¨":5738,"ID":5739,"71":5740,"åıĳå°Ħ":5741,"ohn":5742,"æİ¨åĭķ":5743,"çµĲåĲĪ":5744,"éĬ·åĶ®":5745,"æ´¾åĩº":5746,"az":5747,"Hz":5748,"å¸ĥæĭī":5749,"ick":5750,"æĿĥåĬĽ":5751,"éĩĿå°į":5752,"ç®¡è¾ĸ":5753,"çģ«å±±":5754,"èģĶèµĽ":5755,"æ¡ĵ":5756,"ç¿¡ç¿ł":5757,"åĭĿåĪ©":5758,"æĿ±æĸ¹":5759,"ç§ŁçķĮ":5760,"oy":5761,"ç¤Ļ":5762,"å¥ªå¾Ĺ":5763,"åĽ½ç«ĭ":5764,"èĨł":5765,"åīµç«ĭ":5766,"ç®Ģç§°":5767,"ä¸ľéĥ¨":5768,"æ¡£":5769,"æĸĲ":5770,"å¤§éģĵ":5771,"ç¿Ķ":5772,"pe":5773,"éĺ¿éĩĮ":5774,"åīµéĢł":5775,"åķĨäºº":5776,"è®¿éĹ®":5777,"è¿Ĳè¾ĵ":5778,"å°ļæľª":5779,"è¢ĭ":5780,"æļĤ":5781,"ç®¡çĲĨå±Ģ":5782,"èµ·ä¹ī":5783,"è¿ŀç»Ń":5784,"éĢ²ä¸ĢæŃ¥":5785,"å®ļçĲĨ":5786,"å¾·å·Ŀ":5787,"åŃĲå¥³":5788,"ä¿ł":5789,"å¿Į":5790,"åĪĨéħį":5791,"ä¸ľè¥¿":5792,"åıįæĺł":5793,"äºĮäºº":5794,"æ°¢":5795,"äºĨä¸Ģä¸ª":5796,"æľºè½¦":5797,"éłĺåľŁ":5798,"æĮĩç¤º":5799,"é³´":5800,"92":5801,"ram":5802,"éĤĢè«ĭ":5803,"çļĦæķħäºĭ":5804,"çĭĢæ³ģ":5805,"æ¼¢åŃĹ":5806,"å°Ĩåħ¶":5807,"è¨Ĺ":5808,"96":5809,"äººå·¥":5810,"æĮģç»Ń":5811,"ç·¨èĻŁ":5812,"æīģ":5813,"äºīè®®":5814,"åİ¥":5815,"æŃĩ":5816,"æľĪèĩ³":5817,"è®¾æľī":5818,"åīµè¾¦":5819,"ç¨Ģ":5820,"å¸ĤåĮº":5821,"æķĻå¸«":5822,"è§Ģå¯Ł":5823,"è³ªéĩı":5824,"éķ¿æľŁ":5825,"çªģçĦ¶":5826,"æľ¬äºº":5827,"ç²®":5828,"åķĨåł´":5829,"ä»İèĢĮ":5830,"æľ´":5831,"åį¡å°Ķ":5832,"å¹¶åħ¥":5833,"æ°¨":5834,"ç¸½éĥ¨":5835,"åĭµ":5836,"æĻ¯åĮº":5837,"æ°ĳä¸»é»¨":5838,"çĶ¨æĿ¥":5839,"éĶĭ":5840,"åĨĽåĮº":5841,"å²Ĺ":5842,"è¡¨è¾¾":5843,"ä¿±ä¹Ĳ":5844,"ä½įçļĦ":5845,"æĹĹä¸ĭ":5846,"VD":5847,"ç¢¼éłŃ":5848,"å¿ĺ":5849,"è´¨éĩı":5850,"ile":5851,"éĻĨåĨĽ":5852,"å¿Ĩ":5853,"æİĺ":5854,"é»ĳèī²":5855,"1932":5856,"ä¸īåľĭ":5857,"ç¬¬ä¹Ŀ":5858,"ç¶ĵåħ¸":5859,"å»ºè®®":5860,"åĴĸ":5861,"æ´¾éģ£":5862,"å¥³çİĭ":5863,"æĽ¸ç±į":5864,"åį«æĺŁ":5865,"åı°åĮĹå¸Ĥ":5866,"åĸª":5867,"å¤§å¤ļæķ¸":5868,"å¼ķçĻ¼":5869,"åľ¨ä»ĸ":5870,"å¥ł":5871,"ä¸Ļ":5872,"å®°":5873,"æī¿è®¤":5874,"è©ķåĥ¹":5875,"are":5876,"ãĢĭï¼ī":5877,"orld":5878,"83":5879,"æĿŃå·ŀ":5880,"åĲĦèĩª":5881,"åĲĮæł·":5882,"åĲįäºº":5883,"çī¹å¾ģ":5884,"å·²æľī":5885,"åħ¸ç¦®":5886,"å°įæīĭ":5887,"æĿ¥è¯´":5888,"æ¯Ķäºŀ":5889,"éĬľ":5890,"çªģçł´":5891,"çłĤ":5892,"å¯¹è±¡":5893,"se":5894,"æ·ĳ":5895,"æĢ¡":5896,"éĤģ":5897,"æĦĽçĪ¾":5898,"ock":5899,"åĻ¨çļĦ":5900,"å¤©ä½¿":5901,"æľºæ¢°":5902,"ä½ĵç³»":5903,"ç§»åĭķ":5904,"é¥®":5905,"é¢ĳéģĵ":5906,"06":5907,"æ±ŁåįĹ":5908,"å·®çķ°":5909,"è¥¿éĩĮ":5910,"æľĢæĹ©çļĦ":5911,"çĻ¼å°Ħ":5912,"æĦĪ":5913,"èĦļ":5914,"æ¶Īå¤±":5915,"ica":5916,"ç»ĵåĲĪ":5917,"å¸¥":5918,"çĽ£çĿ£":5919,"åıī":5920,"ä¸ĸçķĮçĽĥ":5921,"çī©çļĦ":5922,"éĻ¢æł¡":5923,"1931":5924,"é¾Ħ":5925,"å¾ģæľį":5926,"èľľ":5927,"erv":5928,"ä¿Ŀéļľ":5929,"ç¼ĵ":5930,"æ¼ģ":5931,"åį°åĪ·":5932,"color":5933,"çİ²":5934,"æİĽ":5935,"èĥ½æºĲ":5936,"å½ĵéĢī":5937,"åħ§éĸ£":5938,"å¥¥åľ°åĪ©":5939,"åħ¨å¸Ĥ":5940,"æ¬ĬåĪ©":5941,"åįĶèŃ°":5942,"åħĭçļĦ":5943,"ä¸Ńè¢«":5944,"çĶµè§Ĩåı°":5945,"åįĹéĿŀ":5946,"åı¦ä¸Ģæĸ¹éĿ¢":5947,"é©¬æĿ¥è¥¿äºļ":5948,"èĥ¶":5949,"èĤĮ":5950,"è±«":5951,"æĹ¥æľŁ":5952,"æĸĳ":5953,"åħ¥åı£":5954,"éģĭä½ľ":5955,"æĶ¿æ²»å±Ģ":5956,"æ±¡æŁĵ":5957,"ä¸īå¤§":5958,"è³ĩæł¼":5959,"ç¶ĵæŃ·":5960,"çįİéłħ":5961,"è¡ĽæĺŁ":5962,"ä¸ŃæľŁ":5963,"ä»¥æŃ¤":5964,"æĸ¯æĭīå¤«":5965,"å°ĩåħ¶":5966,"å¤įæĿĤ":5967,"è®¤ä¸ºæĺ¯":5968,"éĢ®":5969,"æ¢µ":5970,"å¼·èª¿":5971,"éĢļçĶ¨":5972,"å®ŀæĸ½":5973,"ox":5974,"ãĦ":5975,"åįĸ":5976,"å®ĺåĳĺ":5977,"è¿ĲåĬ¨åĳĺ":5978,"æĻĤä»»":5979,"è¿Ľä¸ĢæŃ¥":5980,"æĶ¶éĮĦ":5981,"å¾¹":5982,"åīĬ":5983,"åķ¡":5984,"èĥ¸":5985,"ä¸¦æľª":5986,"æĦıæĢĿ":5987,"ET":5988,"ä¸Ģåº§":5989,"è¡¨éģĶ":5990,"æĿĤå¿Ĺ":5991,"è¡ĽçĶŁ":5992,"çļĦæĹ¶åĢĻ":5993,"æ¯ıåĢĭ":5994,"è¨ŃåĤĻ":5995,"ina":5996,"MP":5997,"åĪĹåħ¥":5998,"åħ¶å¯¦":5999,"08":6000,"åĽĽä¸ĸ":6001,"åĦ¿ç«¥":6002,"Ġre":6003,"èģĶç³»":6004,"éĢ²é»¨":6005,"è£ĿçĶ²":6006,"å·¢":6007,"æĶ¾æ£Ħ":6008,"å®ļå±ħ":6009,"æĹıç¾¤":6010,"å¿ħè¦ģ":6011,"æĸ¤":6012,"åŃ¦æľ¯":6013,"å¾ĮæľŁ":6014,"åıĪç§°":6015,".,":6016,"æĻļä¸Ĭ":6017,"å¹´éĸĭå§ĭ":6018,"è´¯":6019,"æ¯įäº²":6020,"æ²¿æµ·":6021,"å¹³è¡¡":6022,"æ©Łæ¢°":6023,"èĤĥ":6024,"ä¸ŃåĽ½äººæ°ĳè§£æĶ¾åĨĽ":6025,"å¸¸è§ģ":6026,"å»ĸ":6027,"MA":6028,"æĬ¥éģĵ":6029,"Ġ,":6030,"ç¥ł":6031,"ä¼¯çĪµ":6032,"ç©Ĩæĸ¯æŀĹ":6033,"600":6034,"èĢĲ":6035,"1929":6036,"ä¼Ĭæĭīåħĭ":6037,"è±¡å¾µ":6038,"èĦħ":6039,"èİ«æĸ¯ç§ĳ":6040,"ä¸ŃæľĢ":6041,"åħĭæĭī":6042,"æĹıçļĦ":6043,"èį·åħ°":6044,"pr":6045,"è´¾":6046,"ç¢©":6047,"äºĭå¯¦":6048,"æĵ¾":6049,"1934":6050,"å®ĥæĺ¯":6051,"è´ıå¾Ĺ":6052,"âĢ§":6053,"è®¾æĸ½":6054,"çĶŁæĪĲ":6055,"æĸ¯å¡Ķ":6056,"æķ¸åŃĹ":6057,"èı©":6058,"å¸ĤåįĢ":6059,"å¸¸å¸¸":6060,"ä»£çļĦ":6061,"æĤł":6062,"ç¢ºå®ļ":6063,"å¹´åĪ°":6064,"è¨ĺæĨ¶":6065,"åľ¨ä¸Ń":6066,"åĩºä¾Ĩ":6067,"åİŁåĲį":6068,"æĶ»åĩ»":6069,"åĺ´":6070,"èĥľåĪ©":6071,"æĸ¥":6072,"åľĭéĺ²":6073,"åºĶè¯¥":6074,"çħ§çīĩ":6075,"æļ¨":6076,"ç»ķ":6077,"sh":6078,"æĦĽçĪ¾èĺŃ":6079,"ax":6080,"å®ļå¾ĭ":6081,"çĿ¡":6082,"æ³ķèĺŃ":6083,"æĢķ":6084,"æĲĸ":6085,"ä»ĭç´¹":6086,"ä¸ĢçĻ¾":6087,"åİ¦":6088,"æ·º":6089,"çĻ»åł´":6090,"åĩĨå¤ĩ":6091,"1912":6092,"åĭķåĬĽ":6093,"åħ¼ä»»":6094,"è§Ģé»ŀ":6095,"ä½ľæĪĺ":6096,"ç¿»è¯ĳ":6097,"åĵĪåĪ©":6098,"ç·¨è¼¯":6099,"åĮĹç¾İ":6100,"ç¶²çµ¡":6101,"97":6102,"æŃ¤æĹ¶":6103,"æ±īè¯Ń":6104,"ä¸»æĮģäºº":6105,"æĺŃåĴĮ":6106,"ç«¶çĪŃ":6107,"SS":6108,"åİŁçĲĨ":6109,"ä¿¡åı·":6110,"å®£ä¼ł":6111,"è¯Ħä»·":6112,"Ar":6113,"æ»¾":6114,"è¦ªçİĭ":6115,"ä¸Ĭå¸Ĥ":6116,"æºĿ":6117,"93":6118,"è©¢":6119,"æłĹ":6120,"éĤ±":6121,"éĤµ":6122,"ç²µèªŀ":6123,"çļĦåİŁåĽł":6124,"æ¹¿":6125,"800":6126,"æ·ĺ":6127,"æıĲä¾ĽäºĨ":6128,"87":6129,"LE":6130,"æĬļ":6131,"å¤ĸåĽ½":6132,"æ¬¡å¹´":6133,"å¤§èĩ´":6134,"æĦıä¹ī":6135,"æŃ¥åħµ":6136,"å¹´çĶ±":6137,"åŃķ":6138,"è±¬":6139,"æĽ´æĸ°":6140,"ä¸¤ç§į":6141,"ä¿±ä¹Ĳéĥ¨":6142,"ä¹Ķæ²»":6143,"å§ĳ":6144,"ç¿Į":6145,"ä¼Ĭæĸ¯èĺŃ":6146,"Ð°":6147,"ĠTh":6148,"å±Ĭåħ¨åĽ½":6149,"Ġk":6150,"ä»·åĢ¼":6151,"Ġ[":6152,"å¹³çŃī":6153,"ç¾¤å²Ľ":6154,"æ½Ķ":6155,"åĸ¬æ²»":6156,"éĨĩ":6157,"å£®":6158,"çĲĥéĺŁ":6159,"éģĹäº§":6160,"åīįèº«":6161,"ition":6162,"ç®Ģåįķ":6163,"å¤§éĩıçļĦ":6164,"çļĦåıĳå±ķ":6165,"å°¿":6166,"è¨Ńå®ļ":6167,"ĠZ":6168,"è´¢æĶ¿":6169,"æº¯":6170,"æ¸¯åħĥ":6171,"ode":6172,"æłª":6173,"IT":6174,"èµĽåŃ£":6175,"ci":6176,"èģĸç¶ĵ":6177,"èĦĪ":6178,"å¨ĥ":6179,"çĶ·æ¼Ķåĵ¡":6180,"é§ķé§Ľ":6181,"æ°ĳéĢ²é»¨":6182,"æĦıåĳ³":6183,"æĪ¿å±ĭ":6184,"åĬĽåŃ¦":6185,"åŃ¸æľĥ":6186,"ä¸°å¯Į":6187,"è©¹å§Ĩæĸ¯":6188,"èĳµ":6189,"ç¦ıå·ŀ":6190,"èĩªæ²»åĮº":6191,"é¦¬ä¾Ĩè¥¿äºŀ":6192,"ç¦§":6193,"è§Ģçľ¾":6194,"land":6195,"çļĦåĲĮ":6196,"åľĭèªŀ":6197,"æĿ±è¥¿":6198,"çĶľ":6199,"çĻ¼æĺİ":6200,"éĺ²æŃ¢":6201,"ä¸Ĭæĺł":6202,"ç»´å¥ĩ":6203,"è²¡æĶ¿":6204,"åĢ¾":6205,"ç¬¦åı·":6206,"è¨ªåķı":6207,"åħ¬å®ī":6208,"æĸĩçī©ä¿ĿæĬ¤":6209,"åľ°å½¢":6210,"é«ĺçº§":6211,"çļĦæĻĤåĢĻ":6212,"ä»Ģä¹Ī":6213,"æķĺ":6214,"åĪ°è¾¾":6215,"åįĴ":6216,"æĽī":6217,"94":6218,"çŃ¹":6219,"æĸ°æķĻ":6220,"çĭ±":6221,"é¢Ĩè¢ĸ":6222,"å¤§éĺª":6223,"æİĮæı¡":6224,"æľĢå¾Įä¸Ģ":6225,"éĢĢä¼ĳ":6226,"çŁĽçĽ¾":6227,"è¡Ķ":6228,"1918":6229,"åĤ¬":6230,"åľĭæ°ĳå°ıåŃ¸":6231,"å·¨å¤§":6232,"æĹ¥æľ¬çļĦ":6233,"åĬłå·ŀ":6234,"ubl":6235,"å¤§åħ¬":6236,"æĢ§èĥ½":6237,"ux":6238,"èĤĸ":6239,"ãĥĪ":6240,"è°ĥæķ´":6241,"çĲĥæľĥ":6242,"èī¦éļĬ":6243,"è´Ī":6244,"èĻ¹":6245,"çĨ±å¸¶":6246,"åŃ¸ç³»":6247,"å¤§éĿ©åĳ½":6248,"åı¦æľī":6249,"èĿł":6250,"éĿ¢å°į":6251,"84":6252,"ier":6253,"çĽľ":6254,"æ¢¨":6255,"ee":6256,"çī©ç¨®":6257,"æº«åº¦":6258,"æİ¨è¡Į":6259,"äº¥":6260,"çº·":6261,"æ³¢èĺŃ":6262,"åĵĢ":6263,"åŃ¦ä½į":6264,"ç·ļçļĦ":6265,"èŃ¦æĸ¹":6266,"åĲĪæ³ķ":6267,"å¤§åŃ¸æł¡åıĭ":6268,"æ¡Īä»¶":6269,"æħķå®¹":6270,"åħ¶é¤ĺ":6271,"è§Ĵåº¦":6272,"Cl":6273,"éĺ»æŃ¢":6274,"ãĢĭ(":6275,"é·¹":6276,"éĳĳ":6277,"å¾·çļĦ":6278,"åįģä¸ĥ":6279,"çļĦä¸ĢäºĽ":6280,"ç¨±åĳ¼":6281,"ç¤¾åįĢ":6282,"éĥ½åľ¨":6283,"å¯¦éļĽä¸Ĭ":6284,"éħ·":6285,"å¤ļç§į":6286,"èĲ½æĪĲ":6287,"çªģåİ¥":6288,"éĻĦè¿ĳçļĦ":6289,"è®®åĳĺ":6290,"çł´åĿı":6291,"éĢ®æįķ":6292,"row":6293,"æĻĵ":6294,"04":6295,"äº¬éĥ½":6296,"é¾Ĳ":6297,"82":6298,"åĬŀäºĭ":6299,"éľŀ":6300,"è§ĦåĪĻ":6301,"1919":6302,"åºıåĪĹ":6303,"é¢Ĩå¯¼äºº":6304,"æĤ£èĢħ":6305,"ĠâĨĴ":6306,"äºĳåįĹ":6307,"å£ĵåĬĽ":6308,"IP":6309,"æĹ¥æĬ¥":6310,"ï¼Īï¼Įï¼īï¼Į":6311,"æľīæĹ¶":6312,"ix":6313,"ä½ľæĽ²å®¶":6314,"èĩ³æĸ¼":6315,"åģ¶åĥı":6316,"ä¸įæ»¿":6317,"çĲª":6318,"è³ľ":6319,"åį°å°¼":6320,"ĠSh":6321,"iss":6322,"é¸¡":6323,"åħ¬å¼ı":6324,"ä¸Ĭæµ·å¸Ĥ":6325,"ç«Ł":6326,"èĢĥæħ®":6327,"ä¼Ĭæĸ¯åħ°":6328,"åľĭæ°ĳæĶ¿åºľ":6329,"ton":6330,"æķĻç·´":6331,"å¥§åľ°åĪ©":6332,"éĨ«çĻĤ":6333,"åīª":6334,"æ¸ł":6335,"åĪĨæĶ¯":6336,"è¦ıåīĩ":6337,"æĭĸ":6338,"org":6339,"æĶ¶è³¼":6340,"å»ºäºİ":6341,"ree":6342,"çļĦåľ°ä½į":6343,"ï¼İ":6344,"æľĢè¿ĳ":6345,"Ð¾":6346,"èİ·å¾ĹäºĨ":6347,"è½´":6348,"use":6349,"ç¦ª":6350,"åįµ":6351,"éĽħåħ¸":6352,"è¿ĩç¨ĭä¸Ń":6353,"éľ§":6354,"æ¸ħä»£":6355,"CC":6356,"çģ¯":6357,"åĲĳéĩı":6358,"å«Į":6359,"å½¢å®¹":6360,"ä½¿çĶ¨èĢħ":6361,"éģĶæĪĲ":6362,"æ©ŁåĻ¨":6363,"åĵª":6364,"æķĻå£«":6365,"æľĢé«ĺçļĦ":6366,"ç§ĺæĽ¸":6367,"å¹´åĲİ":6368,"æľīèĳĹ":6369,"æķĻåŃ¦":6370,"åıĪåĲį":6371,"æĮªå¨ģ":6372,"å¥¥æĸ¯":6373,"07":6374,"è¾¯":6375,"äºĭåĬ¡":6376,"å¤Ħäºİ":6377,"å¤ł":6378,"æŃ¤å¾Į":6379,"ç¿¡ç¿łåı°":6380,"ru":6381,"çķ¶å¹´":6382,"æħİ":6383,"åĮĹæµ·":6384,"ç©įæ¥µ":6385,"éŃģ":6386,"è¯ķåĽ¾":6387,"ood":6388,"æĸ¹éĿ¢çļĦ":6389,"åŃĺåľ¨çļĦ":6390,"åĴĸåķ¡":6391,"æ¼ĶåĮĸ":6392,"æ¸¬è©¦":6393,"æĦıèŃĺ":6394,"çĽ¸åĲĮçļĦ":6395,"å¯¼æ¼Ķ":6396,"03":6397,"åľ¨ä¸Ģèµ·":6398,"å¸ħ":6399,"ç¦ıéŁ³":6400,"èªĵ":6401,"åĪ°çļĦ":6402,"ç¤ºå¨ģ":6403,"æĸĩçī©ä¿ĿæĬ¤åįķä½į":6404,"rap":6405,"é¾ľ":6406,"éĬĺ":6407,"æĺ¯ä¸į":6408,"one":6409,"æ¼¢èªŀ":6410,"æĭ¿çł´":6411,"ç«ĭæ³ķæľĥ":6412,"....":6413,"æīĢåľ¨åľ°":6414,"åįĥç±³":6415,"é¦ĸä½į":6416,"è®¨è®º":6417,"ç¬¬ä¸Ģä½į":6418,"left":6419,"å¸½":6420,"å°ıåŀĭ":6421,"05":6422,"æĦıç¾©":6423,"å¿Ļ":6424,"å¤ļäºº":6425,"èĲ¨åħĭ":6426,"æ³¢éŁ³":6427,"çļĦå½¢å¼ı":6428,"æĺİæĺ¾":6429,"é¡ŀåŀĭ":6430,"ef":6431,"ç§ģç«ĭ":6432,"CO":6433,"ult":6434,"å®ĺæĸ¹ç¶²ç«Ļ":6435,"çļĦåıį":6436,"å®ŀéĻħä¸Ĭ":6437,"arl":6438,"ç°¡åĸ®":6439,"æĬµæĬĹ":6440,"åľ¨éĤ£":6441,"1914":6442,"old":6443,"çļĦéĹľä¿Ĥ":6444,"çĽ¸åıį":6445,"åĻ´":6446,"æģĨæĺŁ":6447,"éĺ¿æł¹":6448,"èģ²éŁ³":6449,"å¤ªéĥİ":6450,"çļĦçĻ¼å±ķ":6451,"æł¼å¼ı":6452,"æ°«":6453,"åĬłä»¥":6454,"çļĦæľī":6455,"ä¸ŀ":6456,"IV":6457,"æŀ¶æ§ĭ":6458,"å¤§äºĭè®°":6459,"1925":6460,"åŁĭ":6461,"æŀ¢":6462,"æ¾Ħ":6463,"åĽ½æ°ĳåħļ":6464,"Ġ:":6465,"æıĲåıĬ":6466,"ä¸Īå¤«":6467,"Ġå¹´":6468,"ç¾İè»į":6469,"ä¸Ńåľĭåľĭæ°ĳé»¨":6470,"äºŀæŃ·":6471,"ä½Ĩä»ĸ":6472,"ç©Į":6473,"æĵħ":6474,"éĺ¿æł¹å»·":6475,"æ¡Į":6476,"åĤ³æĴŃ":6477,"æĺĩ":6478,"åı¤èĢģ":6479,"å°ĩæľĥ":6480,"éĤ£ä¹Ī":6481,"éĮ¦æ¨Ļ":6482,"è³¦":6483,"ç¨³å®ļ":6484,"çĤºæŃ¢":6485,"åĲĪåĶ±":6486,"è§Ģåħī":6487,"ä¾Ŀæĵļ":6488,"è¾ĸåĮº":6489,"ä»¥åįĹ":6490,"ç»´äºļ":6491,"tp":6492,"èĢ¶ç©Į":6493,"ä¸´æĹ¶":6494,"å¹´æĻĤ":6495,"ict":6496,"æİĴè¡Į":6497,"ç«ĭæĸ¹":6498,"åıĹæŃ¡è¿İ":6499,"éĻ¢éķ·":6500,"ĠĠĠĠĠĠĠĠ":6501,"åŁİéķĩ":6502,"åĨĪ":6503,"èĪªç©ºåħ¬åı¸":6504,"å½»":6505,"omm":6506,"å½¥":6507,"è´¤":6508,"ä¸»æ¬Ĭ":6509,"æĹ¥å¸¸":6510,"å¾ĹåĲį":6511,"çĽĪ":6512,"èºį":6513,"åĩłä¸ª":6514,"å¤©åłĤ":6515,"æ°Ķæ¸©":6516,"è¨º":6517,"æķ°çļĦ":6518,"è±¹":6519,"é¡§åķı":6520,"æī¹åĪ¤":6521,"81":6522,"å£«å°¼":6523,"éĻ·åħ¥":6524,"èķ¾":6525,"1922":6526,"éĢļè¨Ĭ":6527,"æ°´åĪ©":6528,"é¢ĨåľŁ":6529,"åħ¬çľ¾":6530,"æŃ·åı²ä¸Ĭ":6531,"å®´":6532,"å¼·çĥĪ":6533,"çŃĸçķ¥":6534,"éĽĮ":6535,"å¥İ":6536,"Ġat":6537,"èĮħ":6538,"åĩ½æķ¸":6539,"Sh":6540,"åĸĩ":6541,"Qu":6542,"åľ¨åĮĹäº¬":6543,"åĩºåĶ®":6544,"å§ľ":6545,"èĩªæĪĳ":6546,"éģĵæķĻ":6547,"å®ŀéªĮå®¤":6548,"åİĺ":6549,"å°¹":6550,"åĮĹå®ĭ":6551,"æŃ¦è£ħ":6552,"å»¢éĻ¤":6553,"è²¢çį»":6554,"åĪ°éģĶ":6555,"æĸ°çķĮ":6556,"åľ°åĲį":6557,"æļ´åĬĽ":6558,"91":6559,"è§Ģæ¸¬":6560,"ä»Ģéº¼":6561,"è²´æĹı":6562,"EE":6563,"çĻ¼åĶ®":6564,"æ¯ıæĹ¥":6565,"ãĢĤâĢľ":6566,"åĽ½éĺ²":6567,"è¿ªå£«å°¼":6568,"åĨ²çªģ":6569,"åľ¨ä½į":6570,"åĲįåĸ®":6571,"æł¹æľ¬":6572,"ä¸īåĽ½":6573,"éĩĳçīĮ":6574,"é¦Ļæ¸¯çļĦ":6575,"æĶ¯ä»ĺ":6576,"è¯´æ³ķ":6577,"éĢĢå½¹":6578,"æ´ĽæĿī":6579,"å·²è¢«":6580,"éī´":6581,"ä¸įè¦ģ":6582,"çĲĨçĶ±":6583,"åĽ½å®¶çº§":6584,"åĲı":6585,"è¤ĩéĽľ":6586,"èŃļ":6587,"ä»£è¡¨å¤§ä¼ļ":6588,"çĲĥåŃ£":6589,"ä¿ĿéĻ©":6590,"æĶĿå½±":6591,"éĻķè¥¿":6592,"è³½åŃ£":6593,"èĬ±åľĴ":6594,"å½°åĮĸ":6595,"çļĦæľĢ":6596,"å»ºç¯īçī©":6597,"au":6598,"åŁºéļĨ":6599,"åŁºéĩĳæľĥ":6600,"åĬ¨çĶ»":6601,"rit":6602,"çĤºä¸Ģ":6603,"ä¸Ĭä¸ĭ":6604,"æł¼åħ°":6605,"éĻª":6606,"åĭĭç«ł":6607,"æĦıå¤ĸ":6608,"02":6609,"éĺ®":6610,"ãĢĳ":6611,"çī²":6612,"éĽ»è©±":6613,"å¯ĵ":6614,"éķ¿çļĦ":6615,"ãĢĲ":6616,"æ·¨":6617,"å¢ĥåħ§":6618,"åĦĢå¼ı":6619,"ãĢĤï¼ī":6620,"åĨķ":6621,"æİ¥è§¸":6622,"yst":6623,"æķĻåŃ¸":6624,"éĪ´":6625,"å¤±è´¥":6626,"å¸Įçī¹åĭĴ":6627,"åŃ¸ä½į":6628,"ä¸įä¼ļ":6629,"æŃ»å¾Į":6630,"çļĦä¸Ģç§į":6631,"åĪĽéĢł":6632,"è©¦åľĸ":6633,"éģ¸åįĢ":6634,"èĪªçıŃ":6635,"éĿĴå²Ľ":6636,"çī¹éĩĮ":6637,"åĭķä½ľ":6638,"ç»ıåİĨ":6639,"éŁµ":6640,"å¾ĹåĪ°äºĨ":6641,"æĿĥåĪ©":6642,"ele":6643,"æīĢè¬Ĥ":6644,"å·²çŁ¥":6645,"ä¼°è¨Ī":6646,"éģŀ":6647,"æĻºæħ§":6648,"èĥº":6649,"åĲ§":6650,"1924":6651,"éĹ½":6652,"æĶ¹åĲį":6653,"ä¹Ŀå¹´":6654,"æ¾³å¤§åĪ©äºļ":6655,"æĭĺ":6656,"æ³ķåħ°":6657,"æĢ§åĪ¥":6658,"æķ¸ä½į":6659,"ĠSch":6660,"å®£è¨Ģ":6661,"IA":6662,"çļĦæ¦Ĥå¿µ":6663,"åħ¨ä¸ĸçķĮ":6664,"åĪºæ¿Ģ":6665,"åįģæľĪ":6666,"æ¶¼":6667,"èĤ¡ä»½æľīéĻĲåħ¬åı¸":6668,"åĨľæ°ĳ":6669,"æ®·":6670,"æŀĦæĪĲ":6671,"æĬ«":6672,"å½±åĥı":6673,"æ³ķåºŃ":6674,"é»ĥéĩĳ":6675,"ç¾İè¡ĵ":6676,"åİŁåīĩ":6677,"æģ¨":6678,"å¸ĸ":6679,"æ¯ıå¤©":6680,"è«ĸæĸĩ":6681,"ç¶ĵé©Ĺ":6682,"éģ¸æīĭ":6683,"èĺĩæł¼èĺŃ":6684,"09":6685,"å¹¿è¥¿":6686,"éļİç´ļ":6687,"æ½¤":6688,"1926":6689,"æĮĩä»¤":6690,"å¸Ĥéķ·":6691,"æł¼çļĦ":6692,"æıĲåĩºäºĨ":6693,"ĠåĴĮ":6694,"å¾ŀäºĭ":6695,"åľŃ":6696,"çļĦéĥ¨åĪĨ":6697,"ç®Ĺæ³ķ":6698,"æĭĨéĻ¤":6699,"èĪĮ":6700,"èĺĭ":6701,"åħ©å²¸":6702,"å¾Īå°ĳ":6703,"èº«åĪĨ":6704,"è¯Ħè®º":6705,"æīĵçł´":6706,"è®®éĻ¢":6707,"ä¸Ģå¸¦":6708,"åį¡æĭī":6709,"åĪĨä¹ĭä¸Ģ":6710,"å°ıçµĦ":6711,"ç¹«":6712,"å¨ģèĦħ":6713,"çī¹å¾µ":6714,"ä»¤äºº":6715,"èĢĥè©¦":6716,"èĸª":6717,"åį«çĶŁ":6718,"Th":6719,"çķĻåľ¨":6720,"æİ¡åıĸ":6721,"ä¼łæĴŃ":6722,"æ¬½":6723,"èĢĥèĻĳ":6724,"æ´Ľåħĭ":6725,"å¼ĹéĩĮ":6726,"åıĳæĺİ":6727,"ä¿Ŀç¾ħ":6728,"åħ«å¹´":6729,"åı«åģļ":6730,"éĸĥ":6731,"å¹´åĴĮ":6732,"å¹´å»ºç«ĭçļĦ":6733,"ä»¥åĮĹ":6734,"èĴ²":6735,"æĹ©åľ¨":6736,"èıĬ":6737,"çĳľ":6738,"åı¯èĥ½æľĥ":6739,"isc":6740,"è¾Ł":6741,"çīł":6742,"ä¿¡å¾Ĵ":6743,"èģ²åĦª":6744,"æĮģæľī":6745,"ĠCon":6746,"æ°ĳéĹ´":6747,"ĠCl":6748,"åħĥæľĿ":6749,"æĽ´æĺ¯":6750,"ata":6751,"æĦıè¯Ĩ":6752,"ä»£çłģ":6753,"åħ½":6754,"æģĭ":6755,"æĸ¯åł¡":6756,"å¤ĸåľĭ":6757,"çĭĲ":6758,"ä¸ĵè¾ĳ":6759,"å¥³æŃĮæīĭ":6760,"æİ¨ç¿»":6761,"ä½¿åħ¶":6762,"ĠCol":6763,"æĶ¾åľ¨":6764,"åĺĹ":6765,"å¥¥è¿Ĳ":6766,"åıĮæĸ¹":6767,"çļĦå¤©":6768,"åĬłåĪ©":6769,"è¯ļ":6770,"è¯ŀ":6771,"åį±æ©Ł":6772,"èį£èªī":6773,"åį¸":6774,"åĳ¨æģ©":6775,"æªĶæ¡Ī":6776,"æ©Łåĭķ":6777,"ãĥ©":6778,"èŀįåĲĪ":6779,"ä»£æĽ¿":6780,"æĭ¼éŁ³":6781,"æ²ª":6782,"å®Ľ":6783,"çĻ¾å¹´":6784,"æĶ¿æ²»å®¶":6785,"ame":6786,"è¨»éĩĭ":6787,"ç¦¦":6788,"å°±æľī":6789,"çİĭä½į":6790,"AD":6791,"æ¢Ŀä¾ĭ":6792,"ãĤ¢":6793,"è¼ĥçĤº":6794,"ä¸Ģäºº":6795,"è²¼":6796,"å··":6797,"æĪĲä¸ºäºĨ":6798,"å¹´é¦Ļæ¸¯":6799,"æĪĺçķ¥":6800,"å¸ĤæĶ¿":6801,"å°±è®Ģ":6802,"ä¸Ģç³»åĪĹ":6803,"èī²å½©":6804,"èŃīæĵļ":6805,"èķĥ":6806,"ĠâĢĶ":6807,"éĢĴ":6808,"å¦ĸ":6809,"çłĶç©¶ä¸Ńå¿ĥ":6810,"æ¨ŀ":6811,"æĪ²åĬĩ":6812,"æīĵæĵĬ":6813,"æľĪçĲĥ":6814,"äºĶæľĪ":6815,"1921":6816,"å¥³åħĴ":6817,"ä¸ĭä¸Ģ":6818,"åĳ½åĲįçĤº":6819,"åĶ¯ä¸ĢçļĦ":6820,"Ð¸":6821,"1900":6822,"1917":6823,"è¾ī":6824,"ä¾Ŀçħ§":6825,"èĬ±èĵ®":6826,"åĩ°":6827,"æĸĩéĿ©":6828,"åĢĻéģ¸":6829,"çĶŁæĢģ":6830,"èµĭ":6831,"://":6832,"çĻ¼åĩº":6833,"çļĦéĩį":6834,"èĩªåĬ¨":6835,"ä¸ľæĸ¹":6836,"åħģè¨±":6837,"å±±èĦī":6838,"å¾ĭå¸«":6839,"ä¸ĵå®¶":6840,"ç´ħèī²":6841,"http":6842,"æīĵç®Ĺ":6843,"æī£":6844,"ä¸ļåĬ¡":6845,"æĳ§":6846,"æİĥ":6847,"å§¿":6848,"ä¸Ģè©ŀ":6849,"çĻ¼èµ·":6850,"éĲµéģĵ":6851,"çĩĥæĸĻ":6852,"æĸ°åĮĹå¸Ĥ":6853,"åĨĢ":6854,"é¢Ĺ":6855,"åľ¨ç¾İåĽ½":6856,"æľĥéķ·":6857,"æ«»":6858,";\"|":6859,"åıĥè³½":6860,"æķĻå¸Ī":6861,"æģ°":6862,"è®ļ":6863,"è¯¦":6864,"åĮĹéŃı":6865,"æł¼æĭī":6866,"unt":6867,"çµ¦äºĪ":6868,"åľ°éĲµ":6869,"é«ĺæł¡":6870,"éĢ²æŃ¥":6871,"åĲĦåľĭ":6872,"ãĥª":6873,"å´Ļ":6874,"åħĭæŀĹ":6875,"åº¸":6876,"è¶¨":6877,"åħįè²»":6878,"Ġåľ¨":6879,"çĶŁæĸ¼":6880,"ail":6881,"åĬłå·¥":6882,"æ»ĭ":6883,"ç¥ĸçĪ¶":6884,"åŃ¦ä¼ļ":6885,"æĥľ":6886,"çĮľ":6887,"åı¦ä¸ĢåĢĭ":6888,"èĻķæĸ¼":6889,"å¯Įå£«":6890,"å¾©èĪĪ":6891,"æı´åĬ©":6892,"éĢĲæŃ¥":6893,"çī¹æĢ§":6894,"ç´ĭ":6895,"æİĴåĪĹ":6896,"éĻ¸çºĮ":6897,"ä¸»ç¾©èĢħ":6898,"ä¼¼ä¹İ":6899,"å¹´èĻŁ":6900,"æľŃ":6901,"æ±Ģ":6902,"700":6903,"Î±":6904,"å¤§çľ¾":6905,"èĭ¯":6906,"èª¿æķ´":6907,"æĬĵ":6908,"åĬŀäºĭå¤Ħ":6909,"åºĩ":6910,"è¢«è¦ĸçĤº":6911,"åįłæĢ»äººåı£çļĦ":6912,"æĺ¯é¦Ļæ¸¯":6913,"çĶŁæħĭ":6914,"è´¡çĮ®":6915,"æĬµéģĶ":6916,"æĬĦ":6917,"åįĹå®ĭ":6918,"è¿ĩåİ»":6919,"éĩĩåıĸ":6920,"è¹Ī":6921,"åĭ¸":6922,"è²©":6923,"ç§©":6924,"å®¶äºº":6925,"äººæĸĩ":6926,"çĵ·":6927,"èĺĭæŀľ":6928,"ãĢĭãĢĬ":6929,"çŁ¢":6930,"åĪĨåĪ¥çĤº":6931,"çľł":6932,"åĽ½å®¶çļĦ":6933,"åıĻ":6934,"æ¶¦":6935,"ç¼ĸè¾ĳ":6936,"åľ°è´¨":6937,"åħ¬ç¤¾":6938,"æĿ±äºŀ":6939,"ä¸įæĺİ":6940,"èªªæĺİ":6941,"orn":6942,"ä¸»å¼ł":6943,"èĤĿ":6944,"èħ¿":6945,"çĽ¸éĹľæ¢ĿçĽ®":6946,"æĶ¶èĹı":6947,"NHK":6948,"å£¯":6949,"çİĩéłĺ":6950,"åł¤":6951,"åĮĹæ´ĭ":6952,"åĪĨæł¡":6953,"æ¼ı":6954,"èįĥ":6955,"1923":6956,"ç¦ıåĪ©":6957,"ron":6958,"1913":6959,"ĠPh":6960,"åĭŁ":6961,"å¹ķåºľ":6962,"èĩŁ":6963,"åıĭå¥½":6964,"æ®¼":6965,"ãĤ¯":6966,"å¯¦è¡Į":6967,"ĠPl":6968,"è¸ı":6969,")ï¼ļ":6970,"å½¢æĪĲäºĨ":6971,"Pl":6972,"ä¹ĭåľ°":6973,"éĸĭè¨Ń":6974,"éĸĵçļĦ":6975,"çļĦä¸Ģç¨®":6976,"é½Ĵ":6977,"ä¹Įæĸ¯":6978,"çĵ¶":6979,"è¼¸åħ¥":6980,"DNA":6981,"ãĢĮãĢį":6982,"åĮĹå¹³":6983,"åĬ±":6984,"å¸Ĥä¸Ńå¿ĥ":6985,"éĸ±è®Ģ":6986,"çİĭå®¤":6987,"çļĦåķıé¡Į":6988,"gcolor":6989,"æĴ«":6990,"åħ¬ç½²":6991,"æľĢå¤ļçļĦ":6992,"...":6993,"é£ŁçĶ¨":6994,"åŃĹç¬¦":6995,"æĺİæĺŁ":6996,"åı°ä¸Ń":6997,"å¸ĥå°Ķ":6998,"çĮİ":6999,"æ°¸ä¹ħ":7000,"ä¸ĵéĹ¨":7001,"æĹ©æľŁçļĦ":7002,"ä»įæľī":7003,"å¼Łå¼Ł":7004,"ç¡ķ":7005,"æĪ°åľĭ":7006,"åĪĨéĴŁ":7007,"åĲīæŀĹ":7008,"èº«äº¡":7009,"DVD":7010,"yn":7011,"æĸ¯å¤§":7012,"ç³»çļĦ":7013,"ç©ºåĨĽ":7014,"è®Ńç»ĥ":7015,"å¼ķåıĳ":7016,"æĽ´å¤ļçļĦ":7017,"åħ¶ä¸ŃåĮħæĭ¬":7018,"å¹¿ä¸ľçľģ":7019,"åĭ³ç«ł":7020,"æĮĸ":7021,"æľªæľī":7022,"å¡ŀçĪ¾":7023,"ä¿ĦåĽ½":7024,"çı¾åł´":7025,"æ±°":7026,"å¹´ä¸Ń":7027,"éłĹ":7028,"åĬłæĭī":7029,"åĽĽåĢĭ":7030,"ç²¤":7031,"è´µæĹı":7032,"å¹¶äºİ":7033,"åģļåĩº":7034,"ä¼łè¯´":7035,"çŃ¾ç½²":7036,"éĦ°è¿ĳ":7037,"çĻ¾åĪĨ":7038,"åĪĽåĬŀ":7039,"éĽ£ä»¥":7040,"å°±æľĥ":7041,"çĤŃ":7042,"å¾·æĭī":7043,"å½ĵæĹ¶çļĦ":7044,"æĪĲåĪĨ":7045,"åľĭéļĽæ©Łåł´":7046,"å±±èĦĪ":7047,"ç§ĺä¹¦":7048,"110":7049,"SA":7050,"äºĭå®ŀ":7051,"å°ıå¹³":7052,"æĻĤæľŁçļĦ":7053,"è§Ĥå¯Ł":7054,"åŁİçļĦ":7055,"å¯¹å¤ĸ":7056,"Ã¼":7057,"ç§»åĬ¨":7058,"éĹľæ³¨":7059,"çĮ©":7060,"ç©´":7061,"æµ·ä¸Ĭ":7062,"åĪĻæĺ¯":7063,"æĮĳæĪ°":7064,"äººæīį":7065,"å°įæĬĹ":7066,"æĪĲçĨŁ":7067,"æµģåŁŁ":7068,"çħĮ":7069,"éģİç¨ĭä¸Ń":7070,"çļĦå¤ļ":7071,"åľ°é»ŀ":7072,"æł¡åľĴ":7073,"ç§ĳåŃ¸å®¶":7074,"æĽ´åĲįä¸º":7075,"çļĦåŁİå¸Ĥ":7076,"åľ¨è¥¿":7077,"è¯ķéªĮ":7078,"å°ĪéĸĢ":7079,"è»įçļĦ":7080,"èĢģå¸«":7081,"ä»ĳ":7082,"åı¬éĸĭ":7083,"æ±Ŀ":7084,"å¹¶æ²¡æľī":7085,"è·ĥ":7086,"èĪĩåħ¶ä»ĸ":7087,"æ¨Ĥå£ĩ":7088,"èģ²æĺİ":7089,"è¿Ŀ":7090,"å¤§å¸Ŀ":7091,"ä¸»åĬĽ":7092,"å±ıæĿ±":7093,"æ¡Ĩ":7094,"è¶ħè¶Ĭ":7095,"ç»ĵå©ļ":7096,"æĤŁ":7097,"åĩ»è´¥":7098,"çĻ¾å§ĵ":7099,"ä¸Ģéĥ¨åĪĨ":7100,"ãĢįï¼Ľ":7101,"eng":7102,"æĶ¶éĽĨ":7103,"åı¸ä»¤éĥ¨":7104,"ä»ĭçŁ³":7105,"çļĦä½įç½®":7106,"ä»»æĦı":7107,"åĸ»":7108,"çļĦè§Ĵèī²":7109,"é¡ĮæĿĲ":7110,"çļĦåľĭå®¶":7111,"è®Ĭå¾Ĺ":7112,"èĥ¡åĲĮ":7113,"è³¼è²·":7114,"å¥³ç¥ŀ":7115,"å·¨å¤§çļĦ":7116,"åħĥéŁ³":7117,"äºĶåįģ":7118,"ann":7119,"å¤§æĪ°":7120,"è§Ĩä¸º":7121,"ç³§":7122,"æĢİ":7123,"å®¶ä¸Ń":7124,"ology":7125,"ç»ıèĲ¥":7126,"çļĦæīĢæľī":7127,"åħĭèĺŃ":7128,"è²§":7129,"çĥ¯":7130,"èªįèŃĺ":7131,"ll":7132,"çļĦæŃ£":7133,"åıĹåĤ·":7134,"é²į":7135,"åĳİ":7136,"å±į":7137,"å±±åĮº":7138,"åĽĽä¸ª":7139,"è¿ĲåĬ¨ä¼ļ":7140,"å¤§æ¡¥":7141,"1911":7142,"äºĮæ¬¡":7143,"å°įè±¡":7144,"éķ·åŃĲ":7145,"æīĺåĭĴ":7146,"è¾©":7147,"åŁ·æĶ¿":7148,"æ³°åľĭ":7149,"èĤħ":7150,"èģļéĽĨ":7151,"å¸¶éłĺ":7152,"åįĹæµ·":7153,"çķ¶å±Ģ":7154,"ç»Ħå»º":7155,"å·¡è¿´":7156,"GB":7157,"ç®¡åĪ¶":7158,"çĶŁåŃĺ":7159,"è±¡å¾ģ":7160,"æĹ¶æľŁçļĦ":7161,"åĦĦç¾İåħĥ":7162,"èµı":7163,"ä¸īäºº":7164,"æĶ¹å»º":7165,"æ§ĭæĪĲ":7166,"èģĮåĬ¡":7167,"è·¯æ®µ":7168,"æ²»çĸĹ":7169,"è¯ºè´Ŀå°Ķ":7170,"æ²Īéĺ³":7171,"åĽļ":7172,"æľ¬ç§ĳ":7173,"éĳ½":7174,"åħĭåħ°":7175,"å¼ĹæľĹ":7176,"æ¿ĢçĥĪ":7177,"ä¸¦å°ĩ":7178,"æķĪçİĩ":7179,"é¾Ļæ±Ł":7180,"EN":7181,"æīĩ":7182,"è³ĩæľ¬":7183,"çµĤæĸ¼":7184,"å§Ķä¹¦è®°":7185,"çŁ®":7186,"ãĥĥ":7187,"æİł":7188,"å¯ĨåĪĩ":7189,"é¡ıèī²":7190,"ç¢°":7191,"ä¼Ļ":7192,"çķĮçļĦ":7193,"éļĬçļĦ":7194,"åĩī":7195,"åĲĦåĽ½":7196,"é«ĺéĽĦå¸Ĥ":7197,"ç¤¾åĮº":7198,"åĽ¢ä½ĵ":7199,"able":7200,"å¯ĩ":7201,"èĬĴ":7202,"æ±ŁæĪ¶":7203,"çº¹":7204,"äºļåİĨ":7205,"æĭ±":7206,"ä¿Ŀå®ī":7207,"å½¢æĪĲçļĦ":7208,"åĢ¼å¾Ĺ":7209,"åľ¨æĸ¼":7210,"ä¿¡èĻŁ":7211,"çģ«æĺŁ":7212,"æ¨ĻèªĮ":7213,"out":7214,"å¹´å¼Ģå§ĭ":7215,"èĮµ":7216,"æ¸¸æ³³":7217,"åĽĬ":7218,"ç½·":7219,"hem":7220,"æµ·å³½":7221,"ations":7222,"rans":7223,"èİ²":7224,"istory":7225,"ä»¥çĤº":7226,"éĮ¯èª¤":7227,"å¼¥":7228,"ä¸Ģçº§":7229,"æĻ´":7230,"En":7231,"ä¸ĬåįĪ":7232,"ç¶Ńäºŀ":7233,"çļĦæĦıæĢĿ":7234,"ä¹ĭæĦı":7235,"é©¾":7236,"ä½ľè©ŀ":7237,"è£Ŀç½®":7238,"å¹¹ç·ļ":7239,"éĥ½è¢«":7240,"åĪĨæĪĲ":7241,"æľĢéĩįè¦ģçļĦ":7242,"è·ĭ":7243,"éĻįæ°´":7244,"Ġfrom":7245,"åĪ©æĸ¯":7246,"æħ°":7247,"CP":7248,"åį¡æĸ¯":7249,"ool":7250,"èĥģ":7251,"åĬłéĢŁ":7252,"æĺĶ":7253,"çĶŁäºİ":7254,"é«ĺéģĶ":7255,"èĿ¶":7256,"çĲīçĲĥ":7257,"çļĦç¬¬":7258,"é«ĺåİŁ":7259,"èĩªæŃ¤":7260,"åı¯è¦ĭ":7261,"ç±³å°Ķ":7262,"æ²ĻçĶ°":7263,"èĵ¬":7264,"çĶŁçĲĨ":7265,"è·Į":7266,"å°¼åħĭ":7267,"å¨¶":7268,"çĦļ":7269,"åĽĽæľĪ":7270,"åĬĩæĥħ":7271,"åĪĽå»º":7272,"ä¸ŃåĽ½çļĦ":7273,"éĺ³åİ¿":7274,"çĲĨæŁ¥":7275,"å·¥å»ł":7276,"èĦĬ":7277,"åĮĪå¥´":7278,"éģ²":7279,"åķĨåºĹ":7280,"æĴ¤éĢĢ":7281,"ä¿±æ¨Ĥ":7282,"NBA":7283,"æŃ¦è£Ŀ":7284,"å¤ļæķ°":7285,"ä¸¦ä»¥":7286,"ãģĦ":7287,"å±ħä½ıåľ¨":7288,"èĤĩ":7289,"æĢ»çĿ£":7290,"æĪĲçĤºäºĨ":7291,"æ¶Īè²»":7292,"TS":7293,"åİ¿çº§":7294,"èģ·æ£Ĵ":7295,"åĬłåĵ¥":7296,"åĮĸçŁ³":7297,"å¸¶ä¾Ĩ":7298,"çĸĬ":7299,"èĬĿåĬłåĵ¥":7300,"æľĥåĵ¡":7301,"è¼»":7302,"åĥļ":7303,"æĲ¶":7304,"çĪ±å°Ķ":7305,"å¹³æ°ĳ":7306,"å¤§æī¹":7307,"äºĮæľĪ":7308,"amb":7309,"æİ©":7310,"èµ¢":7311,"èº«ä¸Ĭ":7312,"ä»İäºĭ":7313,"ç¶²éłģ":7314,"æ¼³":7315,"åħµåĬĽ":7316,"æī©å¤§":7317,"ä¸ĥæľĪ":7318,"æ¸¬éĩı":7319,"æħĪåĸĦ":7320,"æĹ¥å¾Į":7321,"æĪ°çķ¥":7322,"ech":7323,"èı²å¾ĭè³ĵ":7324,"çī©ç§į":7325,"æ¡Ĳ":7326,"æ»¡è¶³":7327,"æĺİä»£":7328,"éĢ¾":7329,"æĸ¯åħĭ":7330,"éĢļçŁ¥":7331,"æľīä¸ī":7332,"ä¸»åĶ±":7333,"æ³¢ç½Ĺ":7334,"æĵ´å¤§":7335,"æĸ¬":7336,"äººæŃ»äº¡":7337,"çĶ¨ä»¥":7338,"å¯¦çı¾":7339,"ï¼ļï¼ī":7340,"é£Ľå½Ī":7341,"åĤ³åªĴ":7342,"ä¸ĭäºĨ":7343,"èĬĻ":7344,"åħ©èĢħ":7345,"æķ´åĲĪ":7346,"åŁºçĿ£å¾Ĵ":7347,"åŁİåł¡":7348,"èĪŀè¹Ī":7349,"å¤ªç¥ĸ":7350,"èĸĩ":7351,"æľĥçļĦ":7352,"line":7353,"éĤı":7354,"èħ¾":7355,"ç½Ĺé©¬å¸ĿåĽ½":7356,"å¤§æ©ĭ":7357,"é¦ĸå¸Ń":7358,"ç®¡è½Ħ":7359,"æĺ¯æľī":7360,"è´º":7361,"æµ·åįĹ":7362,"CH":7363,"æĿ±åįĢ":7364,"ç©ºæ°£":7365,"æ¸ħæ¥ļ":7366,"ç£¯":7367,"äºĶä¸ĸ":7368,"ç¥ŀè©±":7369,"å¹»æĥ³":7370,"FF":7371,"äºĭä¸ļ":7372,"å±±åįĢ":7373,"Ã¡":7374,"ä»ĵ":7375,"åŃ¸çļĦ":7376,"åĸ·":7377,"OM":7378,"çķľ":7379,"åĪĨä½Ī":7380,"rid":7381,"çĶ·å¥³":7382,"ash":7383,"åľ¨ä¸Ńåľĭ":7384,"æŁ¬":7385,"å¥§æŀĹåĮ¹åħĭ":7386,"ç¥ĸåħĪ":7387,"ç¼ĸçłģ":7388,"éĢļè¡Į":7389,"å¸«ç¯Ħ":7390,"å§ĵæ°ı":7391,"å¯¹åºĶ":7392,"æĶ¾å°Ħ":7393,"ĠEd":7394,"æĺ¯çĤº":7395,"åºļ":7396,"æĹ¶çļĦ":7397,"å°įå¤ĸ":7398,"ç¥ŀç»ı":7399,"é½¿":7400,"Go":7401,"Ġalign":7402,"è³ĩçĶ¢":7403,"åħĭéĩĮæĸ¯":7404,"ase":7405,"å»¶ä¼¸éĺħè¯»":7406,"çļĦæĥħæ³ģä¸ĭ":7407,"åħĥé¦ĸ":7408,"éĨ«çĶŁ":7409,"æ·ĺæ±°":7410,"ä½¿çĶ¨äºĨ":7411,"éĻĦå±ŀ":7412,"æıĲåĩºçļĦ":7413,"æĥ¯":7414,"æĩ¸":7415,"æħķå°¼":7416,"ç¯®":7417,"æĪĲç«ĭäºĨ":7418,"åĶĲä»£":7419,"Ġed":7420,"åĲĮå¿Ĺ":7421,"ç°½è¨Ĥ":7422,"æ¬Ħ":7423,"éĶĻè¯¯":7424,"æ±Łèĭıçľģ":7425,"åİŁåħĪ":7426,"DP":7427,"çı¾ä»»":7428,"ç¥ŀç¤¾":7429,"äººæīĢ":7430,"å¤©çļĦ":7431,"ç£·":7432,"Ġal":7433,"ãĢĤãĢĮ":7434,"é§ģ":7435,"æĶ¿åħļ":7436,"æĵ¦":7437,"çĶµåı°":7438,"çĻ¾èĲ¬":7439,"è¹¤":7440,"ç°½ç½²":7441,"round":7442,"æī©å±ķ":7443,"æīĺåĭĴå¯Ĩ":7444,"ç¥ŀç¶ĵ":7445,"æĿ±éĥ¨":7446,"èĦī":7447,"ros":7448,"AL":7449,"Ġ12":7450,"åı°åįĹ":7451,"ä¼Ĺå¤ļ":7452,"ç¨®é¡ŀ":7453,"å³¶å¶¼":7454,"æĲŀ":7455,"åľ¨åı°çģ£":7456,"æľīçĿĢ":7457,"ç«ĭåł´":7458,"åĪĴå½Ĵ":7459,"çĪ±å°Ķåħ°":7460,"éĢĶä¸Ń":7461,"çĴĭ":7462,"èĪ°éĺŁ":7463,"oll":7464,"çĳŁå¤«":7465,"éĢłæĪĲçļĦ":7466,"åĦĦåħĥ":7467,"å¸¸ä½ıäººåı£":7468,"ual":7469,"Ġy":7470,"éĥģ":7471,"è¶ķ":7472,"ç§ĳåŃ¦å®¶":7473,"è±Ĳå¯Į":7474,"pp":7475,"å¤ªå®Ĺ":7476,"å±ķè¦½":7477,"éĻ¤æŃ¤":7478,"è«¾è²ĿçĪ¾":7479,"çļĦçĶŁæ´»":7480,"å±±å¸Ĥ":7481,"oci":7482,"èİİçĻ½":7483,"å¤§è§Ħæ¨¡":7484,"éĽĩ":7485,"èĩªæ®º":7486,"è¾½å®ģ":7487,"èĩ³æŃ¤":7488,"å®ľèĺŃ":7489,"åĬ¿åĬĽ":7490,"der":7491,"å¹´é½¡":7492,"ä¸īæľĪ":7493,"ism":7494,"éģŃåıĹ":7495,"éĸ©åįĹ":7496,"å¤©åľ°":7497,"äºĶä»£":7498,"è´§å¸ģ":7499,"æ°®":7500,"å²ģçļĦ":7501,"ä¸»æµģ":7502,"èªŀçļĦ":7503,"è¦ĨçĽĸ":7504,"ç¥Ī":7505,"çĦ¡ç·ļ":7506,"å´ĩæĭľ":7507,"è¶ģ":7508,"æĢ§æł¼":7509,"è¿Ļæ¬¡":7510,"æ·µ":7511,"çŃ¾è®¢":7512,"å½¢çļĦ":7513,"ç¿ħ":7514,"ä¸įä»ħ":7515,"åĭĴæĸ¯":7516,"èµĦäº§":7517,"1910":7518,"åħ·ä½ĵ":7519,"èµ°åĲĳ":7520,"æµĵ":7521,"åħ«æľĪ":7522,"åľĭå®¶çļĦ":7523,"ML":7524,"æĮĤ":7525,"ä¿ĿåĬł":7526,"æħĭåº¦":7527,"Ġth":7528,"çļĦæĹ¥":7529,"ä½ĨåĽł":7530,"ç«ŀäºī":7531,"åĬłå¼·":7532,"åģļæ³ķ":7533,"éģ®":7534,"åĻ¸":7535,"ç»´å°Ķ":7536,"åıĥéģ¸":7537,"Ðµ":7538,"äºĨä»ĸ":7539,"å°ıç»Ħ":7540,"æĻ®åıĬ":7541,"Ġ*":7542,"Pro":7543,"ä¼ª":7544,"æ¯Ĺ":7545,"å¨ģçĪ¾":7546,"æĽ¿ä»£":7547,"åĬ©çĲĨ":7548,"è¿½æ±Ĥ":7549,"å¤©åĲİ":7550,"ĠComp":7551,"è´«":7552,"çĶµè§Ĩåī§":7553,"åĨ¥":7554,"çĲĨå¿µ":7555,"å±±åľ°":7556,"å¢ŀåĬłäºĨ":7557,"å¦¥":7558,"éĸĭå¹ķ":7559,"å¤§å¤«":7560,"éģĭçĶ¨":7561,"èŃ¦åĳĬ":7562,"æ¸©åº¦":7563,"çĥŃå¸¦":7564,"è©ł":7565,"æĦıè¦ĭ":7566,"åį¡çĪ¾":7567,"æŃ£æľĪ":7568,"æĵº":7569,"çĲĥåĳĺ":7570,"è½īæıĽ":7571,"é©¶":7572,"èģ·åĭĻ":7573,"è¿½æº¯":7574,"æĶ¾å¼ĥ":7575,"æľįå½¹":7576,"ç¦Ħ":7577,"å°įæĩī":7578,"iam":7579,"çļĦä»£è¡¨":7580,"åĲĪç´Ħ":7581,"åľĺéļĬ":7582,"å¤§å®¶":7583,"æĢ»éĥ¨":7584,"ç¼ħ":7585,"å®ĭæľĿ":7586,"èĪĪè¶£":7587,"å¤§åĲĮ":7588,"ç·¬":7589,"oph":7590,"äº©":7591,"éĢļå¾Ģ":7592,"ç¢©å£«":7593,"å¤¸":7594,"å§Ķä»»":7595,"è©Ķ":7596,"ãĥ¼ãĥ":7597,"éĴĪå¯¹":7598,"æĸĩèĹĿ":7599,"åĥ¹æł¼":7600,"Ph":7601,"æĢ§åĴĮ":7602,"å°±åı¯ä»¥":7603,"éĺ¿å¯Į":7604,"æ·³":7605,"ä¸ĸçķĮæĿ¯":7606,"æ°ĳä¸»åħļ":7607,"èİ·å¾ĹèĢħ":7608,"è¯Ĺäºº":7609,"ç¾½æ¯Ľ":7610,"æ³¨éĩĭ":7611,"åı¯ä»¥æĮĩ":7612,"ä¸ĺéĻµ":7613,");":7614,"ä¸§":7615,"çļĦåĽ½å®¶":7616,"ä¹Łåı¯":7617,"IM":7618,"åĩĢ":7619,"éĺ¿å¯Įæ±Ĺ":7620,"ä¿±æ¨Ĥéĥ¨":7621,"æĺ¯æĹ¥æľ¬":7622,"ĠEx":7623,"åĪºåı²":7624,"åĬ£":7625,"æľĪåºķ":7626,"å¹´è½»":7627,"åĥĳ":7628,"ç¥Ĳ":7629,"æ¿ķ":7630,"ä¾Ľæĩī":7631,"Lin":7632,"à½":7633,"ï¼Īï¼īãĢĤ":7634,"ä¹ŁåĽłæŃ¤":7635,"èħ°":7636,"Ġwith":7637,"ä¸Ģéĥ¨":7638,"ä¹ĭæĪĺ":7639,"ä¸»ä¹īèĢħ":7640,"ley":7641,"æĪıåī§":7642,"ç©ºæ°Ķ":7643,"ä»ĭç»į":7644,"åĿ¦åħĭ":7645,"åıįèĢĮ":7646,"åĩºæĿ¥":7647,"ican":7648,"åĳĪçı¾":7649,"æ¹ĸåįĹçľģ":7650,"å®īè£Ŀ":7651,"çľ¾å¤ļ":7652,"éĩĮäºļ":7653,"çĻ»ä¸Ĭ":7654,"åħįçĸ«":7655,"çļĦæīĭ":7656,"æ»©":7657,"èĹ¥çī©":7658,"æŃ²çļĦ":7659,"å¤§è¥¿æ´ĭ":7660,"ç¶ĵçĲĨ":7661,"ç´ĦçĤº":7662,"è²¨å¹£":7663,"å¤§éĥ¨ä»½":7664,"éĥ½ä¼ļ":7665,"å¹¾åĢĭ":7666,"æ±¶":7667,"æķ£æĸĩ":7668,"ç»ıéªĮ":7669,"ç»ıåħ¸":7670,"åıĤè°ĭ":7671,"éĮ¦æ¨Ļè³½":7672,"çĮ´":7673,"çļĦè¥¿":7674,"çµĦæĪĲçļĦ":7675,"æ·±åħ¥":7676,"æĹ¥æ²»æĻĤæľŁ":7677,"ime":7678,"æĹ±":7679,"æľĥæľī":7680,"âĢĿï¼ī":7681,"å¤©çİĭ":7682,"å¦ĤåĲĮ":7683,"å¹´æľ«":7684,"enn":7685,"gl":7686,"äººæķ°":7687,"éĥ½ä¸į":7688,"çºªå½ķ":7689,"å®¢è¿Ĳ":7690,"Ad":7691,"åĪĹçĤº":7692,"ä¸¹éº¦":7693,"æĹ¥æŃ£å¼ı":7694,"ä½įç´ł":7695,"æŃ¤äºĭ":7696,"ins":7697,"æĸ°å»º":7698,"èĹīçĶ±":7699,"åĽĽåįģ":7700,"è²¬ä»»":7701,"å¼Ħ":7702,"åıĬåħ¶ä»ĸ":7703,"å®£åĳĬ":7704,"åĨ³è®®":7705,"OV":7706,"å¹´å¹³åĿĩ":7707,"éĴ¦":7708,"åŁĥå°Ķ":7709,"è®°èĢħ":7710,"åħ§åľ°":7711,"ç¹©":7712,"çĹħéĢĿ":7713,"æīĢéľĢ":7714,"æĶ¹åĲįçĤº":7715,"è¿Ļæł·çļĦ":7716,"US":7717,"ystem":7718,"å¾ĮèĢħ":7719,"ç¦½":7720,"è¡įçĶŁ":7721,"ç³ķ":7722,"éĥ½åı¯ä»¥":7723,"å°ĳæķ°æ°ĳæĹı":7724,"!!":7725,"æĪĲéķ·":7726,"æĹ¶ä»»":7727,"åĵ¡å·¥":7728,"é½ĭ":7729,"çĽĨåľ°":7730,"å¾Ļ":7731,"ä¸ªéķĩ":7732,"éĻĦå±¬":7733,"æĪļ":7734,"ç²¾éĿĪ":7735,"çľŁå¯¦":7736,"å·¥åķĨ":7737,"èªįåĲĮ":7738,"ç¦¹":7739,"èĴĻçī¹":7740,"èĵĦ":7741,"å±ķå¼Ģ":7742,"å¨ģèĥģ":7743,"æ²¿å²¸":7744,"ject":7745,"åĿĿ":7746,"æĥħåł±":7747,"éĩĮçļĦ":7748,"æķĻç§ĳ":7749,"åħ³æ³¨":7750,"æĶ»æīĵ":7751,"è¡ĮæĶ¿éķ·å®ĺ":7752,"éĽ·æĸ¯":7753,"å±±çļĦ":7754,"çĥ·":7755,"æħķå°¼é»ĳ":7756,"è½ŁçĤ¸":7757,"åº¶":7758,"éĻ¢éķ¿":7759,"æİ¨å»£":7760,"åı¦ä¸Ģä¸ª":7761,"çĸ«æĥħ":7762,"ä»ĸè¢«":7763,"ç½ļ":7764,"åĲİèĢħ":7765,"å®ļæľŁ":7766,"åĦªåĭ¢":7767,"eth":7768,"æĸĹäºī":7769,"à¸":7770,"è´£ä»»":7771,"åŃĶåŃĲ":7772,"åĩºåľŁ":7773,"è½°":7774,"å¦Ĥä»Ĭ":7775,"åħ¶ä»ĸçļĦ":7776,"æĻºèĥ½":7777,"çī©çĲĨåŃ¦":7778,"ä¹ĭä¸Ĭ":7779,"è¶ĭ":7780,"ĠCo":7781,"æĬĢå·§":7782,"æĸĩèīº":7783,"ç¨®æĹı":7784,"åĬŀåħ¬å®¤":7785,"åŁ¹åħ»":7786,"ç¥Ńç¥Ģ":7787,"æľµ":7788,"å¼ĵ":7789,"å½¼æŃ¤":7790,"1916":7791,"æĭįæĳĦ":7792,"éķ·åº¦":7793,"åīĩçĤº":7794,"é»ĳé¾Ļæ±Ł":7795,"ç¬¬ä¸īæ¬¡":7796,"æĸĩåĮĸçļĦ":7797,"ãĢģãĢĬ":7798,"å¾·èı¯":7799,"æł¼éĩĮ":7800,"åĳ¨æľŁ":7801,"æĸ¯å¤§æŀĹ":7802,"æħĺ":7803,"è¾¦åħ¬å®¤":7804,"ĠMar":7805,"åĬłçĽŁ":7806,"ä¸Ńåľĭåħ±çĶ¢é»¨":7807,"åħ¬äº¤":7808,"çıĢ":7809,"éĢĻæ¬¡":7810,"å¾Īå¤§çļĦ":7811,"çĻ¼éĽ»":7812,"çº¢èī²":7813,"éłĲè¨Ī":7814,"ä¹ĭçĤº":7815,"æ³¢çī¹":7816,"è©©äºº":7817,"èīĻ":7818,"ä¸ĵåĮº":7819,"è£¡çļĦ":7820,"oth":7821,"ï¼ī-":7822,"å¥³ä¸»è§Ĵ":7823,"åįĢåħ§":7824,"åĥıæĺ¯":7825,"å¼ĹéĽ·":7826,"è³Ĭ":7827,"éĿŀæ³ķ":7828,"æŃ£éĿ¢":7829,"att":7830,"é¶´":7831,"ï¼ĪãĢĬ":7832,"ï¼īãĢģãĢĬ":7833,"åĭĺ":7834,"éĹĬ":7835,"æıĲçĲ´":7836,"æĮĩæİ§":7837,"éºĵ":7838,"çŁ³åĻ¨":7839,"edia":7840,"iel":7841,"æĺ¯æľĢ":7842,"çĶ¨æĪ¶":7843,"1905":7844,"çļĦè©±":7845,"ans":7846,"ç¬¬ä¸Ģæ¬¡ä¸ĸçķĮå¤§":7847,"ä½ľæ¥Ń":7848,"æķ´é«Ķ":7849,"æĥ³æ³ķ":7850,"åħ¬æĸ¤":7851,"åľĭåĭĻ":7852,"æīĢå±¬":7853,"å´Ĺ":7854,"æĢ»éĿ¢ç§¯":7855,"è¥²æĵĬ":7856,"çĬ¹å¤ªäºº":7857,"çļĦç¬¬äºĮ":7858,"ï¼Īï¼Ľ":7859,"æĢ¨":7860,"è¬Ļ":7861,"èµĦæľ¬":7862,"èª¬":7863,"çİĽä¸½":7864,"åĨħæĪĺ":7865,"åħŃæľĪ":7866,"ä»¥ä¾¿":7867,"çĽ®çļĦæĺ¯":7868,"ä¸įä½Ĩ":7869,"å°ĩéłĺ":7870,"amp":7871,"å¼ŁåŃĲ":7872,"æµĻæ±Łçľģ":7873,"åľ¨æĸ°":7874,"åľ¨ä»ĸçļĦ":7875,"å±¯éĸĢ":7876,"çª®":7877,"åı¸é©¬":7878,"é¦Ļæ¸¯æĶ¿åºľ":7879,"å¹¿åĳĬ":7880,"èŃīå¯¦":7881,"çī¹åĪ«æĺ¯":7882,"åĳ¼åĲ¸":7883,"è¼»å°Ħ":7884,"çļĦåİĨåı²":7885,"ãĢĤãĢĤ":7886,"çŁ£":7887,"æĭľåįł":7888,"æĤ¬":7889,"èĪ±":7890,"ä¹ĲéĺŁ":7891,"ä¿ĥéĢ²":7892,"å¡Ĺ":7893,"æł¼åĭĴ":7894,"éĩįè¦ĸ":7895,"åįģäºĮæľĪ":7896,"ä¸įåĥħ":7897,"ç¬Ľ":7898,"çº³ç²¹":7899,"éĶģ":7900,"mm":7901,"çĪª":7902,"ä½ĨçĶ±æĸ¼":7903,"çļĦåŁºæľ¬":7904,"çĤ³":7905,"ä¹ĭåĲį":7906,"åį°è±¡":7907,"ĠWorld":7908,"æ²¿çĶ¨":7909,"ç¦ıå»ºçľģ":7910,"éļ¨åį³":7911,"æĬĹèŃ°":7912,"ç§¯æŀģ":7913,"äºŀæŃ·å±±å¤§":7914,"aur":7915,"èĭ¥å¹²":7916,"ä¸įå¾Ĺä¸į":7917,"è¾£":7918,"æįŁå¤±":7919,"æľīåı¯èĥ½":7920,"èĪĩåħ¶":7921,"å»ºåĪ¶":7922,"åŁºæľ¬ä¸Ĭ":7923,"ä¹ĭå¥³":7924,"çŃīçļĦ":7925,"çĭ®":7926,"åĽŀæĩī":7927,"ild":7928,"çº¢åĨĽ":7929,"çī¹åĪ¥è¡ĮæĶ¿åįĢ":7930,"åĩºçı¾åľ¨":7931,"ä¸»é¡ĮæĽ²":7932,"ä¸ĢçĶŁ":7933,"çī¹æĭī":7934,"äº¤æĺĵæīĢ":7935,"é»ĳæļĹ":7936,"æĿ±äº¬éĥ½":7937,"å®¿èĪį":7938,"å¤©æĸĩåı°":7939,"ä½ĳ":7940,"åģ½":7941,"éģŃéģĩ":7942,"æ¬¡åħ¨åĽ½":7943,"å°±åľ¨":7944,"èĩĤ":7945,"åŁł":7946,"æ°ĳä¼Ĺ":7947,"é¦Ļæ¸¯éĽ»å½±":7948,"ãĢĢãĢĢ":7949,"åĦŁ":7950,"æķ´çĲĨ":7951,"æİ¢ç´¢":7952,"ç¶ĵçĶ±":7953,"æĹıèĩªæ²»":7954,"æ¸ħåįİ":7955,"èĲ¬åħĥ":7956,"éĨī":7957,"ons":7958,"é¦ĸä»»":7959,"å¹²éĥ¨":7960,"å¥¹åľ¨":7961,"åİĺç±³":7962,"éĬ·éĩı":7963,"çļĦä¸ĸçķĮ":7964,"ä¸Ńèı¯æ°ĳåľĭæĶ¿åºľ":7965,"èĭıå·ŀ":7966,"çĳªéºĹ":7967,"åıįæĬĹ":7968,"ç§°ä½ľ":7969,"ä¹¦ç±į":7970,"250":7971,"ä¸ĭä¾Ĩ":7972,"æĶľ":7973,"åĺĹè©¦":7974,"ä¸Ńæµ·":7975,"éĢļè½¦":7976,"æĸĩå¸Ŀ":7977,"éĵº":7978,"ä¸¤äºº":7979,"æĪĲæŀľ":7980,"ä¸¦çĦ¡":7981,"åı¯æĺ¯":7982,"æĶ¹åĪ¶":7983,"é¸¿":7984,"Ġcol":7985,"èįĬ":7986,"æĤ¼":7987,"é¤Ĳå»³":7988,"èĩºä¸Ńå¸Ĥ":7989,"åĲ»":7990,"é¨°":7991,"çĶ¢çĶŁçļĦ":7992,"éģ©åĲĪ":7993,"å¤§è¦ıæ¨¡":7994,"æĿĨ":7995,"æ³ķä»¤":7996,"è·¯å¾·":7997,"çļĦæŃ·åı²":7998,"åĨ³èµĽ":7999,"å¼ĢéĢļ":8000,"çĮ«":8001,"å½¢æĢģ":8002,"ï¼ļãĢĪ":8003,"çº¬":8004,"åĻ¶":8005,"æ²Ļæ¼ł":8006,"æ¬ł":8007,"åĪĨè§£":8008,"éĢ±æľŁ":8009,"Ġe":8010,"æĹŃ":8011,"åĿ¤":8012,"å½Ĺ":8013,"èµĲ":8014,"æĶ¹ç¼ĸ":8015,"æİ¥èĳĹ":8016,"ames":8017,"å¯«ä½ľ":8018,"äºĨä¸ĢäºĽ":8019,"è¯ı":8020,"å¤ļç¨®":8021,"ç»´æĮģ":8022,"èı²åĪ©":8023,"ç¹ģæ®ĸ":8024,"åĢĻéģ¸äºº":8025,"åħ¨å¹´":8026,"æŃ»åĪĳ":8027,"åħ¶ä¸Ńä¸Ģ":8028,"ç¨ļ":8029,"ä¸ŃåľĭçļĦ":8030,"çİĩé¢Ĩ":8031,"å¸Ĩ":8032,"åĨħéĺģ":8033,"çľĭæ³ķ":8034,"åľĭè»į":8035,"æ£ķ":8036,"è½¦è¾Ĩ":8037,"æĥ³è¦ģ":8038,"èį¯çī©":8039,"åľ¨ä¸Ĭæµ·":8040,"æľīä¸Ģä¸ª":8041,"åĴĴ":8042,"ky":8043,"å½Ļ":8044,"åħ¬æľĥ":8045,"æŃ¤æ¬¡":8046,"ç»ĦåĲĪ":8047,"çī¹åĪ¥æĺ¯":8048,"åį±éļª":8049,"ä¸īæ¬¡":8050,"ç³Ĭ":8051,"éŀĭ":8052,"åĲİæľŁ":8053,"é¢¨éļª":8054,"è¦ªèĩª":8055,"ç§ĳå¹»":8056,"ç»ıæµİåŃ¦":8057,"æľĥèŃ°åĵ¡":8058,"ä¿ĥè¿Ľ":8059,"åĤ¾åĲĳ":8060,"èĩ´åĬĽ":8061,"Ġä¸Ń":8062,"æ±ķ":8063,"éĩİçĶŁ":8064,"åĽ°éĽ£":8065,"éļľç¤Ļ":8066,"å¹´åĩºçīĪ":8067,"æ³¨åĨĮ":8068,"æ¬¢è¿İ":8069,"å»Ĥ":8070,"é©¬å°Ķ":8071,"ç³»çµ±çļĦ":8072,"åĪĨåĪ¥æĺ¯":8073,"è¢«æįķ":8074,"èĤ©":8075,"cy":8076,"åı¤å·´":8077,"ver":8078,"æľ¬ç«Ļ":8079,"æĦŁæĥħ":8080,"åĬłå¼º":8081,"çı¾å¯¦":8082,"æ¸ħæ°´":8083,"çļĦèĥ½åĬĽ":8084,"æīĢè°ĵ":8085,"éĢļå¸¸æĺ¯":8086,"åĨ¶":8087,"ä¸įçŁ¥":8088,"ç·¯":8089,"æ²¿éĿ©":8090,"èĤ¯å®ļ":8091,"ä»ķ":8092,"åĴĮå¤§":8093,"äº¤æį¢":8094,"éĺ³å¸Ĥ":8095,"åĽŀæŃ¸":8096,"åĮħæĭ¬äºĨ":8097,"è¯¾ç¨ĭ":8098,"Bl":8099,"è¢«èªįçĤºæĺ¯":8100,"æİĪæ¬Ĭ":8101,"æĴĴåĨ·":8102,"åľ°åŁŁ":8103,"ret":8104,"è¾ĥä¸º":8105,"æĶ¿åįı":8106,"ç¬¬äºĮæ¬¡ä¸ĸçķĮå¤§æĪ°":8107,";\"":8108,"èĢ¶è·¯":8109,"å°įæŃ¤":8110,"ä¸ĳ":8111,"ä¸įåıĹ":8112,"å¾ŀèĢĮ":8113,"ä¸ĬéĿ¢":8114,"åĳ¨éĤĬ":8115,"ç»ĦæĪĲçļĦ":8116,"åĳ¨æģ©æĿ¥":8117,"å¾ŀæŃ¤":8118,"ç¦»åŃĲ":8119,"èĢ¶è·¯æĴĴåĨ·":8120,"åĭ¾":8121,"é®ĳ":8122,"åŁĶå¯¨":8123,"1915":8124,"è»Ĵ":8125,"ç¾İæľ¯":8126,"æĺİç¡®":8127,"å¦¹å¦¹":8128,"å·¥åİĤ":8129,"åµĮ":8130,"é°":8131,"æľīäºĨ":8132,"çĽĹ":8133,"å°Ķçī¹":8134,"ĠBl":8135,"ç¥¨æĪ¿":8136,"æĪĲäºº":8137,"å´ĸ":8138,"è¦ıç¯Ħ":8139,"æŁ¬åŁĶå¯¨":8140,"ä»ĸä¹Ł":8141,"çĪº":8142,"ç©·":8143,"åĽłåħ¶":8144,"èģĶç½ĳ":8145,"çĹĩçĭĢ":8146,"âĪĴ":8147,"ç³»ç»ŁçļĦ":8148,"ä¹¦éĻ¢":8149,"éĺ²ç¦¦":8150,"åĵĪå°Ķæ»¨":8151,"æĺı":8152,"éģĻ":8153,"è¯´æĺİ":8154,"åĤµ":8155,"å¡ļ":8156,"æĽ´çĤº":8157,"çĦ¡è«ĸ":8158,"è·ĳéģĵ":8159,"é¢ľèī²":8160,"ãĢįï¼ī":8161,"çĪŃåıĸ":8162,"åĪĳäºĭ":8163,"æĸĩçļĦ":8164,"èĤ¢":8165,"æĿ±æµ·":8166,"èĸ¦":8167,"çķĶ":8168,"åħ¬ä½Ī":8169,"éģ¸åĩº":8170,"éľĸ":8171,"åħīç»ª":8172,"æµĭè¯ķ":8173,"éĶĢåĶ®":8174,"éģĬè¡Į":8175,"å¤§å¸«":8176,"å¸¸çĶ¨":8177,"é«Ķç³»":8178,"æ¶Ĥ":8179,"åłħæĮģ":8180,"åĵ¥ä¼¦":8181,"ä¸ĭæ¸¸":8182,"é¥Ń":8183,"äºĨä»ĸçļĦ":8184,"ä¾¿æĺ¯":8185,"Ġ11":8186,"çļĦæľĢé«ĺ":8187,"åĨħèĴĻåı¤":8188,"å°ĳå°Ĩ":8189,"çĪĲ":8190,"æ¸¯å³¶":8191,"Sc":8192,"Ġæĺ¯":8193,"å½ª":8194,"æķĻå¾Ĵ":8195,"åı¤è¹Ł":8196,"åıĳè¾¾":8197,"åħ©æ¬¡":8198,"æĥĬ":8199,"æİ¥ä»»":8200,"éģĭè¡Į":8201,"ç·¨æĽ²":8202,"éĽ»è»Ĭ":8203,"çľī":8204,"æĻ®é²ģ":8205,"æ¯ıä¸Ģ":8206,"åľĴåįĢ":8207,"ä¼ļåľ¨":8208,"å¼ºè°ĥ":8209,"æľ«æľŁ":8210,"éĩĭæĶ¾":8211,"ç¤ģ":8212,"ç´įç²¹":8213,"äºĮæ°§åĮĸ":8214,"éĩĳåĥı":8215,"Ġï½ŀ":8216,"åĩºèĩª":8217,"æ¸¯æ¾³":8218,"äººæ¬Ĭ":8219,"åī§éĻ¢":8220,"çĢĳ":8221,"çļĦäººåı£":8222,"ä»·æł¼":8223,"âĦĥï¼Į":8224,"ç¥ŀçļĦ":8225,"è¢«è®¤ä¸ºæĺ¯":8226,"ç¦ħ":8227,"ç¸½è£ģ":8228,"ä¿¡ä»»":8229,"æŃ¦å£«":8230,"åĩłä½ķ":8231,"è«ĩåĪ¤":8232,"ç§©åºı":8233,"èħ¸":8234,"ä¹ĿæľĪ":8235,"åħĶ":8236,"æĸĩåĮĸå¤§éĿ©åĳ½":8237,"çįİæľĢä½³":8238,"çļĦä½ľçĶ¨":8239,"çī©åĵģ":8240,"çĪ¾çļĦ":8241,"æĸ¹ç¨ĭå¼ı":8242,"åĲĬ":8243,"ä¸ĬäºĨ":8244,"åį³æĺ¯":8245,"éĵģéģĵ":8246,"ome":8247,"æ¤İ":8248,"ä¸»è¾¦":8249,"åĮĹä¼Ĳ":8250,"è´ŀ":8251,"å§ĭäºº":8252,"æ³¢å£«":8253,"å¥½åıĭ":8254,"Ġï¼ī":8255,"äº«æľī":8256,"æĮĩå¯¼":8257,"åĳ¨åĽ´":8258,"æľĢæľī":8259,"æ¾İ":8260,"æĸ¯æ´Ľ":8261,"åĪ©çļĦ":8262,"âĢĿï¼Ľ":8263,"éĿ¢åĲĳ":8264,"å¥¥æŀĹåĮ¹åħĭ":8265,"è¡ĮæĶ¿åįĢåĬĥ":8266,"ogle":8267,"è¾±":8268,"101":8269,"åŀ£":8270,"åį±æľº":8271,"éłĴçįİåħ¸ç¦®":8272,"è³Ń":8273,"æľªæĿ¥":8274,"åĬŀåħ¬":8275,"Ġpro":8276,"æł¡èĪį":8277,"èĢĥå¯Ł":8278,"åĨľæĿĳ":8279,"Mac":8280,"åºŀ":8281,"å¤§åŃ¦çļĦ":8282,"ç¨£":8283,"çŃĴ":8284,"å¢ŀéķ·":8285,"å·´åŁº":8286,"å¼ºçĥĪ":8287,"èĻĲ":8288,"åĲĦä¸ª":8289,"æĶ¶è²»":8290,"ç¤¾æľĥä¸»ç¾©":8291,"çļĦä¸Ĭ":8292,"å°įæĸ¹":8293,"urn":8294,"åĩºçĶŁäºİ":8295,"Mar":8296,"å±¥":8297,"ç¢±":8298,"èĢ¶ç¨£":8299,"çļĦæĻĤéĸĵ":8300,"æĻĤåł±":8301,"å®ļä½į":8302,"è¿«ä½¿":8303,"ç¾ħé¦¬å¸Ŀåľĭ":8304,"ä¸»ç®¡":8305,"å·´ä¼Ĳ":8306,"ä¼ļä¸Ĭ":8307,"åıĳèµ·":8308,"çİ°å®ŀ":8309,"æĪĺåĲİ":8310,"æµĭéĩı":8311,"åĽ½æ°ĳæĶ¿åºľ":8312,"ä»¥åħ¶":8313,"æĹ¥æľ¬äºº":8314,"æ£ĢæŁ¥":8315,"æī°":8316,"åĩºçİ°äºĨ":8317,"åĸĿ":8318,"èĨ¨":8319,"ä¸»é¢ĺ":8320,"é¢ĩ":8321,"èĭ±è»į":8322,"åĪĽç«ĭ":8323,"ä»¥è¥¿":8324,"æ´Ľæĸ¯":8325,"èģ°":8326,"çĻ¼å¸ĥ":8327,"åĨĽå§Ķ":8328,"é»Ħæ²³":8329,"èħĵçī¹":8330,"å°±ä»»":8331,"å·´èµ«":8332,"ĠYork":8333,"äººçĶŁ":8334,"å¤ĸäº¤éĥ¨":8335,"å¸ĥæľĹ":8336,"åħħåĪĨ":8337,"èĹ»":8338,"éĽ¢åŃĲ":8339,"æĺ¯ä¸Ģä½į":8340,"èµ¢å¾Ĺ":8341,"çļĦåħ¬":8342,"å®¹éĩı":8343,"è³ªçĸĳ":8344,"çī½":8345,"åħīç·Ĵ":8346,"æ¼«çĶ»":8347,"äº¿ç¾İåħĥ":8348,"æľĪèµ·":8349,"çļĦç¾İ":8350,"èµł":8351,"æµģäº¡":8352,"å°Ŀ":8353,"ç¨±ä½ľ":8354,"ited":8355,"ãĤ·":8356,"ric":8357,"å¹³å®ī":8358,"åİŁåĪĻ":8359,"åĵĪéĩĮ":8360,"è¾ĵåħ¥":8361,"èĳĹçļĦ":8362,"æĩ¿":8363,"èĢ¶åĴĮ":8364,"1908":8365,"éĸĴ":8366,"èĻŀ":8367,"ground":8368,"è¯ŃçļĦ":8369,"æİ§èĤ¡":8370,"ĠRe":8371,"ç½ķé»ĺ":8372,"åľ°ä¸Ĭ":8373,"æľºåĻ¨":8374,"æĽ¾è¢«":8375,"çĶµèĦĳ":8376,"DS":8377,"åĪĨç¦»":8378,"å±±åı£":8379,"éķ¿åº¦":8380,"éĺĶ":8381,"éľľ":8382,"çľģçļĦ":8383,"èħĵçī¹çĥĪ":8384,")ï¼Ī":8385,"ä¸ľæ±ī":8386,"æĲįå¤±":8387,"åĩĮæĻ¨":8388,"GN":8389,"æĭľåįłåºŃ":8390,"Ġâ":8391,"çķı":8392,"ale":8393,"æŃ»åĲİ":8394,"æŃ·ä»»":8395,"æĻļæľŁ":8396,"ç¿Ĵæħ£":8397,"åĪĨéĽ¢":8398,"çĽ´æĴŃ":8399,"ç¢ºèªį":8400,"ç¶łèī²":8401,"æĪĲå¹´":8402,"æŃ£æĺ¯":8403,"Ñģ":8404,"ä½Ĩä¸į":8405,"åĲīä»ĸ":8406,"çµķå°į":8407,"å©¦å¥³":8408,"èĦ«éĽ¢":8409,"é¦ĸåºľ":8410,"back":8411,"è»įå®ĺ":8412,"æĳĩ":8413,"è§ĦèĮĥ":8414,"å°ĭæī¾":8415,"ä¸ŃåŃĲ":8416,"éĺľ":8417,"åĬłåħ¥äºĨ":8418,"å®īå¨ľ":8419,"å¸ĥéŃ¯":8420,"è¨Ģè«ĸ":8421,"3000":8422,"uk":8423,"ÑĢ":8424,"è¥¿åħĥ":8425,"å£³":8426,"ä¸¤æ¬¡":8427,"è¶ħçº§":8428,"EM":8429,"ä¸ŃçĴ°":8430,"ä¼ļçļĦ":8431,"èĩī":8432,"æ¬º":8433,"åįĢèŃ°æľĥ":8434,"å¥´éļ¶":8435,"ä¸ŃçŃī":8436,"äº¤çķĮ":8437,"Ġbgcolor":8438,"ä¼ĺç§Ģ":8439,"éĽįæŃ£":8440,"åįĹæĬķ":8441,"çģĺ":8442,"æīĭä¸Ń":8443,"å°ıå§Ĳ":8444,"ç§įæĹı":8445,"æĥħåĨµä¸ĭ":8446,"æĸĩæľ¬":8447,"å¤ļåĲį":8448,"éĩįçļĦ":8449,"ãĤ¸":8450,"ç¸½çĿ£åºľ":8451,"Ġç¬¬":8452,"äº¤æıĽ":8453,"ĠLe":8454,"åĪĹä¸º":8455,"çĽĳçĿ£":8456,"éĻ¤æŃ¤ä¹ĭå¤ĸ":8457,"çļĦæĥħåĨµä¸ĭ":8458,"åľ¨åīį":8459,"æ¸Ķ":8460,"æĻ®éŃ¯":8461,"1907":8462,"å¯µ":8463,"çľģçº§":8464,"åľ£ç»ı":8465,"å±¿":8466,"1906":8467,"å¸ĥé²ģ":8468,"èĩºçģ£çľģ":8469,"ä»ªå¼ı":8470,"112":8471,"ower":8472,"åĦªç§Ģ":8473,"çļĦåħī":8474,"ä¸»åł´":8475,"éĮĦéŁ³":8476,"ç©Ĩç½ķé»ĺ":8477,"ä¸ľäº¬":8478,"æĨĤ":8479,"ä¸ģåł¡":8480,"åĲĮæĹ¥":8481,"ĠII":8482,"ä¼ĺåĬ¿":8483,"è¨Ģäºº":8484,"æ®ºå®³":8485,"å¸³":8486,"éĿłè¿ĳ":8487,"å±±æĿ±":8488,"å±±åİ¿":8489,"ç¥ŀè¯Ŀ":8490,"çį²çįİ":8491,"æ¬¡åŃĲ":8492,"æ·»åĬł":8493,"ä¾¨":8494,"åĩºæ¼Ķ":8495,"éĹľéĸī":8496,"åį³åı¯":8497,"éģºçĶ¢":8498,"çī¹åįĢ":8499,"èµ·åĪĿ":8500,"åĲįç¾©":8501,"æ£Ł":8502,"ç§»äº¤":8503,"ST":8504,"å·´åĭĴ":8505,"form":8506,"æľīç·ļ":8507,"æ½®å·ŀ":8508,"æĺ¯åĢĭ":8509,"çĽ²":8510,"æŃ¥æ§į":8511,"æį·åħĭ":8512,"æ±īæĹı":8513,"é«ĺçŃīæķĻèĤ²":8514,"æĶ¶è¦ĸ":8515,"çªĦ":8516,"åıĳåĬ¨æľº":8517,"ä»ĸäºº":8518,"åħ¬æīĢ":8519,"ï¼ļï¼Ī":8520,"åľ°åĿĢ":8521,"æ¼Ĥ":8522,"æĶ¹ç§°":8523,"ĠãĢģ":8524,"æĮº":8525,"ä¾ĿéĿł":8526,"æĵ´å¼µ":8527,"èª°":8528,"å°ĶçļĦ":8529,"æŃ£ç¢º":8530,"åīĩæľī":8531,"è½¬ç§»":8532,"ä¸Ģæ¢Ŀ":8533,"éŁ¶":8534,"èįĨ":8535,"ä¸ĸçķĮçļĦ":8536,"æ¶Īéĺ²":8537,"åĿļæĮģ":8538,"æ¼Ĩ":8539,"æĺİç¢º":8540,"æĶ¹èī¯":8541,"å¨ģå°¼æĸ¯":8542,"ternational":8543,"ä½ıåľ¨":8544,"äºĭå¯¦ä¸Ĭ":8545,"af":8546,"ä»¥å¾Ģ":8547,"æĺİçļĦ":8548,"å¥¥å°Ķ":8549,"de":8550,"åĽłæĩī":8551,"æķĪæĩī":8552,"ä¾µçķ¥":8553,"æ°Ł":8554,"èı¯çĽĽ":8555,"ä¹ĲåĽ¢":8556,"é¹¤":8557,"åģĩè¨Ń":8558,"å¼Ģå±ķ":8559,"ãģ¨":8560,"åĽĽå·Ŀçľģ":8561,"èº«ä½ĵ":8562,"èĻķçĲĨåĻ¨":8563,"å¸¸è¦ĭçļĦ":8564,"HE":8565,"å¤ļåħĥ":8566,"å¸Ĥéķ¿":8567,"éĺ¿å§Ĩ":8568,"å¥®":8569,"åįĹæľĿ":8570,"æ»ķ":8571,"ãĢĭï¼Īï¼ī":8572,"é¬Ĩ":8573,"éħµ":8574,"è¶³çĲĥéģĭåĭķåĵ¡":8575,"åŀĤçĽ´":8576,"res":8577,"ä¾ĨåĪ°":8578,"æ£²":8579,"åĽŀçŃĶ":8580,"éħįç½®":8581,"åįĹè¶Ĭ":8582,"åĲĪçĲĨ":8583,"çĻ»éĻ¸":8584,"çļĦåŁºç¡Ģ":8585,"å¤Ł":8586,"åºµ":8587,"çľŁæŃ£çļĦ":8588,"èµĦéĩĳ":8589,"èı¯çĽĽéłĵ":8590,"é¢±":8591,"ä¿Ŀç½Ĺ":8592,"å¤ªåİŁ":8593,"çĮª":8594,"åİĭåĬĽ":8595,"åħ§æĪ°":8596,"èĢ³æĽ¼":8597,"è»įåľĺ":8598,"è£ģåĪ¤":8599,"é¼ĵåĭµ":8600,"éķ·éģĶ":8601,"ĠMan":8602,"è¡Ģæ¶²":8603,"åĳ¨è¾¹":8604,"1895":8605,"é£²é£Ł":8606,"å¹´å¤ıåŃ£":8607,"æĸ°äºº":8608,"ä¿Ŀéļª":8609,"çµĲæĿŁå¾Į":8610,"ä¹ĭçĪ¶":8611,"éģĵå¤«":8612,"å¼ķåĬĽ":8613,"ä¼ļåĳĺ":8614,"é´ī":8615,"Ð½":8616,"1909":8617,"å¤«æĸ¯åŁº":8618,"æĺ¯åĽłçĤº":8619,"éĩįéĩı":8620,"æ¢Ń":8621,"åħ©åľĭ":8622,"åĽŀæĨ¶":8623,"iew":8624,"UND":8625,"èįĥçģ£":8626,"æľĢçĤº":8627,"çĻ¼éŁ³":8628,"å·²æĸ¼":8629,"éģĩåĪ°":8630,"ç«ĭæ³ķéĻ¢":8631,"èĪªç·ļ":8632,"çĶ·ä¸»è§Ĵ":8633,"æŃ²æĻĤ":8634,"æĿı":8635,"éĢĻæ¨£çļĦ":8636,"æĻĤæ®µ":8637,"çļĦéĹ®é¢ĺ":8638,"ä¸ĢæĹ¦":8639,"ä½Ļäºº":8640,"çĳ°":8641,"éĢ£ä»»":8642,"è®ºæĸĩ":8643,"æľĢé«ĺæ³ķéĻ¢":8644,"å«©":8645,"å¯ħ":8646,"éĽ»åĬĽ":8647,"çħ®":8648,"1902":8649,"ãĢľ":8650,"å®¶åº·":8651,"åħĭèİ±":8652,"ä½ĵåĪ¶":8653,"Sp":8654,"ç«ĻçļĦ":8655,"çĹķ":8656,"æķĪåĬĽ":8657,"ç«ĭæ³ķå§Ķåĵ¡":8658,"mp":8659,"çĨĶ":8660,"è¾²æ°ĳ":8661,"æ©ŁçļĦ":8662,"éĢ£è¼ī":8663,"åĽ¾åĥı":8664,"çŁŃç¯ĩ":8665,"æ±ģ":8666,"èĭıæł¼åħ°":8667,"é§¿":8668,"æ®ºæŃ»":8669,"ä¹Įåħĭåħ°":8670,"æī§æĶ¿":8671,"åĭŀåĭķ":8672,"æĮĩå°İ":8673,"æĬķæīĭ":8674,"å¸¦æĿ¥":8675,"ç°¡ä»ĭ":8676,"ĠOr":8677,"å¥¸":8678,"ãĢīãĢĤ":8679,"ava":8680,"é«ĺå®Ĺ":8681,"åħ¥å¢ĥ":8682,"1904":8683,"äºĴèģĶç½ĳ":8684,"æİ¥è§¦":8685,"å¹¶éĿŀ":8686,"æľºä¼ļ":8687,"ograp":8688,"å§Ĭå¦¹":8689,"æĸ¯æīĺ":8690,"åĮºåĪ«":8691,"å¤§æ¥¼":8692,"æł¡åįĢ":8693,"æĹłçº¿":8694,"åĸ®ä¸Ģ":8695,"å¥ķ":8696,"è¡Įé§Ľ":8697,"æĸ¼é¦Ļæ¸¯":8698,"å¸¸åĬ¡":8699,"ä¸Ńéĸĵ":8700,"ance":8701,"é©¬åħĭæĢĿ":8702,"å·´åŁºæĸ¯åĿ¦":8703,"æĹ¥èªŀ":8704,"åı¯ä»¥çĶ¨":8705,"BM":8706,"æĮĩçļĦæĺ¯":8707,"èģ¯ç¹«":8708,"çĶµè¯Ŀ":8709,"åĽłæŃ¤åľ¨":8710,"ä»įåľ¨":8711,"1901":8712,"åĬłåĪ©ç¦ı":8713,"SP":8714,"ius":8715,"æ³ķå®ļ":8716,"çľ¾èŃ°éĻ¢":8717,"ç¾İçļĦ":8718,"éĹľéįµ":8719,"åĬĩéĽĨ":8720,"éĢ±å¹´":8721,"æª¢æŁ¥":8722,"HT":8723,"èµ¶":8724,"åįĹæĺĮ":8725,"è´´":8726,"èĳ£äºĭéķ·":8727,"UT":8728,"æľĶ":8729,"çĪ¾å¾·":8730,"itt":8731,"æĬ¥çº¸":8732,"è¯·æ±Ĥ":8733,"æ²³åĮĹçľģ":8734,"ald":8735,"Ġi":8736,"é¢±é¢¨":8737,"IR":8738,"åı¯åľ¨":8739,"åīįèĢħ":8740,"ä¿Ŀè¯ģ":8741,"èĭĹæłĹ":8742,"æĲľç´¢":8743,"äºļåİĨå±±å¤§":8744,"):":8745,"åĴĢ":8746,"éĩĮåħĭ":8747,"å¸¶æľī":8748,"idth":8749,"è¿Ł":8750,"éłĺå°İäºº":8751,"sc":8752,"è°ĪåĪ¤":8753,"rist":8754,"éĳ¼":8755,"è´Ńä¹°":8756,"ä¸Ĭæ¸¸":8757,"å»ºåľĭ":8758,"æįī":8759,"åĸľæ¬¢":8760,"æĴ¥":8761,"æ¶Īè´¹":8762,"æ°ĳæĶ¿":8763,"çī¹çĤ¹":8764,"æķ¸ç¢¼":8765,"å±Ģéķ·":8766,"æİ¨åĬ¨":8767,"å®ģæ³¢":8768,"å°ıè¡ĮæĺŁ":8769,"åįİçĽĽ":8770,"çªŁ":8771,"Ġ16":8772,"åįģäºĮå¹´":8773,"cc":8774,"å¤§å¤§":8775,"ä¹ĭèĻķ":8776,"æľĥè¢«":8777,"ç§ĳçłĶ":8778,"åıĪæľī":8779,"è¯ģæį®":8780,"å°Ĭéĩį":8781,"éıĪ":8782,"æĹıäºº":8783,"åĲĮä½įç´ł":8784,"ä¸ŃåĽ½ç§ĳåŃ¦éĻ¢":8785,"æĶ¯æµģ":8786,"åĤ³å¥ĩ":8787,"åĿĩæľī":8788,"åĩºçİ°åľ¨":8789,"å¾ªçĴ°":8790,"ç·¨åĬĩ":8791,"éł»çİĩ":8792,"ä¸ĭåįĬ":8793,"æ½°":8794,"åŃ£å¾Į":8795,"ä¸ŃéĹ´":8796,"åĩºåħµ":8797,"äºĭçī©":8798,"çĶµåĬĽ":8799,"RNA":8800,"èĩªä¸»":8801,"å·¥èīº":8802,"æ©ŁåĪ¶":8803,"åĽ½éĻħæľºåľº":8804,"GP":8805,"å¸Ĥè¾ĸåĮº":8806,"æĬµè¾¾":8807,"éĽ¶åĶ®":8808,"åĬłæĸ¯":8809,"ere":8810,"åĮł":8811,"ä¸ĸçļĦ":8812,"III":8813,"æ°£é«Ķ":8814,"ä¸ĸä»£":8815,"åįİçĽĽé¡¿":8816,"ford":8817,"å¢¾":8818,"å°Īå®¶":8819,"æ°£æº«":8820,"è¿Ĳæ²³":8821,"å±±ä¸ľçľģ":8822,"IF":8823,"Ġx":8824,"ä¸ŃæĹ¥":8825,"æīŃ":8826,"åįĹä¸ĭ":8827,"å½ĵå¹´":8828,"ä¸Ńå¤®å§Ķåĳĺä¼ļ":8829,"è£ĿåĤĻ":8830,"ç½¢":8831,"å¾·åįİ":8832,"é¤ħ":8833,"ove":8834,"é¯¨":8835,"åĬĩåł´çīĪ":8836,"Ġ17":8837,"å½¦":8838,"è§Ĥæµĭ":8839,"æ³Į":8840,"ise":8841,"åºŁéĻ¤":8842,"éģĵåħī":8843,"æĪ°åł´":8844,"åĮħåľį":8845,"ä»İæŃ¤":8846,"æĦĽæĥħ":8847,"ä¼Ĳåħĭ":8848,"è¡Įäºº":8849,"å©ī":8850,"è¨»åĨĬ":8851,"é»ı":8852,"å¼Ĺæĭī":8853,"åĲĮæĢ§æĪĢ":8854,"åĩŃ":8855,"æ¹ĸåĮĹçľģ":8856,"å¤¾":8857,"ä¸Ģè¯į":8858,"åĩºçĻ¼":8859,"çºĸ":8860,"éĻĦåĬł":8861,"æīĳ":8862,"ç»´åŁĥ":8863,"ä¸»ä¹īçļĦ":8864,"ution":8865,"æĲĸæ»¾":8866,"æİ¥æĽ¿":8867,"du":8868,"å®ļäºĨ":8869,"ä½Ĩåħ¶":8870,"æİ¥ç®¡":8871,"æĹ©ä¸Ĭ":8872,"æ²³åįĹçľģ":8873,"åľ°ä¸Ńæµ·":8874,"è²ª":8875,"å½±è¦ĸ":8876,"çīµ":8877,"è¾¦äºĭ":8878,"æ¤ħ":8879,"erm":8880,"çļĦåŃĺåľ¨":8881,"åľ°å¤Ħ":8882,"åĻ¨å®ĺ":8883,"ä¸ŃæīĢ":8884,"ä½ľçļĦ":8885,"æ±īåŃĹ":8886,"å·®å¼Ĥ":8887,"æº«æ³ī":8888,"çīĽæ´¥":8889,"çīŁ":8890,"èµ¦":8891,"åİŁæľī":8892,"æĮĩæķ¸":8893,"æĪĲåĬŁçļĦ":8894,"èĬŃ":8895,"æıĲåĢ¡":8896,"å¢ŀè¨Ń":8897,"é¢ĳçİĩ":8898,"è¢Ńåĩ»":8899,"å¹¶æľª":8900,"æĽ´åĲįçĤº":8901,"éĽ»è¦ĸç¯ĢçĽ®":8902,"åī¯ä¸»ä»»":8903,"æŃ¦åĬĽ":8904,"éĬĢæ²³":8905,"åı±":8906,"æºĲäºİ":8907,"æ±ºèŃ°":8908,"éĢłåŀĭ":8909,"å¬°":8910,"æĻ®é²ģå£«":8911,"äººåĿĩ":8912,"ç©Ĺ":8913,"é«ĺåı¥":8914,"åĲĦåĢĭ":8915,"ĠAmer":8916,"çĤºåħ¶":8917,"ç§ĢåĲī":8918,"éĢģåĪ°":8919,"æĹ¥èĢ³æĽ¼":8920,"åı²æĸĻ":8921,"åĸī":8922,"çĿĽ":8923,"è§Ģå¡ĺ":8924,"å®Įæķ´çļĦ":8925,"æĶĢ":8926,"ç¶²çĲĥ":8927,"âĢĿï¼ĮâĢľ":8928,"1898":8929,"åĪĨåįĢ":8930,"çķ«å®¶":8931,"é¹°":8932,"å¥³åĦ¿":8933,"èµ£":8934,"æĤłä¹ħ":8935,"å¤§è¡Ĺ":8936,"ç¢į":8937,"çłĶç©¶çĶŁ":8938,"ç¾İåľĭçļĦ":8939,"åħ¬ä¼Ĺ":8940,"äºĭåĭĻæīĢ":8941,"UR":8942,"è¾¹çķĮ":8943,"çĮ¶å¤ªäºº":8944,"æľīè¨±å¤ļ":8945,"æĦıä¸º":8946,"ese":8947,"åĵ²åŃ¦å®¶":8948,"çĶŁæĹ¥":8949,"çįİå¾Ĺä¸»":8950,"çİ«":8951,"åı¤æĭī":8952,"ä¸»ç¾©çļĦ":8953,"çĽ£å¯Ł":8954,"éģķåıį":8955,"åĨĽçļĦ":8956,"å®īè£ħ":8957,"åİ¿åŁİ":8958,"ĠAd":8959,"èįīæ¡Ī":8960,"ç·ĬæĢ¥":8961,"æ²¼":8962,"æ¯ıæ¬¡":8963,"ä¸įåĪ©":8964,"æ³ķäºº":8965,"è½īç§»":8966,"åı¬éĽĨ":8967,"å²Ĳ":8968,"ç¶Ńå¤ļ":8969,"ä¸¹å°¼":8970,"å¤įåħ´":8971,"æµģéĩı":8972,"äºĨä¸ĢåĢĭ":8973,"æĸ°å¢ŀ":8974,"æĿ¥è¶Ĭ":8975,"è¯¢":8976,"åĵº":8977,"æķ°åŃ¦å®¶":8978,"æľĢä¸º":8979,"çģ£ä»Ķ":8980,"æĴ°å¯«":8981,"ound":8982,"è§£éĻ¤":8983,"ä¾¿åĪ©":8984,"ä¸¹éº¥":8985,"ä¾¶":8986,"åĢª":8987,"æ«ĥ":8988,"æ¢ĵ":8989,"æµİåįĹ":8990,"ĠHe":8991,"æ³īå·ŀ":8992,"John":8993,"å¤©é«Ķ":8994,"ç¬¬ä¸Ģéĥ¨":8995,"èŃ°é¡Į":8996,"è¨ĬèĻŁ":8997,"km":8998,"Ġan":8999,"æĸ°åįİ":9000,"è·¯æĺĵæĸ¯":9001,"ä¸įå¦Ĥ":9002,"åįĥäºº":9003,"æĺŁç³»":9004,"ãĢķ":9005,"çĪ¬":9006,"ç½©":9007,"ery":9008,"èı¯èªŀ":9009,"è«ĭæ±Ĥ":9010,"æ£ł":9011,"çīĪçļĦ":9012,"éĤĢè¯·":9013,"åŃ¸å£«":9014,"é¸£":9015,"é¡¾éĹ®":9016,"æĥĳ":9017,"ä¸»è¦ģæľī":9018,"å¹²æ¶ī":9019,"æĻļå¹´":9020,"ä½µåħ¥":9021,"ade":9022,"åĩºéģĵ":9023,"è®¤è¯Ĩ":9024,"åĪĽæĸ°":9025,"ç¹ĶçĶ°":9026,"ä¼°è®¡":9027,"é¦ĸçļĦ":9028,"è¶ĬæĿ¥è¶Ĭ":9029,"ä¸ĩåĲ¨":9030,"ç§»å±ħ":9031,"æķµäºº":9032,"ãĢĶ":9033,"ä¸ªä¹¡":9034,"çĻ¼ä½Ī":9035,"çªģåĩº":9036,"ife":9037,"éļĬéķ·":9038,"çº¿çļĦ":9039,"ii":9040,"æ°´æīģ":9041,"å°ļæĽ¸":9042,"éĽ¨éĩı":9043,"åľ¨è¿Ļ":9044,"æī«":9045,"çºĤ":9046,"çľŁçĲĨ":9047,"ÑĤ":9048,"çİĭçļĦ":9049,"éĩįè¿Ķ":9050,"éĥ½çĿ£":9051,"å¨±":9052,"ä¿¡éķ·":9053,"æ´ģ":9054,"åģ¿":9055,"æ©¡":9056,"èĭ±è¶ħ":9057,"ç¥ŀç§ĺ":9058,"ç§įæ¤į":9059,"é´¨":9060,"Ã¶":9061,"ä¸Ģå¤©":9062,"ç§įç±»":9063,"ä¸īä½į":9064,"ç½¹":9065,"æĶ¶åĪ°":9066,"let":9067,"æĸ½å·¥":9068,"å®ĮæĪĲäºĨ":9069,"äººå¤§å¸¸å§Ķ":9070,"å¹´æĹ¥æľ¬":9071,"åįİäºº":9072,"åĽ°éļ¾":9073,"ä¸ĢæĶ¯":9074,"é¦ĸåº¦":9075,"å¹´æīį":9076,"äº«å¹´":9077,"æĩ·çĸĳ":9078,"æ¬¡åħ¨åĽ½äººåı£æĻ®æŁ¥":9079,"çĢĳå¸ĥ":9080,"æ°´çļĦ":9081,"éĩĳéĸĢ":9082,"æĿ¥åĪ°":9083,"çļĦäººçī©":9084,"æ¯Ľæ¾¤":9085,"èĢ¶å¾ĭ":9086,"èĸ©åħĭ":9087,"å·ŀåĪºåı²":9088,"æİ¨è¿Ľ":9089,"ĠHistory":9090,"èģ²ç¨±":9091,";}-ï¼Ī":9092,"æµªæ¼«":9093,"å¯¹æŃ¤":9094,"æĩĤ":9095,"å±ĢçļĦ":9096,"çİĭæľĿçļĦ":9097,"æ´ĽæĿīç£¯":9098,"æľīä¸ĢåĢĭ":9099,"åĽŀå¿Ĩ":9100,"å®ļä¸º":9101,"ä»»åħ§":9102,"å·´æĸ¯":9103,"èĢĥè¯ķ":9104,"åĳ½åĲįä¸º":9105,"æĻĤä»£çļĦ":9106,"æĪ°é¬¥æ©Ł":9107,"æļ«æĻĤ":9108,"æĿ±åįĹäºŀ":9109,"çī©é«Ķ":9110,"çĭ¹":9111,"æ¤Ĵ":9112,"å°ļä¹¦":9113,"å±łæĿĢ":9114,"åıĳçĶµ":9115,"reat":9116,"åĨĴéļª":9117,"ä¸įåı¯èĥ½":9118,"å¡Į":9119,"ç¤¾ç¾¤":9120,"èĺĨ":9121,"ç±³çļĦ":9122,"æĪĺåĽ½":9123,"å£°æĺİ":9124,"çĬ¶åĨµ":9125,"å²©çŁ³":9126,"èĭ»":9127,"è¼©":9128,"ç¦ıçī¹":9129,"è¿Ĳç®Ĺ":9130,"äººä¹ĭ":9131,"å¤§åŃ¸çļĦ":9132,"æľĪä»½":9133,"ä¸ĭåĪĹ":9134,"çļĦä¸įåĲĮ":9135,"åľ¨äºİ":9136,"ä¸Ģä»£":9137,"åľŁå£¤":9138,"è«¸èĳĽ":9139,"æ¯Ľæ¾¤æĿ±":9140,"FC":9141,"å®£ç¨±":9142,"igh":9143,"åĬĩæľ¬":9144,"Ã¤":9145,"å¼µå°Īè¼¯":9146,"oft":9147,"ï¹":9148,"åľ¨åĮĹ":9149,"çº¤":9150,"è£´":9151,"å·´æ¯Ķ":9152,"ç¡ķå£«":9153,"ç¶ĵæ¿ŁåŃ¸":9154,"çĺ¤":9155,"ç©Ĩç½ķé»ĺå¾·":9156,"æ¨ĤéļĬ":9157,"åł±ç´Ļ":9158,"æŃ¤ä¸Ģ":9159,"ç»´æĬ¤":9160,"rop":9161,"æº¶æ¶²":9162,"å¤§çĲĨ":9163,"åħ¶ä½Ļ":9164,"çŃīæĸ¼":9165,"éĺ²å®Ī":9166,"oo":9167,"è·µ":9168,"åįĹæĸ¯æĭīå¤«":9169,"éłĮ":9170,"äº§çĶŁçļĦ":9171,"www":9172,"æľīå¾Īå¤ļ":9173,"ç¿Įå¹´":9174,"æŃī":9175,"èªĺ":9176,"çĦ°":9177,"é©¬æĸ¯":9178,"æħ¶ç¥Ŀ":9179,"åīĸ":9180,"æĽ¸å¯«":9181,"éĻįèĲ½":9182,"æıĲäº¤":9183,"åĮ»çĸĹ":9184,"çĪ½":9185,"èĬ¬èĺŃ":9186,"éĽķå¡ĳ":9187,"ĠStud":9188,"äº¤æµģéģĵ":9189,"Google":9190,"TVB":9191,"åıĥè¬Ģ":9192,"çīłåĢĳ":9193,"åıł":9194,"éĽģ":9195,"æĸ°çĶŁ":9196,"äººæ°ĳå¸ģ":9197,"æ¹ĸæ³Ĭ":9198,"åħ¨åĽ½éĩįçĤ¹":9199,"çļĦå¾Į":9200,"ç§ī":9201,"æĩ¼":9202,"ings":9203,"JR":9204,"æľĪä¸Ń":9205,"æĦĽçļĦ":9206,"è§Ĥä¼Ĺ":9207,"ä¿ĿæĬ¤åĮº":9208,"æł¼æŀĹ":9209,"æĻ¯é»ŀ":9210,"ä¹ŁæĽ¾":9211,"é»Ħéĩĳ":9212,"æĵ´å±ķ":9213,"æ¡ĤæŀĹ":9214,"AA":9215,"ç¾ļ":9216,"ä¹ĭè·¯":9217,"é¦ĸåĢĭ":9218,"ä¿ĥä½¿":9219,"æµ·åŁŁ":9220,"åħ³éĶ®":9221,"ä½Ĩæĺ¯åľ¨":9222,"ä»»æķĻ":9223,"erl":9224,"Ġ2005":9225,"å®ĮåĸĦ":9226,"1903":9227,"----":9228,"å¤§è³½":9229,"åŁİå¸ĤçļĦ":9230,"çĶ³è¯·":9231,"åĲĮæŃ¥":9232,"èī¯å¥½":9233,"åģļçĤº":9234,"ç»¥":9235,"éĩĳåīĽ":9236,"æ¼ĶèĹĿ":9237,"åĵģè³ª":9238,"è±ļ":9239,"å¹´æĪĲç«ĭ":9240,"åĲĦåľ°çļĦ":9241,"å°ĳçļĦ":9242,"çħī":9243,"çľ¼çĿĽ":9244,"ä¸įåĪĹ":9245,"åı¤èĢģçļĦ":9246,"å¤§è¿ŀ":9247,"èµ·äºĨ":9248,"åħ©ä½į":9249,"å¤§åĬĽ":9250,"ç«ĭéĻ¶":9251,"éĩĮç¨ĭ":9252,"çĽ¸åºĶ":9253,"æł¡åĽŃ":9254,"åŀĭèĻŁ":9255,"éģ¸çĤº":9256,"èı©èĸ©":9257,"çļĦåĬŁèĥ½":9258,"äºĮæĪ°":9259,"çķ¶æĹ¥":9260,"è¿«å®³":9261,"SD":9262,"éĤĵå°ıå¹³":9263,"æĹ¥ç¿¡ç¿łåı°":9264,"åĵŃ":9265,"ä¾Ĩè¶Ĭ":9266,"åħ¶ä¸ŃçļĦ":9267,"æĢĿèĢĥ":9268,"æĽ¼èģ¯":9269,"angu":9270,"äºĭæĥħ":9271,"æ¡¿":9272,"ç´Ħæľī":9273,"åıĺå¾Ĺ":9274,"æłĸ":9275,"å¸¦æľī":9276,"é¾Ļå±ŀ":9277,"å®¦":9278,"çłĸ":9279,"å§Ķæľĥ":9280,"ãģŁ":9281,"åĨĻä½ľ":9282,"ç«£":9283,"è¡Įä½¿":9284,"ini":9285,"æ»ļ":9286,"ç¸½æľĥ":9287,"æĿİçĻ»":9288,"éĢıéľ²":9289,"æĪİ":9290,"æĪĲç»©":9291,"ä½ľçī©":9292,"éħ®":9293,"æĽ´ä¸º":9294,"åħļåĳĺ":9295,"å®ĺæĸ¹ç½ĳç«Ļ":9296,"çĽ¸éĹľçļĦ":9297,"é¸Łç±»":9298,"ä»£æķ°":9299,"èĦı":9300,"æ°¸éģł":9301,"å»¶å®ī":9302,"ç²®é£Ł":9303,"åįĥå¹´":9304,"ç´¢å°¼":9305,"æĸ¯é¡¿":9306,"é»Ľ":9307,"åŃĺçļĦ":9308,"ä¸Ńå¿ĥçļĦ":9309,"éªĳå£«":9310,"çī¹å®ļçļĦ":9311,"ç¡Ŀ":9312,"ä¸ªæľĪ":9313,"å½¢æħĭ":9314,"éĵŃ":9315,"AV":9316,"ä¸ĭæĿ¥":9317,"æł¼æĭīæĸ¯":9318,"åĭī":9319,"arr":9320,"ãĤĭ":9321,"Le":9322,"ony":9323,"çľŁçļĦ":9324,"åĲ«éĩı":9325,"çĽĴ":9326,"æĶ¾éĢģ":9327,"åħ¸åŀĭçļĦ":9328,"å¹³å®ļ":9329,"èĬ½":9330,"æµģåĤ³":9331,"æĸ½è¡Į":9332,"è¡Įèµ°":9333,"ãĢĮ-{":9334,"å¯¡":9335,"çĦ¡éĻĲ":9336,"èªªæĺ¯":9337,"éĩĬæĶ¾":9338,"æĹ¥çĽĬ":9339,"èĭıç»´åŁĥ":9340,"æĬ¢":9341,"ç¾İéºĹ":9342,"æ®ī":9343,"å½¢çĭĢ":9344,"èĨ½":9345,"åĮħåĲ«äºĨ":9346,"å¹´æĺ¥":9347,"é¦¬æĭī":9348,"åı°çģ£çļĦ":9349,"å¦ĩå¥³":9350,"ç±ĥçĲĥ":9351,"èĥĥ":9352,"è»ĬéļĬ":9353,"èĪīè¡ĮçļĦ":9354,"åĮ»åŃ¦éĻ¢":9355,"åĮĹéĥ¨çļĦ":9356,"éŀį":9357,"è¾Ĳ":9358,"åº¦ä½¿":9359,"åĲīæĸ¯":9360,"ä¿Ĺç¨±":9361,"æĿ¡çĽ®":9362,"åĮ»çĶŁ":9363,"çļĦä½¿çĶ¨":9364,"æ¸ħå»·":9365,"æķĳæı´":9366,"ĠVol":9367,"è¾¹å¢ĥ":9368,"æĴ²":9369,"æµģéĢļ":9370,"çĲĥè¿·":9371,"å¡µ":9372,"çļĩå®¤":9373,"æİ¨çĲĨ":9374,"è¶Ĭä¾Ĩè¶Ĭ":9375,"åıĳçİ°äºĨ":9376,"illiam":9377,"ãĥ¬":9378,"è´µå·ŀ":9379,"éĥ¨ç½²":9380,"èĩªæĿĢ":9381,"ä»»å¤©åłĤ":9382,"äººåı£çļĦ":9383,"æĲº":9384,"ç¶Ńå¤ļåĪ©äºŀ":9385,"åľ¨è©²":9386,"åĴĮä»ĸçļĦ":9387,"è¥¿èĺŃ":9388,"aul":9389,"å±ĢéĿ¢":9390,"è³ĩéĩĳ":9391,"åİŁä½ľ":9392,"éķ¿å®ī":9393,"å¹¶å°Ĩ":9394,"âĢ»":9395,"ç¨±ä¹ĭçĤº":9396,"æ¨ĤåľĴ":9397,"ä»¥å¤ĸçļĦ":9398,"åĭģæŃĮ":9399,"åħ¶åŃĲ":9400,"çłĶçĻ¼":9401,"éĻ³æ°´æīģ":9402,"æ©ĺ":9403,"ç§°åı·":9404,"ãģĭ":9405,"åĮª":9406,"ä¸»å°İ":9407,"ä¹Łä¼ļ":9408,"ãĢīï¼ī":9409,"çºº":9410,"èĤĨ":9411,"ç»´ä¹Ł":9412,"æĥ¨":9413,"å¹³è¡Į":9414,"åı£å²¸":9415,"èģ¯è»į":9416,"æĽ¸ä¸Ń":9417,"ç¾¤ä¼Ĺ":9418,"Re":9419,"çļĦä¿¡":9420,"å¤§è¡Ľ":9421,"å¢ľ":9422,"æĬĳåĪ¶":9423,"çļĦæĹ¥æľ¬":9424,"å°¸":9425,"æ¬¡æĸ¼":9426,"éĢĻéłħ":9427,"åįģä¸ĢæľĪ":9428,"->":9429,"äººèĪĩ":9430,"æŃĮåĬĩ":9431,"åıĺä¸º":9432,"åĢŃ":9433,"å®īå¦®":9434,"æ»´":9435,"éĤ£éº¼":9436,"éķĩåİĭ":9437,"ISO":9438,"åħĭåĪ©":9439,"éļĬä¼į":9440,"sch":9441,"å·¦ç¿¼":9442,"çĥıåħĭèĺŃ":9443,"éļ¶å±ŀ":9444,"å¾ªçİ¯":9445,"å¹´ä»¥":9446,"åįĢåĪĨ":9447,"æĺİæ¸ħ":9448,"æľĿæĹ¥":9449,"åįĩæł¼":9450,"ç¢ºä¿Ŀ":9451,"æ»¡æ´²":9452,"éłĨåĪ©":9453,"å¤§åŁĶ":9454,"æľ¬éĥ¨":9455,"åħĭèĲĬ":9456,"ä¸¦èĪĩ":9457,"ç«ĭéĻ¶å®Ľ":9458,"çļĦåħ³ç³»":9459,"è¿Ħ":9460,"éĢļè®¯":9461,"åĬĽåŃ¸":9462,"æ§ĭéĢł":9463,"çº¿æĢ§":9464,"åĳĬè¨´":9465,"èŀ¢":9466,"å¸ĪèĮĥå¤§åŃ¦":9467,"éħĭ":9468,"æĽ¸åºĹ":9469,"å¹´ä»£åĪĿ":9470,"ç¬¬äºĮæ¬¡ä¸ĸçķĮå¤§æĪĺ":9471,"pen":9472,"ute":9473,"åīįä»»":9474,"å£«åĿ¦":9475,"æĽ¸è¨ĺ":9476,"å¾®è»Ł":9477,"è®ĬçĤº":9478,"çļĦé¦Ļæ¸¯":9479,"Ge":9480,"co":9481,"å·´æĭī":9482,"Ġ15":9483,"æľīæľº":9484,"çī©çĲĨåŃ¦å®¶":9485,"çļĦåĽĽ":9486,"å¦¾":9487,"ä¸¤åĽ½":9488,"å¥¥è¿Ĳä¼ļ":9489,"çļĦåħ¨":9490,"è¥¿æ±ī":9491,"é«ĺå³°":9492,"é©¬æĭī":9493,"èĪªæµ·":9494,"èĹįèī²":9495,"å¼ĢåıĳåĮº":9496,"å½ĹæĺŁ":9497,"çĶŁç´ł":9498,"ãģª":9499,"åıĸå¾ĹäºĨ":9500,"æĿ°åħĭ":9501,"èĪľ":9502,"ä¸įåľ¨":9503,"çĶŁèĤ²":9504,"çĥ¤":9505,"æ¨¡ä»¿":9506,"ç«¶éģ¸":9507,"æ£®æŀĹåħ¬åĽŃ":9508,"Mic":9509,"åıĬå¾Į":9510,"é¦ĸæī¹":9511,"èįĶ":9512,"ç¦ıå¾·":9513,"åİĨä»»":9514,"çĶŁæķĪ":9515,"Ð¾Ð":9516,"è¡Ģç®¡":9517,"æ²»çĲĨ":9518,"ĠTr":9519,"å·¥ä½ľçļĦ":9520,"åĩºçĶŁæĸ¼":9521,"å£°ç§°":9522,"æ°´åºĵ":9523,"æ¨ĤåĻ¨":9524,"æŃĮåĶ±":9525,"éĿĴå°ĳå¹´":9526,"çĥĪå£«":9527,"Ġis":9528,"ä½Ĩä»į":9529,"åıįå°Ħ":9530,"130":9531,"èĤ¡ç¥¨":9532,"ä»ĸè¿ĺ":9533,"åĲįè©ŀ":9534,"éģºåĿĢ":9535,"çļĦèĢģ":9536,"åŁİåİ¿":9537,"å·´å¡ŀ":9538,"æĽ¾æĸ¼":9539,"è¶³å¤ł":9540,"è¨Ĭæģ¯":9541,"éĤıè¼¯":9542,"æĺ¯ä¸Ńåľĭ":9543,"åĢº":9544,"åħ©å¹´":9545,"æĨ¤":9546,"éĬħéĳ¼":9547,"æ³ķè¯Ń":9548,"ä¹Łèĥ½":9549,"ott":9550,"å¼§":9551,"æ¶Ľ":9552,"èº«çĤº":9553,"ä¿®è¨Ĥ":9554,"åķ¤":9555,"å°Ĩé¢Ĩ":9556,"åĵĪæĭī":9557,"éĤĬçķĮ":9558,"è¡Įä¸ļ":9559,"ãĥ³ãĥ":9560,"åıĺæĪĲ":9561,"ç°§":9562,"ĠColle":9563,"ä¸ĢæĹ¥":9564,"åķ¦":9565,"åĵ¥åĢ«":9566,"é¸Ń":9567,"çļĦä¸Ńå¿ĥ":9568,"åĥķ":9569,"èĽĭçĻ½è´¨":9570,"ä¸ŀçĽ¸":9571,"yl":9572,"ä¸įå¤ļ":9573,"åŁºçĻ¾ç§ĳ":9574,"åĪĹä¼ł":9575,"æ¾³å¤§åĪ©äºŀ":9576,"åľ¨åįĹ":9577,"ãĢĬãĢĭï¼Ī":9578,"}-ï¼Į":9579,"åĵ¥åĵ¥":9580,"éĽ²æŀĹ":9581,"Ġch":9582,"ä»»èģ·":9583,"æĪĬ":9584,"çĤºäºº":9585,"åĪĨè¡Į":9586,"æŃ¤åľ°":9587,"ç¶ŃèŃ·":9588,"å¯¦é©Ĺå®¤":9589,"çķ¶ä»£":9590,"åħµåĽ¢":9591,"æ»ħäº¡":9592,"æİĴè¡Įæ¦ľ":9593,"æĸ¯æĭī":9594,"èĬ¬åħ°":9595,"è«¡":9596,"æŃĲçĽŁ":9597,"åĲĽå£«åĿ¦":9598,"è©¦é©Ĺ":9599,"ä¸Ńæĸĩå¤§åŃ¸":9600,"æĭ¿çł´ä»ĳ":9601,"å·¦æ´¾":9602,"ä¸Ģæĸ¹éĿ¢":9603,"å°±åĥı":9604,"åħ¸åŀĭ":9605,"åħĭå°Ķ":9606,"å¤ªå®Ī":9607,"lex":9608,"åĬĿ":9609,"æĵĭ":9610,"æŀ¢çº½":9611,"900":9612,"çļĦéĺ¿":9613,"å¹´ä»ĸ":9614,"çĶĺèĤĥ":9615,"æĶ¿åºľåľ¨":9616,"ä¼ĬåĪ©":9617,"èĤ¡æ¬Ĭ":9618,"ces":9619,"ÃŃ":9620,"ä»¥èĩ³":9621,"ys":9622,"ä¸Ľ":9623,"çļĦå¿ĥ":9624,"åī¿":9625,"æµ´":9626,"çļĦå¤§åŀĭ":9627,"çĶ»å®¶":9628,"äºĪä»¥":9629,"èĹ¤åİŁ":9630,"æ¸Ĭ":9631,"ho":9632,"ç·ł":9633,"æīĭè¡ĵ":9634,"èĮĦ":9635,"æĻ®éŃ¯å£«":9636,"UNDAM":9637,"ç¦į":9638,"Linux":9639,"ä¾Ħ":9640,"èĤª":9641,"åħĥå¸ħ":9642,"çĻ»è¨ĺ":9643,"äº²çİĭ":9644,"åĦĴå®¶":9645,"å¨±ä¹Ĳ":9646,"æ²Ľ":9647,"ç±³èĺŃ":9648,"èŀºæĹĭ":9649,"åł´åľ°":9650,"çĤºé¦Ļæ¸¯":9651,"åľ°åľĸ":9652,"åħ¬åĳĬ":9653,"èĩªç¨±":9654,"è·¯çº¿":9655,"éĺŁä¼į":9656,"ãģĹ":9657,"æŀĦéĢł":9658,"åģľè»Ĭ":9659,"åįĶå®ļ":9660,"è¸ª":9661,"èĦĤèĤª":9662,"çĤĴ":9663,"æķ´ä½ĵ":9664,"é¡ĺæĦı":9665,"åİĿ":9666,"å»ºæľī":9667,"åĵĪä½Ľ":9668,"ç©Ģ":9669,"è«®":9670,"éĽĨçļĦ":9671,"æĦŁè¦º":9672,"ç»ĵæĿŁåĲİ":9673,"ä¼ļéķ¿":9674,"ç«¯çļĦ":9675,"Äģ":9676,"æ·ļ":9677,"Ġ()":9678,"å·´åĭĴæĸ¯åĿ¦":9679,"åħ¬ç«ĭ":9680,"æľŁåĪĬ":9681,"ara":9682,"åħīæĺİ":9683,"æ´Ľä¼Ĭ":9684,"ç§¯åĪĨ":9685,"Int":9686,"èı²åĪ©æĻ®":9687,"æķĻåįĢ":9688,"è£ħå¤ĩ":9689,"ç»´ä¹Łçº³":9690,"Ã³":9691,"çļĦéĩĳ":9692,"çĪ¾çī¹":9693,"è§ĢéŁ³":9694,"ä¸ŃåŃ¸æł¡":9695,"åĴĮè¥¿":9696,"æłı":9697,"åħŃä¸ĸ":9698,"æ§½":9699,"è¶³ä»¥":9700,"åĵºä¹³":9701,"åīĮ":9702,"èĺ¿":9703,"çī¢":9704,"äºĶå¤§":9705,"ä¿Ħåľĭ":9706,"ĠWar":9707,"è²¡çĶ¢":9708,"æĸĮ":9709,"äººæĺ¯":9710,"æķĻçļĦ":9711,"èį¡":9712,"é¨·":9713,"avid":9714,"èĢ¶åĴĮèı¯":9715,"è»Ĭå»Ĥ":9716,"è¾¾å°Ķ":9717,"å¾®åĪĨ":9718,"åħ´è¶£":9719,"éĭª":9720,"ma":9721,"çī©æµ¦":9722,"è³½é¦¬":9723,"å®ĭä»£":9724,"æī©å¼ł":9725,"åĨĽå®ĺ":9726,"èģ·åĵ¡":9727,"ĠGe":9728,"çļĦéĽ»å½±":9729,"æ¸¤":9730,"æİ¥å£¤":9731,"çļĦä¸Ģæ¬¡":9732,"ç·ļä¸Ĭ":9733,"åı¯èĥ½æĢ§":9734,"èģ·ä½į":9735,"ä¼ģåľĸ":9736,"åĤĳåĩº":9737,"è©³ç´°":9738,"çİ«çĳ°":9739,"å¤ĸçķĮ":9740,"æ°Ķä½ĵ":9741,"çī¡":9742,"äº¦åı¯":9743,"æĥħæ³ģä¸ĭ":9744,"èĩºåįĹå¸Ĥ":9745,"åıĳåĩº":9746,"åı²å¯Ĩ":9747,"åįİåĮĹ":9748,"èįīåİŁ":9749,"åħ¬åĪĨ":9750,"ä¸ªè¡Ĺéģĵ":9751,"ett":9752,"çĽ¸çķ¶æĸ¼":9753,"åŃ£å¾Įè³½":9754,"BO":9755,"åĪĹåĩº":9756,"éĵ¸":9757,"è©ķä¼°":9758,"ç«ĭæĸ¹ç±³":9759,"AK":9760,"æĪĸåħ¶ä»ĸ":9761,"æ¿ģ":9762,"Play":9763,"ç¬¬åįģäºĮ":9764,"æĳĺ":9765,"eter":9766,"æµħ":9767,"åħ¬å¹³":9768,"åħ¬è»Ĭ":9769,"å¾·æĸ¯":9770,"çľģä»½":9771,"åħ©åĲį":9772,"éłĴçįİç¦®":9773,"æĶ¹åĲįä¸º":9774,"çĽ´å±ŀ":9775,"ç©İ":9776,"æĶ¹çĶ¨":9777,"é£İæĻ¯åĮº":9778,"ä¸ĢæĿ¡":9779,"ä¸Ģéĥİ":9780,"ä¹ĭä¸º":9781,"åħĥçļĦ":9782,"æ´ªæ°´":9783,"é©ħéĢĲ":9784,"æ¡Ĩæŀ¶":9785,"åŃ¸ç§ĳ":9786,"æĥħæĬ¥":9787,"ç¾İåĽ½æĢ»ç»Ł":9788,"æł½":9789,"åĳ¨åľį":9790,"è¾Ńèģ·":9791,"æį²":9792,"çĵĬ":9793,"ç¶ŃçĪ¾":9794,"ç«ĭåĪ»":9795,"éĤ¸":9796,"èįĢ":9797,"çīĪæľ¬çļĦ":9798,"çļĦæĶ¿çŃĸ":9799,"å¤¥":9800,"åħĥå¸¥":9801,"çį²å¾ĹèĢħ":9802,"ä¸įåıĬ":9803,"äººæ°ĳä»£è¡¨å¤§ä¼ļ":9804,"åĨĻçļĦ":9805,"éļ¾ä»¥":9806,"æĹ¥æĸĩ":9807,"çİĩä¸º":9808,"å·¥ç¨ĭå¸Ī":9809,"ĠJohn":9810,"æŁĵèī²":9811,"è¢ģä¸ĸ":9812,"åĮĹæµ·éģĵ":9813,"Ġ13":9814,"åľ°åĽ¾":9815,"è·¯åĨĽ":9816,"éķ¿æĺ¥":9817,"æıĲä¾ĽçļĦ":9818,"éĦīæ°ĳ":9819,"Ġ2000":9820,"åĽ½åĨĽ":9821,"å¥¥æĸ¯åį¡":9822,"æĬĹæĹ¥æĪĺäºī":9823,"çŁ©éĺµ":9824,"ä¸Ģè·¯":9825,"ãĥŃ":9826,"å¼ķéĢ²":9827,"è§Ģå¿µ":9828,"çĤ¼":9829,"ç¨ĭåº¦ä¸Ĭ":9830,"åĪ©çī©æµ¦":9831,"èĭıä¸¹":9832,"é»ĳäºº":9833,"åıĹåĪ°äºĨ":9834,"åĵ¥ä¼¦æ¯Ķäºļ":9835,"åĩºä¾ĨçļĦ":9836,"èįĲ":9837,"æİ¢æµĭ":9838,"æ¾İæ¹ĸ":9839,"å½İ":9840,"çĲĨæĢ§":9841,"ä¸¦çĶ±":9842,"æĽ¾æľī":9843,"çĤ¹çļĦ":9844,"æķĪåºĶ":9845,"ä¾Ŀæį®":9846,"è²¡ç¶ĵ":9847,"éģµå®Ī":9848,"æºĿéĢļ":9849,"çĲ¦":9850,"åĬ¨åĬĽ":9851,"ç±³çĪ¾":9852,"ä¹Ŀå·ŀ":9853,"æĪ°éļĬ":9854,"1896":9855,"é£İæĻ¯":9856,"Ġet":9857,"æ»¿è¶³":9858,"è¢«åĪ¤":9859,"ä¸īéĥ¨":9860,"å¯¦åĬĽ":9861,"ãĤ¿":9862,"é¥¶":9863,"çĶ°ä¸Ń":9864,"ward":9865,"äººçĤº":9866,"çĽ¸è¿ĳ":9867,"èµ·ç¾©":9868,"æ³¢ç¾ħ":9869,"éģĬå®¢":9870,"ĠãĢĮ":9871,"ï¼Įï¼Ī":9872,"ä¸Ģç´ļ":9873,"èº²":9874,"ated":9875,"ãĤĬ":9876,"è¾Ĳå°Ħ":9877,"æľīåĪ©":9878,"çĲ¼":9879,"å»¿":9880,"çŃīç´ļ":9881,"å®īæĿ±":9882,"æĦļ":9883,"å°ģå»º":9884,"é«ĺå±±":9885,"åĨįåĬłä¸Ĭ":9886,"åİŁåĽłæĺ¯":9887,"å´Ľ":9888,"åıĺéĩı":9889,"åħ±äº«":9890,"éĿ¢ä¸Ĭ":9891,"æĽ¾æĺ¯":9892,"å¾·å°Ķ":9893,"çĩŁæ¥Ń":9894,"ä¼ĳæģ¯":9895,"å¤§èģ¯çĽŁ":9896,"æĶ¿åĭĻ":9897,"åĶĩ":9898,"äºŀè»į":9899,"ä¼łè¾ĵ":9900,"åģľéĿł":9901,"èĵī":9902,"åīĩåľ¨":9903,"ãĤĵ":9904,"åĮĹäº¬å¤§åŃ¦":9905,"æĶ¯æĮģèĢħ":9906,"con":9907,"æºĥ":9908,"ink":9909,"åıĪåľ¨":9910,"æľīä¸ĢäºĽ":9911,"é¦Ļæ¸¯éĽ»åı°":9912,"å§Ķä¼ļ":9913,"è³½è»Ĭ":9914,"å¹´ä»»":9915,"åĪĨä¹ĭ":9916,"æŃ¦æĺĮ":9917,"own":9918,"ç«£å·¥":9919,"æľīå¤ļ":9920,"ä¾µçĬ¯":9921,"ç¬¬åįģä¸Ģ":9922,"èĩªç«ĭ":9923,"æĽ´æĶ¹":9924,"æĳĨ":9925,"è»įäºº":9926,"å·ŀç«ĭ":9927,"ç¬¬ä¸Ģå±Ĩ":9928,"å¯¼å¼¹":9929,"çį²å¾ĹäºĨ":9930,"éĽĨä¸Ńåľ¨":9931,"åĭģçĪĨ":9932,"å¤§åľ°":9933,"åĤ¬åĮĸ":9934,"èĥ½åľ¨":9935,"è¼ĥä½İ":9936,"éłĲæ¸¬":9937,"åĮĸå·¥":9938,"åŁİå¢Ļ":9939,"éĸĭæ¥Ń":9940,"å¯¹ç§°":9941,"éĲµè·¯è»Ĭç«Ļ":9942,"æīĢå¾Ĺ":9943,"æŁĦ":9944,"åħ¨é«Ķ":9945,"åİŁä¾Ĩ":9946,"è¿ĳä¼¼":9947,"åĪĿæŃ¥":9948,"æ¨¡çī¹":9949,"å¹´ä»£çļĦ":9950,"çĻ¼æı®":9951,"å¸¸è¢«":9952,"åı¤å±ĭ":9953,"åħ¶åĲİ":9954,"ç¶ĵåľĭ":9955,"åħļçļĦ":9956,"çĩ¥":9957,"è³ĩåĬ©":9958,"åį°ç¬¬":9959,"æĭ¯":9960,"é¡Ľ":9961,"çŃīå¾ħ":9962,"å¿ĥçļĦ":9963,"æ£ļ":9964,"æĿİçĻ»è¼Ŀ":9965,"éĩ£":9966,"æķ¸çĽ®":9967,"è¿ĽæŃ¥":9968,"å°±ä¼ļ":9969,"åį¡çī¹":9970,"å½¢å¼ıçļĦ":9971,"é«ĺç´ļä¸ŃåŃ¸":9972,"GDP":9973,"å·¥ç¨ĭå¸«":9974,"äº¤éĢļéĥ¨":9975,"çĪ¸":9976,"æµ·å³¡":9977,"æĶ»åįł":9978,"ç©¿è¶Ĭ":9979,"ä¸Ģæŀ¶":9980,"åĢļ":9981,"æİĪæĿĥ":9982,"çļĦåĲįç¨±":9983,"åĤ²":9984,"å®ļçĤº":9985,"æ·ĭ":9986,"æ¸ħæľ«":9987,"èģ¯çµ¡":9988,"éłĲç®Ĺ":9989,"æļĳ":9990,"èĲ¨å°Ķ":9991,"ä¹ĭåīįçļĦ":9992,"å¤§æ°£":9993,"é¡ŀçļĦ":9994,"åĲīå°Ķ":9995,"çĤ¸å½Ī":9996,"éłĥ":9997,"å°±è¢«":9998,"æ¨¡æĵ¬":9999,"é©±éĢĲ":10000,"å¥§æŀĹåĮ¹åħĭéģĭåĭķæľĥ":10001,"åĴĮæĸ°":10002,"ä¸ºä¸Ģ":10003,"åĩºåħ¥åı£":10004,"æ³°åĭĴ":10005,"çļĦåľŁåľ°":10006,"éķ¿åŃĲ":10007,"æĦıè§ģ":10008,"çĦ¡äºº":10009,"åħ³éĹŃ":10010,"éĺ²ç©º":10011,"èģļå±ħ":10012,"çľŁå®ŀ":10013,"ä¹ŀ":10014,"SM":10015,"æ¥ł":10016,"çıįçıł":10017,"air":10018,"æľĢåħ·":10019,"çİĭåĲİ":10020,"é«ĶåĪ¶":10021,"æĤĶ":10022,"åıĤåĬłäºĨ":10023,"åįĹåĮĹæľĿ":10024,"hel":10025,"obert":10026,"è´¢äº§":10027,"è¨Ńæĸ¼":10028,"éµĿ":10029,"çļĦåħĪ":10030,"æľĪåľ¨":10031,"éĿĴå±±":10032,"å£°éŁ³":10033,"åĵ²åŃ¸å®¶":10034,"GA":10035,"ä¸ºä¸ŃåĽ½":10036,"åı¯æ±Ĺ":10037,"åĻª":10038,"å®¢æĪ·":10039,"æľįåĬ¡åĻ¨":10040,"ank":10041,"Ġcl":10042,"éł¸":10043,"åİŁæĸĻ":10044,"å¯¹æīĭ":10045,"ä¿®éģĵ":10046,"åįłåľ°":10047,"stit":10048,"é¢ģå¸ĥ":10049,"çĶŁæ®ĸ":10050,"éħįè§Ĵ":10051,"å½»åºķ":10052,"åĲīçĪ¾":10053,"åĢĻéĢī":10054,"ï¼ģãĢį":10055,"äº§çĶŁäºĨ":10056,"æĶ¶åĽŀ":10057,"æİĴåĲįç¬¬":10058,"éĭ¼çĲ´":10059,"çļĦæĸĩåĮĸ":10060,"åįİä¸ľ":10061,"æĢģåº¦":10062,"ull":10063,"åĦ²åŃĺ":10064,"åīįå¾Į":10065,"140":10066,"rand":10067,"æĹ¥ä¸ĭåįĪ":10068,"å¥ĭ":10069,"èĭ±éĩĮ":10070,"åĸļ":10071,"é¨İåħµ":10072,"å´Ľèµ·":10073,"åį°ç¬¬å®ī":10074,"éĸĺ":10075,"å¾·è»į":10076,"å¸Įä¼¯":10077,"æĤīå°¼":10078,"ä¸ĢåįĬ":10079,"åħ¥çĲĥ":10080,"æĽ´æıĽ":10081,"çĶ·äºº":10082,"å·¨äºº":10083,"éº¥åħĭ":10084,"åįĹéĥ¨çļĦ":10085,"æľ¬åĲį":10086,"æĥħå½¢":10087,"åıĺæį¢":10088,"usic":10089,"åī¯ç¸½çµ±":10090,"å·®è·Ŀ":10091,"ĠBe":10092,"ä¾Ĩå¾Ģ":10093,"ener":10094,"ç½Ĺä¼¯çī¹":10095,"éħįéŁ³åĵ¡":10096,"350":10097,"åı¤æĸ¯":10098,"æķħå±ħ":10099,"ä¸»åĭķ":10100,"åĲįåįķ":10101,"å®ĥåľ¨":10102,"å»¶éķ·":10103,"èĨļ":10104,"ç§ĳåŃ¦æĬĢæľ¯":10105,"âĢ²":10106,"åħ¶åľ¨":10107,"æĿ¾å±±":10108,"Ġpp":10109,"æĸĩä¸Ń":10110,"å¸Ĥéķĩ":10111,"çİ°ä»»":10112,"æ¶ĪèĢĹ":10113,"å°ºå¯¸":10114,"åĲĮåĲį":10115,"å»ºæĸ¼":10116,"é»¨åĵ¡":10117,"éĬ³":10118,"å¥ıæĽ²":10119,"åĪ©å®ī":10120,"æļ¢":10121,"çĢ¨":10122,"ç»µ":10123,"è¨Ł":10124,"åłµ":10125,"ç§°åĳ¼":10126,"ral":10127,"æľŁæľĽ":10128,"åħħæ»¿":10129,"åħ¨éķ¿":10130,"è£¸":10131,"ç´įåħ¥":10132,"è¦ºå¾Ĺ":10133,"ve":10134,"å»ºåĽ½":10135,"åĥ±":10136,"è½¬æį¢":10137,"çĪ±å¾·åįİ":10138,"æĦıåĳ³çĿĢ":10139,"åĪĨæķ£":10140,"ç·¨ç¢¼":10141,"çĶŁæ´»åľ¨":10142,"ä¸Ĭä»»":10143,"æĵ²":10144,"ript":10145,"èĻĽæ§ĭ":10146,"ä¸įæ»¡":10147,"æ¨¡æĭŁ":10148,"æĸ¯åĴĮ":10149,"æ´»èºį":10150,"æİ¨å¹¿":10151,"è»Łä»¶":10152,"les":10153,"è®ĢèĢħ":10154,"æĹ¨åľ¨":10155,"ç«Ń":10156,"äº§éĩı":10157,"ĠComm":10158,"æ»¿æ´²":10159,"çī©çĲĨåŃ¸":10160,"ç·¬çĶ¸":10161,"å»ļ":10162,"ç³¾":10163,"çķ¶åľ°çļĦ":10164,"åĺĽ":10165,"å¤ıå¨ģ":10166,"å¯©åĪ¤":10167,"âĺ":10168,"åĲĦå¤§":10169,"ãĥŀ":10170,"çıŃæ©Ł":10171,"éĽħåĲĦ":10172,"åĥħæľī":10173,"å®īå¾½çľģ":10174,"Ste":10175,"å¤§æŃ£":10176,"å¼Ĭ":10177,"åĵī":10178,"åķĨåĭĻ":10179,"ake":10180,"DR":10181,"çĶ·æŃĮæīĭ":10182,"ç»ĻäºĪ":10183,"éĭ¼å½Ī":10184,"çļĦéĿŀ":10185,"é¢ł":10186,"ç§ĳå¤«":10187,"ĠServ":10188,"å·¥ä½ľå®¤":10189,"ave":10190,"çļĦåīįèº«":10191,"é¦¬çĪ¾":10192,"éº¦åħĭ":10193,"å¾¡åı²":10194,"Ġor":10195,"èª¼":10196,"åĲĮåŃ¸":10197,"æīĭæ©Ł":10198,"éĵħ":10199,"è¾¾æĪĲ":10200,"å¸Ńä½į":10201,"uss":10202,"æ´ªæŃ¦":10203,"åľĭç«ĭèĩºçģ£":10204,"åģµæİ¢":10205,"Î²":10206,"ä¸Ńç«ĭ":10207,"éĥ¨éĥ¨éķ¿":10208,"ç¶²ä¸Ĭ":10209,"äº²èĩª":10210,"ç¸®å¯«":10211,"å¿įèĢħ":10212,"5000":10213,"ç¾İåĨĽ":10214,"ä½¿èĢħ":10215,"ä¾ĭå¤ĸ":10216,"æŃ»æĸ¼":10217,"ä¸ĸçºªåĪĿ":10218,"åĪĨå¸ĥåľ¨":10219,"æºĲæĸ¼":10220,"æİ¨åĩºçļĦ":10221,"èĸ¯":10222,"æīĵåĩ»":10223,"å®¤åħ§":10224,"éħ¬":10225,"ä¹ĺåĿĲ":10226,"æļ«åģľ":10227,"çŃīçº§":10228,"æ¼¿":10229,"äºĭå¾Į":10230,"ä½¿ä»ĸ":10231,"ater":10232,"æ²«":10233,"åŃĲåħ¬åı¸":10234,"å¾·è¯Ń":10235,"å®ĥä»¬çļĦ":10236,"IL":10237,"åºĲ":10238,"å½Ŀ":10239,"ä¼º":10240,"è¥¿åŁŁ":10241,"æĪ°è»Ĭ":10242,"æ±Łèĺĩ":10243,"red":10244,"èĶ¬":10245,"åĪĬçĻ»":10246,"que":10247,"å¤ıå¨ģå¤·":10248,"Pr":10249,"å¥³åŃ©":10250,"åŃĺåĤ¨":10251,"å²Ľå±¿":10252,"å¯©æŁ¥":10253,"æ°ĳæĦı":10254,"è·¯åı£":10255,"åŃĹçļĦ":10256,"çī©ä½ĵ":10257,"çĦī":10258,"æ·«":10259,"ç¶ģ":10260,"åıªåľ¨":10261,"å·¡æ´ĭ":10262,"è¼¸åĩº":10263,"æ¸¤æµ·":10264,"çĽ¸ç»§":10265,"éĥ½è¦ģ":10266,"ä¸ĩåħĥ":10267,"å»ºçŃĳçī©":10268,"å¤±åİ»äºĨ":10269,"æ¹Ľ":10270,"çĻ»åł¡":10271,"åŁºéĩĳä¼ļ":10272,"è´ĬåĬ©":10273,"160":10274,"ç»Ŀå¯¹":10275,"to":10276,"Ġ2003":10277,"çļĦéĽ»":10278,"çļĦè¨Ńè¨Ī":10279,"åİŁåīµ":10280,"ĠFran":10281,"åĽ½æĹĹ":10282,"ä¸ľé£İ":10283,"éĺ¿æ³¢ç½Ĺ":10284,"ä¸Ģåįĥ":10285,"æľĢå°ı":10286,"åıĹå®³":10287,"éĢĥäº¡":10288,"ondon":10289,"éĬħéĳ¼çģ£":10290,"ï¼Įï¼Į":10291,"åĲįåı¤å±ĭ":10292,"æĭīå¾·":10293,"çļĦå¤§éĥ¨åĪĨ":10294,"è¸¢":10295,"ren":10296,"ç¬¬ä¸Ģä»£":10297,"æĹłè®º":10298,"é¹ħ":10299,"é¨Ļ":10300,"è¼ĶåĬ©":10301,"æĳĦå½±":10302,"è½°çĤ¸":10303,"Ġcolspan":10304,"æĭ¿ä¸ĭ":10305,"åĺīè³ĵ":10306,"åĥħæ¬¡æĸ¼":10307,"å¹¸ç¦ı":10308,"IG":10309,"å¹´èĪĩ":10310,"æĶ¹ç¨±":10311,"ç¸£æĶ¿åºľ":10312,"åł±éģĵ":10313,"å®ĪèŃ·":10314,"å°ģçĤº":10315,"æĳ©æīĺ":10316,"åķ¤éħĴ":10317,"åħ¨çľģ":10318,"èı±":10319,"èģĶåĨĽ":10320,"çīĩçļĦ":10321,"ĠRes":10322,"Ġå¤§":10323,"æ¼¸æ¼¸":10324,"åĿĩä¸º":10325,"çļĦåı¯":10326,"åľ°å¸¦":10327,"ä¾ł":10328,"å¾ĹåĪĨ":10329,"æĪ°èī¦":10330,"éĺ¿æĸ¯":10331,"åįĩç´ļ":10332,"çļĦéĢŁåº¦":10333,"éķ·å®ī":10334,"å°±èĥ½":10335,"åħ§æĶ¿":10336,"ĠPubl":10337,"åħ±äº§ä¸»ä¹ī":10338,"Ġ'":10339,"åħ¥éģ¸":10340,"å¹³æĪĲ":10341,"æīĭæ³ķ":10342,"åĸľåĬĩ":10343,"ä»¥ä¸º":10344,"çļĦè¦ģæ±Ĥ":10345,"åħ¶æ¬¡":10346,"éĩįæħ¶":10347,"ä¸Ńå¤®æĶ¿åºľ":10348,"ä»ĭåħ¥":10349,"è¯ĹæŃĮ":10350,"å®µ":10351,"ä¹Łåı¯èĥ½":10352,"è·Łéļ¨":10353,"è½Ħå¸Ĥ":10354,"æľ¬ä¾Ĩ":10355,"æĵł":10356,"å¥³äºº":10357,"æĢ»ä¹¦è®°":10358,"ç«¶è³½":10359,"fl":10360,"ner":10361,"çĹħäºº":10362,"çļĦåħ¶ä»ĸ":10363,"æķħæŃ¤":10364,"åĸ®åħĥ":10365,"æ¥µçĤº":10366,"éģĹä¼ł":10367,"å®°çĽ¸":10368,"background":10369,"åĽłåŃĲ":10370,"åģļäºĨ":10371,"ç§ĳæĬĢå¤§åŃ¸":10372,"è¸Ĳ":10373,"æĺĨæĺİ":10374,"éļĭæľĿ":10375,"çĤºåŁºç¤İ":10376,"æĭ¨":10377,"åĲĪéĩĳ":10378,"éłĺåľ°":10379,"æ¶Īæ»ħ":10380,"å§Ĳå¦¹":10381,"éĻĿ":10382,"å¹¾ä½ķ":10383,"åı¸ä»¤åĳĺ":10384,"åĬŁçİĩ":10385,"æ¼¢äºº":10386,"å¤ıå¤©":10387,"æ°Ľ":10388,"æ·±åĪ»":10389,"\",":10390,"Am":10391,"Ġ14":10392,"åįıåĬ©":10393,"ä¸ŃåĴĮ":10394,"æľ¯è¯Ń":10395,"æĬ½è±¡":10396,"å°Ŀè¯ķ":10397,"OK":10398,"Ġ2004":10399,"æŃ»äºİ":10400,"éĿĴæµ·":10401,"ĠDe":10402,"ement":10403,"çļĦæ³ķ":10404,"ç¥ŀèģĸ":10405,"èĶŃ":10406,"1899":10407,"åľĭéģĵ":10408,"æ±Ĳ":10409,"åħ¨å¢ĥ":10410,"æ¸ħçľŁ":10411,"åħ¨åĽ½éĩįçĤ¹æĸĩçī©ä¿ĿæĬ¤åįķä½į":10412,"é¸¦":10413,"ors":10414,"ãģ«":10415,"åľ¨åĨħçļĦ":10416,"ä¿ŀ":10417,"çĭ©":10418,"å®¢æ©Ł":10419,"right":10420,"æľĪåĪĬ":10421,"åİŃ":10422,"åĪĹåĤ³":10423,"éĹ´çļĦ":10424,"æĬĹæĪĺ":10425,"å®¡åĪ¤":10426,"çī¹æ®ĬçļĦ":10427,"CE":10428,"åĲįèĥľ":10429,"å¢Ł":10430,"åł´æ¯Ķè³½":10431,"çŃīåĲĮ":10432,"ä¹Łæ²Ĵæľī":10433,"æıĲåīį":10434,"å¸ĥæĸ¯":10435,"å¤©ç©º":10436,"éĽ»è¦ĸåĭķçķ«":10437,"éĢ²è¡ĮäºĨ":10438,"åĳ½åĲįçļĦ":10439,"åŃ¦éĥ¨":10440,"æ¼Ķè¬Ľ":10441,"åł´æīĢ":10442,"åĲĦç±»":10443,"ĠPol":10444,"æĬĹè®®":10445,"å¹´é¾Ħ":10446,"åķĨåĬ¡":10447,"1897":10448,"æĹĭè½ī":10449,"SO":10450,"ä¸Ńä»¥":10451,"105":10452,"åĲĦçľģ":10453,"ä¾Ľå¥ī":10454,"å¤©æ°£":10455,"åĲĪåĲĮ":10456,"åĨĽåĽ¢":10457,"its":10458,"ages":10459,"åĪª":10460,"åĲįè¯į":10461,"æİ¨èĸ¦":10462,"æŁ´æ²¹":10463,"æ¸Ń":10464,"æµ·åºķ":10465,"è¯Ńæ³ķ":10466,"ĠSci":10467,"çŁ¥çļĦ":10468,"å±¤çļĦ":10469,"å»ºç¯īå¸«":10470,"åı¤å¸ĮèħĬ":10471,"å±Ģéĥ¨":10472,"çľŁäºº":10473,"åįłæį®":10474,"èĲ¨æĸ¯":10475,"èŁ¹":10476,"çĻĮçĹĩ":10477,"æĢ§åĪ«":10478,"Java":10479,"TR":10480,"ç¦¾":10481,"èĬ¦":10482,"ä¾Ŀèµĸ":10483,"ç°¡åĮĸ":10484,"çĭ¬ç«ĭçļĦ":10485,"å¾¹åºķ":10486,"å¯Ĥ":10487,"ç¥ŀåľ£":10488,"çİ°æľī":10489,"çĭŃ":10490,"MV":10491,"åŀĭæħĭ":10492,"åħīçļĦ":10493,"ĠSc":10494,"ä¿ĺèĻ":10495,"ridge":10496,"æĶ¿è®Ĭ":10497,"éĩįåĬĽ":10498,"æ²³åı£":10499,"åı¯ä»¥éĢļè¿ĩ":10500,"å¡«æµ·":10501,"åıĤè°ĭéķ¿":10502,"ç¾İåľĭäºº":10503,"ĠIs":10504,"ä¸Ģèģ·":10505,"å¤§éģ¸":10506,"ç¾Į":10507,"éĿ¢åīį":10508,"çįħåŃĲ":10509,"BBC":10510,"åı¢":10511,"å¯Ĩè¥¿":10512,"çĻ»åŁº":10513,"ä¹ĥèĩ³":10514,"å°ĩè»įæ¾³":10515,"Ġ2006":10516,"å¹´ä»½":10517,"æ·Ģ":10518,"æĶ¯éħį":10519,"ĠâĢľ":10520,"ä½ĨçĶ±äºİ":10521,"ä¸¦ä¸įæĺ¯":10522,"å¥§æĸ¯":10523,"åĤ³çµ±çļĦ":10524,"é¦Ļæ¸¯å¤§åŃ¸":10525,"éĮĦå½±":10526,"ĠGu":10527,"åĴĮä¸Ń":10528,"è¢«ä»»åĳ½":10529,"éĽ»æ±ł":10530,"å·ŀåºľ":10531,"è«§":10532,"å·´å°Ķ":10533,"éĿĴæĺ¥":10534,"èĤĮèĤī":10535,"åħĪåīį":10536,"ãĢīãĢģ":10537,"è£½ä½ľäºº":10538,"å¹¼ç¨ļ":10539,"Ġ{":10540,"æĸ°ç½Ĺ":10541,"anc":10542,"ç²ĺ":10543,"åı¯ä»¥è¢«":10544,"è¦ĸè¦º":10545,"é¢Ĩåľ°":10546,"æĪĲç«ĭåĲİ":10547,"ä¸Ĭæĺ¯":10548,"æĶ¹åħĥ":10549,"ç¹³":10550,"ç¾İåľĭç¸½çµ±":10551,"åĬīåĤĻ":10552,"æĵįä½ľç³»ç»Ł":10553,"æ°¯åĮĸ":10554,"orth":10555,"çŃīäºİ":10556,"ä¿¡ç¾©":10557,"åľĸåĥı":10558,"å»¶çºĮ":10559,"ç£¡":10560,"åħ¬åħ±äº¤éĢļ":10561,"èĢĮå·²":10562,"è¾¦æ³ķ":10563,"åģĩæĹ¥":10564,"çĽ¸äºĴä½ľçĶ¨":10565,"èªķçĶŁ":10566,"DF":10567,"è¾ľ":10568,"å¾·åħĭ":10569,"åİŁæľīçļĦ":10570,"inc":10571,"æµģåĭķ":10572,"éĴ¢çĲ´":10573,"æĻĤç©º":10574,"åķĨæłĩ":10575,"éĺ²å¾¡":10576,"è£ħé¥°":10577,"å¹´æĪĲç«ĭçļĦ":10578,"åĩį":10579,"åľĭæĹĹ":10580,"çĶ¨åľ¨":10581,"æĶ¹è¿Ľ":10582,"æĻ¶ä½ĵ":10583,"ä¸Ģä»½":10584,"è¡·":10585,"æķ¸åŃ¸å®¶":10586,"å³»":10587,"ç¾İåĽ½çļĦ":10588,"æĿĢæŃ»":10589,"me":10590,"çĤºçĶ±":10591,"å¤ĸç±į":10592,"å®īä¸ľ":10593,"æĺŁåº§":10594,"æ£į":10595,"ç¼ĸç¨ĭ":10596,"ä»¥èĩ´":10597,"èĤł":10598,"æĪ°è¡ĵ":10599,"1500":10600,"éįĭ":10601,"åıĽäºĤ":10602,"çĻ¾ç§ĳåħ¨":10603,"é¦¬åħĭæĢĿ":10604,"åĽĽäºº":10605,"å®ŀè·µ":10606,"åŃ«ä¸Ńå±±":10607,"ates":10608,"åį³æĻĤ":10609,"èĪªç«Ļ":10610,"ä»įæĺ¯":10611,"èĢĮå¾ĹåĲį":10612,"æĶ¶è´Ń":10613,"æĶ»åħ¥":10614,"æ±ºçŃĸ":10615,"èĶ£ä¸ŃæŃ£":10616,"ä»ĸæĽ¾":10617,"å£¹":10618,"æŃ£ç¡®":10619,"åįĬçĲĥ":10620,"èµĽäºĭ":10621,"è¨Ńè¨ĪçļĦ":10622,"ç¶ľèĹĿ":10623,"ous":10624,"we":10625,"å¤§æ²³":10626,"åħ¬çĲĨ":10627,"èĭ¹":10628,"åł´çļĦ":10629,"å¦ĵ":10630,"åĲĳè¥¿":10631,"ç¥ŀçĪ¶":10632,"éĥµæĶ¿":10633,"åľ¨ä»Ĭ":10634,"çļĸ":10635,"åĮ¿":10636,"ä¸»äºº":10637,"åĽłæĸ¯åĿ¦":10638,"çĻ¾è²¨":10639,"èĪĪèµ·":10640,"ç¹ªçķ«":10641,"å¸¸è§ģçļĦ":10642,"ä»¥ä¸ĭçļĦ":10643,"ä¸ºæŃ¢":10644,"é¡·":10645,"éħ¯":10646,"çłĶç©¶çļĦ":10647,"ä¸»è¦ģçĶ±":10648,"çīĩæ®µ":10649,"å°ĦæĵĬ":10650,"ç»¿èī²":10651,"æ³ķåħ°è¥¿":10652,"ael":10653,"åį¦":10654,"ç¨½":10655,"éĽĨä½ĵ":10656,"æĴŃæĺł":10657,"æİĴéĻ¤":10658,"èģĸèªķ":10659,"èĪªç©ºæ¯į":10660,"æ²³æµģåŁŁ":10661,"ä»ĸåĴĮ":10662,"éģĭç®Ĺ":10663,"åħŃåįģ":10664,"åĩºçı¾äºĨ":10665,"å¤©æĸĩåŃ¸å®¶":10666,"åİŁçĤº":10667,"çĶ·åŃ©":10668,"æ·±åº¦":10669,"åħįè´¹":10670,"èŃ¯çĤº":10671,"å®¡æŁ¥":10672,"è¨ĺæĨ¶é«Ķ":10673,"æĻ¤":10674,"å½¬":10675,"ä¸įéľĢè¦ģ":10676,"åĪĨåºĹ":10677,"äºĶåĢĭ":10678,"æĦĽå¾·èı¯":10679,"ä¸ĢçĽ´åĪ°":10680,"æ¡£æ¡Ī":10681,"ä¸įçĶ¨":10682,"å®īåİ¿":10683,"åĲĳåįĹ":10684,"ä¹ĭä¸ĢçļĦ":10685,"è¯įæ±ĩ":10686,"æĵĶå¿ĥ":10687,"åŁ·å°İ":10688,"ube":10689,"å¤§åĲį":10690,"ç²Ł":10691,"åĳ¨åĪĬ":10692,"èĬ±åĽŃ":10693,"é¢¨æļ´":10694,"æĢ»åĢ¼":10695,"urg":10696,"çı¾åľ¨çļĦ":10697,"ç§ĺæĽ¸éķ·":10698,"åĪĨåī²":10699,"åŃ¦çļĦ":10700,"ä¸īæĺŁ":10701,"æ²»å®ī":10702,"æĩ²":10703,"åİĨä»£":10704,"åľĭå®¶éļĬ":10705,"åĤ·å®³":10706,"CS":10707,"ä¸įè«ĸ":10708,"èĥļ":10709,"çº¦çĳŁå¤«":10710,"è§Ĩé¢ĳ":10711,"ç»ĻäºĨ":10712,"Ġas":10713,"äººéĥ½":10714,"æĺ¯ä¸º":10715,"ç±¤":10716,"æł¼éĽ·":10717,"åħ·åĤĻ":10718,"æľ¨æĺŁ":10719,"å¤§åĴĮ":10720,"åĴ¤":10721,"æĶ¿åıĺ":10722,"ä¸ĢèĪ¬çļĦ":10723,"è¾²æĽĨ":10724,"å°ĭæ±Ĥ":10725,"å·´ä¼ĲåĪ©äºļ":10726,"DA":10727,"åĳ¢":10728,"æİ¨éĢ²":10729,"æ¡Īä¾ĭ":10730,"ts":10731,"ype":10732,"æ°´ä¸Ń":10733,"è¡ĽéļĬ":10734,"åħ¬éĩĮçļĦ":10735,"éİ®å£ĵ":10736,"éĢıæĺİ":10737,"ãĢĬ-{":10738,"è¦ģå¡ŀ":10739,"åħĥèĢģ":10740,"æľ«å¹´":10741,"å«¡":10742,"çļĦåĲİ":10743,"é£İéĻ©":10744,"1890":10745,"å®īæģ¯":10746,"èĴ¼":10747,"åľºæīĢ":10748,"æĸĭ":10749,"è²»çĶ¨":10750,"åĮºåĪĨ":10751,"åģĩè®¾":10752,"ç¡®è®¤":10753,"ä¸Ńè¥¿":10754,"ä¸īéĩį":10755,"ä¸İåħ¶ä»ĸ":10756,"æĻ®æŀĹ":10757,"å°ĪçĶ¨":10758,"æľĽéģł":10759,"åĭŀå·¥":10760,"æĶ¾å°ĦæĢ§":10761,"Ġ20":10762,"èĲĮ":10763,"åĲĮæ²»":10764,"çĵ¦å°Ķ":10765,"åı³ç¿¼":10766,"åľ¨é«ĺ":10767,"æ¸Ŀ":10768,"æĽ´é«ĺ":10769,"èĹĿè¡ĵå®¶":10770,"EL":10771,"çļĦæĹ¶éĹ´":10772,"è³ł":10773,"å¯ĨçļĦ":10774,"åĲĮæĻĤä¹Ł":10775,"åĲ¯åĬ¨":10776,"æĦıæĢĿæĺ¯":10777,"åĢ¾åĲĳ":10778,"aj":10779,"åľ¨ä¸ĸçķĮ":10780,"å¾Ĺåĩº":10781,"åħ±èŃĺ":10782,"æĸĩåĮĸéģĹäº§":10783,"çļĦåŃĹ":10784,"çķ¶å¤©":10785,"çĽ´åįĩ":10786,"åıĤæķ°":10787,"éģ·èĩ³":10788,"çļĦéŁ³æ¨Ĥ":10789,"çĤºæŃ¤":10790,"åįĹè·¯":10791,"æł¼å°Ķ":10792,"åĩ¶":10793,"åľ°çĶ¢":10794,"ç±ł":10795,"æº¥":10796,"éĸĭè¾¦":10797,"å½¢çĬ¶":10798,"åķŁåĭķ":10799,"éłĴçĻ¼":10800,"ç»Łæ²»èĢħ":10801,"æĭĵè·ĭ":10802,"è¾ŀèģĮ":10803,"ä»Ĺ":10804,"ä¸Ńä¹Ł":10805,"ä¹ĭäºĤ":10806,"æľĢåıĹæŃ¡è¿İ":10807,"å¯¹æĬĹ":10808,"èĻŁçļĦ":10809,"åĩ¸":10810,"æĿ±æ¼¢":10811,"ĠRev":10812,"éĻįæ°´éĩı":10813,"èĢĮä¾Ĩ":10814,"èĭ±å°º":10815,"ream":10816,"é¹ı":10817,"èĤ¯å°¼":10818,"æľĢåĪĿçļĦ":10819,"çļĦèĩªçĶ±":10820,"çĶ¨äºĨ":10821,"åħĭç¾ħ":10822,"éĥ½åŁİ":10823,"ä¸İåħ¶":10824,"ida":10825,"è¿ªæĸ¯":10826,"ä¹ĭåĪĿ":10827,"åį¡éĢļ":10828,"æĶ»éĻ·":10829,"é¥¼":10830,"æĭ¾":10831,"ä½¿å¾Ĵ":10832,"éĿ¢èĩ¨":10833,"æ¿Ģç´ł":10834,"èĿ¦":10835,"çıłæµ·":10836,"è¿Ħä»Ĭ":10837,"äººåĬĽ":10838,"æĭĭ":10839,"æł¼æĸ¯":10840,"è¿ĩæ¸¡":10841,"ĠOn":10842,"åľ¨ä¸Ĭ":10843,"æĶ¾ç½®":10844,"å¾ĭå¸Ī":10845,"è¤Ĵ":10846,"ä¸ŃéĨ«":10847,"èĩŃ":10848,"åħ¬æĬķ":10849,"å¤©åŃĲ":10850,"è§£æŀĲ":10851,"ä¸¤ä¾§":10852,"æ¦Ĩ":10853,"åľ°å¸¶":10854,"å¾Ģä¾Ĩ":10855,"ãĤ³":10856,"ä¸Ńå¤®çłĶç©¶éĻ¢":10857,"åĪĴåĪĨ":10858,"èĨĢ":10859,"çİ©åħ·":10860,"ä¿¡å¥ī":10861,"çĥ¹":10862,"éłĺéļĬ":10863,"ific":10864,"HO":10865,"å¹¢":10866,"æ©Ļ":10867,"èĬ¯":10868,"å°ĳéĩı":10869,"ĠSystem":10870,"ital":10871,"ç»Īäºİ":10872,"éĿĪéŃĤ":10873,"any":10874,"å¯¹åħ¶":10875,"æĽ´åĲį":10876,"ç±³äºļ":10877,"äºĴåĭķ":10878,"åŁºæľ¬æ³ķ":10879,"æķıæĦŁ":10880,"èĳ¬äºİ":10881,"æ¡ĥåľĴå¸Ĥ":10882,"é«ĺæŀ¶":10883,"ç¾İå°ĳå¥³":10884,"ä¿®å¾©":10885,"è¤Ĳ":10886,"èĿĻ":10887,"éĢ±åĪĬ":10888,"Ed":10889,"çĻ¼éģĶ":10890,"åİŁåŀĭ":10891,"ç¯¤":10892,"æŃĮè©ŀ":10893,"èĶ½":10894,"ç¨®æ¤į":10895,"è²¡åĭĻ":10896,"ï¼ģâĢĿ":10897,"è§£æĶ¾è»į":10898,"è½¨éģĵäº¤éĢļ":10899,"ç¹¼ä½į":10900,"Ðº":10901,"éķ·æ²Ļ":10902,"æŃ£ç¾©":10903,"ä¸ĩç¾İåħĥ":10904,"æ¦Ĥçİĩ":10905,"åľĭåĭĻéĻ¢":10906,"å½ĵå±Ģ":10907,"æīĺé©¬æĸ¯":10908,"èĭ¹æŀľ":10909,"æľĽéģłéı¡":10910,"118":10911,"çļĦæ³ķå¾ĭ":10912,"æŀĹèĤ¯":10913,"éĶĲ":10914,"åı¯èĥ½ä¼ļ":10915,"èĦ±ç¦»":10916,"å±łæ®º":10917,"aceae":10918,"åĵ¥åĢ«æ¯Ķäºŀ":10919,"æŃ¼":10920,"èĢĮæľī":10921,"ãĤ«":10922,"æķħéļľ":10923,"èī¯å¥½çļĦ":10924,"éŀŃ":10925,"New":10926,"åĩºåıĳ":10927,"ä½Ĩä¹Ł":10928,"ä¸ĸç´ĢçļĦ":10929,"èĿķ":10930,"è³¼çī©":10931,"æ¯ĶåĪ©æĻĤ":10932,"ris":10933,"å¸ĥèĲĬ":10934,"æĽ´æľī":10935,"çİĩåħĪ":10936,"éĽ·éģĶ":10937,"ä¹łæĥ¯":10938,"çļĦåľ°åįĢ":10939,"åĮĹå¤§":10940,"è¼¿":10941,"çĻ½äºº":10942,"æľºåĪ¶":10943,"æ´Ľå¤«":10944,"èĪ¹éļ»":10945,"çĽĽè¡Į":10946,"è¦Ĩèĵĭ":10947,"ä¼Ĭæĸ¯åħ°æķĻ":10948,"åħ¨æķ¸":10949,"æµģæĦŁ":10950,"Ġ--":10951,"éĹ®é¢ĺçļĦ":10952,"äºŀæ´²éĽ»è¦ĸ":10953,"æŃ¤åīį":10954,"åįģä¸īå¹´":10955,"æ°´ä¸Ĭ":10956,"åİĨåı²åŃ¦å®¶":10957,"å¾Ĳå·ŀ":10958,"åĪĨåĪ«ä¸º":10959,"æĭ¯æķĳ":10960,"åĮ¡":10961,"æ³Ħ":10962,"åľ°çĤ¹":10963,"æ¨ĳ":10964,"ç¬¬äºĮä»£":10965,"è¯¸ä¾¯":10966,"èĿĻèĿł":10967,"åĴĮçļĦ":10968,"çľĭè¦ĭ":10969,"ä½ľåĵģçļĦ":10970,"106":10971,"ç¬¬ä¸Ģæī¹":10972,"èªįèŃī":10973,"åħ¶ä¸Ńæľī":10974,"ãĤª":10975,"æİ¨åĩºäºĨ":10976,"é«ĶèĤ²é¤¨":10977,"è¯Ĭ":10978,"å¾Įä¸ĸ":10979,"åħ¨åİ¿":10980,"èĲį":10981,"æĭīçļĦ":10982,"rosoft":10983,"ana":10984,"åľŁæľ¨":10985,"æŃ»èĢħ":10986,"led":10987,"é³³åĩ°":10988,"éģİçļĦ":10989,"äº¦çĤº":10990,"å¼µåŃ¸":10991,"ï¼ŁãĢį":10992,"å±¢":10993,"ç¸½çĽ£":10994,"åĤĳåħĭ":10995,"ä¼łç»ŁçļĦ":10996,"ä¸Ģèĩ³":10997,"æķĸ":10998,"ä¸ºæŃ¤":10999,"æµģä¼ł":11000,"ä¹¡æĿĳ":11001,"Station":11002,"åįĹæ´ĭ":11003,"æ©Ħ":11004,"ç²¾èĭ±":11005,"è¿ªåįĹ":11006,"ãĢĭï¼Ľ":11007,"å¤ļæ¨£":11008,"åŀĥ":11009,"åį³çĤº":11010,"æĶ¿æ²»éĥ¨":11011,"å³¶ä¸Ĭ":11012,"åĪ¤æ±º":11013,"++":11014,"çļĦæķĻ":11015,"åĸĬ":11016,"è¾ĥå¤§":11017,"çļĦéĤ£":11018,"çī©æ¥Ń":11019,"åįĢåĪ¥":11020,"æµģæµª":11021,"å½ĵåľ°çļĦ":11022,"æīįæĺ¯":11023,"èĤ¡æĿ±":11024,"åįıåķĨ":11025,"éĢĤåºĶ":11026,"éµ¬":11027,"DC":11028,"li":11029,"åı²èĴĤ":11030,"æ·¹":11031,"ä¹¦ä¸Ń":11032,"éĢŁçİĩ":11033,"å»£æĴŃåĬĩ":11034,"å»£æĿ±çľģ":11035,"éģ¥":11036,"æ¡¶":11037,"éģİä¸ĸ":11038,"åįķçĭ¬":11039,"ï¼Ŀ":11040,"åľ¾":11041,"æĸ°åºĹ":11042,"æĦī":11043,"éŃħ":11044,"éĻĨç»Ń":11045,"åŀĥåľ¾":11046,"çĶŁåīį":11047,"éĽ»è¨Ĭ":11048,"éĨ¬":11049,"èŁ»":11050,"earch":11051,"ĠQu":11052,"èĻŁç·ļ":11053,"ä¼¯æł¼":11054,"å®ĩèĪª":11055,"ĠInd":11056,"çĽ¸å½ĵäºİ":11057,"æµı":11058,"å¸¸çĶ¨çļĦ":11059,"æ²ĥå°Ķ":11060,"ext":11061,"æĸ¹å½¢":11062,"åħĥæľĹ":11063,"éĢĻæ®µ":11064,"æ»ħçµķ":11065,"åĪĨåĪ«æĺ¯":11066,"è¿½æº¯åĪ°":11067,"åħ¶ä¸Ńä¸ĢåĢĭ":11068,"ç¬¬åįģä¸ī":11069,"åįĵè¶Ĭ":11070,"colspan":11071,"äººå¤§å¸¸å§Ķä¼ļ":11072,"çļĦå®¶":11073,"é«ĺç¥ĸ":11074,"é©¬éĩĮ":11075,"æķĻèĤ²æ©Łæ§ĭ":11076,"åı±åĴ¤":11077,"çŁ¶":11078,"äºĮåħ«":11079,"çĽ¸ç¹¼":11080,"åĲĳåĮĹ":11081,"æĽ´å¤§çļĦ":11082,"æ¸ħæĶ¿åºľ":11083,"æ¸¸åĩ»":11084,"åĩºçīĪçļĦ":11085,"çĶŁéķ·":11086,"åħ¥éĢī":11087,"èªįåı¯":11088,"ä¸Ńèı¯æ°ĳåľĭç¸½çµ±":11089,"ä¸ĢçŃī":11090,"äºĮçĻ¾":11091,"çĶŁçī©åŃ¦":11092,"åĦĦæ¸¯åħĥ":11093,"ä¸īè§Ĵå½¢":11094,"å¤ļå¹´çļĦ":11095,"äºļå½ĵ":11096,"åıĪè¢«":11097,"éģºåĤ³":11098,"åŃļ":11099,"äºĮæĪĺ":11100,"åı¤åŁİ":11101,"éĶ¦æłĩ":11102,"åľ¨ä¸ĢäºĽ":11103,"è¥¿å¤ı":11104,"çī©èªŀ":11105,"æĤħ":11106,"Fl":11107,"ç§ĳå°Ķ":11108,"å½ĵä»£":11109,"æ¾³éĹ¨":11110,"çĻ¼çı¾äºĨ":11111,"ç´Ľç´Ľ":11112,"ç¼ħçĶ¸":11113,"TA":11114,"å°ıæıĲçĲ´":11115,"æĶ¹çĶ±":11116,"æł¼é²ģ":11117,"èº«é«ĺ":11118,"çķ«éĿ¢":11119,"æĻ¯è§Ĥ":11120,"å½±éŁ¿åĬĽ":11121,"by":11122,"uch":11123,"å¹´ä¸ĸçķĮçĽĥ":11124,"è¥¿è·¯":11125,"ä¸¤å²¸":11126,"å°ĪåĪ©":11127,"ety":11128,"æ³¨åħ¥":11129,"æĹĹä¸ĭçļĦ":11130,"ï½ŀï¼Ī":11131,"èģ¯è³½åĨłè»į":11132,"å¥¥æĸ¯æĽ¼":11133,"çļĦæ¶Īæģ¯":11134,"åľ¨å¤ĸ":11135,"çİ°åŃĺ":11136,"å¿ħçĦ¶":11137,"ke":11138,"èĢĮæŃ»":11139,"åŁİéİ®":11140,"éĢĻé¡ŀ":11141,"è¶³åįĶ":11142,"åĿĲæłĩ":11143,"ä¸Ńåħ¨":11144,"æĢ§è¡ĮçĤº":11145,"åįĢéĸĵ":11146,"æĪĸç¨±":11147,"ç§°ä¹ĭä¸º":11148,"å±Ģéķ¿":11149,"æ¶ĪéĻ¤":11150,"è¾¦çĲĨ":11151,"è£Ŀé£¾":11152,"å¼ķèµ·äºĨ":11153,"è»Ĭèº«":11154,"ä¾ĽåºĶ":11155,"æĻºåĪ©":11156,"è¾¦äºĭèĻķ":11157,"å¹´å·¦åı³":11158,"å¢ħ":11159,"äº¤åĵį":11160,"ãĥķ":11161,"ĠPar":11162,"åľĭæ°ĳä¸ŃåŃ¸":11163,"æİ¢æ¸¬":11164,"ä¸ĭæĸ¹":11165,"éĹľæĿ±":11166,"åĽŀæĹı":11167,"çª©":11168,"æ´Ľéĺ³":11169,"çĽ£è£½":11170,"å¤§ä¼Ĺ":11171,"çµĤæŃ¢":11172,"åįģåħŃå¹´":11173,"ä½įåħĥ":11174,"ç¥ŀåŃ¸":11175,"è£ħç½®":11176,"cm":11177,"çļĦç»ıæµİ":11178,"ä¹ĭåħ§":11179,"åĪĨäº«":11180,"å¸ĥä»Ģ":11181,"æĻ¯çĤ¹":11182,"èµĦæł¼":11183,"è¼ĥé«ĺ":11184,"æŃ·åı²åŃ¸å®¶":11185,"äºĭä»¶çļĦ":11186,"æ¶īå«Į":11187,"ä»ĸèĪĩ":11188,"çĹĽèĭ¦":11189,"åħ¶çĤº":11190,"ä½įå±ħ":11191,"æĬĢèĥ½":11192,"ä½İæĸ¼":11193,"æī¿æĭħ":11194,"å¸¦é¢Ĩ":11195,"ç»Ħç»ĩçļĦ":11196,"OP":11197,"åı¯éĿł":11198,"æľĢèĳĹåĲįçļĦ":11199,"è¯ĨåĪ«":11200,"now":11201,"å¤§èĭ±":11202,"åĮĹä¸Ĭ":11203,"åĽ¾å½¢":11204,"åĪ¤æĸ·":11205,"åļ´æł¼":11206,"åİŁåĿĢ":11207,"çŁ¥åĲįçļĦ":11208,"ä¸ŃæĸĩçīĪ":11209,"æĺłå°Ħ":11210,"è¿ĩå¢ĥ":11211,"æ³¢å°Ķ":11212,"ä¸¥æł¼":11213,"ham":11214,"åİ²":11215,"éķ¿è¾¾":11216,"åĨħåľ°":11217,"åĽŀæĶ¶":11218,"å¢ŀå¼·":11219,"æıĲèŃ°":11220,"æŀĹå½ª":11221,"è¬ł":11222,"æ³¨éĩį":11223,"å§ĵåĲį":11224,"æĲŃéħį":11225,"æ°´æŀľ":11226,"äº¤éŁ¿":11227,"éŁ³æ¨Ĥæľĥ":11228,"erson":11229,"çļĦåįĹ":11230,"éĩįé»ŀ":11231,"è«·":11232,"æ´»æĢ§":11233,"åīĩä»¥":11234,"åĪĿå¹´":11235,"åŃ«æ¬Ĭ":11236,"æııå¯«":11237,"å¿ĥçĲĨåŃ¦":11238,"çļĦå±±":11239,"æĺ¯ä¸ĸçķĮä¸Ĭ":11240,"åıĹä¼¤":11241,"ä½ĵçİ°":11242,"æķĻèĤ²å®¶":11243,"ç¹¼ä»»":11244,"éĥĿ":11245,"å¼¼":11246,"ç±²":11247,"åħĥä»¶":11248,"æŃ¦çĶ°":11249,"èŃīåĪ¸":11250,"æŃĲæ´²åľĭå®¶":11251,"äºĭå®ŀä¸Ĭ":11252,"é©¾é©¶":11253,"ä¸Ģåł´":11254,"èĪĸ":11255,"åħ¬åĭĻ":11256,"åĲĮæľŁ":11257,"çŁŃæļ«":11258,"ä¼ļè®®ä¸Ĭ":11259,"åĸĩåĺĽ":11260,"åĭģæŃĮéĩĳæĽ²":11261,"è¥¿åĮĹéĥ¨":11262,"ç¨±èĻŁ":11263,"åĽŀåĽ½":11264,"éĢłæĪĲäºĨ":11265,"çī§å¸«":11266,"æĴŀæĵĬ":11267,"åĲĲèķĥ":11268,"åº¦åģĩ":11269,"åĲĳåīį":11270,"åĬ¨ä½ľ":11271,"åı¯èĥ½çļĦ":11272,"åĽ¢éķ¿":11273,"%ï¼ī":11274,"å¹´ç¬¬":11275,"å¾Įè¢«":11276,"çº¦ä¸º":11277,"åĽ¢éĺŁ":11278,"çŁŃæľŁ":11279,"æªĢ":11280,"Ġdes":11281,"1894":11282,"èĴ¸æ±½":11283,"æĮ«":11284,"åĢĭæĢ§":11285,"åįıå®ļ":11286,"éĸ¥":11287,"ãĢīï¼Į":11288,"ps":11289,"äººè¢«":11290,"å¤§éĢī":11291,"è¥¿æ¹ĸ":11292,"æĿİåħĭ":11293,"çĶŁæ´»çļĦ":11294,"éĢĤåĲĪ":11295,"çļĦæĢĿæĥ³":11296,"ä¸İæŃ¤":11297,"çķ¶ä½ľ":11298,"é¾Ł":11299,"ãĢıï¼Ī":11300,"çĶŁéķ¿":11301,"ç¤¾äº¤":11302,"è±Ĳèĩ£":11303,"1871":11304,"oon":11305,"åįģä¸Ģå¹´":11306,"éĢ²èĢĮ":11307,"æ³°åĽ½":11308,"ĠĠĠ":11309,"çĶŁäº§æĢ»åĢ¼":11310,"çĻ¼åĭķæ©Ł":11311,"éĹª":11312,"é»Ķ":11313,"èĪªè¡Į":11314,"æ©«æ¿±":11315,"æľīæķĪçļĦ":11316,"åīµè¾¦äºº":11317,"ä¹ĭæĻĤ":11318,"çĽ¸è¿ŀ":11319,"å·²åľ¨":11320,"èĸ©æĸ¯":11321,"ä»ħä»ħ":11322,"å¯»æī¾":11323,"Ġ<":11324,"åħ¶çĪ¶":11325,"åĲĦçķĮ":11326,"å§Ķè¨Ĺ":11327,"å¤«å©¦":11328,"åĵĪå¾·":11329,"éĢīæīĭ":11330,"å±±è¥¿çľģ":11331,"æĸ°å®¿":11332,"å®ĮçµĲ":11333,"åħ·é«Ķ":11334,"èĶļ":11335,"ç©¿èĳĹ":11336,"éĶ¦æłĩèµĽ":11337,"ä¸ķ":11338,"å¤§éĺŁ":11339,"åħĪè¿Ľ":11340,"åĨĻéģĵ":11341,"èĶ£ç¶ĵåľĭ":11342,"outh":11343,"çļĦåĮĹ":11344,"æĸ¯éĩĮ":11345,"ä¸īçĻ¾":11346,"orge":11347,"æŃĮèĪŀ":11348,"åº§ä½į":11349,"çķ¢æ¥Ńå¾Į":11350,"ç¯®çĲĥ":11351,"åĬłç´¢":11352,"æ°´ç³»":11353,"å¾ŀæľª":11354,"è©²æł¡":11355,"æ¸¸å®¢":11356,"åŃĻä¸Ńå±±":11357,"De":11358,"å¤¹":11359,"éĥ¨ä¸ĭ":11360,"å°¼åı¤æĭī":11361,"æĺ¯ä¸ĢåĲį":11362,"æ¯ĶåĪ©æĹ¶":11363,"CN":11364,"çĤºå¤§":11365,"å¤ļéłħ":11366,"å§ĭçļĩ":11367,"çĿ¿":11368,"æ°£è±¡":11369,"åħ´å»º":11370,"ç¢ºç«ĭ":11371,"å²ģæĹ¶":11372,"ä¹ĭäºĭ":11373,"å¼Ģå·¥":11374,"åıĤçľĭ":11375,"æĹģçĻ½":11376,"åŃŁåĬłæĭī":11377,"ä¸Ńåħ±ä¸Ńå¤®æĶ¿æ²»å±Ģ":11378,"åľ¨èĭ±åľĭ":11379,"æľ¬æĽ¸":11380,"åı¯è§ģ":11381,"å¸ĥéĩĮ":11382,"arch":11383,"æ²³è°·":11384,"å¥ĳä¸¹":11385,"oz":11386,"æĭĽçĶŁ":11387,"é«ĺåı¥ä¸½":11388,"çī¡ä¸¹":11389,"the":11390,"ä¸įè®Ĭ":11391,"ä¸Ĭæĸ¹":11392,"ä¹ĭéļĽ":11393,"æ°ĳçĶŁ":11394,"éĴł":11395,"èĮĥåĽ´åĨħ":11396,"Ġj":11397,"åıĸèĩª":11398,"å¾Ģè¿Ķ":11399,"åºĶå½ĵ":11400,"éĳĦ":11401,"è£ľåħħ":11402,"æĸ°åĮº":11403,"éĩĳé¦¬":11404,"èİ½":11405,"ç¾İåĽ½äºº":11406,"éİĬ":11407,"å¼ĹåĲī":11408,"æĪĺäºīä¸Ń":11409,"éĩĳéĻµ":11410,"åĽ½å®¶æ£®æŀĹåħ¬åĽŃ":11411,"å¥´éļ¸":11412,"GUNDAM":11413,"çŃĭ":11414,"æľįè£Ŀ":11415,"èŃ¯æľ¬":11416,"æ³ķåħ°åħĭ":11417,"fer":11418,"ä»ĸèªįçĤº":11419,"å¿Ĵ":11420,"ç±³äºŀ":11421,"æ¬§çĽŁ":11422,"å®¦å®ĺ":11423,"Ġï¼ļ":11424,"ä¸įèī¯":11425,"æ°ĳèĪª":11426,"èµ°å»Ĭ":11427,"æİ¥åıĹäºĨ":11428,"uper":11429,"æľĢæĸ°":11430,"ari":11431,"äºĶä¸ª":11432,"ä¼Ĭä¸½":11433,"é»ŀçļĦ":11434,"è®°å¿Ĩ":11435,"ä½ľåĵģä¸Ń":11436,"ï¼Īï¼īãĢģ":11437,"å¤ļå°ĳ":11438,"è¼ĥå°ĳ":11439,"ç´°èıĮ":11440,"ç´¯ç©į":11441,"åħ¬éłĥ":11442,"å¸ĥéĽ·":11443,"èī²æĥħ":11444,"æīĵæķĹ":11445,"è¬¹":11446,"è½īä¹ĺ":11447,"åīµæĸ°":11448,"æ±Łè¥¿çľģ":11449,"æĺ¯å¾ŀ":11450,"åĽ½æľī":11451,"åĮĸä¸º":11452,"éĥ½èĥ½":11453,"ĠCent":11454,"æĸĻçĲĨ":11455,"åħ¨ç·ļ":11456,"è¡ĵèªŀ":11457,"1860":11458,"åĲĦæľī":11459,"ç³»åĪĹçļĦ":11460,"èīºæľ¯å®¶":11461,"å¤§æ°Ķ":11462,"åĲįèªī":11463,"èĴĤå®ī":11464,"çļĦåŃ¸çĶŁ":11465,"æ¥·":11466,"108":11467,"å¹¿å·ŀå¸Ĥ":11468,"æĹ¥æĸ¼":11469,"æĪ°æķĹ":11470,"ç¤¾åľĺ":11471,"ãĥ£":11472,"çĨ¹":11473,"è½īçĤº":11474,"çĴ°çĲĥ":11475,"ï¼ŁâĢĿ":11476,"MB":11477,"æĹłéĶ¡":11478,"æį¢ä¹ĺ":11479,"Tr":11480,"è¢į":11481,"æ»Ļ":11482,"èİ·å¥ĸ":11483,"æĵ´å»º":11484,"ç¡«éħ¸":11485,"èĶ¬èıľ":11486,"103":11487,"æĮĩåįĹ":11488,"é¬¥çĪŃ":11489,"åĲ¾å°Ķ":11490,"å¡¢":11491,"æĹ§ç§°":11492,"ç«ĭå§Ķ":11493,"alk":11494,"åĪĬçī©":11495,"æ©ŁåĭķæĪ°å£«":11496,"è«®è©¢":11497,"çļĦè¡ĮçĤº":11498,"éļĻ":11499,"éĽ»ç£ģ":11500,"æµģæĶ¾":11501,"éĵĿ":11502,"ç¬¬ä¸Ģä»»":11503,"ĠMe":11504,"æ°¨éħ¸":11505,"net":11506,"èĢĮå¾Į":11507,"å¾®è½¯":11508,"ien":11509,"æĺ¯çĶ¨":11510,"æ°ĳé»¨":11511,"é¦Ļæ¸¯å³¶":11512,"æĺŁçĲĥ":11513,"æĽ²çº¿":11514,"çĬģ":11515,"ä¸Ńå¤®äººæ°ĳæĶ¿åºľ":11516,"å¹´ä»£æľ«":11517,"èĬĤçĤ¹":11518,"åįıè°ĥ":11519,"æļ´éľ²":11520,"çī©çĲĨåŃ¸å®¶":11521,"å½©èī²":11522,"TP":11523,"å·©":11524,"ãģ¾":11525,"æ·±åıĹ":11526,"èĲ¨åħĭæ£®":11527,"CL":11528,"ress":11529,"çļĦèĩª":11530,"éĹ²":11531,"å¢³":11532,"å¼Ģè®¾":11533,"éĽĨé«Ķ":11534,"èŃ°å¸Ń":11535,"æıĴåħ¥":11536,"æ¯ĵ":11537,"å¥¹åĢĳ":11538,"åĨ°å·Ŀ":11539,"é¢ģåıĳ":11540,"åİ¦éĹ¨":11541,"å½°åĮĸç¸£":11542,"åĩºç§Ł":11543,"è½īåĲĳ":11544,"åį±éĻ©":11545,"åİĭç¼©":11546,"å¥¥æŀĹåĮ¹åħĭè¿ĲåĬ¨ä¼ļ":11547,"ION":11548,"çļĦéŁ³":11549,"å°įç¨±":11550,"äº«åıĹ":11551,"è¿ģèĩ³":11552,"åįģåħ«å¹´":11553,"åĩ¤åĩ°":11554,"çļĦæİ§åĪ¶":11555,"å¤§åį«":11556,"åį³å°ĩ":11557,"æĳ§æ¯Ģ":11558,"åīįåĪĹ":11559,"äº¤å¾Ģ":11560,"æ¨¡çī¹åħĴ":11561,"ä¸įæķ¢":11562,"erg":11563,"å°įè©±":11564,"çħ§é¡§":11565,"oss":11566,"app":11567,"è³¼åħ¥":11568,"EX":11569,"OL":11570,"åľ¨èĩºçģ£":11571,"åħ¬çĽĬ":11572,"èµĶ":11573,"æ¿«":11574,"å¾©æ´»":11575,"èĩªçĦ¶ä¿ĿæĬ¤åĮº":11576,"eph":11577,"çĻ¼è¡ĮçļĦ":11578,"inal":11579,"éĥĳå·ŀ":11580,"æĺ¯ä»ĸ":11581,"ä¸įçŃī":11582,"åīįåĲİ":11583,"åĬłåĭĴ":11584,"æĭīå¤ļ":11585,"æµģæ´¾":11586,"çļĦèº«ä»½":11587,"åľĭå°ı":11588,"ä¾¦":11589,"å°įåħ¶":11590,"è°¦":11591,"è°Ĳ":11592,"åħ©å¤§":11593,"åĽŀå®¶":11594,"ç·¨çµĦ":11595,"æī©å»º":11596,"èĶ£ä»ĭçŁ³":11597,"è¡°èĲ½":11598,"Ġex":11599,"é¦ĸéķ·":11600,"å®¢æĪ¶":11601,"éħįåĤĻ":11602,"éĹ¸":11603,"ä¿¡çĶ¨":11604,"èĦ¹":11605,"éħĴç²¾":11606,"çººç»ĩ":11607,"éĩĢ":11608,"æ¬¡æķ¸":11609,"å®īç½®":11610,"æµģåĬ¨":11611,"ator":11612,"çĶµè·¯":11613,"å¸¶èĳĹ":11614,"ä¾Ŀè³´":11615,"çļĦä¸ŃåĽ½":11616,"çļĦè¯Ŀ":11617,"ä¸įä½³":11618,"åĲįåĪĹ":11619,"å»łåķĨ":11620,"åĽ½éģĵ":11621,"èĥĸ":11622,"çĳļ":11623,"éĨ«å¸«":11624,"æĿ°åħĭéĢĬ":11625,"ä¼Ĭä¸½èİİçĻ½":11626,"éĿ¢å¯¹":11627,"æĶ¯æĴ":11628,"éĽ¢å©ļ":11629,"åģĩæľŁ":11630,"å¾Įä¾ĨçļĦ":11631,"èĪĬéĩĳå±±":11632,"äººäºĭ":11633,"è¿Ń":11634,"èģĬ":11635,"åĲįåı«":11636,"è¥¿åħ°":11637,"åħ¨æ°ĳ":11638,"åĪĹå®ģ":11639,"æĴ¤éĬ·":11640,"çį¨ç«ĭçļĦ":11641,"æ¼«çķ«å®¶":11642,"åµ©":11643,"çļĦçµĲæŀľ":11644,"å¸Ĥéİ®":11645,"éĢĻéĥ¨":11646,"åİ»äºĨ":11647,"å¾ĴåĪĳ":11648,"æļĹç¤º":11649,"ç´Ĳè¥¿èĺŃ":11650,"è°Ń":11651,"èĨı":11652,"çļĨçĤº":11653,"è«¸ä¾¯":11654,"å¹¼ç¨ļåľĴ":11655,"èĤļ":11656,"çĮ¿":11657,"å§Ķåĳĺä¼ļå§Ķåĳĺ":11658,"å¯Įå£«éĽ»è¦ĸåı°":11659,"ï¼ļï¼Į":11660,"è¡Įè»Ĭ":11661,"æ£®åł¡":11662,"è¯ģåĪ¸":11663,"æ··äºĤ":11664,"è¡ĿæĵĬ":11665,"æ³ķèĺŃåħĭ":11666,"äººç¾¤":11667,"éłŃéĬľ":11668,"åīµå»º":11669,"æ¸ħåįİå¤§åŃ¦":11670,"å¤§åłĤ":11671,"åĪĨæ³Į":11672,"è¢«åĳĬ":11673,"åħ¨æ¸¯":11674,"çªĳ":11675,"é¢¨éĽ²":11676,"è¾Ľäº¥":11677,"é¥°æ¼Ķ":11678,"echn":11679,"åľ°è³ª":11680,"å£¢":11681,"æ©Łè»Ĭ":11682,"çĽ´å¾ĳ":11683,"åĲ¦å®ļ":11684,"æĬ¹":11685,"æĸ°å¹¹ç·ļ":11686,"èī·":11687,"åĽĽåŃ£":11688,"åĪĿå§ĭ":11689,"èģĮä½į":11690,"çļĦæĥħå½¢":11691,"äººæĿĥ":11692,"ä¸Ĭå°ĩ":11693,"åı¯çĶ¨":11694,"éĩĳéĲĺ":11695,"å¿ĥèĩŁ":11696,"æµģè¡ĮçļĦ":11697,"çģ«åĬĽ":11698,"ç´ħç£¡":11699,"ä¹ĭæĹħ":11700,"åı¯åĪĨçĤº":11701,"æµ·æ°´":11702,"ç©įåĪĨ":11703,"ĠInternational":11704,"Ġund":11705,"ä¸ºåħ¶":11706,"åı°çļĦ":11707,"ï¼įï¼ī":11708,"ury":11709,"ç£ħ":11710,"èķī":11711,"éłĨåºı":11712,"uro":11713,"æľīæĦı":11714,"äºĭå®ľ":11715,"104":11716,"éĩĮå£«":11717,"éķ¿å®ĺ":11718,"ç¬¬äºĮå¤§":11719,"åĸ®çį¨":11720,"Ġder":11721,"å¹´çīĪ":11722,"ä¸įå¹¸":11723,"è¿Ļéĥ¨":11724,"è¿ĲçĶ¨":11725,"ĠLondon":11726,"éĤĬçļĦ":11727,"çĮ©çĮ©":11728,"å¹´ä¸ŃåĽ½":11729,"èĢħåĴĮ":11730,"åĵĪå¸ĥ":11731,"ç²¾éģ¸":11732,"çľĭä½ľ":11733,"ç§»æ¤į":11734,"éĪ¾":11735,"()":11736,"å¥ĸé¡¹":11737,"æĮ½":11738,"ç¾İé£Ł":11739,"åįĩéĻį":11740,"çļĦäºĭæĥħ":11741,"åıĽä¹±":11742,"ensis":11743,"ĠSchool":11744,"Ġ2002":11745,"çļĦç¸½":11746,"ä¸»æĿĥ":11747,"æ·Ĩ":11748,"ç¤ºèĮĥ":11749,"çļĦå¤§å°ı":11750,"ym":11751,"ä¸Ģå¥Ĺ":11752,"åĵĩ":11753,"ä¹Łå¾Ī":11754,"è²¶":11755,"roup":11756,"ä¹ĭå¾ĮçļĦ":11757,"èģĶåĲĪä¼ļ":11758,"æĪªæŃ¢":11759,"ouse":11760,"å°¼è¥¿äºŀ":11761,"éĤ£éĩĮ":11762,"åŁ¹é¤Ĭ":11763,"over":11764,"æĭĵæīĳ":11765,"èĴĭä»ĭçŁ³":11766,"çļĦä¸¤":11767,"æľºçļĦ":11768,"çĩĥçĩĴ":11769,"evel":11770,"ä¼Ĭæĸ¯èĺŃæķĻ":11771,"çº¤ç»´":11772,"ng":11773,"ï¸":11774,"Ġ#":11775,"æ°ĳä¿Ĺ":11776,"ç»ıçĲĨ":11777,"å³Ļ":11778,"æ¿¤":11779,"ED":11780,"æĹ¥è¢«":11781,"ãĤ£":11782,"çİĭåħ¬":11783,"ä½Ĩåį»":11784,"æ¬¡çļĦ":11785,"åŁİéĤ¦":11786,"æ²³çļĦ":11787,"ä¼łæķĻå£«":11788,"ç½ªåĲį":11789,"èħĵåĬĽ":11790,"Co":11791,"ãĢĬãĢĭï¼Į":11792,"èİŀ":11793,"èĳĹæľī":11794,"æĪĢæĦĽ":11795,"å°ĸæ²Ļ":11796,"ler":11797,"çļĦæľ¬":11798,"ä¸ĬåįĬ":11799,"åħ¬çº¦":11800,"æľĢå¥½çļĦ":11801,"æ¬¡äºİ":11802,"And":11803,"æĺ¯è¢«":11804,"Or":11805,"ä¸Ńä¸ľ":11806,"åħ¬åŃĲ":11807,"äº¤åıī":11808,"æĻ¯è§Ģ":11809,"åĪĽå§ĭäºº":11810,"éĤĬå¢ĥ":11811,"æĿ¿æ©ĭ":11812,"è¡°è®Ĭ":11813,"çŀ¬":11814,"å°¼æ³Ĭ":11815,"ç»´åĲ¾å°Ķ":11816,"Ġla":11817,"ä¾Ĩçľĭ":11818,"èģĶç»ľ":11819,"è²¡åľĺ":11820,"åī¥":11821,"åĪĨæŃ§":11822,"ä¹Łæ²¡æľī":11823,"å¾·èªŀ":11824,"å®īå®ļ":11825,"åĨħæľī":11826,"ç¾¤ä½ĵ":11827,"ç¼ºéĻ·":11828,"å¤§éĥ¨åĪĨçļĦ":11829,"çĽ¸åħ³çļĦ":11830,"He":11831,"Ġ2007":11832,"åĽ½åħ±":11833,"åĮĸçī©":11834,"æŃ¥è¡Į":11835,"æī¿è«¾":11836,"é²ģè¿ħ":11837,"æ»¤":11838,"ä¸ĢçĽ´æĺ¯":11839,"è¾ĵåĩº":11840,"å¤§çĶ²":11841,"å¿ĹæĦ¿":11842,"å·¾":11843,"é«ĺæĸ¼":11844,"èĢħåľ¨":11845,"åıĳæĮ¥":11846,"åı¸å¾Ĵ":11847,"æ»ĩ":11848,"åıªå¥½":11849,"çµĤé»ŀ":11850,"å¯ºéĻ¢":11851,"åĳ¼ç±²":11852,"èµ¤éģĵ":11853,"å»¢æŃ¢":11854,"å¥§éģĭæľĥ":11855,"IX":11856,"å®ĺè¯Ŀ":11857,"æ¸ħèı¯":11858,"ç¡ħ":11859,"æŁĲä¸Ģ":11860,"è¢«èªįçĤº":11861,"çłį":11862,"åı¤å¸Įèĩĺ":11863,"ç§»èĩ³":11864,"éļ¸å±¬":11865,"ield":11866,"çļĦåĬĽéĩı":11867,"äººç¨±":11868,"è¡Ļ":11869,"æĹ¥ä¸ĬåįĪ":11870,"åı²ç¨±":11871,"éķ¿åŁİ":11872,"åīµä¸ĭ":11873,"æĹ§åĿĢ":11874,"çĨŁæĤī":11875,"å¤¸åħĭ":11876,"çļĦèªªæ³ķ":11877,"æľīåĬ©":11878,"åľ°åĬ¿":11879,"èĩºæĿ±":11880,"ä¸Ńå¤®æĶ¿æ²»å±Ģ":11881,"ä¸Ģäºĭ":11882,"èµ·èįī":11883,"æĹ¥æľ¬æĶ¿åºľ":11884,"çĳĻ":11885,"ĠMac":11886,"ç¶Ńä¿®":11887,"è£½æĪĲ":11888,"æķ¸åĢ¼":11889,"åĽŀåĲĪ":11890,"æ··æ·Ĩ":11891,"éĽķåĥı":11892,"æĹ¥è¨ĺ":11893,"ä¸Ĭæł¡":11894,"å½±è§Ĩ":11895,"éªļ":11896,"è©ŀå½Ļ":11897,"çĢı":11898,"è·¨è¶Ĭ":11899,"æª¢å¯Ł":11900,"éªĳåħµ":11901,"ä¸Ģåħ±":11902,"åĴĮåįĹ":11903,"æĹ¥åĩĮæĻ¨":11904,"åĲĪä¸Ģ":11905,"çİĭæĺŁ":11906,"éĸĵæİ¥":11907,"åħ«åįģ":11908,"å¨ģçĪ¾æĸ¯":11909,"çļĦä¸Ģåº§":11910,"å¥ĩå¹»":11911,"åŁ¹èĤ²":11912,"æ£Ģå¯Ł":11913,"ä¸ĭåİ»":11914,"æµģåħ¥":11915,"æĥħç·Ĵ":11916,"åĹİ":11917,"æĻ°":11918,"æ°¸åº·":11919,"å¤©ä¸»æķĻå¾Ĵ":11920,"åīįæľŁ":11921,"æıĲè®®":11922,"åī©ä¸ĭ":11923,"èı²å¾ĭå®¾":11924,"IBM":11925,"å¹´çį²":11926,"ä¸įå¤§":11927,"æĻĤå¸¸":11928,"æĻĤåĪ»":11929,"å£¬":11930,"æ¦´":11931,"ä»£è¡¨ä½ľ":11932,"åĲ¦åīĩ":11933,"La":11934,"çļĦçĪ¶è¦ª":11935,"å¤Ń":11936,"åľ°çº§":11937,"è¡Įçľģ":11938,"ä¸ĭæĹ¬":11939,"æĪĲç«ĭæĸ¼":11940,"é¹¼":11941,"æ¯ĽåĪ©":11942,"ç¼ĸåı·":11943,"ring":11944,"ä¹Ĵ":11945,"åľ¨æł¡":11946,"ä¸»ä½ĵ":11947,"åħ¶å®ŀ":11948,"ino":11949,"æģª":11950,"ä¿ĿèŃī":11951,"æĥħæĦŁ":11952,"ãĢĭï¼ĮãĢĬ":11953,"æħĪç¦§":11954,"é¡ºåºı":11955,"çļĦæł¸å¿ĥ":11956,"çĶ¨æ³ķ":11957,"ero":11958,"åħ±è®¡":11959,"æ´¾ç³»":11960,"ĠLib":11961,"é¬±":11962,"æ®ºäºº":11963,"ä¸ªè¡ĹéģĵåĬŀäºĭå¤Ħ":11964,"å·¥åŃ¦éĻ¢":11965,"é«Ķç©į":11966,"ions":11967,"ĠBook":11968,"åĬŀæ³ķ":11969,"åıĳçĶŁäºĨ":11970,"çĸ«èĭĹ":11971,"å¾Ĺç¥¨":11972,"å¼·åĪ¶":11973,"æºĸç¢º":11974,"ä¸Ńä¸ĸçºª":11975,"å®£ç§°":11976,"è¾¦åħ¬":11977,"ç°½ç´Ħ":11978,"å±±ä¸Ĭ":11979,"æ¨Ļç¤º":11980,"MM":11981,"ä¸ĭéĿ¢":11982,"ç½Ĳ":11983,"å¾Ĺçįİ":11984,"æĭīçī¹":11985,"ç§ĳçĽ®":11986,"éĺ¿å¸ĥ":11987,"å¹¶ä¸įæĺ¯":11988,"è°ģ":11989,"æĪĺå£«":11990,"æİ§åĪ¶çļĦ":11991,"åħĥç´łçļĦ":11992,"è¨´è¨Ł":11993,"æģĴæĺŁ":11994,"æ²ĸç¹©":11995,"è¨ºæĸ·":11996,"é«ĺåľ°":11997,"åĬłåĨķ":11998,"ĠAs":11999,"é»ĥèī²":12000,"çĻ¼çı¾çļĦ":12001,"1889":12002,"çļĦå¥³åħĴ":12003,"Intel":12004,"FL":12005,"ç¾İåľĭæµ·è»į":12006,"è¶³å¤Ł":12007,"åĲīç¥¥":12008,"èĲ½åľ¨":12009,"èĹĿåĵ¡":12010,"çıłæ±Ł":12011,"å·¡è¿´æ¼ĶåĶ±æľĥ":12012,"PlayStation":12013,"åľ¨çķ¶æĻĤ":12014,"å¤§å®ī":12015,"æīĢè¾ĸ":12016,"å¤©å®ī":12017,"æ°ĳä¸»æ´¾":12018,"æŃ§è¦ĸ":12019,"æĸ¼åĲĮå¹´":12020,"è¶¾":12021,"æĶ¹è£Ŀ":12022,"æĦıçĤº":12023,"ä»¶äºĭ":12024,"çģŃäº¡":12025,"çĲĨæŁ¥å¾·":12026,"å¼ĹåĲīå°¼äºļ":12027,"çĶĦ":12028,"åĴ¬":12029,"çĻ»éĻĨ":12030,"å¥§æĸ¯åį¡":12031,"èĺĩä¸¹":12032,"èĽĽ":12033,"åģ¶åĥıåľĺé«Ķ":12034,"ĠAmerican":12035,"On":12036,"å¹´åĽł":12037,"æĬ¬":12038,"éĸĭåķŁ":12039,"çĶµæ°Ķ":12040,"ç¾©åĭĻ":12041,"èªįçŁ¥":12042,"è£½ä½ľçļĦ":12043,"å¤ĦçĲĨåĻ¨":12044,"åª½ç¥ĸ":12045,"æ³ķèĺŃè¥¿":12046,"ä¿ĿåĬłåĪ©äºļ":12047,"æ³ķæĭī":12048,"èĥĨ":12049,"âĢĿï¼īï¼Į":12050,"ç«ĭçļĦ":12051,"çī¹åĮº":12052,"é¢Ī":12053,"çĸ²":12054,"åľĭéĺ²éĥ¨":12055,"ä¸Ģæī¹":12056,"å¥¢":12057,"1870":12058,"è¡£æľį":12059,"è´·":12060,"ĠAss":12061,"ãĤµ":12062,"æŃ·ä»£":12063,"è®ºåĿĽ":12064,"åĩºçı¾çļĦ":12065,"éŀı":12066,"è¤ĩè£½":12067,"åľ¨åħ§":12068,"äºĮçº§":12069,"ĠFor":12070,"äºĮåįģåĽĽ":12071,"æĥ¡éŃĶ":12072,"æ°¨åŁº":12073,"çĻ¾åĪĨçĤ¹":12074,"åľ¨ç¬¬":12075,"åľ¨æľ¬":12076,"éģĵæŃī":12077,"èªŀéŁ³":12078,"åĪĿä¸Ń":12079,"åĪł":12080,"åł°":12081,"åĲİè¢«":12082,"å·¨æĺŁ":12083,"Ġ*/":12084,"Jo":12085,"å·´çī¹":12086,"ç¸£çļĦ":12087,"èģŀåĲį":12088,"å¾ħéģĩ":12089,"ä¸Ńå°Ĩ":12090,"ä¸īç¨®":12091,"ç¥ģ":12092,"é¦Ļæ¸¯ä¸Ńæĸĩå¤§åŃ¸":12093,"æ¬ĬçļĦ":12094,"åĳĬè¯ī":12095,"æ³°å±±":12096,"éĺ¿å§Ĩæĸ¯çī¹":12097,"èĥĢ":12098,"çłĶç©¶èĢħ":12099,"å»£è¥¿":12100,"ä¿®å¤į":12101,"na":12102,"å¤ĸåľį":12103,"çļĩåŃĲ":12104,"å·¥ä½ľèĢħ":12105,"æ¬§åħĥ":12106,"æŀģç«¯":12107,"å±ĭéĤ¨":12108,"çºµéĺŁ":12109,"çļĦç¬¬ä¸ī":12110,"å¤§çİĭ":12111,"å¤§å¥ĸ":12112,"æĺ¯å¯¹":12113,"ç¥º":12114,"åħ¨ä½ĵ":12115,"åĬ¨è¯į":12116,"çĽ£çįĦ":12117,"ç¡¬ä»¶":12118,"åĵĪå¸ĥæĸ¯åł¡":12119,"çļĦåı£":12120,"å¤§æ¸ħ":12121,"çĶ¨åľ°":12122,"åı¤åŁĥåıĬ":12123,"å¨ħ":12124,"æŃĮåī§":12125,"1885":12126,"ä¼½åĪ©":12127,"èĪªç«Ļæ¥¼":12128,"ï¸°":12129,"yc":12130,"åĩºäºİ":12131,"éĥ¨ä½į":12132,"çĪ¾å¤«":12133,"æĪĺåľº":12134,"çµĦéķ·":12135,"èĦĨ":12136,"çĻ¼å±ķçļĦ":12137,"éģ©æĩī":12138,"å¤©æ´¥å¸Ĥ":12139,"å¾ĮçºĮ":12140,"æĽ¸çĽ®":12141,"æµ¸æľĥ":12142,"æĸ¼æŃ¤":12143,"åĮĹæĬķ":12144,"éĽ»æµģ":12145,"éĽķåĪ»":12146,"åħ¬éĸĭè³½":12147,"æľīä¸įå°ĳ":12148,"åĩ¹":12149,"æ¢§":12150,"äºĶçĻ¾":12151,"åıĸäºĨ":12152,"ä¸ĥåįģ":12153,"èģĸæ¯į":12154,"ä¹ĭçĶ¨":12155,"åħļå§Ķ":12156,"çĴ°ä¿Ŀ":12157,"æ¡¥æ¢ģ":12158,"æī¬å·ŀ":12159,":#":12160,"çķ¿":12161,"èĢĮæĪĲçļĦ":12162,"éĩįä¿®":12163,"èµ·åħµ":12164,"ourn":12165,"æĿ¥æºĲäºİ":12166,"è¯¦ç»Ĩ":12167,"CR":12168,"EP":12169,"åħ¥äºĨ":12170,"åº¦éĩı":12171,"éĩįè§Ĩ":12172,"æĶ¯éĤ£":12173,"ç¬¬åįģåĽĽ":12174,"ç§ĺä¹¦éķ¿":12175,"ä¼ºæľį":12176,"çĤī":12177,"åħ¬é¡·":12178,"è«ĸå£ĩ":12179,"ä¸ĥä¸ĸ":12180,"èĤºçĤİ":12181,"ï¼īï¼ī":12182,"åĵģç§į":12183,"ç¾¤çľ¾":12184,"ç§¦å§ĭçļĩ":12185,"çļĦçŁ³":12186,"åľ¨è¯¥":12187,"æĿĸ":12188,"åľ°è²Į":12189,"äº¤ä»ĺ":12190,"åĳ½éģĭ":12191,"èĻŁç¢¼":12192,"æĳ©æĸ¯":12193,"æľ±åħĥ":12194,"çĪ±åĽ½":12195,"å£ĵç¸®":12196,"æĭ¿çł´å´Ļ":12197,"wan":12198,"èĪħ":12199,"ä¸ªçĻ¾åĪĨçĤ¹":12200,"å·´çĪ¾":12201,"å½ĵä¸Ń":12202,"åįĶèª¿":12203,"éģµå¾ª":12204,"ä¸įä¸Ģ":12205,"æĪ°çļĦ":12206,"ãĤī":12207,"ãģ¿":12208,"è®ĵä»ĸ":12209,"åı²å¯Ĩæĸ¯":12210,"åł¯":12211,"éķ·æ±Ł":12212,"é«ĶåŃĹ":12213,"å§ĭçµĤ":12214,"ä½İäºİ":12215,"ä»ģå®Ĺ":12216,"çķ°å¸¸":12217,"çĺĭ":12218,"çļĦäºĭä»¶":12219,"å¹´ç§ĭ":12220,"åĩºå±Ģ":12221,"102":12222,"èĴĻå¾·":12223,"èµ«å°Ķ":12224,"Ġcon":12225,"éĹ»åĲį":12226,"æľĿé²ľåįĬå²Ľ":12227,"åİŁåŃĲæł¸":12228,"åĲĭ":12229,"çºľ":12230,"çľģæĶ¿åºľ":12231,"æ¬ĬçĽĬ":12232,"ç«ĭæ³ķæľĥèŃ°åĵ¡":12233,"åį±å®³":12234,"åľ¨ä¸Ģä¸ª":12235,"åĮĹè·¯":12236,"çĽ´è¾ĸ":12237,"æİ¨èįĲ":12238,"åľĭå®¶åħ¬åľĴ":12239,"å¼·å¤§çļĦ":12240,"rowspan":12241,"å°ĸæ²ĻåĴĢ":12242,"çļĦæĪĲåĵ¡":12243,"æĺ¯ä¸Ńåįİäººæ°ĳåħ±åĴĮåĽ½":12244,"æ¨Ĭ":12245,"åĢĭé«Ķ":12246,"å½±å±ķ":12247,"ä¹¦æ³ķ":12248,"ç¶Ńæĸ¯":12249,";}-ï¼Į":12250,"berg":12251,"åį¸ä»»":12252,"Ġæĸ°":12253,"ä¹ĭæīĢä»¥":12254,"æ¸¦":12255,"è¥¿å¾·":12256,"erman":12257,"æĪ°æ©Ł":12258,"ĠCor":12259,"åĺīéĿĸ":12260,"TBS":12261,"ç¤¾éķ·":12262,"åħ±åĴĮé»¨":12263,"çĽĳçĭ±":12264,"åĢĻéĢīäºº":12265,"âĸ":12266,"æ°ĳçĶ¨":12267,"åŃ£é£İ":12268,"æĻīç´ļ":12269,"æĢĢçĸĳ":12270,"ä¿®éģĵéĻ¢":12271,"å¤§ä¸Ń":12272,"åŃ¦åłĤ":12273,"è°Ĭ":12274,"çĻ¾åĲĪ":12275,"æĪ·ç±į":12276,"æį·åħĭæĸ¯":12277,"å½ĵéĢīä¸º":12278,"çļĦåħĴåŃĲ":12279,"ä¸įåŃĺåľ¨":12280,"ãĥĭ":12281,"ä¿®æĸ¯":12282,"1888":12283,"äº¤çµ¦":12284,"ç«Ļåľ¨":12285,"æħ¾":12286,"æĢ»ä½ĵ":12287,"çĻ»å±±":12288,"å¸Īéķ¿":12289,"Microsoft":12290,"ä¸ŃèĪĪ":12291,"æ³ķè»į":12292,"å»ĪéĸĢ":12293,"å·´åħĭ":12294,"åİ¿çļĦ":12295,"åº§åłĤ":12296,"çµĤèº«":12297,"å§Ĳå§Ĳ":12298,"éĽ¯":12299,"åĭ¿":12300,"å¸ĥå±Ģ":12301,"åĮħåĽ´":12302,"åıªæľīä¸Ģ":12303,"å¢ŀèĩ³":12304,"å¯Įè±ª":12305,"åĸľåī§":12306,"ç¼©åĨĻ":12307,"èĽĭçĻ½è³ª":12308,"å¸ĥèİ±":12309,"é¢Ĩäºĭ":12310,"çľŁçĽ¸":12311,"éĿĴéĵľ":12312,"æ´ĽéĻ½":12313,"éĺ²è¡Ľ":12314,"èĿ´":12315,"é¢Ĩå¯¼çļĦ":12316,"è²¨çī©":12317,"æĲŃä¹ĺ":12318,"éĳ½çŁ³":12319,"æį·åħĭæĸ¯æ´Ľ":12320,"åĴĮç´Ħ":12321,"æ¢Ŀæ¬¾":12322,"ç¾½æ¯ĽçĲĥ":12323,"çļĦç»ĵæŀľ":12324,"èĻŁçıŃæ©Ł":12325,"æĶ¿æ²»å§Ķåĳĺ":12326,"ä¸ĸç´ĢåĪĿ":12327,"__":12328,"âħ":12329,"åīįå¤ķ":12330,"åĲĪèĤ¥":12331,"è¡¨è¿°":12332,"å¨¥":12333,"æ±Łå¸Ĥ":12334,"ãģ¯":12335,"éĨľ":12336,"æŃ£å¼ıæĪĲç«ĭ":12337,"äººå¿ĥ":12338,"æĺŁéļĽ":12339,"ars":12340,"çļĩå¤ªåĲİ":12341,"å¯¦è¸Ĳ":12342,"ãĤŃ":12343,"åĵĪçī¹":12344,"æ°Ķè±¡":12345,"ä½łåĢĳ":12346,"EG":12347,"å¸ľ":12348,"å°Ĩä¼ļ":12349,"ĠPart":12350,"æĹ©å·²":12351,"è¨±åı¯":12352,"éģłæĿ±":12353,"èĮ¨åŁº":12354,"çħ¤çĤŃ":12355,"è¯ŀçĶŁ":12356,"æ¸£":12357,"æķ¸åįģ":12358,"ä»ĸåĢĳåľ¨":12359,"æĸ°åŁİåĭģçĪĨ":12360,"ä¸Ł":12361,"çıŃæ¬¡":12362,"çĽĳå¯Ł":12363,"èĿ´èĿ¶":12364,"109":12365,"æ¹§":12366,"é²¸":12367,"æİĴåºı":12368,"çĿ£å¯Ł":12369,"è¯ģå®ŀ":12370,"çļĦåľ°åĮº":12371,"ä¸Ģæĸ¹":12372,"åľĭæ³°":12373,"èģĤ":12374,"æĸ¯å·´":12375,"éĽĨæĪĲ":12376,"è®¸åı¯":12377,"éĻ£çĩŁ":12378,"rad":12379,"ä»ĸä¸İ":12380,"é«ĺæ¸ħ":12381,"æľªè¢«":12382,"æĶľå¸¶":12383,"à¤":12384,"é«ĺéĲµ":12385,"ç¦ıå²¡":12386,"ä¸¾è¡ĮçļĦ":12387,"é¼ĵåĬ±":12388,"ä»Ĭå¤©çļĦ":12389,"ç£·éħ¸":12390,"âĢĿâĢľ":12391,"é£½":12392,"æ°´æīĭ":12393,"åį¡è¥¿":12394,"äººé«Ķ":12395,"å¤§è»į":12396,"åłĢ":12397,"ç¨®åŃĲ":12398,"äº§çī©":12399,"æķħæĦı":12400,"æ¸ħçľŁå¯º":12401,"åľ°çįĦ":12402,"ä¸įå¤ª":12403,"è¥¿åįĹéĥ¨":12404,"å¤ļçĤº":12405,"éĢĻåł´":12406,"é©¬ä¸ģ":12407,"ç´³":12408,"èĭį":12409,"ä½įåĪĹ":12410,"éĽ»èį·":12411,"è¯ŃåĴĮ":12412,"èĲ¬ç¾İåħĥ":12413,"ãģĨ":12414,"ä»£è¡¨çļĦ":12415,"éļĶå¹´":12416,"ç»ĺçĶ»":12417,"èĤ¯å°¼è¿ª":12418,"æľ±åħĥçĴĭ":12419,"ä¸Ģéĸĭå§ĭ":12420,"æķ·":12421,"é¢¨æĻ¯":12422,"amil":12423,"ä¸ĸçºªæľ«":12424,"å¾·éĩĮå¸Į":12425,"ography":12426,"\"ï¼Į":12427,"''":12428,"è¥¿è²¢":12429,"æīĢå±ŀ":12430,"è¿Ļåº§":12431,"éĢ²å£«":12432,"ç®Ĺæĺ¯":12433,"å©´":12434,"4000":12435,"åĴĮå°ı":12436,"ä¹ĭç¨±":12437,"æĸ°ä¸Ģ":12438,"ä½Ĩä¹Łæľī":12439,"éķ·èĢģ":12440,"åŀĴ":12441,"ï¼īãĢį":12442,"æŃ¦åĬŁ":12443,"é¡ŀåĪ¥":12444,"åľĸæ¡Ī":12445,"åģļçļĦ":12446,"ä»£çĽ®":12447,"éģİæĸ¼":12448,"åĵģçļĦ":12449,"çİ°åľº":12450,"ĠAm":12451,"èĢģäºº":12452,"åīĬå¼±":12453,"é¦Ļæ¸¯çī¹åĪ¥è¡ĮæĶ¿åįĢ":12454,"è°¥":12455,"è¨Ńè¨Īå¸«":12456,"ays":12457,"ï¼Īï¼Įï¼ī":12458,"æłªå¼ı":12459,"ĠQ":12460,"ä¸Ģå®ļçļĦ":12461,"å¤§å¸Ī":12462,"æıĲæ¡Ī":12463,"é¦¬å¾·éĩĮ":12464,"ç¸½åı¸ä»¤":12465,"ç¸½ç¶ĵçĲĨ":12466,"å¼·åĮĸ":12467,"æ·±æ°´":12468,"æ¸¯åı°":12469,"åĤĢ":12470,"åīĩçĶ±":12471,"ĠFl":12472,"ä¸ĭè¾ĸçļĦä¸Ģä¸ª":12473,"éĢ²æŃ¥é»¨":12474,"Ġ2008":12475,"å¹´åĿĩ":12476,"å¾·çĪ¾":12477,"ãĥī":12478,"æ®µçļĦ":12479,"åį«è§Ĩ":12480,"æ¦Ĥè¦ģ":12481,"åĤ·äº¡":12482,"duction":12483,"320":12484,"Ġ2001":12485,"ä¸Ńå°ĩ":12486,"åĴĮè§£":12487,"éĥ¨åĴĮ":12488,"åı¯ä¾Ľ":12489,"åħ¨ç¾İ":12490,"111":12491,"èªŀæĸĩ":12492,"æ´¾äºº":12493,"ç¢ºå¯¦":12494,"ki":12495,"é³¥é¡ŀ":12496,"äººéĢł":12497,"æķķ":12498,"å¢©":12499,"åįĬè¡°":12500,"å¼łå®¶":12501,"å¥ĸç«ł":12502,"é»İæĺİ":12503,"çıĬçĳļ":12504,"çºĸç¶Ń":12505,"ĠæĪĸ":12506,"å®Ĺå®¤":12507,"olution":12508,"åī¯éĥ¨éķ¿":12509,"ç¹ģå¿Ļ":12510,"éĽ»åŃĲéģĬæĪ²":12511,"é¦³":12512,"æ³ķèªŀ":12513,"é«ĺäºİ":12514,"ç¥ĩ":12515,"åıĳéŁ³":12516,"è¯Ńä¸Ń":12517,"è¯Ńç³»":12518,"ĠSoci":12519,"èħİ":12520,"æķ²":12521,"æĹ¥çħ§":12522,"åł´åĲĪ":12523,"çīĩå°¾":12524,"æ²Ļçī¹":12525,"ä½łçļĦ":12526,"å¿½çķ¥":12527,"å±ıæĿ±ç¸£":12528,"å¤§åİ¦":12529,"æĸĩéĽĨ":12530,"èĥ¤":12531,"åı°å¹£":12532,"åł´æĻ¯":12533,"å®ĺåĥļ":12534,"å¼·åº¦":12535,"æĹĭå¾ĭ":12536,"1884":12537,"å¹´ç¾İåľĭ":12538,"å¤§æ³ķå®ĺ":12539,"ä»ĸçĤº":12540,"æĸ¯èĴĤ":12541,"åĮĹè§Ĵ":12542,"å¢®":12543,"èĭ±çļĩ":12544,"ç¶ĵè²»":12545,"æł¡æĸ¹":12546,"ene":12547,"æ²³éģĵ":12548,"å®ĺåħµ":12549,"åħ©æ¢Ŀ":12550,"å»£ç¾©":12551,"åĬĩä¸Ń":12552,"æ²Ļçļĩ":12553,"ç»ĨèıĮ":12554,"æĻ¶çīĩ":12555,"æĮĳæĪĺ":12556,"You":12557,"çļĦæĸĩç«ł":12558,"æĪĮ":12559,"åľĭç±į":12560,"å¤ļæł·":12561,"æķ´æķ°":12562,"å°Īæ¡Ī":12563,"æĿĳæ°ĳ":12564,"çĪŃå¥ª":12565,"åįĥçĵ¦":12566,"ose":12567,"ç¿°æŀĹ":12568,"æģĲé¾į":12569,"ä¸īåįĥ":12570,"æĭīå§Ĩ":12571,"å·´æĭ¿":12572,"æĶ¾å¤§":12573,"ãģį":12574,"èĽĻ":12575,"æĽ¹éŃı":12576,"åıĳçİ°çļĦ":12577,"åĭĩå£«":12578,"æµģè¡ĮéŁ³æ¨Ĥ":12579,"è½ŁçĤ¸æ©Ł":12580,"åĲįèŃ½":12581,"æ°´åŁŁ":12582,"åİ¿çº§å¸Ĥ":12583,"å·¥æľĥ":12584,"æİ¥åı£":12585,"å²±":12586,"è¨Ģè®º":12587,"ç½ĳçĲĥ":12588,"çĥıæĸ¯":12589,"æ¯ķä¸ļäºİ":12590,"çĶŁæ¯į":12591,"çī©ä»¶":12592,"äºĭåıĺ":12593,"æ¥ĵ":12594,"çĽ´éļ¶":12595,"çľŁç©º":12596,"ä¾Ĩèĩªæĸ¼":12597,"ç±ĮåĤĻ":12598,"åĺīç¾©ç¸£":12599,"Ġle":12600,"äºĨè®¸å¤ļ":12601,"å¤ļä½į":12602,"èĭ·":12603,"æµ·åħ³":12604,"åħĭéĽ·":12605,"å¥³å£«":12606,"åħīèŃľ":12607,"çĻ½éĩĳ":12608,"èªįå®ļ":12609,"å®£èªĵ":12610,"è¿ĺåľ¨":12611,"irst":12612,"è¿ĳå¹´ä¾Ĩ":12613,"çļĦåŁºç¤İ":12614,"åĪ¶æľį":12615,"å±ķçı¾":12616,"æĶ¶å½ķ":12617,"æĦŁåıĹ":12618,"è½īè®Ĭ":12619,"ops":12620,"ãĢģ-{":12621,"ä¸ĢæľŁ":12622,"èĩªå¾ŀ":12623,"åĦ¡":12624,"æĢ»å±Ģ":12625,"åįĩä¸º":12626,"åĸľæĦĽ":12627,"ç¹ģèį£":12628,"çļĦç¶ĵæ¿Ł":12629,"çļĦåħ§å®¹":12630,"ä¸ŃåįĹ":12631,"ä¹ĭäºº":12632,"è¿ĻæĹ¶":12633,"ä¿Ŀåį«":12634,"æ²³çķĶ":12635,"ç®¡éģĵ":12636,"å¹´ä»£ä¸ŃæľŁ":12637,"æĺ¾èĳĹ":12638,"Ġim":12639,"çļĦæ©Ł":12640,"åĭķåĵ¡":12641,"1880":12642,"æİ¥çĿĢ":12643,"æĽ´å¤§":12644,"ä¸Ńå¤®åĨĽå§Ķ":12645,"æĶ»ä¸ĭ":12646,"è³ĩæĸĻåº«":12647,"ä¾įéĥİ":12648,"ä¸Ńå¤§":12649,"ä¸ĢæīĢ":12650,"æĺ¯çĤºäºĨ":12651,"å¢ŀå¼º":12652,"ç»ĵè®º":12653,"å¡«è©ŀ":12654,"be":12655,"å¹´å®Įå·¥":12656,"çµ±æ²»èĢħ":12657,"è©¹å§Ĩ":12658,"ä¸īè§Ĵæ´²":12659,"åĤĢåĦ¡":12660,"å¤§çģ«":12661,"èĬľ":12662,"çĸ¼":12663,"éĢģå¾Ģ":12664,"å°ļæľī":12665,"å½ķéŁ³":12666,"æĽľ":12667,"åŃĲåĴĮ":12668,"ç¾İäºº":12669,"æ®²":12670,"æ²³è¥¿":12671,"è¯ŃéŁ³":12672,"éĿ©åĳ½è»į":12673,"åĲİæĿ¥çļĦ":12674,"é«ĺæ½®":12675,"æ£º":12676,"æ¸¸è¡Į":12677,"ä¸ĵç§ĳ":12678,"èł»":12679,"å¥łåŁº":12680,"NET":12681,"æĺ¯åħ¶":12682,"åĨ¤":12683,"çĽ¸è¼ĥ":12684,"åĤ³åħ¥":12685,"ike":12686,"éĤ®æĶ¿":12687,"330":12688,"âĹ":12689,"Ġé¦Ļæ¸¯":12690,"ä¸Ĭå°Ĩ":12691,"ç¬ł":12692,"ä»ĸæĸ¼":12693,"åŃĲå½Ī":12694,"åĳ½é¢ĺ":12695,"èĲ¬å¼µ":12696,"æļ´åĭķ":12697,"ä¹łä¿Ĺ":12698,"220":12699,"çļĦæ¯Ķ":12700,"åį§":12701,"ä¸įçŁ¥éģĵ":12702,"æ¨¸":12703,"åĬłéĩĮ":12704,"éĽ»è·¯":12705,"æ·ŀ":12706,"ç±³åħ°":12707,"å¤«çļĦ":12708,"ç»´åħĭ":12709,"æľ¨æĿĲ":12710,"æ°£æĹĭ":12711,"åŁĥå¾·":12712,"èľ¥":12713,"æĸ¯çī¹æĭī":12714,"Open":12715,"ole":12716,"port":12717,"å¹´åıĬ":12718,"èĩªç§°":12719,"åįģäºĶå¹´":12720,"ä»¥åıĬåħ¶ä»ĸ":12721,"éĻ¤éĿŀ":12722,"ç¾¤é«Ķ":12723,"ä½Ľç½Ĺ":12724,"çļĦä¸»é¡Į":12725,"æĹłçº¿çĶµ":12726,"Con":12727,"åĴĮæĶ¿æ²»":12728,"ä¸įåĲĪ":12729,"å±ķè§Ī":12730,"è¿ĳå¹³":12731,"åıĤè®®éĻ¢":12732,"åĿĩçĤº":12733,"ä¿®æŃ£æ¡Ī":12734,"Net":12735,"ä»ĸåıĪ":12736,"ä¸ĸå®Ĺ":12737,"ĠMod":12738,"è¨İä¼Ĳ":12739,"éĦīæ°ĳä»£è¡¨":12740,"360":12741,"Sch":12742,"äººæ°ĳåĩºçīĪç¤¾":12743,"çª¦":12744,"ç¶Ńå¥ĩ":12745,"é¬§":12746,"çļĨæľī":12747,"ç¾²":12748,"åĮºåĴĮ":12749,"æ¯Ķä¸Ĭ":12750,"æĸĩåĮĸä¸Ńå¿ĥ":12751,"åĬĩåľĺ":12752,"æİĴæĶ¾":12753,"èģļèĲ½":12754,"é«ĺå±¤":12755,"ä¸ŃåĽ½åĽ½å®¶":12756,"çĪ¶åŃĲ":12757,"å¹¿æĴŃçĶµåı°":12758,"æľīæ©Ł":12759,"éĿ¢ä¸´":12760,"åŃĹå½¢":12761,"åħ«ä¸ĸ":12762,"è©²åľĭ":12763,"å¼·çļĦ":12764,"éĿ©åĳ½åĨĽ":12765,"çĿ¡çľł":12766,"é»ĳé¾Ļæ±Łçľģ":12767,"ä»ĸå°į":12768,"æ¨Ł":12769,"éĤ¯":12770,"åļĩ":12771,"ichael":12772,"åħ¬å¢ĵ":12773,"ç½µ":12774,"èµ·é£Ľ":12775,"çİ°ä»Ĭ":12776,"ç¼¸":12777,"åľĺçµĲ":12778,"æĳĶ":12779,"åºĨç¥Ŀ":12780,"éĪ´æľ¨":12781,"çļĦæ©Łæľĥ":12782,"èĢ¿":12783,"æľĢå°ĳ":12784,"æŃ£å¼ıçļĦ":12785,"ç½ĳé¡µ":12786,"åĽŃæŀĹ":12787,"è¾½å®ģçľģ":12788,"çļĦä¾ĭåŃĲ":12789,"éĩľ":12790,"ä»¥æĿ±":12791,"ä»ĸå¯¹":12792,"æľĥèĢĥ":12793,"ç¦±":12794,"éĢĻæĻĤ":12795,"äºļç¾İ":12796,"æııç¹ª":12797,"ç¿»æĸ°":12798,"éļľç¢į":12799,"åįĬè¡°æľŁ":12800,"æĺ¯ä¸ĸçķĮ":12801,"æĹ¥éĽ¶":12802,"äºĨå¯¹":12803,"ä¸ĭå±ŀ":12804,"å°ģéĿ¢":12805,"Ġbe":12806,"æĺ¯ä»İ":12807,"çľ·":12808,"å§ĭäºİ":12809,"arm":12810,"éĢłèĪ¹":12811,"éĢ£åĲĮ":12812,"è¶³åĪ©":12813,"æŁĲç§į":12814,"æ°§åĮĸçī©":12815,"ç¨ĭåº¦çļĦ":12816,"yth":12817,"ä¸Ģçīĩ":12818,"éĹ¢":12819,"æĸ°æĺŁ":12820,"æĮĩè´£":12821,"å®Įç¾İ":12822,"åĽ¾æ¡Ī":12823,"èĶĹ":12824,"ç½ªè¡Į":12825,"æķĮäºº":12826,"é£Ľè¡Įåĵ¡":12827,"ĠæĿİ":12828,"é«ĺè¾¾":12829,"éĽ»æ°£":12830,"æķĹçµ¦":12831,"çĲħ":12832,"å¤©ä½ĵ":12833,"129":12834,"ãĥĨ":12835,"è¿Ľç¨ĭ":12836,"ç¾ħå¾·":12837,"éĤĬç·£":12838,"äººç§°":12839,"éĻ¤å¤ĸ":12840,"åħµåĻ¨":12841,"åĭĿåĩº":12842,"åĨĻäºĨ":12843,"æŁĲä¸ª":12844,"çļĦçī¹æ®Ĭ":12845,"éĦĤåľĸ":12846,"æľĥä¸Ĭ":12847,"èī®":12848,"åħĭç½Ĺ":12849,"éģİåº¦":12850,"çİĩè»į":12851,"èģĸåħ¬æľĥ":12852,"ç°¿":12853,"å°ģä¸º":12854,"é´īçīĩ":12855,"ä¸Ńèĭ±":12856,"æ²ģ":12857,"æĬĽ":12858,"ç¯¡":12859,"èĮ¹":12860,"ĠSte":12861,"çĬ§":12862,"ç´¢å¼ķ":12863,"Fran":12864,"web":12865,"ä¸Ńç¾İ":12866,"æ¼Ķè®²":12867,"å²ĳ":12868,"æĤĸ":12869,"ç¢³éħ¸":12870,"æĹ¥çĻ¼è¡Į":12871,"è¥¿ä¼¯":12872,"åı¯ä»¥ä½¿çĶ¨":12873,"æ°ĳä¸»éĢ²æŃ¥é»¨":12874,"NO":12875,"och":12876,"æĹ¥æĻļ":12877,"åħĭæĭīåħĭ":12878,"æŃ»åİ»":12879,"è½¦éĺŁ":12880,"éĺ¿å°Ķå·´":12881,"anguage":12882,"âĢ¢":12883,"ä»ĸè®¤ä¸º":12884,"ä¸īåįģå¹´":12885,"éĢĻè£¡":12886,"èİĸ":12887,"åįļè¦½":12888,"æľīä¸Ģå®ļ":12889,"æŁ¯åįĹ":12890,"èĹīæŃ¤":12891,"ç´§æĢ¥":12892,"IVE":12893,"å¹´åı°çģ£":12894,"å¿§":12895,"å³¶çļĦ":12896,"RD":12897,"äº¤çĶ±":12898,"å¸ĮçĪ¾":12899,"å¥ĸèİ·å¾ĹèĢħ":12900,"æħ¢æħ¢":12901,"çĢıè¦½":12902,"åħ¬ç´Ħ":12903,"æ³ķè¥¿æĸ¯":12904,"äºĮçŃī":12905,"éĩĳæľĿ":12906,"äº¦è¢«":12907,"å¸ĿåĽ½çļĦ":12908,"åģľè»Ĭåł´":12909,"æ°´éĩı":12910,"é¦¬åħ¶":12911,"å®ŀåĬĽ":12912,"ä¼ĬèĹ¤":12913,"åĳĬçŁ¥":12914,"æĪ°çĪŃä¸Ń":12915,"ĠKong":12916,"å¹´åľ¨ä½į":12917,"åİļçļĦ":12918,"æĳ§æ¯ģ":12919,"ä¸ªä½ĵ":12920,"åĽ¢ç»ĵ":12921,"ä»ħæ¬¡äºİ":12922,"ç«ĭåľº":12923,"äºĮäºĮåħ«":12924,"é¦ĸéłĺ":12925,"icode":12926,"å·¥ç¨ĭåŃ¦éĻ¢":12927,"For":12928,"å»ºå®ī":12929,"çĻ¾ä¸ĩ":12930,"æīĵéĢł":12931,"åħ±åĴĮåħļ":12932,"è¿ĲåĬ¨çļĦ":12933,"åı¦ä¸Ģç¨®":12934,"éģ¸èĪīä¸Ń":12935,"æķ°æį®åºĵ":12936,"éĻķè¥¿çľģ":12937,"Dr":12938,"å±±ç¸£":12939,"åħŃåĽĽ":12940,"èĻķæ±º":12941,"éĶħ":12942,"æ°¸å®ī":12943,"è¾¹ç¼ĺ":12944,"ç¿Ĵä¿Ĺ":12945,"æ¨¹æŀĹ":12946,"æ´ĽæĿīçŁ¶":12947,"åīĿ":12948,"éĽ»ä¿¡":12949,"ä»£è¡¨éļĬ":12950,"å¯Įæľī":12951,"é£¯åºĹ":12952,"å®īæĿ±å°¼":12953,"æĻĥ":12954,"æ¬ĸ":12955,"æľĢå¿«":12956,"åı²ç§°":12957,"æķ¸åĢĭ":12958,"ç®¡å¼¦":12959,"ç¼Ķ":12960,"æ¯ıæľĪ":12961,"}-ãĢį":12962,"åľĸçīĩ":12963,"äºĮåįģå¹´":12964,"æ¯Ģæ»ħ":12965,"çº·çº·":12966,"ä¸ĢéĿ¢":12967,"ä¸Ģæµģ":12968,"ä¸ºåŁºç¡Ģ":12969,"ç¶¿":12970,"å±±æ°´":12971,"çĻ¼çĶŁåľ¨":12972,"æĹĭè½¬":12973,"æ£Ģæµĭ":12974,"GC":12975,"çļĦæľĢå¤§":12976,"è¡ĮåĪĹ":12977,"èĪĩæĹ¥æľ¬":12978,"æīĢä½¿çĶ¨çļĦ":12979,"æĤ¨":12980,"çļĦå®ļç¾©":12981,"åħĥä»£":12982,"åľŁæĺŁ":12983,"æĿĢå®³":12984,"å¾·éĩĮåħĭ":12985,"ä¸įè©³":12986,"å¾Įæĸ¼":12987,"åı¯æĥľ":12988,"ä¸ªåĽ½å®¶":12989,"èĤ¤":12990,"æİ¥å¾ħ":12991,"èŃ¯åĲį":12992,"ĠPhil":12993,"ãĢĭï¼ļâĢľ":12994,"æľĥè¨Ī":12995,"ç¦İ":12996,"æĪ°ä¸Ń":12997,"æ¨¡ç³Ĭ":12998,"è¹Ħ":12999,"ĠÃ":13000,"çķ´":13001,"åıĹæ¬¢è¿İ":13002,"ature":13003,"èĥĮåıĽ":13004,"åĦªåħĪ":13005,"çİĦå®Ĺ":13006,"åŃľ":13007,"æĺİåł±":13008,"ãĤ¨":13009,"éĽ£æ°ĳ":13010,"äºĨè¨±å¤ļ":13011,"æĻĤæľĥ":13012,"çķ¶çĦ¶":13013,"arg":13014,"çĽ´å¾Ħ":13015,"èĻŁçĤº":13016,"å¯¦è³ª":13017,"äº¦æľĥ":13018,"è£ħçĶ²":13019,"1887":13020,"CA":13021,"çļĦå¥½":13022,"èĪ¶":13023,"å§ĭç»Ī":13024,"æĪĸèĢħæĺ¯":13025,"æľĿé®®åįĬå³¶":13026,"åįĹæĬķç¸£":13027,"åľ¨æŁĲäºĽ":13028,"ä¸įåıĺ":13029,"ç´Ģåħĥ":13030,"æ¦ķ":13031,"èĶĵ":13032,"è¦ıæł¼":13033,"ç£ļ":13034,"è£¡éĿ¢":13035,"äººå¤§ä»£è¡¨":13036,"DE":13037,"Ġ)":13038,"åħ¬åı¸åľ¨":13039,"åĬ©æīĭ":13040,"çĽŁåıĭ":13041,"æĪĲç«ĭäºİ":13042,"èĩªçĶ±çļĦ":13043,"åĲ¸è¡Ģ":13044,"ka":13045,"æ²Ĥ":13046,"ãĢįï¼īï¼Į":13047,"æķĻæ´¾":13048,"å·´åĵĪ":13049,"å¾Īé«ĺ":13050,"off":13051,"ç²¾ç¡®":13052,"ä¸ľåįĹäºļ":13053,"æīĢè¬ĤçļĦ":13054,"çĬ§çī²":13055,"çļĦæ¯įè¦ª":13056,"ä»ĸä»¥":13057,"åĪĨè¾¨":13058,"å®īæıĲ":13059,"é©³":13060,"æĪ°äºĭ":13061,"èĢģèĻİ":13062,"çµĤçµĲ":13063,"glish":13064,"åħ¶ä¸º":13065,"å°ıåŃ©":13066,"éĢĻåħ©åĢĭ":13067,"èģ¯ç¶²":13068,"åıĥè§Ģ":13069,"æĪ¿åŃĲ":13070,"éļıåį³":13071,"å¯¼èĩ´äºĨ":13072,"è·¯ä¸Ĭ":13073,"æŃ¦è¡ĵ":13074,"æĶ¹éĿ©å¼ĢæĶ¾":13075,"MHz":13076,"æĻı":13077,"çºł":13078,"èĪĩå¤§":13079,"ç§ĳåŃ¸éĻ¢":13080,"çİ°åľ¨çļĦ":13081,"ä¸Ńæ¯Ĵ":13082,"ane":13083,"ä¿ĿèĤ²":13084,"åı³æ´¾":13085,"åī§æĥħ":13086,"éĩĩè®¿":13087,"æŁıæĭī":13088,"åħĩ":13089,"æ¸´":13090,"âĢľâĢĿ":13091,"ç¹¹":13092,"æķ´æķ¸":13093,"ãģı":13094,"åįłæ¯Ķ":13095,"éª¨éª":13096,"æľĪä¸ŃæĹ¬":13097,"ä¸īéĥ¨æĽ²":13098,"å¤§æ¦Ĥ":13099,"åľ°è¡¨":13100,"æĿ±æĻī":13101,"å¥½èĢħ":13102,"éĨ«åŃ¸éĻ¢":13103,"ative":13104,"è§£åīĸ":13105,"æĵļèªª":13106,"ä¸Ģé»ŀ":13107,"æĺ¯å¤§":13108,"å¡¾":13109,"ç¥ĸæ¯į":13110,"åĲĮæĻĤä¹Łæĺ¯":13111,"ä¸ŃéĢĶ":13112,"æĸ°åŀĭ":13113,"é«ĺåĬłç´¢":13114,"éķ·å´İ":13115,"als":13116,"æĶ»åħĭ":13117,"çĽŁè»į":13118,"ĠOS":13119,"å¸ĿåľĭçļĦ":13120,"å¤ªå¹³å¤©":13121,"é¥®é£Ł":13122,"é¦¬åħ¶éłĵ":13123,"è¡Įæ¥Ń":13124,"æŀ¯":13125,"ãģ¦":13126,"æ³Ĺ":13127,"åĪĨçµĦ":13128,"æĽ²çĽ®":13129,"ä¸¤èĢħ":13130,"ç¸£å¸Ĥ":13131,"èĩ´ä½¿":13132,"æĶ»åĭ¢":13133,"ç¥ĸç±į":13134,"å¾®çĶŁçī©":13135,"è®ĢæĽ¸":13136,"åĲĽå£«åĿ¦ä¸ģåł¡":13137,"éĩĮäºŀ":13138,"æ°´æ³¥":13139,"æľºåĬ¨":13140,"å¤§åŃ¸æķĻæİĪ":13141,"ç¥Ńåı¸":13142,"1200":13143,"ï¼Įï¼īï¼Į":13144,"åĴ¨":13145,"æĶ¿å§Ķ":13146,"è¿Ļåľº":13147,"äº¦åľ¨":13148,"å¤±åĪ©":13149,"çļ®èĨļ":13150,"åĢ«çĲĨ":13151,"çļĦåĲįç§°":13152,"å®īå¾·çĥĪ":13153,"tr":13154,"è¯±":13155,"ä»ĸæīĢ":13156,"å±ķåĩº":13157,"éĻĲå®ļ":13158,"ĠNo":13159,"OVA":13160,"ç¬¬ä¸Ģæ¬¡ä¸ĸçķĮå¤§æĪĺ":13161,"äºĮæ°§åĮĸç¢³":13162,"æĹ¥éĸĭå§ĭ":13163,"ä¸įäºĨ":13164,"æĦ¤":13165,"æĦĽåľĭ":13166,"æŃĲéĻ½":13167,"åıĳå±ķçļĦ":13168,"æ··åĩĿ":13169,"ç®ĢåĮĸ":13170,"ä¼½åĪ©çķ¥":13171,"El":13172,"td":13173,"çķħ":13174,"åįĹå¼Ģ":13175,"èĭ±æ³ķ":13176,"éĢĻä¹Łæĺ¯":13177,"éľĦ":13178,"éłĺåħĪ":13179,"éĤĦè¦ģ":13180,"å¯«æĪĲ":13181,"æ¦®çį²":13182,"åıĳè¡¨äºĨ":13183,"ç¢°æĴŀ":13184,"Be":13185,"çİĭå®ī":13186,"æĶ¹çµĦ":13187,"éĢ²è»į":13188,"èĢĥçĶŁ":13189,"æ¿¾":13190,"çĶ¢éĩı":13191,"çį²åĭĿ":13192,"ï¼Īï¼īï¼ļ":13193,"åļ´éĩįçļĦ":13194,"å¤ļé¡¹":13195,"éĩĳçļĦ":13196,"ç¥ŀæĪ¶":13197,"æ°ıæĹı":13198,"å°ģéİĸ":13199,"èĭ±åľĭçļĦ":13200,"æİ¡è¨ª":13201,"å°ıèªªå®¶":13202,"æĮĩæı®å®ĺ":13203,"æĦıåĳ³èĳĹ":13204,"çī¹èĺŃ":13205,"äºĭè®Ĭ":13206,"åİŁæĿ¥":13207,"èħ«":13208,"éĨĽ":13209,"é»Ħèī²":13210,"ï¼īï¼į":13211,"125":13212,"åĨįçĶŁ":13213,"ç£ģåł´":13214,"æ¯ĶèµĽä¸Ń":13215,"aurus":13216,"ha":13217,"è²¸":13218,"æĮĩæķ°":13219,"éºĴ":13220,"ĠSe":13221,"èĻķçļĦ":13222,"åįļå£«åŃ¦ä½į":13223,"èªīä¸º":13224,"å¨ģå°Ķå£«":13225,"ä¸Ģä¹Ŀ":13226,"èªŀç³»":13227,"ç§ģæľī":13228,"å¼ķèµ·çļĦ":13229,"çļĦæŃĮæĽ²":13230,"åĪĥ":13231,"ä¹ĭå¤Ħ":13232,"æĵĴ":13233,"çĽ¸å°įæĸ¼":13234,"åĲīæĢĿ":13235,"ç¼ĸè¯ĳ":13236,"çİīå±±":13237,"=\"#":13238,"è©©æŃĮ":13239,"ç½Ĺé©¬å°¼äºļ":13240,"æ·®åįĹ":13241,"ä¸»åĬ¨":13242,"åįģåĽĽå¹´":13243,"æ°´æºĸ":13244,"åı²è¨ĺ":13245,"å®³æĢķ":13246,"çīĽé¡¿":13247,"æĬµåĪ¶":13248,"çļĦåĴĮ":13249,"å¤§éĥ½":13250,"ä¸ĸä¿Ĺ":13251,"æľŁå¾ĴåĪĳ":13252,"åĢĭåĪ¥":13253,"éģĶçĪ¾":13254,"éģĬæ¨Ĥ":13255,"çİīç±³":13256,"èĪªç©ºæ¯įèī¦":13257,"ä¸ĢèĻŁ":13258,"æİĢ":13259,"æľ¬ä½ľ":13260,"ĠAir":13261,"å°Ħç·ļ":13262,"è¼ĥå¤§":13263,"240":13264,"ç¡Ŀéħ¸":13265,"bert":13266,"çļĦéķ·":13267,"çļĦå®ĹæķĻ":13268,"ä¸Ģéłħ":13269,"åĴª":13270,"åŃ¦å£«":13271,"èĪĩæŃ¤":13272,"éĩĳæĸ¯":13273,"åĤ³éģŀ":13274,"å·Ŀç¸£":13275,"oad":13276,"çļĦåħ©":13277,"æĸ°èĪĪ":13278,"å¸Ŀçİĭ":13279,"çĵ¦è§£":13280,"éĽ²åįĹ":13281,"ella":13282,"ä¸īåľĭå¿Ĺ":13283,"ãģĤ":13284,"åįĥéĩĮ":13285,"åĨ³çŃĸ":13286,"èĩªè¡Įè»Ĭ":13287,"ä¸Ģç¾¤":13288,"éĺ¿åħĭ":13289,"æ¥ŃèĢħ":13290,"å©¿":13291,"æĺ¯ä¸Ģåº§":13292,"å¿«æ¨Ĥ":13293,"è½¬åĲĳ":13294,"æĹ¶ä»£çļĦ":13295,"åĴĮæĹ¥æľ¬":13296,"å¤ļä¸º":13297,"æ£±":13298,"çµĲè«ĸ":13299,"çĸĩ":13300,"ĠPer":13301,"çģ«è»Ĭ":13302,"æĦŁè§ī":13303,"æ··åĩĿåľŁ":13304,"åĮĹæĸĹ":13305,"ä»»èģĮ":13306,"ĠRep":13307,"å»¶ç»Ń":13308,"è¡°éĢĢ":13309,"iki":13310,"é«ĵ":13311,"æŃ¤èĪī":13312,"107":13313,"åĲĦéłħ":13314,"éļıæľº":13315,"èİ±èĮµ":13316,"éļķ":13317,"è¶³ç¸½":13318,"åĬĥåĪĨ":13319,"åĩºèº«äººçī©":13320,"æįĲæ¬¾":13321,"äºļç¾İå°¼äºļ":13322,"xford":13323,"æ±īæľĿ":13324,"çĵ¦çĪ¾":13325,"åĲ«ä¹ī":13326,"çĺ¦":13327,"å¶ºåįĹ":13328,"æµ¸æľĥå¤§åŃ¸":13329,"Ð»":13330,"åľ¨è¿Ļä¸ª":13331,"æĺ¯ç¾İåĽ½":13332,"çĶ¨åĵģ":13333,"äº§éĺ¶çº§":13334,"éĢīä¸º":13335,"æĴ¤åĩº":13336,"ç¡®ç«ĭ":13337,"æļĹæ®º":13338,"çŁ¿äº§":13339,"æį·åħĭæĸ¯æ´Ľä¼Ĳåħĭ":13340,"é¦ĸæŃĮ":13341,"èĪªçº¿":13342,"åĩºçīĪäºĨ":13343,"éĪŀ":13344,"çļĦçĻ½":13345,"åħ¨éķ·":13346,"å°ıåĲĥ":13347,"å®īçĲĨ":13348,"å¤ªæ¥µ":13349,"äºŀå¤ª":13350,"åĤ³æŁĵ":13351,"ç¶Ńä¹Ł":13352,"æĳ©çĪ¾":13353,"ä¿ĿçķĻäºĨ":13354,"è¡¥åħħ":13355,"ĠArch":13356,"æĶ¿åĬ¡":13357,"ä½Ĩè¢«":13358,"éĽ»åĭķ":13359,"æĮĩåĲĳ":13360,"ä¸¤ä½į":13361,"æľªçŁ¥":13362,"éłĺäºĭ":13363,"ç«łç¨ĭ":13364,"åįķåħĥ":13365,"éĢĶå¾Ħ":13366,"1882":13367,"çŀŃ":13368,"éĩįåºĨå¸Ĥ":13369,"æĵħéķ·":13370,")(":13371,"çĶ±ä¾Ĩ":13372,"ç«Ļéĸĵ":13373,"ora":13374,"ĠWh":13375,"åģĩåĲį":13376,"Man":13377,"Web":13378,"çļĦç²¾ç¥ŀ":13379,"ä¸»æĴŃ":13380,"å¤ĸç§ĳ":13381,"æĥħäºº":13382,"åľ°æĸ¹æĶ¿åºľ":13383,"æİ¢è¨İ":13384,"åıĳçĶŁåľ¨":13385,"è§īå¾Ĺ":13386,"æĺ¯åĽłä¸º":13387,"æ¬¡æĹ¥":13388,"éļĬåĵ¡":13389,"nd":13390,"åĮĹç¾İæ´²":13391,"é¦ĸçĪ¾":13392,"åĲĦå¼ı":13393,"é¥¥":13394,"åħ´èµ·":13395,"éĻ¶çĵ·":13396,"æľĢåĲİä¸Ģ":13397,"formation":13398,"ä¸Ĭæ¼Ķ":13399,"åĩºåħ¥":13400,"æ³ķåħ¸":13401,"èıģ":13402,"æį¨":13403,"åıįåħ±":13404,"å¤«å¦»":13405,"çįİçīĮ":13406,"éĤ£æł·":13407,"æĿĥçļĦ":13408,"Br":13409,"è¦ģç´ł":13410,"æ¼²":13411,"å¸ĥåĪĹ":13412,"éħ°":13413,"ä¸ĸçķĮåĲĦåľ°":13414,"çģ«è½¦ç«Ļ":13415,"åįĩçº§":13416,"ä¸ĸç´Ģæľ«":13417,"ä½Ķåľ°":13418,"çºªå¿µé¦Ĩ":13419,"éĦĤåľĸæĽ¼":13420,"éĺ¿å°Ķå·´å°¼äºļ":13421,"GE":13422,"æłĭ":13423,"éĢļåķĨ":13424,"æ°´éģĵ":13425,"åı£çļĦ":13426,"çľģéģĵ":13427,"ç¢Ĺ":13428,"ä¸ĸçºªçļĦ":13429,"1893":13430,"å¹³æĸ¹åįĥç±³":13431,"Ex":13432,"äºİæŃ¤":13433,"åĤĺ":13434,"æ·ª":13435,"çµĲæ¥Ń":13436,"æĻ®åĪ©":13437,"èļĢ":13438,"å¡ŀçĪ¾ç¶Ńäºŀ":13439,"ĠCollege":13440,"OH":13441,"äºĮåħĥ":13442,"æ¬¡éĥİ":13443,"æĶ¯ç·ļ":13444,"å¸Įå°Ķ":13445,"ä»½åŃĲ":13446,"èĽ®":13447,"å®«æ®¿":13448,"ä»įçĦ¶æĺ¯":13449,"æ¹ĺæ½Ń":13450,"aster":13451,"ä¼ºæľįåĻ¨":13452,"çļĵ":13453,"å¤ĸç·ļ":13454,"åħ¨æĸ°":13455,"åħ¨çº¿":13456,"å·¥èĹĿ":13457,"ç¬¬ä¸ĢåĲį":13458,"å¾Īæľī":13459,"ä¼łåªĴ":13460,"éĻĲæĸ¼":13461,"åħ¼å®¹":13462,"Ġ2009":13463,"èĢĨ":13464,"æĽĿ":13465,"ãĢĮãĢįï¼Ī":13466,"1800":13467,"æİ¥ä¸ĭ":13468,"æĪĺåĪĹ":13469,"ç¢ĺ":13470,"æŃ¦æ¼¢":13471,"ĠTV":13472,"ç²¾ç¢º":13473,"å¾ĹåĪ°çļĦ":13474,"çļĦå½¢è±¡":13475,"å¤§æĸ¼":13476,"åŃ¦åĲį":13477,"è¥¿åĳ¨":13478,"æº¢":13479,"å°ĩæĸ¼":13480,"ä¿Ŀåģ¥":13481,"åı¯ä»¥æĺ¯":13482,"éĥ¨åĪĨçļĦ":13483,"è¿ĺåİŁ":13484,"æĽ¼è°·":13485,"ç¬¬ä¸īä»£":13486,"ĠAll":13487,"ç®ĢåįķçļĦ":13488,"iro":13489,"åĲįä¹ī":13490,"è©®":13491,"ç«Ļåı°":13492,"æĺŁçŃī":13493,"æ¸ħæĻ°":13494,"å®¹ç´į":13495,"éģ·å¾Ģ":13496,"çĤ®åı°":13497,"çļĦçī¹æĢ§":13498,"çļĦæ´»åĭķ":13499,"çºı":13500,"åīįä¾Ĩ":13501,"é¢Ĥ":13502,"åĤ³æī¿":13503,"äººæ°ĳçļĦ":13504,"lem":13505,"åįĩä»»":13506,"åģĩéĿ¢":13507,"æ¯«çĦ¡":13508,"ournal":13509,"UM":13510,"çļĦçīĪæľ¬":13511,"ãĢį(":13512,"ä¹Łå°±":13513,"åĮĸåŃ¦å®¶":13514,"æĪ°æĻĤ":13515,"æİ¥é§ģ":13516,"é¦ĸæĴŃ":13517,"æ´»è·ĥ":13518,"æ²Ĵæľīä»»ä½ķ":13519,"1892":13520,"èĻļæĭŁ":13521,"ä¼Ļä¼´":13522,"åľ¨åı°":13523,"ä¸ĢæĽ¸":13524,"ä¸įèµ·":13525,"ä¸Ĭè¨´":13526,"éħ¿":13527,"å¹¿ä¹ī":13528,"åįĥèĳī":13529,"çĳŀåħĭ":13530,"è§Ĥå¿µ":13531,"è©ķå¯©":13532,"é¤ĺäºº":13533,"æķĻç§ĳæĸĩ":13534,"ç½¹æĤ£":13535,"ä¸įè¢«":13536,"ä¸īçľģ":13537,"å¤ĸè§Ģ":13538,"åĭķè©ŀ":13539,"128":13540,"é»ĳæ´ŀ":13541,"åĲĮæĹ¶ä¹Ł":13542,"å®¶æĹıçļĦ":13543,"æ³¢å£«é¡¿":13544,"747":13545,"åİī":13546,"åĩºåİ»":13547,"éĺĢ":13548,"ãĢįï¼Īï¼ī":13549,"æŀĹä¸ļ":13550,"ç¼Ģ":13551,"è®Ĭå½¢":13552,"éĿĴè¡£":13553,"ĠOff":13554,"æĸĩäºº":13555,"çı¾æľī":13556,"æ££":13557,"ä¸Ńåľĭäºº":13558,"ä¸¤å¹´":13559,"çį¨è£ģ":13560,"çĭĢçĹħæ¯Ĵ":13561,"istor":13562,"åĶ±çīĩåħ¬åı¸":13563,"åĪĨåŃĲçļĦ":13564,"åĮĸåĴĮ":13565,"å¤©æĸĩåŃ¸":13566,"åħ¨èº«":13567,"åħ§æľī":13568,"æŁ¥å°Ķæĸ¯":13569,"AB":13570,"çĤºä½ķ":13571,"æĹ¶æĬ¥":13572,"era":13573,"è¿Ļä¹Łæĺ¯":13574,"ç¸½éķ·":13575,"ä½Ľç¾ħ":13576,"ures":13577,"éīĽ":13578,"å¼ĹæĭīåŁº":13579,"éĻĿè¥¿":13580,"for":13581,"ä¸īåĲį":13582,"è¦ģåľ¨":13583,"åıĳæİĺ":13584,"åŁĥå¡ŀ":13585,"umb":13586,"æŁĲç¨®":13587,"ç¬¬åĽĽæ¬¡":13588,"ç«¶æĬĢ":13589,"AMD":13590,"Ġ2010":13591,"ä¸Ńå¤ĸ":13592,"ä¸Ńä¹¦":13593,"å¤§åľ°éľĩ":13594,"éĽ»æ¢¯":13595,"éŁ³éĢŁ":13596,"ents":13597,"ĠNational":13598,"ç¶Ńä¹Łç´į":13599,"ä¹ĭä¹ħ":13600,"æľĥä»¥":13601,"æľ¬çļĦ":13602,"å£«æŀĹ":13603,"æĿ±èı¯":13604,"èħķ":13605,"å¤ıä¾¯":13606,"ä¿Ĺç§°":13607,"åĢĸ":13608,"åĩºå®¶":13609,"ä¸»å¯¼":13610,"çī¹é»ŀ":13611,"éĩįå¤į":13612,"è¿°äºĨ":13613,"é©»åľ°":13614,"å¯ĦçĶŁ":13615,"è¾ħåĬ©":13616,"æ½ľèīĩ":13617,"æİ¨æ¸¬":13618,"æŃ·å¹´":13619,"è¯ºæĸ¯":13620,"å°¼äºŀå·ŀ":13621,"ä¿ĿåĬłåĪ©äºŀ":13622,"çļĦç¤¾æľĥ":13623,"å¹´æŃ£å¼ı":13624,"è¢«è®¤ä¸º":13625,"å¸ĤåĨħ":13626,"çī©æµģ":13627,"åŁİéĻħ":13628,"èĭ±å¯¸":13629,"å°¼è¥¿äºļ":13630,"åħ·å¤ĩ":13631,"éģĭåĭķçļĦ":13632,"é¡¯èĳĹ":13633,"çļĦæĪĲç¸¾":13634,"æķĺåĪ©äºŀ":13635,"å¤§å°ĩè»į":13636,"ä¸Ĭä¸Ģ":13637,"çŃīäººçļĦ":13638,"å§ĭæĸ¼":13639,"åĤ³è¼¸":13640,"ä»¥åıĬåľ¨":13641,"åħ«éģĶ":13642,"æľįè£ħ":13643,"æ¬Ĭå¨ģ":13644,"äºīè®º":13645,"æĹºè§Ĵ":13646,"å¬°åħĴ":13647,"éĩ£éŃļ":13648,"çİĭä¸ĸ":13649,"èı¸":13650,"åĪ¶åĵģ":13651,"arb":13652,"èĢĥéĩı":13653,"è³ĩæ·±":13654,"èģ²èª¿":13655,"èŃĺåĪ¥":13656,"å¹´åİ»ä¸ĸ":13657,"æĿ±æ¶Į":13658,"éģĭæ²³":13659,"è¬İ":13660,"æ½®æµģ":13661,"æº¶è§£":13662,"éĸ©åįĹèªŀ":13663,"ä¸İæŃ¤åĲĮæĹ¶":13664,"ä»£ç¢¼":13665,"é«ĺéºĹ":13666,"å§ĭç¥ĸ":13667,"ãģķ":13668,"åĢ¼çļĦ":13669,"è´¹çĶ¨":13670,"é¢Ħæµĭ":13671,"è¾Ľäº¥éĿ©åĳ½":13672,"çļĦå¥³æĢ§":13673,"èĢĮæĿ¥":13674,"åħ¶ä»ĸäºº":13675,"æĸĩåĮĸåĴĮ":13676,"ãĤ°":13677,"å°İé«Ķ":13678,"å°Īæ¬Ħ":13679,"è¾¯è«ĸ":13680,"é«ĺä¸½":13681,"ä½ĨåĽłçĤº":13682,"çķĮéĿ¢":13683,"äººæ°ĳå¹£":13684,"çĹħçļĦ":13685,"è¾ĥå¤§çļĦ":13686,"æ··ä¹±":13687,"ichard":13688,"æĮĸæİĺ":13689,"è³ĩæľ¬ä¸»ç¾©":13690,"yr":13691,"ĠæľĪ":13692,"åĴĮåħ¶":13693,"å¤ļå¾·":13694,"åįĹå±±":13695,"å±±å³°":13696,"äº¤äºĴ":13697,"ç½Ĺå¾·":13698,"çĳ¶":13699,"åıĪç¨±çĤº":13700,"ä»£è¡¨å¤§æľĥ":13701,"è¯¥å¸Ĥ":13702,"æ³¨éŁ³":13703,"Wh":13704,"çļĦè®¾è®¡":13705,"ä¹ĵ":13706,"æĹ¥åħĥ":13707,"ä¸īçŃī":13708,"åĮĸçĤº":13709,"åħ±æĮ¯":13710,"å®īæīĵ":13711,"çĶ¢çī©":13712,"ä¼¤äº¡":13713,"ä¸ĢæĻĤ":13714,"å¤§æ´ĭ":13715,"ĠMon":13716,"å¥¹æĺ¯":13717,"è®¤åı¯":13718,"åĽ¾çīĩ":13719,"æİĮç®¡":13720,"ney":13721,"ç©ºä¸Ńå·´å£«":13722,"å¡ŀå°Ķç»´äºļ":13723,"éĥ½ä»¥":13724,"åĽĽåĳ¨":13725,"å¾Īå®¹æĺĵ":13726,"æĹłäºº":13727,"å¯«çļĦ":13728,"é¥Ĵ":13729,"ç«ĭæ³ķå±Ģ":13730,"äººä½ĵ":13731,"ä¸įæĺĵ":13732,"åĩºæĿ¥çļĦ":13733,"èĢħçĤº":13734,"èĭ±ä¹Ŀ":13735,"ä¸»è¦ģä»¥":13736,"lect":13737,"å¤ĦçļĦ":13738,"App":13739,"æµĳ":13740,"åĬłçĪ¾":13741,"ĠAg":13742,"å¯Įè£ķ":13743,"éĢļè¿ĩäºĨ":13744,"ä¼įå¾·":13745,"ç±»ä¼¼äºİ":13746,"å¸ĸæľ¨":13747,"æµļ":13748,"è¾Ī":13749,"å¦Ħ":13750,"çĽ¸åĤ³":13751,"éĢĻåħ©":13752,"èģ¯æľĥ":13753,"çħ©":13754,"è´¨çĸĳ":13755,"è¿Ľè¡ĮçļĦ":13756,"éłĲè¨Ģ":13757,"éģ©çĶ¨æĸ¼":13758,"éļ¶å±ŀäºİ":13759,"æ³¨æĦıçļĦæĺ¯":13760,"å¹½é»ĺ":13761,"åľ¨æŃĲæ´²":13762,"åĬ¾":13763,"ç¾ħä¼¯çī¹":13764,"çĵ£":13765,"åĺ²":13766,"è§Ħå¾ĭ":13767,"å±ĤçļĦ":13768,"ize":13769,"åľ¨åľ°":13770,"å¤§æĪĺ":13771,"åħ¬å¯ĵ":13772,"å¾Ĺå¤ļ":13773,"çı¾çĤº":13774,"å°±è¯»":13775,"åıĥèŃ°éĻ¢":13776,"æĢ»è£ģ":13777,"çº§åĪ«":13778,"ç»´å¤ļ":13779,"æĳ©æ´Ľ":13780,"è¶³çĲĥä¿±ä¹Ĳéĥ¨":13781,"åĳ³éģĵ":13782,"å¤ĸäº¤å®ĺ":13783,"å¹´æĸ¼":13784,"ä»¥ä¸ľ":13785,"èĩªåı¤":13786,"åıįæĶ»":13787,"æĶ¯éĥ¨":13788,"åĩĨç¡®":13789,"å®ģå¤ı":13790,"å£ĺæīĵ":13791,"çĪĽ":13792,"ãĥĬ":13793,"è½īåŀĭ":13794,"æĹĹå¸ľ":13795,"ç¸½çµ±åºľ":13796,"äººéĸĵ":13797,"çīº":13798,"çĽª":13799,"å£©":13800,"å¤©æīį":13801,"170":13802,"ç¬¬äºĮåĢĭ":13803,"ĠLife":13804,"è£¹":13805,"çĽ¸æ©Ł":13806,"åĨĽåľ¨":13807,"æ©Łæ§į":13808,"å¹¶è¢«":13809,"èĢĥåħ¥":13810,"è®¾åľ¨":13811,"çµĦç¹ĶçļĦ":13812,"UP":13813,"ä¸Ńåı¤":13814,"è¥ª":13815,"æıĲåıĸ":13816,"æīĺæ´Ľ":13817,"è¶³çĲĥèģ¯è³½":13818,"åĪĨå¸ĥäºİ":13819,"åĬłåĭĴæ¯Ķ":13820,"SL":13821,"æĸ©":13822,"æ³ķèĢģ":13823,"å·¥é»¨":13824,"é©¬åħ¶":13825,"é©¬èĲ¨":13826,"åĵĪå¯Ĩ":13827,"ç§»éĻ¤":13828,"åŁĥçĪ¾":13829,"ä¼ģåĽ¾":13830,"åĮ»èį¯":13831,"ĠInstit":13832,"èĳ¬æĸ¼":13833,"à¼":13834,"æĺ¯ç¾İåľĭ":13835,"å®ĺèĩ³":13836,"å®ĺè©±":13837,"æ³¢å¸Į":13838,"æ¶ĪçģŃ":13839,"æĻ®éĢļè¯Ŀ":13840,"åĮ£":13841,"æĸĩæ³ķ":13842,"åħ¶æīĢ":13843,"æ±Łæ¹ĸ":13844,"ä½ĵç§¯":13845,"çĶµç«Ļ":13846,"æ¯Ķè³½ä¸Ń":13847,"å®ļä¹īä¸º":13848,"ĠEng":13849,"ambridge":13850,"OT":13851,"åĴĮæ°´":13852,"æĶ¿åı¸":13853,"åŃ¸æ´¾":13854,"éĺİ":13855,"ç±»çļĦ":13856,"åĲīéļĨ":13857,"çĪŃè«ĸ":13858,"å¥ĸå¾Ĺä¸»":13859,"è®²è¯Ŀ":13860,"ï¼ħï¼Į":13861,"è«¸èĳĽäº®":13862,"ä¸Ńå£¢":13863,"åľ¨å®¶":13864,"ä¾Ĺ":13865,"ä¸ĭåı°":13866,"æºī":13867,"ä¿Ħäº¥":13868,"åŃ¸çĶŁæľĥ":13869,"ãĢıï¼Į":13870,"æĩ·åŃķ":13871,"æĭĵå±ķ":13872,"irect":13873,"åĲŁ":13874,"ä¸Ģå¾ĭ":13875,"è¢«æ®º":13876,"æķĻå®¤":13877,"åĲİä¸ĸ":13878,"åĬłå¯Ĩ":13879,"èĤ¿":13880,"å¼Ģå§ĭäºĨ":13881,"ä¿Ħäº¥ä¿Ħ":13882,"737":13883,"kg":13884,"Ġz":13885,"åħĢ":13886,"åŃ¸èªª":13887,"hed":13888,"éĢĢä½į":13889,"éģ©çķ¶":13890,"å¹´è¡¨":13891,"æĪ°ç¸¾":13892,"èĦ¸":13893,"çľĭåĩº":13894,"éĩİæĪĺ":13895,"çŁŃæļĤ":13896,"è·Ŀä»Ĭ":13897,"ç¡®ä¿Ŀ":13898,"æģĲæĩ¼":13899,"çļĦç¬¬ä¸Ģä¸ª":13900,"åŃ¸åľĴ":13901,"é¢ĸ":13902,"éĩįçµĦ":13903,"å¤§åŃ¦æł¡åıĭ":13904,"æĿĳèĲ½":13905,"èİ·åıĸ":13906,"éĢ²è¡ĮçļĦ":13907,"çªģæĵĬ":13908,"é©¬åħ¶é¡¿":13909,"230":13910,"cess":13911,"äººåĲį":13912,"åĪĨå±Ģ":13913,"é¦¬ä¸ģ":13914,"è£ģå®ļ":13915,"é©ħåĭķ":13916,"ä¹ĭæĺŁ":13917,"ä»ĸä¸º":13918,"éĩįè¤ĩ":13919,"æĬĹæĪ°":13920,"åĦªæĥł":13921,"è¯Ħä¸º":13922,"éĺ¿æĭīæĸ¯":13923,"è¿ĳå¹´æĿ¥":13924,"iction":13925,"Ġ1999":13926,"æ°¦":13927,"èĪĨ":13928,"æĪĲåĲīæĢĿ":13929,"éĹĸ":13930,"åīįéĢ²":13931,"è£Ļ":13932,"å¹³å£¤":13933,"é¦ĸé¢Ĩ":13934,"åĵģç¨®":13935,"æĶ¯åĩº":13936,"æĿ¡ä¾ĭ":13937,"ç«ŀéĢī":13938,"çĲĨäºĭä¼ļ":13939,"æ£īèĬ±":13940,"éļķçŁ³":13941,"åľ¨èĭ±åĽ½":13942,"äººæ°£":13943,"æ²¸":13944,"ç¥ļ":13945,"æĶ¹éĢ²":13946,"è¿İæİ¥":13947,"éĺĲ":13948,"äºĮæľŁ":13949,"åĮºéĹ´":13950,"åĽŀåºĶ":13951,"ç¯ĢæĹ¥":13952,"æ¹¿åľ°":13953,"LL":13954,"æľīè®¸å¤ļ":13955,"æľ¬çīĩ":13956,"åıĳéĢģ":13957,"éģİæ¸¡":13958,"åĽŀå½Ĵ":13959,"åħµåľĺ":13960,"ä¹¦åĨĻ":13961,"ç»´çī¹":13962,"ä¹ĭåĲİçļĦ":13963,"ĠSociety":13964,"çļĦåĨħå®¹":13965,"ä½¬":13966,"æľĪä¸ĭæĹ¬":13967,"æĶ¹æĪĲ":13968,"ĠAb":13969,"ĠBr":13970,"èŃ¦åĵ¡":13971,"æľīåĽĽ":13972,"åľĭä¸Ń":13973,"åĵ©":13974,"âĢĿï¼īãĢĤ":13975,"è¿Ļä¸¤ä¸ª":13976,"çı¾åŃĺ":13977,"æĦıåľĸ":13978,"æµģç¨ĭ":13979,"åĻ¬":13980,"å¡ŀçĲī":13981,"å¼ºå¤§çļĦ":13982,"æĳ©å¤©":13983,"çļĦçī¹èī²":13984,"å¤©æĸĩåŃ¦å®¶":13985,"ä¹Ĵä¹ĵ":13986,"åıĬé¦Ļæ¸¯":13987,"é«ĺæ£ī":13988,"åŃĹåħ¸":13989,"æĽ¸æ³ķ":13990,"ç¸£éķ·":13991,"éĦīæĿĳ":13992,"çĦ¶èĢĮåľ¨":13993,"å®ĩæĸĩ":13994,"ä¼ģæ¥Ńå®¶":13995,"çļĦéĸĭ":13996,"ä¿¾":13997,"åħ¥åľį":13998,"éħī":13999,"å¹¶ä¸İ":14000,"ç¾¤çļĦ":14001,"ä½İåľ°":14002,"çĶ²åŁº":14003,"è¶³çĲĥè³½":14004,"å¤ľéĸĵ":14005,"æ±ĹåĽ½":14006,"é¯Ĭ":14007,"èĪŀåı°åĬĩ":14008,"rary":14009,"å¹´åĬłåħ¥":14010,"åľ°äºļ":14011,"èĪĩä¸Ńåľĭ":14012,"ä»İæľª":14013,"çªĿ":14014,"åĳĪçİ°":14015,"åĲ¯çĶ¨":14016,"è¶¨åĭ¢":14017,"æĺĶæĹ¥":14018,"éª¨éª¼":14019,"çļĦè¡ĮæĶ¿":14020,"çļĦçĽ®çļĦ":14021,"å°§":14022,"æĸ¯åľ¨":14023,"åĬłå°Ķ":14024,"åĬłå¿«":14025,"éķ¿å¾ģ":14026,"åĥµ":14027,"èĸ°":14028,"åħħæ»¡":14029,"æ¥ļåĽ½":14030,"æĭĽæĶ¶":14031,"å½¼å¾Ĺåł¡":14032,"èĦĬæ¤İ":14033,"EV":14034,"ta":14035,"åĮ¾":14036,"ä½įåľ¨":14037,"åĬ¨æľº":14038,"åĬ¨æĢģ":14039,"çİĩçļĦ":14040,"ĠDr":14041,"å¤´è¡Ķ":14042,"æ¶µèĵĭ":14043,"ç´Ĺ":14044,"åı°æĿ±":14045,"åĵĪèĲ¨åħĭ":14046,"éŁ³æ¨Ĥå®¶":14047,"iver":14048,"åĲ¦èªį":14049,"æİ¢éļª":14050,"åħħè¶³":14051,"åŁ¹è®Ń":14052,"é¡įå¤ĸ":14053,"ä¸Ńä½¿çĶ¨":14054,"åŃĲå¼Ł":14055,"1848":14056,"éŁ³èĬĤ":14057,"115":14058,"æĿİå®Ĺ":14059,"çħİ":14060,"è½īéģĭ":14061,"è²¡å¯Į":14062,"1886":14063,"çļĦé«ĺåº¦":14064,"Ġ/*":14065,"ä¼Łå¤§çļĦ":14066,"åľ¨éĤ£éĩĮ":14067,"Ġ1998":14068,"çļĦè¡Įä¸º":14069,"ä¹ĭéģĵ":14070,"å¤ļèĬ¬":14071,"èĪĩç¾İåľĭ":14072,"ä¼ļè¢«":14073,"æ°´æĻ¶":14074,"æ±īåı£":14075,"å¡ŀæĭľ":14076,"ä¸ĵåĪ©":14077,"åĲģ":14078,"ä¹ĭç¥ŀ":14079,"å§ĭå»ºäºİ":14080,"æ¨Ļé¡Į":14081,"çĶ²éª¨":14082,"èłŁ":14083,"åī©ä½Ļ":14084,"å°±æŃ¤":14085,"ision":14086,"æ§Ł":14087,"è¼ĥå¤ļ":14088,"é¢ĺæĿĲ":14089,"ç¤¾æľĥçļĦ":14090,"çĽİ":14091,"æµĨ":14092,"éĥ¨ä»¶":14093,"æĸ¯å¾·":14094,"æĸ°åı°å¹£":14095,"ä¹Łç§°":14096,"ç¥¸":14097,"ä¼łéĢĴ":14098,"æī¿åıĹ":14099,"å®®å´İ":14100,"å¿ĥçĲĨåŃ¸":14101,"ternet":14102,"æł½åŁ¹":14103,"åľ¨çº¿":14104,"å¾Įæĸ¹":14105,"è¥¿éĸĢ":14106,"éĤ¢":14107,"æ£ĺ":14108,"çļĦä¸ĢåĪĩ":14109,"æŀ¶æŀĦ":14110,"éĳĴ":14111,"é©±åĬ¨":14112,".ï¼ī":14113,"</":14114,"work":14115,"æľĥç¤¾":14116,"ç¶¾":14117,"å·¥ä¼ļ":14118,"èĻĶ":14119,"æĺİæľ«":14120,"æ¯Ķèµ·":14121,"åıĥçľĭ":14122,"åįĬå¾ĳ":14123,"ĠLive":14124,"æĳ©æĵ¦":14125,"çłģå¤´":14126,"æ³¨æĦıåĪ°":14127,"ãĢīãĢģãĢĪ":14128,"HD":14129,"åľ¨åħ¨çĲĥ":14130,"è®½":14131,"åİ¢":14132,"ä¹ĭå½¹":14133,"éĩĳåĪļ":14134,"è¿ĽåĪ¶":14135,"åħ«å¤§":14136,"ĠMc":14137,"èĪ¬çļĦ":14138,"çº³å¾·":14139,"æĭħå¿ĥ":14140,"æĵ´åħħ":14141,"Ġclass":14142,"èĭ±éİĬ":14143,"ä¿¡å¿ĥ":14144,"åħ°å·ŀ":14145,"åĬĩéĻ¢":14146,"éĽĦæĢ§":14147,"èı²å°Ķå¾·":14148,"rich":14149,"ä¸įä¸Ģå®ļ":14150,"çĲĥåľº":14151,"1867":14152,"å¤ªåı¤":14153,"æĹłéĻĲ":14154,"omas":14155,"280":14156,"é¢Ħç®Ĺ":14157,"èĪīè¾¦çļĦ":14158,"æ©ŁåĻ¨äºº":14159,"æīĢéľĢçļĦ":14160,"ĠÃĹ":14161,"çļĦå¦»åŃĲ":14162,"ä¸Ĭåı°":14163,"æĽ¸å±Ģ":14164,"ĠLove":14165,"åģľæĴŃ":14166,"åĽºå®ļçļĦ":14167,"ç§ĳåŃ¦ä¸İ":14168,"width":14169,"çļĦåı¤":14170,"æĥ¹":14171,"åĿł":14172,"æĵļé»ŀ":14173,"å¢ĵåľ°":14174,"æĦ¿æĦı":14175,"æ¿ĥåº¦":14176,"ä¸Ģä¸Ń":14177,"åħĭçĪ¾":14178,"æĺİå°¼":14179,"ä¿Ŀå®ļ":14180,"å®Įé¡ı":14181,"éĢ£ä¸²":14182,"è§Ģçľĭ":14183,"åįķä¸Ģ":14184,"hann":14185,"æľĢå¾ĮçļĦ":14186,"éĢĥå¾Ģ":14187,"èĭ±å±¬":14188,"çĶµä¿¡":14189,"çĪµä½į":14190,"èľĺ":14191,"åĬłåĪ©ç¦ıå°¼äºļ":14192,"éĽ²æŀĹç¸£":14193,"æĳ©æ´Ľåĵ¥":14194,"NT":14195,"ven":14196,"Ġï¼į":14197,"æĹ¥çĶ±":14198,"èŃ´":14199,"èĲĥ":14200,"çĽ¸æľº":14201,"åİŁæĸĩ":14202,"åĤį":14203,"åħĪéĢ²":14204,"æ´¾åħµ":14205,"æ¿Ģåħī":14206,"åĽ½åĬ¡éĻ¢æī¹åĩĨ":14207,"ç©©å®ļçļĦ":14208,"åĲĪå¹¶ä¸º":14209,"oid":14210,"äºĨåħ¶":14211,"inn":14212,"éľĨ":14213,"è£½çīĩ":14214,"åī¯ä¹¦è®°":14215,"èĳ¡èĲĦéħĴ":14216,"ç±»ä¼¼çļĦ":14217,"ä½ľæ¥Ńç³»çµ±":14218,"çļĦåŃ¦çĶŁ":14219,"åľ¨æĹ¥":14220,"åĨĽäºº":14221,"ãĥł":14222,"å¤«å¦ĩ":14223,"ĠMat":14224,"æīįæľĥ":14225,"osh":14226,"ters":14227,"å¤§äºİ":14228,"å°ıå·´":14229,"åīµæĦı":14230,"ä¼ĳéĸĴ":14231,"çĶ¢çĶŁäºĨ":14232,"æĻ®éĢļè©±":14233,"æĿ¥èĩªäºİ":14234,"PP":14235,"çļĦM":14236,"çļĦèĩªçĦ¶":14237,"ä¸Ģåı·":14238,"åħ¨éĽĨ":14239,"åķĬ":14240,"çłĮ":14241,"ä¸¦æľī":14242,"åĲĦçº§":14243,"ãĥĸ":14244,"ĠMusic":14245,"å¼·å¤§":14246,"å¥īå¤©":14247,"åı±åĴ¤æ¨Ĥå£ĩ":14248,"Ab":14249,"ä¸įæķµ":14250,"å±±æľ¬":14251,"éľ¹":14252,"æµģæĺŁ":14253,"å¨Ħ":14254,"éĹľèģ¯":14255,"ãĢīï¼ĮãĢĬ":14256,"éĻ°éĻ½":14257,"è´§çī©":14258,"é¡ŀä¼¼çļĦ":14259,"å®ł":14260,"åľ¨åħ¶ä»ĸ":14261,"å¥³æĢ§çļĦ":14262,"ales":14263,"äºĶåįĥ":14264,"1600":14265,"ä¼łåħ¥":14266,"ä»£è¡¨åĽ¢":14267,"æ¶ĪåĮĸ":14268,"èĭ¥æľĽ":14269,"ç«¥å¹´":14270,"ä½Ķæĵļ":14271,"ä¸¦ä¸Ķåľ¨":14272,"ua":14273,"å¹´ä»¥åīį":14274,"åľ¨åħ§çļĦ":14275,"å¤§åĮº":14276,"ä¸įçĽ¸":14277,"çĶŁæĦı":14278,"æīĢçĶŁ":14279,"è·¯çĶ±":14280,"è·¯ç«Ļ":14281,"æĮĩè²¬":14282,"æ¸ħåĪĿ":14283,"çĶµæ±ł":14284,"ç´ļçļĦ":14285,"æģ©æĸ¯":14286,"å®ĮæĪĲçļĦ":14287,"èİīäºŀ":14288,"éĻ°è¬Ģ":14289,"å¯ĴåĨ·":14290,"la":14291,"åħ¬æ¼Ķ":14292,"åĪĨéĸĭ":14293,"åı£å¾ĳ":14294,"æł¼å±Ģ":14295,"éģ¸æ°ĳ":14296,"çŃĸåĬĥ":14297,"éłĲéĺ²":14298,"æ¬£è³ŀ":14299,"ä¿Ŀå®Īé»¨":14300,"æĶ¹åĪ¶çĤº":14301,"Col":14302,"åĩºæĸ¼":14303,"inese":14304,"æīĭæľº":14305,"éĴĻ":14306,"ä½ĲèĹ¤":14307,"çĤ®åħµ":14308,"çĦ¡ç·ļéĽ»":14309,"æĹıèĩªæ²»åİ¿":14310,"çľ¾èŃ°éĻ¢èŃ°åĵ¡":14311,"ze":14312,"ï¼ĪâĢľ":14313,"åįĹéŁĵ":14314,"å±±ä¸ĭ":14315,"åı²åīį":14316,"éĺ¿åŁº":14317,"æĽ¾çĤº":14318,"å¯¦é«Ķ":14319,"ä½įäºİä¸ŃåĽ½":14320,"æİĮæİ§":14321,"ç¬¬ä¸ĥæ¬¡":14322,"ĠArt":14323,"ãĢįãĢĮ":14324,"æµ·åı£":14325,"ä¸Ńåľĭäººæ°ĳ":14326,"åıĥèĢĥä¾ĨæºĲ":14327,"çīĽèĤī":14328,"å°ºåº¦":14329,"åĲīæŀĹçľģ":14330,"åĴĮç¤¾ä¼ļ":14331,"åľĭåħ±":14332,"èĩªè´¡":14333,"çĽ®çļĦåľ°":14334,"å®ĹæĹ¨":14335,"åªĽ":14336,"è¯¸å¤ļ":14337,"çĶµåŃĲæ¸¸æĪı":14338,"å®ļç¾©çĤº":14339,"è³¦äºĪ":14340,"èªħ":14341,"å·²æķħ":14342,"æħĮ":14343,"çĻ¾äºº":14344,"å®¹åĻ¨":14345,"çĩŁé¤Ĭ":14346,"å»¶éķ¿":14347,"é¢ĳç¹ģ":14348,"å¢ĥåĨħçļĦ":14349,"åıĭå¥½åŁİå¸Ĥ":14350,"å¤¥ä¼´":14351,"çļĦéľĢæ±Ĥ":14352,"ä»Ĩ":14353,"ç»ĳ":14354,"æĺİçıł":14355,"ç¥ŀå®Ĺ":14356,"çĻ¾æµİ":14357,"å°ģéĸī":14358,"éłĲåĤĻ":14359,"é£İæĻ¯åĲįèĥľ":14360,"èľĺèĽĽ":14361,"mo":14362,"åĮĹæ¥µ":14363,"ä¸īç§į":14364,"çĲĨåŃ¦":14365,"åĭķå·¥":14366,"è«ľ":14367,"æ³¢å¾·":14368,"è«ĸè¿°":14369,"éª¸":14370,"å°Ħæīĭ":14371,"æĿĥå¨ģ":14372,"ç§ŁåĢŁ":14373,"çļĦç´ĢéĮĦ":14374,"ä¸Ńæĸ¹":14375,"æĺ¯ä½įæĸ¼":14376,"ä¹ĭå¿ĥ":14377,"å¾ĮåĽł":14378,"å¤©æ©ĭ":14379,"æ°´éĿ¢":14380,"å·´å¸ĥ":14381,"è¿Ľåı£":14382,"çłĶåĪ¶":14383,"åħŃåĢĭ":14384,"ç¦ıåħĭ":14385,"è´Łè´£äºº":14386,"åĸªå¤±":14387,"å®īä¸ľå°¼":14388,"ck":14389,"çĤºæľŁ":14390,"åįĹç¾İæ´²":14391,"è´¬":14392,"é¦Ļæ¸¯äºº":14393,"è£½çļĦ":14394,"èµĦåĬ©":14395,"å§Ķåĳĺéķ¿":14396,"éĴ¢éĵģ":14397,"mall":14398,"1864":14399,"çĿ¦":14400,"ä¸Ńå¤®çĶµè§Ĩåı°":14401,"çļĦä¸Ģéĥ¨ä»½":14402,"è¦ĭåĪ°":14403,"è¡Ľè¦ĸ":14404,"åĨľåľº":14405,"æ»ĳåĨ°":14406,"çģĮæºī":14407,"Tw":14408,"å¹´é¦ĸæ¬¡":14409,"ç¾ŀ":14410,"ä¹ĭçİĭ":14411,"èģª":14412,"åĲĮçĤº":14413,"çĽ¸éĤ»":14414,"æŃ£æķĻ":14415,"æĪĺèĥľ":14416,"èĬĤæĹ¥":14417,"adio":14418,"ebook":14419,"åľ¨åĨħ":14420,"åĴĮé«ĺ":14421,"åģķ":14422,"ä»ĸä»¬åľ¨":14423,"1891":14424,"illa":14425,"ç¤ºå¨ģèĢħ":14426,"))":14427,"ä¹ĭç§°":14428,"æ¸¯åįĢ":14429,"æ¸¯åºľ":14430,"æ°´åº«":14431,"å±Ģå±Ģéķ·":14432,"ä»ħæľī":14433,"çĽ¸ä¼¼çļĦ":14434,"æĭĺæįķ":14435,"æĪĲåĲīæĢĿæ±Ĺ":14436,"Ne":14437,"åį¯":14438,"ä¸įç®¡":14439,"ãĢĭï¼ļãĢĮ":14440,"æĬ¨":14441,"é£¼":14442,"å±ħæĸ¼":14443,"éĲ¸":14444,"els":14445,"çļĦäººå£«":14446,"éįĬ":14447,"è¯»èĢħ":14448,"å¥ªåıĸ":14449,"æ±Ĺåľĭ":14450,"å»¶ä¼¸èĩ³":14451,"å¹Ł":14452,"æ²§":14453,"å¤ĸæĺŁ":14454,"1878":14455,"å¼Ģå°ģ":14456,"çĽ´éĢļ":14457,"èı¯åĥĳ":14458,"åĪ¤æĸŃ":14459,"ç»§ä»»":14460,"çĻ¼çĶŁçļĦ":14461,"1881":14462,"æĤ£æľī":14463,"èŃ½çĤº":14464,"CM":14465,"å·³":14466,"æĸ¯éłĵ":14467,"èĢĮä¸Ĭ":14468,"çī¹äº§":14469,"åİŁèĳĹ":14470,"èĭ±ç¾İ":14471,"ä¾Ŀæ¬¡":14472,"omic":14473,"ç¼ĸåĪ¶":14474,"æĳ©å°Ķ":14475,"åĪ¶åº¦çļĦ":14476,"åįļçī©éĻ¢":14477,"åĲīéļĨåĿ¡":14478,"å¤§åŁİå¸Ĥ":14479,"ç¬Ļ":14480,"èĩªæĹĭ":14481,"éĽĨçµĲ":14482,"åį¡æ´Ľæĸ¯":14483,"é©¬åĵĪ":14484,"åħĪçŁ¥":14485,"æĶ¶è´¹":14486,"è¯Ħä¼°":14487,"æĥ¡åĮĸ":14488,"ä¿Ŀå®Īæ´¾":14489,"No":14490,"ä¸»åĬŀ":14491,"ç¾İå¼ı":14492,"éĩĮæĺĤ":14493,"æ¼Ķè®Ĭ":14494,"ä¸ľäºļ":14495,"å¤ªå¤ļ":14496,"åħīåŃ¦":14497,"æ°ıçļĦ":14498,"ä¸ģçĽ®":14499,"åī§æľ¬":14500,"å®ĹæķĻä¿¡ä»°":14501,"äº®çļĦ":14502,"éĽĨåĽ¢åĨĽ":14503,"ï¼ħãĢĤ":14504,"åīĳæ¡¥":14505,"åıĻåĪ©äºļ":14506,"å¤§æ²³åĬĩ":14507,"ean":14508,"ä¸īæ°ĳ":14509,"æīĢä½ľ":14510,"ç®ķ":14511,"æİ¥æīĭ":14512,"å·´å°¼äºŀ":14513,"åıĪä»¥":14514,"æĸ°ç«¹ç¸£":14515,"æľīç·ļéĽ»è¦ĸ":14516,"åħ§æĶ¿éĥ¨":14517,"%ãĢģ":14518,"OW":14519,"åĴĮä¸Ģ":14520,"åĴĮéĺ¿":14521,"åľĭèģ¯":14522,"çĶŁä¸ĭ":14523,"æĸ¹éĴĪ":14524,"å¤©æ°Ķ":14525,"å·¥éĥ¨":14526,"åĽŀåľĭ":14527,"çĳ¾":14528,"èªªè©±":14529,"æłĩè®°":14530,"éĪĶ":14531,"çŀ»":14532,"1874":14533,"è¢ģä¸ĸåĩ¯":14534,"çļĦä»£":14535,"å»ĵ":14536,"è¢«è§Ĩä¸º":14537,"ä¸ĭè¼ī":14538,"éĸĭéĢļ":14539,"éĢ²é§Ĳ":14540,"åľºæĻ¯":14541,"çģ«è½¦":14542,"è¯ºå¤«":14543,"è¯»ä¹¦":14544,"å¹´ä»¥ä¾Ĩ":14545,"åľ¨æµ·":14546,"äººæľī":14547,"å°įä»ĸ":14548,"çķ¶åĪĿ":14549,"æķ°åįģ":14550,"çĴ§":14551,"èĩºçģ£éĲµè·¯":14552,"æĺ¯ä¸Ģéĥ¨":14553,"æªĲ":14554,"å¤ªéĻ½ç³»":14555,"BSD":14556,"ä¸»çļĦ":14557,"çĻ¸":14558,"ä¸īéĥİ":14559,"ç·Ŀ":14560,"å®īå¹³":14561,"æŃ£å¦Ĥ":14562,"é£²æĸĻ":14563,"ray":14564,"å¹´åħ¥":14565,"æĥ©":14566,"åĬĽåĴĮ":14567,"1862":14568,"åĽĽéĿ¢":14569,"ç·ļæĢ§":14570,"æ´ĭåŁº":14571,"çĶ²çµĦ":14572,"åľ°çĲĥçļĦ":14573,"å¹¹éĥ¨":14574,"æ½Ľèīĩ":14575,"æĳĩæ»ļ":14576,"éĻĩ":14577,"ena":14578,"å½ĵåīį":14579,"ä¿®è®¢":14580,"ä¾ĭå¦Ĥåľ¨":14581,"å¼ºçļĦ":14582,"ç§¦æľĿ":14583,"çĶļèĩ³æĺ¯":14584,"å§Ķåĵ¡æľĥå§Ķåĵ¡":14585,"è¬Ģæ®º":14586,"æĲ¬åĪ°":14587,"å¹´å»ºç«ĭçļĦæķĻèĤ²æ©Łæ§ĭ":14588,"site":14589,"1875":14590,"éŁ³çļĦ":14591,"è¿ĩçļĦ":14592,"çµĲçĽŁ":14593,"Ġcomp":14594,"Ġsp":14595,"oul":14596,"oot":14597,"uth":14598,"æĪĲä»½":14599,"ä¸ĬéĻ£":14600,"æ´½":14601,"éĹµ":14602,"éĥ½æ²Ĵæľī":14603,"åıĳèĤ²":14604,"åı¦ä¸Ģç§į":14605,"èĵĿèī²":14606,"é¦¨":14607,"æ³ķåŃ¦":14608,"è¥¿æ¯Ķ":14609,"æĮĿ":14610,"è¢«ä¿ĺ":14611,"æŃ£çµ±":14612,"äº¦åį³":14613,"ä¿®è¡Į":14614,"å¼ºåº¦":14615,"æ¸©å·ŀ":14616,"åĩºçİ°çļĦ":14617,"ç·´ç¿Ĵ":14618,"èĩ³ä»Ĭä»į":14619,"æĢªçį¸":14620,"1876":14621,"ç½ķè¦ĭ":14622,"çļĦå¥³åĦ¿":14623,"å®ĩèĪªåĳĺ":14624,"æµıè§Ī":14625,"Ã¨":14626,"è¥¿åįĢ":14627,"1861":14628,"æŃ£å¥½":14629,"æ»¬":14630,"ç¬¬ä¸Ģå±Ĭ":14631,"é¤ĵ":14632,"çĶŁçī©åŃ¸":14633,"uck":14634,"Unicode":14635,"å¸ĥæĭīæł¼":14636,"å¤ļå°Ķ":14637,"åħ¨æĹ¥":14638,"æĺİçĻ½":14639,"isp":14640,"åħ«è·¯åĨĽ":14641,"çº³ç±³":14642,"åİĨåı²æĸĩåĮĸ":14643,"è¾Ńåİ»":14644,"éºµåĮħ":14645,"çļĦæĢ»":14646,"çļĦåĦ¿åŃĲ":14647,"æĺ¯ä¸ª":14648,"çī©è³ĩ":14649,"ç·»":14650,"1850":14651,"éĺ¿åįľ":14652,"ãĢĭï¼Īï¼īï¼Į":14653,"æ°¸è¿ľ":14654,"èĳ£äºĭéķ¿":14655,"å·ĸ":14656,"ä¸įåĲ«":14657,"åĪ°åºķ":14658,"åħ¨å®¶":14659,"ç¦º":14660,"åĲĳä¸ľ":14661,"åĲĦå·ŀ":14662,"ä¸¤æĿ¡":14663,"å°Īç§ĳ":14664,"ç§¦åĽ½":14665,"ç´°ç¯Ģ":14666,"è®¾è®¡çļĦ":14667,"é«ĺéĢŁéĵģè·¯":14668,"order":14669,"çļĦéĩįè¦ģæĢ§":14670,"å°ĺ":14671,"éĸı":14672,"åħ¨åĬĽ":14673,"æĥ§":14674,"ç¸«":14675,"å¸¸åĭĻ":14676,"æīĭä¸ĭ":14677,"éĢ²åı£":14678,"åĲĦæĸ¹":14679,"èĩ´åĳ½":14680,"éĴ»":14681,"å·®åĪ¥":14682,"çĢ¾":14683,"Ġwidth":14684,"éĥĬåĮº":14685,"å¾·å·Ŀå®¶åº·":14686,"èĨ¨èĥĢ":14687,"ei":14688,"ä»Ħ":14689,"åľ¨è¿ĻéĩĮ":14690,"äºĨå¤§éĩı":14691,"çŁ³çģ°":14692,"åįİåįĹ":14693,"æĶ¶çĽĬ":14694,"éĢ£éİĸ":14695,"æ¸©å¸¦":14696,"Ġsh":14697,"çĩĥçĥ§":14698,"åĲĮæĢ§æģĭ":14699,"211":14700,"SE":14701,"Î»":14702,"åľ¨åį°åº¦":14703,"åľ¨éĢĻåĢĭ":14704,"ç´¡":14705,"åħ¬æŃ£":14706,"å¤ļå¤«":14707,"æĺİå¾·":14708,"ä¸ľåĮĹéĥ¨":14709,"é¦¬èĭ±ä¹Ŀ":14710,"ç¯Ģåº¦ä½¿":14711,"è£½åĵģ":14712,"çĻ»è®°":14713,"æ¼¢æĹı":14714,"ç¾ħé¦¬å°¼äºŀ":14715,"ĠAnd":14716,"ç¶ľèĹĿç¯ĢçĽ®":14717,"uff":14718,"åľ¨ä¸ī":14719,"ä¸įé¡ĺ":14720,"è·¯çļĦ":14721,"éħļ":14722,"ala":14723,"åīĩæľĥ":14724,"æĶ»ä½Ķ":14725,"ĠGl":14726,"ä¸´åºĬ":14727,"éłĴå¸ĥ":14728,"æ»ĳéĽª":14729,"èŃ¦å¯Łå±Ģ":14730,"hys":14731,"å¯»æ±Ĥ":14732,"æĶ¶è¦ĸçİĩ":14733,"åľ¨æĶ¿æ²»":14734,"åĪĨçļĦ":14735,"çī¹èī²çļĦ":14736,"é«Ķé©Ĺ":14737,"å®¹è¨±":14738,"å¿ħéľĢ":14739,"éľįå¤«":14740,"ä½ĵèĤ²åľº":14741,"CPU":14742,"ç»´å¤ļåĪ©äºļ":14743,"Ġ25":14744,"ĠãĢīãĢĤ":14745,"å¹´å¹¼":14746,"èĩ¥":14747,"å°ıåŃ¸æł¡":14748,"åĤŃ":14749,"ãĥŁ":14750,"æ´ĭè¡Į":14751,"omb":14752,"é¶¯":14753,"åħ«éģĶéĢļ":14754,"380":14755,"OD":14756,"æĺ¯éĿŀ":14757,"ä¸Ĭåı¤":14758,"è¢«äºº":14759,"çī¹å°Ķ":14760,"çĦĬ":14761,"æµ·çļĦ":14762,"æīĭæ§į":14763,"ãĢįï¼ĮãĢĮ":14764,"å¹²éłĲ":14765,"çĲĨå·¥åŃ¦éĻ¢":14766,"èĭĹæłĹç¸£":14767,"åħ¬åĭĻåĵ¡":14768,"æĸĩæĽ¸":14769,"éĹ¡":14770,"å°įç«ĭ":14771,"å¸¸æķ¸":14772,"äºīåıĸ":14773,"å¾®åįļ":14774,"è±ĲçĶ°":14775,"åŁ¹è¨ĵ":14776,"äººé¡ŀçļĦ":14777,"åĨ²åĩ»":14778,"äººä¹Ł":14779,"éĩĮå¸Į":14780,"ä¹īåĬ¡":14781,"åħ¶ä¸Ńä»¥":14782,"åħ¸ç¤¼":14783,"æĪ´ç»´":14784,"å½©èĻ¹":14785,"è¿·ä½ł":14786,"åľĵå½¢":14787,"ç¬¬ä¸ĥæ¬¡åħ¨åĽ½äººåı£æĻ®æŁ¥":14788,"åĩºèº«çļĦ":14789,"çļĦåŁºç¡Ģä¸Ĭ":14790,"å¤©èĬ±":14791,"åħŃçĶ²":14792,"çģ«çĦ°":14793,"åħ¸ç±į":14794,"ç¿ĮæĹ¥":14795,"arles":14796,"èĻĲå¾ħ":14797,"å¹´çĲĥåŃ£":14798,"ä¸ŃåĽ½åĽ½æ°ĳåħļ":14799,"äººæ°ĳæ³ķéĻ¢":14800,"å©·":14801,"å°ģéĶģ":14802,"ello":14803,"åŁºç¡Ģä¸Ĭ":14804,"æ±¾":14805,"é©Ł":14806,"é¦ĸä¸ª":14807,"æ¿Ĵ":14808,"æĬĬä»ĸ":14809,"ular":14810,"çīºçī²":14811,"ï¼Į-{":14812,"åĩºèī²":14813,"å®¶åºĦ":14814,"æĸĩæĨĳ":14815,"åīįéĭĴ":14816,"1868":14817,"å³¨":14818,"çĻ½è©±":14819,"åªĴä»ĭ":14820,"ä¸Ńä¿¡":14821,"äººæł¼":14822,"å¾Įæīį":14823,"ç¸½åħ±":14824,"åĪĩå°Ķ":14825,"åģĩå¦Ĥ":14826,"éļİå±¤":14827,"éģ·ç§»":14828,"\"ãĢĤ":14829,"åľ¨çļĦ":14830,"ä¸įåĪĨ":14831,"è¥¿è¥¿éĩĮ":14832,"æĸ°ä»»":14833,"æķĻå°İ":14834,"éĩĳæĺŁ":14835,"ç«Ļèĩ³":14836,"æ¯ıå¹´çļĦ":14837,"å®¢ä¸²":14838,"ä¸ĩå¹³æĸ¹ç±³":14839,"ä¹ĲåĻ¨":14840,"èŃ·çħ§":14841,"æĻĤéĸĵçļĦ":14842,"CT":14843,"PR":14844,"æ³ķè¦ı":14845,"æŀķ":14846,"åĲĮæľĪ":14847,"çİĭæĿİ":14848,"åŃ£ç¯Ģ":14849,"éĨĭ":14850,"äºĭä»¶ä¸Ń":14851,"åĬīéĤ¦":14852,"çĤºä¸»çļĦ":14853,"IO":14854,"ä¸»ç·¨":14855,"ç¸½æĺ¯":14856,"æ»Ļè±Ĳ":14857,"è¡ŀ":14858,"æĶ¿åįĶ":14859,"åĮĹåįĢ":14860,"æĬĬå®ĥ":14861,"270":14862,"èķ´":14863,"å¤ºå¾Ĺ":14864,"ING":14865,"åĴĮæĸĩåĮĸ":14866,"æĿ¥çľĭ":14867,"éĴ§":14868,"è¾²åł´":14869,"äººæ°ĳæĶ¿åºľé§Ĳ":14870,"æ´¾åĩºæīĢ":14871,"éĺ¿åįľæĿľ":14872,"ger":14873,"å¹´è«¾è²ĿçĪ¾":14874,"ä½ľäºĨ":14875,"æľĢå¥½":14876,"ç¥ŀå¥Ī":14877,"ãĥĩ":14878,"æĽ´é«ĺçļĦ":14879,"åı°çģ£äºº":14880,"ãģ¡":14881,"ä¾Ŀæ³ķ":14882,"ç´¢çĵ¦":14883,"æĴ¤åĽŀ":14884,"åĪĳæ³ķ":14885,"è´§è¿Ĳ":14886,"å¾·åĭĴ":14887,"æ°´æºĲ":14888,"å¼ķè¿Ľ":14889,"åı·çļĦ":14890,"æį®è¯´":14891,"æĭīä¸ģåŃĹæ¯į":14892,"éĩĳåĥıçįİ":14893,"FA":14894,"å¹´ä»¥æĿ¥":14895,"å£Ł":14896,"åĮĸåŃ¸å®¶":14897,"æ¸ħåĨĽ":14898,"èĮĥçķ´":14899,"éĻµå¢ĵ":14900,"åĲĮæĹ¶ä¹Łæĺ¯":14901,"çģŃç»Ŀ":14902,"è¶ĭåĬ¿":14903,"æ¸¯å³¶ç¶«":14904,"ç¥ŀåľ£ç½Ĺé©¬å¸ĿåĽ½":14905,"ï¼īãĢĬ":14906,"è´ª":14907,"éģĵåħ·":14908,"èĻ¾":14909,"å®īåĢį":14910,"ä¸¦è¢«":14911,"è¿Ļæ®µ":14912,"ĠCar":14913,"æĩīä»ĺ":14914,"è¾ĥä½İ":14915,"Ġpl":14916,"åĲĪä½ľçļĦ":14917,"èµĦæľ¬ä¸»ä¹ī":14918,"âĺĨ":14919,"åľ¨ä¸ĢåĢĭ":14920,"ï¼ļï¼īï¼Į":14921,"æ²»éĢļ":14922,"æĹ¥æľ¬éĽ»è¦ĸåı°":14923,"çļĩå¤ªåŃĲ":14924,"æŁ¥çĪ¾æĸ¯":14925,"è½īæĴŃ":14926,"éłĲæľŁ":14927,
[...]
